<?xml version="1.0"?>
<MethodSetup Method="Category::BDTCategories">
  <GeneralInfo>
    <Info name="TMVA Release" value="4.2.1 [262657]"/>
    <Info name="ROOT Release" value="6.14/06 [396806]"/>
    <Info name="Creator" value="fournier"/>
    <Info name="Date" value="Mon Jun 24 20:49:22 2019"/>
    <Info name="Host" value="Darwin macitois21.cern.ch 18.0.0 Darwin Kernel Version 18.0.0: Wed Aug 22 20:13:40 PDT 2018; root:xnu-4903.201.2~1/RELEASE_X86_64 x86_64"/>
    <Info name="Dir" value="/Users/fournier/Analyse/bdt"/>
    <Info name="Training events" value="156330"/>
    <Info name="TrainingTime" value="1.29865408e+01"/>
    <Info name="AnalysisType" value="Classification"/>
  </GeneralInfo>
  <Options>
    <Option name="V" modified="No">False</Option>
    <Option name="VerbosityLevel" modified="No">Default</Option>
    <Option name="VarTransform" modified="No">None</Option>
    <Option name="H" modified="No">False</Option>
    <Option name="CreateMVAPdfs" modified="No">False</Option>
    <Option name="IgnoreNegWeightsInTraining" modified="No">False</Option>
  </Options>
  <Variables NVar="7">
    <Variable VarIndex="0" Expression="pTyy" Label="pTyy" Title="pTyy" Unit="" Internal="pTyy" Type="F" Min="2.41300419e-01" Max="1.16555176e+03"/>
    <Variable VarIndex="1" Expression="mW" Label="mW" Title="mW" Unit="" Internal="mW" Type="F" Min="1.49875259e+01" Max="2.01942978e+02"/>
    <Variable VarIndex="2" Expression="MefftopSM" Label="MefftopSM" Title="MefftopSM" Unit="" Internal="MefftopSM" Type="F" Min="9.11444702e+01" Max="1.01361609e+03"/>
    <Variable VarIndex="3" Expression="HTjets" Label="HTjets" Title="HTjets" Unit="" Internal="HTjets" Type="F" Min="9.11444702e+01" Max="2.54438818e+03"/>
    <Variable VarIndex="4" Expression="mindRbj" Label="mindRbj" Title="mindRbj" Unit="" Internal="mindRbj" Type="F" Min="3.83024037e-01" Max="3.94652534e+00"/>
    <Variable VarIndex="5" Expression="MefftopEx" Label="MefftopEx" Title="MefftopEx" Unit="" Internal="MefftopEx" Type="F" Min="4.44530874e-01" Max="9.43991280e+00"/>
    <Variable VarIndex="6" Expression="dRbW" Label="dRbW" Title="dRbW" Unit="" Internal="dRbW" Type="F" Min="5.57391718e-03" Max="8.16599083e+00"/>
  </Variables>
  <Spectators NSpec="1">
    <Spectator SpecIndex="0" Expression="EventNumberMod2" Label="EventNumberMod2" Title="EventNumberMod2" Unit="" Internal="EventNumberMod2" Type="F" Min="1.00000000e+00" Max="2.00000000e+00"/>
  </Spectators>
  <Classes NClass="2">
    <Class Name="Signal" Index="0"/>
    <Class Name="Background" Index="1"/>
  </Classes>
  <Transformations NTransformations="0"/>
  <MVAPdfs/>
  <Weights NSubMethods="2">
    <SubMethod Index="0" Method="BDT::BDTCat_1o2" Cut="(EventNumberMod2%2&gt;-0.5)&amp;&amp;(EventNumberMod2%2&lt;0.5)" Variables="pTyy:mW:MefftopSM:HTjets:mindRbj:MefftopEx:dRbW">
      <GeneralInfo>
        <Info name="TMVA Release" value="4.2.1 [262657]"/>
        <Info name="ROOT Release" value="6.14/06 [396806]"/>
        <Info name="Creator" value="fournier"/>
        <Info name="Date" value="Mon Jun 24 20:49:22 2019"/>
        <Info name="Host" value="Darwin macitois21.cern.ch 18.0.0 Darwin Kernel Version 18.0.0: Wed Aug 22 20:13:40 PDT 2018; root:xnu-4903.201.2~1/RELEASE_X86_64 x86_64"/>
        <Info name="Dir" value="/Users/fournier/Analyse/bdt"/>
        <Info name="Training events" value="78105"/>
        <Info name="TrainingTime" value="5.56178212e+00"/>
        <Info name="AnalysisType" value="Classification"/>
      </GeneralInfo>
      <Options>
        <Option name="V" modified="Yes">False</Option>
        <Option name="VerbosityLevel" modified="No">Default</Option>
        <Option name="VarTransform" modified="No">None</Option>
        <Option name="H" modified="Yes">False</Option>
        <Option name="CreateMVAPdfs" modified="No">False</Option>
        <Option name="IgnoreNegWeightsInTraining" modified="No">False</Option>
        <Option name="NTrees" modified="Yes">200</Option>
        <Option name="MaxDepth" modified="Yes">4</Option>
        <Option name="MinNodeSize" modified="Yes">5</Option>
        <Option name="nCuts" modified="Yes">100</Option>
        <Option name="BoostType" modified="Yes">AdaBoost</Option>
        <Option name="AdaBoostR2Loss" modified="No">quadratic</Option>
        <Option name="UseBaggedBoost" modified="No">False</Option>
        <Option name="Shrinkage" modified="No">1.000000e+00</Option>
        <Option name="AdaBoostBeta" modified="Yes">1.500000e-01</Option>
        <Option name="UseRandomisedTrees" modified="No">False</Option>
        <Option name="UseNvars" modified="No">3</Option>
        <Option name="UsePoissonNvars" modified="No">True</Option>
        <Option name="BaggedSampleFraction" modified="No">6.000000e-01</Option>
        <Option name="UseYesNoLeaf" modified="No">True</Option>
        <Option name="NegWeightTreatment" modified="No">inverseboostnegweights</Option>
        <Option name="Css" modified="No">1.000000e+00</Option>
        <Option name="Cts_sb" modified="No">1.000000e+00</Option>
        <Option name="Ctb_ss" modified="No">1.000000e+00</Option>
        <Option name="Cbb" modified="No">1.000000e+00</Option>
        <Option name="NodePurityLimit" modified="No">5.000000e-01</Option>
        <Option name="SeparationType" modified="Yes">giniindex</Option>
        <Option name="RegressionLossFunctionBDTG" modified="No">huber</Option>
        <Option name="HuberQuantile" modified="No">7.000000e-01</Option>
        <Option name="DoBoostMonitor" modified="No">False</Option>
        <Option name="UseFisherCuts" modified="No">False</Option>
        <Option name="MinLinCorrForFisher" modified="No">8.000000e-01</Option>
        <Option name="UseExclusiveVars" modified="No">False</Option>
        <Option name="DoPreselection" modified="No">False</Option>
        <Option name="SigToBkgFraction" modified="No">1.000000e+00</Option>
        <Option name="PruneMethod" modified="Yes">nopruning</Option>
        <Option name="PruneStrength" modified="No">0.000000e+00</Option>
        <Option name="PruningValFraction" modified="No">5.000000e-01</Option>
        <Option name="SkipNormalization" modified="No">False</Option>
        <Option name="nEventsMin" modified="No">0</Option>
        <Option name="UseBaggedGrad" modified="No">False</Option>
        <Option name="GradBaggingFraction" modified="No">6.000000e-01</Option>
        <Option name="UseNTrainEvents" modified="No">0</Option>
        <Option name="NNodesMax" modified="No">0</Option>
      </Options>
      <Variables NVar="7">
        <Variable VarIndex="0" Expression="pTyy" Label="pTyy" Title="pTyy" Unit="" Internal="pTyy" Type="F" Min="2.41300419e-01" Max="1.16555176e+03"/>
        <Variable VarIndex="1" Expression="mW" Label="mW" Title="mW" Unit="" Internal="mW" Type="F" Min="1.49875259e+01" Max="2.01942978e+02"/>
        <Variable VarIndex="2" Expression="MefftopSM" Label="MefftopSM" Title="MefftopSM" Unit="" Internal="MefftopSM" Type="F" Min="9.15108643e+01" Max="1.01129211e+03"/>
        <Variable VarIndex="3" Expression="HTjets" Label="HTjets" Title="HTjets" Unit="" Internal="HTjets" Type="F" Min="9.15108643e+01" Max="2.17699756e+03"/>
        <Variable VarIndex="4" Expression="mindRbj" Label="mindRbj" Title="mindRbj" Unit="" Internal="mindRbj" Type="F" Min="3.83024037e-01" Max="3.94652534e+00"/>
        <Variable VarIndex="5" Expression="MefftopEx" Label="MefftopEx" Title="MefftopEx" Unit="" Internal="MefftopEx" Type="F" Min="4.70035881e-01" Max="9.43991280e+00"/>
        <Variable VarIndex="6" Expression="dRbW" Label="dRbW" Title="dRbW" Unit="" Internal="dRbW" Type="F" Min="5.82191721e-03" Max="6.96816397e+00"/>
      </Variables>
      <Classes NClass="2">
        <Class Name="Signal" Index="0"/>
        <Class Name="Background" Index="1"/>
      </Classes>
      <Transformations NTransformations="0"/>
      <MVAPdfs/>
      <Weights NTrees="200" AnalysisType="0">
        <BinaryTree type="DecisionTree" boostWeight="1.0292398817495495e-01" itree="0">
          <Node pos="s" depth="0" NCoef="0" IVar="5" Cut="1.3581424951553345e+00" cType="0" res="-9.9000000000000000e+01" rms="0.0000000000000000e+00" purity="5.0000000000000000e-01" nType="0">
            <Node pos="l" depth="1" NCoef="0" IVar="-1" Cut="1.0119881439208984e+02" cType="1" res="-9.9000000000000000e+01" rms="0.0000000000000000e+00" purity="7.5925034284591675e-01" nType="1"/>
            <Node pos="r" depth="1" NCoef="0" IVar="2" Cut="1.3985316467285156e+02" cType="0" res="-9.9000000000000000e+01" rms="0.0000000000000000e+00" purity="4.0125933289527893e-01" nType="0">
              <Node pos="l" depth="2" NCoef="0" IVar="5" Cut="9.1275012493133545e-01" cType="0" res="-9.9000000000000000e+01" rms="0.0000000000000000e+00" purity="4.5577627420425415e-01" nType="0">
                <Node pos="l" depth="3" NCoef="0" IVar="4" Cut="8.9960998296737671e-01" cType="0" res="-9.9000000000000000e+01" rms="0.0000000000000000e+00" purity="4.9859809875488281e-01" nType="0">
                  <Node pos="l" depth="4" NCoef="0" IVar="-1" Cut="0.0000000000000000e+00" cType="1" res="-9.9000000000000000e+01" rms="0.0000000000000000e+00" purity="5.3256881237030029e-01" nType="1"/>
                  <Node pos="r" depth="4" NCoef="0" IVar="-1" Cut="0.0000000000000000e+00" cType="1" res="-9.9000000000000000e+01" rms="0.0000000000000000e+00" purity="3.4482061862945557e-01" nType="-1"/>
                </Node>
                <Node pos="r" depth="3" NCoef="0" IVar="-1" Cut="8.0898892879486084e-01" cType="0" res="-9.9000000000000000e+01" rms="0.0000000000000000e+00" purity="3.0443212389945984e-01" nType="-1"/>
              </Node>
              <Node pos="r" depth="2" NCoef="0" IVar="-1" Cut="1.2213996124267578e+02" cType="0" res="-9.9000000000000000e+01" rms="0.0000000000000000e+00" purity="2.5094869732856750e-01" nType="-1"/>
            </Node>
          </Node>
        </BinaryTree>
        <BinaryTree type="DecisionTree" boostWeight="9.6844017938449475e-02" itree="1">
          <Node pos="s" depth="0" NCoef="0" IVar="5" Cut="1.3581424951553345e+00" cType="0" res="-9.9000000000000000e+01" rms="0.0000000000000000e+00" purity="4.9443361163139343e-01" nType="0">
            <Node pos="l" depth="1" NCoef="0" IVar="-1" Cut="1.0119881439208984e+02" cType="1" res="-9.9000000000000000e+01" rms="0.0000000000000000e+00" purity="7.3992359638214111e-01" nType="1"/>
            <Node pos="r" depth="1" NCoef="0" IVar="2" Cut="1.3294711303710938e+02" cType="0" res="-9.9000000000000000e+01" rms="0.0000000000000000e+00" purity="4.0234839916229248e-01" nType="0">
              <Node pos="l" depth="2" NCoef="0" IVar="5" Cut="9.9134767055511475e-01" cType="0" res="-9.9000000000000000e+01" rms="0.0000000000000000e+00" purity="4.4106724858283997e-01" nType="0">
                <Node pos="l" depth="3" NCoef="0" IVar="1" Cut="1.1247541809082031e+02" cType="1" res="-9.9000000000000000e+01" rms="0.0000000000000000e+00" purity="4.9443134665489197e-01" nType="0">
                  <Node pos="l" depth="4" NCoef="0" IVar="-1" Cut="0.0000000000000000e+00" cType="1" res="-9.9000000000000000e+01" rms="0.0000000000000000e+00" purity="5.3461748361587524e-01" nType="1"/>
                  <Node pos="r" depth="4" NCoef="0" IVar="-1" Cut="0.0000000000000000e+00" cType="1" res="-9.9000000000000000e+01" rms="0.0000000000000000e+00" purity="3.7029340863227844e-01" nType="-1"/>
                </Node>
                <Node pos="r" depth="3" NCoef="0" IVar="-1" Cut="1.9610803222656250e+02" cType="1" res="-9.9000000000000000e+01" rms="0.0000000000000000e+00" purity="3.4782215952873230e-01" nType="-1"/>
              </Node>
              <Node pos="r" depth="2" NCoef="0" IVar="-1" Cut="1.2063824462890625e+02" cType="0" res="-9.9000000000000000e+01" rms="0.0000000000000000e+00" purity="2.3868021368980408e-01" nType="-1"/>
            </Node>
          </Node>
        </BinaryTree>
        <BinaryTree type="DecisionTree" boostWeight="8.9779489973477553e-02" itree="2">
          <Node pos="s" depth="0" NCoef="0" IVar="5" Cut="1.3581424951553345e+00" cType="0" res="-9.9000000000000000e+01" rms="0.0000000000000000e+00" purity="4.9207329750061035e-01" nType="0">
            <Node pos="l" depth="1" NCoef="0" IVar="-1" Cut="1.0119881439208984e+02" cType="1" res="-9.9000000000000000e+01" rms="0.0000000000000000e+00" purity="7.2084689140319824e-01" nType="1"/>
            <Node pos="r" depth="1" NCoef="0" IVar="2" Cut="1.4675920104980469e+02" cType="0" res="-9.9000000000000000e+01" rms="0.0000000000000000e+00" purity="4.0734651684761047e-01" nType="0">
              <Node pos="l" depth="2" NCoef="0" IVar="4" Cut="1.0287563800811768e+00" cType="0" res="-9.9000000000000000e+01" rms="0.0000000000000000e+00" purity="4.5941260457038879e-01" nType="0">
                <Node pos="l" depth="3" NCoef="0" IVar="1" Cut="5.6884124755859375e+01" cType="0" res="-9.9000000000000000e+01" rms="0.0000000000000000e+00" purity="4.9230477213859558e-01" nType="0">
                  <Node pos="l" depth="4" NCoef="0" IVar="-1" Cut="0.0000000000000000e+00" cType="1" res="-9.9000000000000000e+01" rms="0.0000000000000000e+00" purity="5.3012132644653320e-01" nType="1"/>
                  <Node pos="r" depth="4" NCoef="0" IVar="-1" Cut="0.0000000000000000e+00" cType="1" res="-9.9000000000000000e+01" rms="0.0000000000000000e+00" purity="3.1601107120513916e-01" nType="-1"/>
                </Node>
                <Node pos="r" depth="3" NCoef="0" IVar="-1" Cut="1.0230184173583984e+02" cType="1" res="-9.9000000000000000e+01" rms="0.0000000000000000e+00" purity="3.5869723558425903e-01" nType="-1"/>
              </Node>
              <Node pos="r" depth="2" NCoef="0" IVar="-1" Cut="1.2050237274169922e+02" cType="0" res="-9.9000000000000000e+01" rms="0.0000000000000000e+00" purity="3.0607560276985168e-01" nType="-1"/>
            </Node>
          </Node>
        </BinaryTree>
        <BinaryTree type="DecisionTree" boostWeight="7.4030668831682023e-02" itree="3">
          <Node pos="s" depth="0" NCoef="0" IVar="5" Cut="1.3581424951553345e+00" cType="0" res="-9.9000000000000000e+01" rms="0.0000000000000000e+00" purity="4.8927137255668640e-01" nType="0">
            <Node pos="l" depth="1" NCoef="0" IVar="-1" Cut="1.0119881439208984e+02" cType="1" res="-9.9000000000000000e+01" rms="0.0000000000000000e+00" purity="7.0241826772689819e-01" nType="1"/>
            <Node pos="r" depth="1" NCoef="0" IVar="2" Cut="1.2604107666015625e+02" cType="0" res="-9.9000000000000000e+01" rms="0.0000000000000000e+00" purity="4.1118732094764709e-01" nType="0">
              <Node pos="l" depth="2" NCoef="0" IVar="5" Cut="8.4231024980545044e-01" cType="0" res="-9.9000000000000000e+01" rms="0.0000000000000000e+00" purity="4.3623000383377075e-01" nType="0">
                <Node pos="l" depth="3" NCoef="0" IVar="1" Cut="9.9573852539062500e+01" cType="1" res="-9.9000000000000000e+01" rms="0.0000000000000000e+00" purity="4.6082887053489685e-01" nType="0">
                  <Node pos="l" depth="4" NCoef="0" IVar="-1" Cut="0.0000000000000000e+00" cType="1" res="-9.9000000000000000e+01" rms="0.0000000000000000e+00" purity="5.0241154432296753e-01" nType="1"/>
                  <Node pos="r" depth="4" NCoef="0" IVar="-1" Cut="0.0000000000000000e+00" cType="1" res="-9.9000000000000000e+01" rms="0.0000000000000000e+00" purity="3.8919758796691895e-01" nType="-1"/>
                </Node>
                <Node pos="r" depth="3" NCoef="0" IVar="-1" Cut="0.0000000000000000e+00" cType="1" res="-9.9000000000000000e+01" rms="0.0000000000000000e+00" purity="2.9172608256340027e-01" nType="-1"/>
              </Node>
              <Node pos="r" depth="2" NCoef="0" IVar="-1" Cut="0.0000000000000000e+00" cType="1" res="-9.9000000000000000e+01" rms="0.0000000000000000e+00" purity="2.3819133639335632e-01" nType="-1"/>
            </Node>
          </Node>
        </BinaryTree>
        <BinaryTree type="DecisionTree" boostWeight="8.0665455098182862e-02" itree="4">
          <Node pos="s" depth="0" NCoef="0" IVar="5" Cut="1.4469531774520874e+00" cType="0" res="-9.9000000000000000e+01" rms="0.0000000000000000e+00" purity="4.8515635728836060e-01" nType="0">
            <Node pos="l" depth="1" NCoef="0" IVar="-1" Cut="1.0119881439208984e+02" cType="1" res="-9.9000000000000000e+01" rms="0.0000000000000000e+00" purity="7.1345806121826172e-01" nType="1"/>
            <Node pos="r" depth="1" NCoef="0" IVar="5" Cut="1.0890691280364990e+00" cType="0" res="-9.9000000000000000e+01" rms="0.0000000000000000e+00" purity="4.2042919993400574e-01" nType="0">
              <Node pos="l" depth="2" NCoef="0" IVar="2" Cut="1.6130360412597656e+02" cType="0" res="-9.9000000000000000e+01" rms="0.0000000000000000e+00" purity="5.0216096639633179e-01" nType="0">
                <Node pos="l" depth="3" NCoef="0" IVar="1" Cut="1.0512256622314453e+02" cType="1" res="-9.9000000000000000e+01" rms="0.0000000000000000e+00" purity="5.4767078161239624e-01" nType="0">
                  <Node pos="l" depth="4" NCoef="0" IVar="-1" Cut="0.0000000000000000e+00" cType="1" res="-9.9000000000000000e+01" rms="0.0000000000000000e+00" purity="5.8275341987609863e-01" nType="1"/>
                  <Node pos="r" depth="4" NCoef="0" IVar="-1" Cut="0.0000000000000000e+00" cType="1" res="-9.9000000000000000e+01" rms="0.0000000000000000e+00" purity="4.6821969747543335e-01" nType="-1"/>
                </Node>
                <Node pos="r" depth="3" NCoef="0" IVar="-1" Cut="8.5734443664550781e+01" cType="1" res="-9.9000000000000000e+01" rms="0.0000000000000000e+00" purity="4.2668557167053223e-01" nType="-1"/>
              </Node>
              <Node pos="r" depth="2" NCoef="0" IVar="-1" Cut="1.2161793518066406e+02" cType="0" res="-9.9000000000000000e+01" rms="0.0000000000000000e+00" purity="3.6664065718650818e-01" nType="-1"/>
            </Node>
          </Node>
        </BinaryTree>
        <BinaryTree type="DecisionTree" boostWeight="7.0928821846589968e-02" itree="5">
          <Node pos="s" depth="0" NCoef="0" IVar="0" Cut="1.3869403076171875e+02" cType="0" res="-9.9000000000000000e+01" rms="0.0000000000000000e+00" purity="4.9159428477287292e-01" nType="0">
            <Node pos="l" depth="1" NCoef="0" IVar="-1" Cut="1.0119881439208984e+02" cType="1" res="-9.9000000000000000e+01" rms="0.0000000000000000e+00" purity="6.7786669731140137e-01" nType="1"/>
            <Node pos="r" depth="1" NCoef="0" IVar="2" Cut="1.2604107666015625e+02" cType="0" res="-9.9000000000000000e+01" rms="0.0000000000000000e+00" purity="4.2783653736114502e-01" nType="0">
              <Node pos="l" depth="2" NCoef="0" IVar="1" Cut="5.0901134490966797e+01" cType="0" res="-9.9000000000000000e+01" rms="0.0000000000000000e+00" purity="4.5003622770309448e-01" nType="0">
                <Node pos="l" depth="3" NCoef="0" IVar="1" Cut="9.5544288635253906e+01" cType="1" res="-9.9000000000000000e+01" rms="0.0000000000000000e+00" purity="4.6903619170188904e-01" nType="0">
                  <Node pos="l" depth="4" NCoef="0" IVar="-1" Cut="0.0000000000000000e+00" cType="1" res="-9.9000000000000000e+01" rms="0.0000000000000000e+00" purity="5.2767455577850342e-01" nType="1"/>
                  <Node pos="r" depth="4" NCoef="0" IVar="-1" Cut="0.0000000000000000e+00" cType="1" res="-9.9000000000000000e+01" rms="0.0000000000000000e+00" purity="4.0336892008781433e-01" nType="-1"/>
                </Node>
                <Node pos="r" depth="3" NCoef="0" IVar="-1" Cut="0.0000000000000000e+00" cType="1" res="-9.9000000000000000e+01" rms="0.0000000000000000e+00" purity="3.0242457985877991e-01" nType="-1"/>
              </Node>
              <Node pos="r" depth="2" NCoef="0" IVar="-1" Cut="0.0000000000000000e+00" cType="1" res="-9.9000000000000000e+01" rms="0.0000000000000000e+00" purity="2.6825302839279175e-01" nType="-1"/>
            </Node>
          </Node>
        </BinaryTree>
        <BinaryTree type="DecisionTree" boostWeight="7.0374784989353525e-02" itree="6">
          <Node pos="s" depth="0" NCoef="0" IVar="5" Cut="1.5357638597488403e+00" cType="0" res="-9.9000000000000000e+01" rms="0.0000000000000000e+00" purity="4.8962262272834778e-01" nType="0">
            <Node pos="l" depth="1" NCoef="0" IVar="-1" Cut="9.9367103576660156e+01" cType="1" res="-9.9000000000000000e+01" rms="0.0000000000000000e+00" purity="7.0481914281845093e-01" nType="1"/>
            <Node pos="r" depth="1" NCoef="0" IVar="2" Cut="1.5366525268554688e+02" cType="0" res="-9.9000000000000000e+01" rms="0.0000000000000000e+00" purity="4.4149494171142578e-01" nType="0">
              <Node pos="l" depth="2" NCoef="0" IVar="3" Cut="2.4772883605957031e+02" cType="1" res="-9.9000000000000000e+01" rms="0.0000000000000000e+00" purity="4.8930510878562927e-01" nType="0">
                <Node pos="l" depth="3" NCoef="0" IVar="4" Cut="2.2303397655487061e+00" cType="1" res="-9.9000000000000000e+01" rms="0.0000000000000000e+00" purity="5.2357620000839233e-01" nType="0">
                  <Node pos="l" depth="4" NCoef="0" IVar="-1" Cut="0.0000000000000000e+00" cType="1" res="-9.9000000000000000e+01" rms="0.0000000000000000e+00" purity="5.4951298236846924e-01" nType="1"/>
                  <Node pos="r" depth="4" NCoef="0" IVar="-1" Cut="0.0000000000000000e+00" cType="1" res="-9.9000000000000000e+01" rms="0.0000000000000000e+00" purity="4.0025192499160767e-01" nType="-1"/>
                </Node>
                <Node pos="r" depth="3" NCoef="0" IVar="-1" Cut="1.1386847496032715e+00" cType="0" res="-9.9000000000000000e+01" rms="0.0000000000000000e+00" purity="3.9378303289413452e-01" nType="-1"/>
              </Node>
              <Node pos="r" depth="2" NCoef="0" IVar="-1" Cut="1.2043358612060547e+02" cType="0" res="-9.9000000000000000e+01" rms="0.0000000000000000e+00" purity="3.6721339821815491e-01" nType="-1"/>
            </Node>
          </Node>
        </BinaryTree>
        <BinaryTree type="DecisionTree" boostWeight="6.4608061148236223e-02" itree="7">
          <Node pos="s" depth="0" NCoef="0" IVar="5" Cut="1.1805211305618286e+00" cType="0" res="-9.9000000000000000e+01" rms="0.0000000000000000e+00" purity="4.9050471186637878e-01" nType="0">
            <Node pos="l" depth="1" NCoef="0" IVar="5" Cut="1.7529720067977905e+00" cType="0" res="-9.9000000000000000e+01" rms="0.0000000000000000e+00" purity="6.0499376058578491e-01" nType="0">
              <Node pos="l" depth="2" NCoef="0" IVar="-1" Cut="2.4503987121582031e+02" cType="0" res="-9.9000000000000000e+01" rms="0.0000000000000000e+00" purity="7.3415452241897583e-01" nType="1"/>
              <Node pos="r" depth="2" NCoef="0" IVar="1" Cut="1.0202005004882812e+02" cType="1" res="-9.9000000000000000e+01" rms="0.0000000000000000e+00" purity="5.5211108922958374e-01" nType="0">
                <Node pos="l" depth="3" NCoef="0" IVar="1" Cut="6.3264514923095703e+01" cType="0" res="-9.9000000000000000e+01" rms="0.0000000000000000e+00" purity="5.9045642614364624e-01" nType="0">
                  <Node pos="l" depth="4" NCoef="0" IVar="-1" Cut="0.0000000000000000e+00" cType="1" res="-9.9000000000000000e+01" rms="0.0000000000000000e+00" purity="6.3736718893051147e-01" nType="1"/>
                  <Node pos="r" depth="4" NCoef="0" IVar="-1" Cut="0.0000000000000000e+00" cType="1" res="-9.9000000000000000e+01" rms="0.0000000000000000e+00" purity="4.5808926224708557e-01" nType="-1"/>
                </Node>
                <Node pos="r" depth="3" NCoef="0" IVar="-1" Cut="0.0000000000000000e+00" cType="1" res="-9.9000000000000000e+01" rms="0.0000000000000000e+00" purity="4.6446853876113892e-01" nType="-1"/>
              </Node>
            </Node>
            <Node pos="r" depth="1" NCoef="0" IVar="-1" Cut="1.2604107666015625e+02" cType="0" res="-9.9000000000000000e+01" rms="0.0000000000000000e+00" purity="4.1132619976997375e-01" nType="-1"/>
          </Node>
        </BinaryTree>
        <BinaryTree type="DecisionTree" boostWeight="5.2633752976170733e-02" itree="8">
          <Node pos="s" depth="0" NCoef="0" IVar="0" Cut="1.5023175048828125e+02" cType="0" res="-9.9000000000000000e+01" rms="0.0000000000000000e+00" purity="4.9861103296279907e-01" nType="0">
            <Node pos="l" depth="1" NCoef="0" IVar="-1" Cut="1.0119881439208984e+02" cType="1" res="-9.9000000000000000e+01" rms="0.0000000000000000e+00" purity="6.6337007284164429e-01" nType="1"/>
            <Node pos="r" depth="1" NCoef="0" IVar="5" Cut="8.9466249942779541e-01" cType="0" res="-9.9000000000000000e+01" rms="0.0000000000000000e+00" purity="4.5322328805923462e-01" nType="0">
              <Node pos="l" depth="2" NCoef="0" IVar="4" Cut="7.5235140323638916e-01" cType="0" res="-9.9000000000000000e+01" rms="0.0000000000000000e+00" purity="4.8034736514091492e-01" nType="0">
                <Node pos="l" depth="3" NCoef="0" IVar="1" Cut="5.1696613311767578e+01" cType="0" res="-9.9000000000000000e+01" rms="0.0000000000000000e+00" purity="4.9600371718406677e-01" nType="0">
                  <Node pos="l" depth="4" NCoef="0" IVar="-1" Cut="0.0000000000000000e+00" cType="1" res="-9.9000000000000000e+01" rms="0.0000000000000000e+00" purity="5.1519656181335449e-01" nType="1"/>
                  <Node pos="r" depth="4" NCoef="0" IVar="-1" Cut="0.0000000000000000e+00" cType="1" res="-9.9000000000000000e+01" rms="0.0000000000000000e+00" purity="3.6575743556022644e-01" nType="-1"/>
                </Node>
                <Node pos="r" depth="3" NCoef="0" IVar="-1" Cut="0.0000000000000000e+00" cType="1" res="-9.9000000000000000e+01" rms="0.0000000000000000e+00" purity="3.5224121809005737e-01" nType="-1"/>
              </Node>
              <Node pos="r" depth="2" NCoef="0" IVar="-1" Cut="1.4491200256347656e+02" cType="0" res="-9.9000000000000000e+01" rms="0.0000000000000000e+00" purity="3.4211897850036621e-01" nType="-1"/>
            </Node>
          </Node>
        </BinaryTree>
        <BinaryTree type="DecisionTree" boostWeight="4.3540785839897178e-02" itree="9">
          <Node pos="s" depth="0" NCoef="0" IVar="5" Cut="1.4469531774520874e+00" cType="0" res="-9.9000000000000000e+01" rms="0.0000000000000000e+00" purity="4.9322894215583801e-01" nType="0">
            <Node pos="l" depth="1" NCoef="0" IVar="-1" Cut="1.0119881439208984e+02" cType="1" res="-9.9000000000000000e+01" rms="0.0000000000000000e+00" purity="6.5234279632568359e-01" nType="1"/>
            <Node pos="r" depth="1" NCoef="0" IVar="-1" Cut="1.1913503265380859e+02" cType="0" res="-9.9000000000000000e+01" rms="0.0000000000000000e+00" purity="4.4983267784118652e-01" nType="-1"/>
          </Node>
        </BinaryTree>
        <BinaryTree type="DecisionTree" boostWeight="5.6029131875314060e-02" itree="10">
          <Node pos="s" depth="0" NCoef="0" IVar="5" Cut="1.1805211305618286e+00" cType="0" res="-9.9000000000000000e+01" rms="0.0000000000000000e+00" purity="4.9986991286277771e-01" nType="0">
            <Node pos="l" depth="1" NCoef="0" IVar="5" Cut="1.7529720067977905e+00" cType="0" res="-9.9000000000000000e+01" rms="0.0000000000000000e+00" purity="5.9204369783401489e-01" nType="0">
              <Node pos="l" depth="2" NCoef="0" IVar="-1" Cut="2.4503987121582031e+02" cType="0" res="-9.9000000000000000e+01" rms="0.0000000000000000e+00" purity="7.0160907506942749e-01" nType="1"/>
              <Node pos="r" depth="2" NCoef="0" IVar="1" Cut="1.1127217102050781e+02" cType="1" res="-9.9000000000000000e+01" rms="0.0000000000000000e+00" purity="5.4846405982971191e-01" nType="0">
                <Node pos="l" depth="3" NCoef="0" IVar="6" Cut="2.2944476604461670e+00" cType="1" res="-9.9000000000000000e+01" rms="0.0000000000000000e+00" purity="5.7488036155700684e-01" nType="0">
                  <Node pos="l" depth="4" NCoef="0" IVar="-1" Cut="0.0000000000000000e+00" cType="1" res="-9.9000000000000000e+01" rms="0.0000000000000000e+00" purity="6.1025488376617432e-01" nType="1"/>
                  <Node pos="r" depth="4" NCoef="0" IVar="-1" Cut="0.0000000000000000e+00" cType="1" res="-9.9000000000000000e+01" rms="0.0000000000000000e+00" purity="4.7922894358634949e-01" nType="-1"/>
                </Node>
                <Node pos="r" depth="3" NCoef="0" IVar="-1" Cut="0.0000000000000000e+00" cType="1" res="-9.9000000000000000e+01" rms="0.0000000000000000e+00" purity="4.5757687091827393e-01" nType="-1"/>
              </Node>
            </Node>
            <Node pos="r" depth="1" NCoef="0" IVar="2" Cut="1.2604107666015625e+02" cType="0" res="-9.9000000000000000e+01" rms="0.0000000000000000e+00" purity="4.3648824095726013e-01" nType="0">
              <Node pos="l" depth="2" NCoef="0" IVar="3" Cut="2.2174505615234375e+02" cType="1" res="-9.9000000000000000e+01" rms="0.0000000000000000e+00" purity="4.5783746242523193e-01" nType="0">
                <Node pos="l" depth="3" NCoef="0" IVar="4" Cut="1.0991667509078979e+00" cType="0" res="-9.9000000000000000e+01" rms="0.0000000000000000e+00" purity="4.8681727051734924e-01" nType="0">
                  <Node pos="l" depth="4" NCoef="0" IVar="-1" Cut="0.0000000000000000e+00" cType="1" res="-9.9000000000000000e+01" rms="0.0000000000000000e+00" purity="5.1379650831222534e-01" nType="1"/>
                  <Node pos="r" depth="4" NCoef="0" IVar="-1" Cut="0.0000000000000000e+00" cType="1" res="-9.9000000000000000e+01" rms="0.0000000000000000e+00" purity="3.7602445483207703e-01" nType="-1"/>
                </Node>
                <Node pos="r" depth="3" NCoef="0" IVar="-1" Cut="0.0000000000000000e+00" cType="1" res="-9.9000000000000000e+01" rms="0.0000000000000000e+00" purity="3.4360671043395996e-01" nType="-1"/>
              </Node>
              <Node pos="r" depth="2" NCoef="0" IVar="-1" Cut="0.0000000000000000e+00" cType="1" res="-9.9000000000000000e+01" rms="0.0000000000000000e+00" purity="2.9980573058128357e-01" nType="-1"/>
            </Node>
          </Node>
        </BinaryTree>
        <BinaryTree type="DecisionTree" boostWeight="5.3924636677343887e-02" itree="11">
          <Node pos="s" depth="0" NCoef="0" IVar="5" Cut="1.1805211305618286e+00" cType="0" res="-9.9000000000000000e+01" rms="0.0000000000000000e+00" purity="4.9696660041809082e-01" nType="0">
            <Node pos="l" depth="1" NCoef="0" IVar="5" Cut="1.8347479104995728e+00" cType="0" res="-9.9000000000000000e+01" rms="0.0000000000000000e+00" purity="5.8758825063705444e-01" nType="0">
              <Node pos="l" depth="2" NCoef="0" IVar="-1" Cut="0.0000000000000000e+00" cType="1" res="-9.9000000000000000e+01" rms="0.0000000000000000e+00" purity="7.0094168186187744e-01" nType="1"/>
              <Node pos="r" depth="2" NCoef="0" IVar="4" Cut="8.8177305459976196e-01" cType="0" res="-9.9000000000000000e+01" rms="0.0000000000000000e+00" purity="5.5113238096237183e-01" nType="0">
                <Node pos="l" depth="3" NCoef="0" IVar="1" Cut="6.6546951293945312e+01" cType="0" res="-9.9000000000000000e+01" rms="0.0000000000000000e+00" purity="5.7909137010574341e-01" nType="0">
                  <Node pos="l" depth="4" NCoef="0" IVar="-1" Cut="0.0000000000000000e+00" cType="1" res="-9.9000000000000000e+01" rms="0.0000000000000000e+00" purity="6.0986983776092529e-01" nType="1"/>
                  <Node pos="r" depth="4" NCoef="0" IVar="-1" Cut="0.0000000000000000e+00" cType="1" res="-9.9000000000000000e+01" rms="0.0000000000000000e+00" purity="4.8746070265769958e-01" nType="-1"/>
                </Node>
                <Node pos="r" depth="3" NCoef="0" IVar="-1" Cut="0.0000000000000000e+00" cType="1" res="-9.9000000000000000e+01" rms="0.0000000000000000e+00" purity="4.6498218178749084e-01" nType="-1"/>
              </Node>
            </Node>
            <Node pos="r" depth="1" NCoef="0" IVar="2" Cut="1.3294711303710938e+02" cType="0" res="-9.9000000000000000e+01" rms="0.0000000000000000e+00" purity="4.3474891781806946e-01" nType="0">
              <Node pos="l" depth="2" NCoef="0" IVar="3" Cut="2.1236975097656250e+02" cType="1" res="-9.9000000000000000e+01" rms="0.0000000000000000e+00" purity="4.5912158489227295e-01" nType="0">
                <Node pos="l" depth="3" NCoef="0" IVar="4" Cut="1.1635922193527222e+00" cType="0" res="-9.9000000000000000e+01" rms="0.0000000000000000e+00" purity="4.8891922831535339e-01" nType="0">
                  <Node pos="l" depth="4" NCoef="0" IVar="-1" Cut="0.0000000000000000e+00" cType="1" res="-9.9000000000000000e+01" rms="0.0000000000000000e+00" purity="5.1389753818511963e-01" nType="1"/>
                  <Node pos="r" depth="4" NCoef="0" IVar="-1" Cut="0.0000000000000000e+00" cType="1" res="-9.9000000000000000e+01" rms="0.0000000000000000e+00" purity="3.9925333857536316e-01" nType="-1"/>
                </Node>
                <Node pos="r" depth="3" NCoef="0" IVar="-1" Cut="1.0141566991806030e+00" cType="0" res="-9.9000000000000000e+01" rms="0.0000000000000000e+00" purity="3.6555635929107666e-01" nType="-1"/>
              </Node>
              <Node pos="r" depth="2" NCoef="0" IVar="-1" Cut="1.2022799682617188e+02" cType="0" res="-9.9000000000000000e+01" rms="0.0000000000000000e+00" purity="3.3714827895164490e-01" nType="-1"/>
            </Node>
          </Node>
        </BinaryTree>
        <BinaryTree type="DecisionTree" boostWeight="5.1105374479229172e-02" itree="12">
          <Node pos="s" depth="0" NCoef="0" IVar="5" Cut="1.1805211305618286e+00" cType="0" res="-9.9000000000000000e+01" rms="0.0000000000000000e+00" purity="4.9573659896850586e-01" nType="0">
            <Node pos="l" depth="1" NCoef="0" IVar="1" Cut="1.0016962432861328e+02" cType="1" res="-9.9000000000000000e+01" rms="0.0000000000000000e+00" purity="5.8385241031646729e-01" nType="0">
              <Node pos="l" depth="2" NCoef="0" IVar="6" Cut="1.7527719736099243e+00" cType="1" res="-9.9000000000000000e+01" rms="0.0000000000000000e+00" purity="6.2586104869842529e-01" nType="0">
                <Node pos="l" depth="3" NCoef="0" IVar="-1" Cut="1.7080025672912598e+00" cType="0" res="-9.9000000000000000e+01" rms="0.0000000000000000e+00" purity="6.9994229078292847e-01" nType="1"/>
                <Node pos="r" depth="3" NCoef="0" IVar="1" Cut="7.2133407592773438e+01" cType="0" res="-9.9000000000000000e+01" rms="0.0000000000000000e+00" purity="5.2969121932983398e-01" nType="0">
                  <Node pos="l" depth="4" NCoef="0" IVar="-1" Cut="0.0000000000000000e+00" cType="1" res="-9.9000000000000000e+01" rms="0.0000000000000000e+00" purity="5.8710038661956787e-01" nType="1"/>
                  <Node pos="r" depth="4" NCoef="0" IVar="-1" Cut="0.0000000000000000e+00" cType="1" res="-9.9000000000000000e+01" rms="0.0000000000000000e+00" purity="4.6372559666633606e-01" nType="-1"/>
                </Node>
              </Node>
              <Node pos="r" depth="2" NCoef="0" IVar="4" Cut="9.0816235542297363e-01" cType="0" res="-9.9000000000000000e+01" rms="0.0000000000000000e+00" purity="4.9086040258407593e-01" nType="0">
                <Node pos="l" depth="3" NCoef="0" IVar="-1" Cut="0.0000000000000000e+00" cType="1" res="-9.9000000000000000e+01" rms="0.0000000000000000e+00" purity="5.3610825538635254e-01" nType="1"/>
                <Node pos="r" depth="3" NCoef="0" IVar="-1" Cut="0.0000000000000000e+00" cType="1" res="-9.9000000000000000e+01" rms="0.0000000000000000e+00" purity="4.2469087243080139e-01" nType="-1"/>
              </Node>
            </Node>
            <Node pos="r" depth="1" NCoef="0" IVar="-1" Cut="7.5845021009445190e-01" cType="0" res="-9.9000000000000000e+01" rms="0.0000000000000000e+00" purity="4.3528845906257629e-01" nType="-1"/>
          </Node>
        </BinaryTree>
        <BinaryTree type="DecisionTree" boostWeight="4.8858363172104832e-02" itree="13">
          <Node pos="s" depth="0" NCoef="0" IVar="0" Cut="1.5023175048828125e+02" cType="0" res="-9.9000000000000000e+01" rms="0.0000000000000000e+00" purity="5.0128132104873657e-01" nType="0">
            <Node pos="l" depth="1" NCoef="0" IVar="1" Cut="1.0119881439208984e+02" cType="1" res="-9.9000000000000000e+01" rms="0.0000000000000000e+00" purity="6.2604326009750366e-01" nType="0">
              <Node pos="l" depth="2" NCoef="0" IVar="-1" Cut="1.5703747272491455e+00" cType="1" res="-9.9000000000000000e+01" rms="0.0000000000000000e+00" purity="6.7845749855041504e-01" nType="1"/>
              <Node pos="r" depth="2" NCoef="0" IVar="-1" Cut="0.0000000000000000e+00" cType="1" res="-9.9000000000000000e+01" rms="0.0000000000000000e+00" purity="4.9149587750434875e-01" nType="-1"/>
            </Node>
            <Node pos="r" depth="1" NCoef="0" IVar="5" Cut="8.0459016561508179e-01" cType="0" res="-9.9000000000000000e+01" rms="0.0000000000000000e+00" purity="4.6771126985549927e-01" nType="0">
              <Node pos="l" depth="2" NCoef="0" IVar="2" Cut="1.6769158935546875e+02" cType="0" res="-9.9000000000000000e+01" rms="0.0000000000000000e+00" purity="4.8382937908172607e-01" nType="0">
                <Node pos="l" depth="3" NCoef="0" IVar="1" Cut="6.8313690185546875e+01" cType="0" res="-9.9000000000000000e+01" rms="0.0000000000000000e+00" purity="5.3038638830184937e-01" nType="0">
                  <Node pos="l" depth="4" NCoef="0" IVar="-1" Cut="0.0000000000000000e+00" cType="1" res="-9.9000000000000000e+01" rms="0.0000000000000000e+00" purity="5.5506742000579834e-01" nType="1"/>
                  <Node pos="r" depth="4" NCoef="0" IVar="-1" Cut="0.0000000000000000e+00" cType="1" res="-9.9000000000000000e+01" rms="0.0000000000000000e+00" purity="4.3752473592758179e-01" nType="-1"/>
                </Node>
                <Node pos="r" depth="3" NCoef="0" IVar="-1" Cut="9.0081512451171875e+01" cType="1" res="-9.9000000000000000e+01" rms="0.0000000000000000e+00" purity="4.4610041379928589e-01" nType="-1"/>
              </Node>
              <Node pos="r" depth="2" NCoef="0" IVar="-1" Cut="0.0000000000000000e+00" cType="1" res="-9.9000000000000000e+01" rms="0.0000000000000000e+00" purity="3.2677888870239258e-01" nType="-1"/>
            </Node>
          </Node>
        </BinaryTree>
        <BinaryTree type="DecisionTree" boostWeight="4.2901463026928668e-02" itree="14">
          <Node pos="s" depth="0" NCoef="0" IVar="5" Cut="1.5357638597488403e+00" cType="0" res="-9.9000000000000000e+01" rms="0.0000000000000000e+00" purity="5.0403350591659546e-01" nType="0">
            <Node pos="l" depth="1" NCoef="0" IVar="-1" Cut="9.9367103576660156e+01" cType="1" res="-9.9000000000000000e+01" rms="0.0000000000000000e+00" purity="6.3676530122756958e-01" nType="1"/>
            <Node pos="r" depth="1" NCoef="0" IVar="5" Cut="7.5492715835571289e-01" cType="0" res="-9.9000000000000000e+01" rms="0.0000000000000000e+00" purity="4.7567433118820190e-01" nType="0">
              <Node pos="l" depth="2" NCoef="0" IVar="4" Cut="2.6058020591735840e+00" cType="1" res="-9.9000000000000000e+01" rms="0.0000000000000000e+00" purity="4.8766139149665833e-01" nType="0">
                <Node pos="l" depth="3" NCoef="0" IVar="1" Cut="1.0328434753417969e+02" cType="1" res="-9.9000000000000000e+01" rms="0.0000000000000000e+00" purity="4.9924933910369873e-01" nType="0">
                  <Node pos="l" depth="4" NCoef="0" IVar="-1" Cut="0.0000000000000000e+00" cType="1" res="-9.9000000000000000e+01" rms="0.0000000000000000e+00" purity="5.2861398458480835e-01" nType="1"/>
                  <Node pos="r" depth="4" NCoef="0" IVar="-1" Cut="0.0000000000000000e+00" cType="1" res="-9.9000000000000000e+01" rms="0.0000000000000000e+00" purity="4.4140568375587463e-01" nType="-1"/>
                </Node>
                <Node pos="r" depth="3" NCoef="0" IVar="-1" Cut="0.0000000000000000e+00" cType="1" res="-9.9000000000000000e+01" rms="0.0000000000000000e+00" purity="3.5725814104080200e-01" nType="-1"/>
              </Node>
              <Node pos="r" depth="2" NCoef="0" IVar="-1" Cut="0.0000000000000000e+00" cType="1" res="-9.9000000000000000e+01" rms="0.0000000000000000e+00" purity="2.9895392060279846e-01" nType="-1"/>
            </Node>
          </Node>
        </BinaryTree>
        <BinaryTree type="DecisionTree" boostWeight="3.3207183106606010e-02" itree="15">
          <Node pos="s" depth="0" NCoef="0" IVar="5" Cut="1.7133851051330566e+00" cType="0" res="-9.9000000000000000e+01" rms="0.0000000000000000e+00" purity="5.0096571445465088e-01" nType="0">
            <Node pos="l" depth="1" NCoef="0" IVar="-1" Cut="2.3602514648437500e+02" cType="0" res="-9.9000000000000000e+01" rms="0.0000000000000000e+00" purity="6.5810376405715942e-01" nType="1"/>
            <Node pos="r" depth="1" NCoef="0" IVar="2" Cut="1.1921294403076172e+02" cType="0" res="-9.9000000000000000e+01" rms="0.0000000000000000e+00" purity="4.7906047105789185e-01" nType="0">
              <Node pos="l" depth="2" NCoef="0" IVar="5" Cut="7.9387366771697998e-01" cType="0" res="-9.9000000000000000e+01" rms="0.0000000000000000e+00" purity="4.9013262987136841e-01" nType="0">
                <Node pos="l" depth="3" NCoef="0" IVar="4" Cut="6.4633691310882568e-01" cType="0" res="-9.9000000000000000e+01" rms="0.0000000000000000e+00" purity="5.0215369462966919e-01" nType="0">
                  <Node pos="l" depth="4" NCoef="0" IVar="-1" Cut="0.0000000000000000e+00" cType="1" res="-9.9000000000000000e+01" rms="0.0000000000000000e+00" purity="5.1239186525344849e-01" nType="1"/>
                  <Node pos="r" depth="4" NCoef="0" IVar="-1" Cut="0.0000000000000000e+00" cType="1" res="-9.9000000000000000e+01" rms="0.0000000000000000e+00" purity="3.7513217329978943e-01" nType="-1"/>
                </Node>
                <Node pos="r" depth="3" NCoef="0" IVar="-1" Cut="0.0000000000000000e+00" cType="1" res="-9.9000000000000000e+01" rms="0.0000000000000000e+00" purity="3.5338315367698669e-01" nType="-1"/>
              </Node>
              <Node pos="r" depth="2" NCoef="0" IVar="-1" Cut="0.0000000000000000e+00" cType="1" res="-9.9000000000000000e+01" rms="0.0000000000000000e+00" purity="3.0442652106285095e-01" nType="-1"/>
            </Node>
          </Node>
        </BinaryTree>
        <BinaryTree type="DecisionTree" boostWeight="4.4023843109674020e-02" itree="16">
          <Node pos="s" depth="0" NCoef="0" IVar="5" Cut="1.7133851051330566e+00" cType="0" res="-9.9000000000000000e+01" rms="0.0000000000000000e+00" purity="4.9556151032447815e-01" nType="0">
            <Node pos="l" depth="1" NCoef="0" IVar="-1" Cut="2.3602514648437500e+02" cType="0" res="-9.9000000000000000e+01" rms="0.0000000000000000e+00" purity="6.5059208869934082e-01" nType="1"/>
            <Node pos="r" depth="1" NCoef="0" IVar="5" Cut="1.0486210584640503e+00" cType="0" res="-9.9000000000000000e+01" rms="0.0000000000000000e+00" purity="4.7403758764266968e-01" nType="0">
              <Node pos="l" depth="2" NCoef="0" IVar="4" Cut="2.2450203895568848e+00" cType="1" res="-9.9000000000000000e+01" rms="0.0000000000000000e+00" purity="5.1176983118057251e-01" nType="0">
                <Node pos="l" depth="3" NCoef="0" IVar="4" Cut="7.5171273946762085e-01" cType="0" res="-9.9000000000000000e+01" rms="0.0000000000000000e+00" purity="5.2554482221603394e-01" nType="0">
                  <Node pos="l" depth="4" NCoef="0" IVar="-1" Cut="0.0000000000000000e+00" cType="1" res="-9.9000000000000000e+01" rms="0.0000000000000000e+00" purity="5.4476565122604370e-01" nType="1"/>
                  <Node pos="r" depth="4" NCoef="0" IVar="-1" Cut="0.0000000000000000e+00" cType="1" res="-9.9000000000000000e+01" rms="0.0000000000000000e+00" purity="4.2050471901893616e-01" nType="-1"/>
                </Node>
                <Node pos="r" depth="3" NCoef="0" IVar="-1" Cut="0.0000000000000000e+00" cType="1" res="-9.9000000000000000e+01" rms="0.0000000000000000e+00" purity="4.1813272237777710e-01" nType="-1"/>
              </Node>
              <Node pos="r" depth="2" NCoef="0" IVar="-1" Cut="2.2185075378417969e+02" cType="1" res="-9.9000000000000000e+01" rms="0.0000000000000000e+00" purity="4.2845925688743591e-01" nType="-1"/>
            </Node>
          </Node>
        </BinaryTree>
        <BinaryTree type="DecisionTree" boostWeight="3.0886353271204599e-02" itree="17">
          <Node pos="s" depth="0" NCoef="0" IVar="5" Cut="1.7133851051330566e+00" cType="0" res="-9.9000000000000000e+01" rms="0.0000000000000000e+00" purity="4.9621978402137756e-01" nType="0">
            <Node pos="l" depth="1" NCoef="0" IVar="-1" Cut="2.3602514648437500e+02" cType="0" res="-9.9000000000000000e+01" rms="0.0000000000000000e+00" purity="6.4051789045333862e-01" nType="1"/>
            <Node pos="r" depth="1" NCoef="0" IVar="2" Cut="1.1921294403076172e+02" cType="0" res="-9.9000000000000000e+01" rms="0.0000000000000000e+00" purity="4.7627115249633789e-01" nType="0">
              <Node pos="l" depth="2" NCoef="0" IVar="5" Cut="7.8161364793777466e-01" cType="0" res="-9.9000000000000000e+01" rms="0.0000000000000000e+00" purity="4.8626178503036499e-01" nType="0">
                <Node pos="l" depth="3" NCoef="0" IVar="3" Cut="2.7939755249023438e+02" cType="1" res="-9.9000000000000000e+01" rms="0.0000000000000000e+00" purity="4.9583104252815247e-01" nType="0">
                  <Node pos="l" depth="4" NCoef="0" IVar="-1" Cut="0.0000000000000000e+00" cType="1" res="-9.9000000000000000e+01" rms="0.0000000000000000e+00" purity="5.1042765378952026e-01" nType="1"/>
                  <Node pos="r" depth="4" NCoef="0" IVar="-1" Cut="0.0000000000000000e+00" cType="1" res="-9.9000000000000000e+01" rms="0.0000000000000000e+00" purity="4.2095345258712769e-01" nType="-1"/>
                </Node>
                <Node pos="r" depth="3" NCoef="0" IVar="-1" Cut="0.0000000000000000e+00" cType="1" res="-9.9000000000000000e+01" rms="0.0000000000000000e+00" purity="3.6371544003486633e-01" nType="-1"/>
              </Node>
              <Node pos="r" depth="2" NCoef="0" IVar="-1" Cut="0.0000000000000000e+00" cType="1" res="-9.9000000000000000e+01" rms="0.0000000000000000e+00" purity="3.1710675358772278e-01" nType="-1"/>
            </Node>
          </Node>
        </BinaryTree>
        <BinaryTree type="DecisionTree" boostWeight="4.3064256582407957e-02" itree="18">
          <Node pos="s" depth="0" NCoef="0" IVar="5" Cut="1.7133851051330566e+00" cType="0" res="-9.9000000000000000e+01" rms="0.0000000000000000e+00" purity="4.9217367172241211e-01" nType="0">
            <Node pos="l" depth="1" NCoef="0" IVar="-1" Cut="2.3602514648437500e+02" cType="0" res="-9.9000000000000000e+01" rms="0.0000000000000000e+00" purity="6.3337481021881104e-01" nType="1"/>
            <Node pos="r" depth="1" NCoef="0" IVar="2" Cut="1.6076606750488281e+02" cType="0" res="-9.9000000000000000e+01" rms="0.0000000000000000e+00" purity="4.7271856665611267e-01" nType="0">
              <Node pos="l" depth="2" NCoef="0" IVar="1" Cut="6.3114673614501953e+01" cType="0" res="-9.9000000000000000e+01" rms="0.0000000000000000e+00" purity="5.0780677795410156e-01" nType="0">
                <Node pos="l" depth="3" NCoef="0" IVar="1" Cut="1.2359490203857422e+02" cType="1" res="-9.9000000000000000e+01" rms="0.0000000000000000e+00" purity="5.2548635005950928e-01" nType="0">
                  <Node pos="l" depth="4" NCoef="0" IVar="-1" Cut="0.0000000000000000e+00" cType="1" res="-9.9000000000000000e+01" rms="0.0000000000000000e+00" purity="5.4968369007110596e-01" nType="1"/>
                  <Node pos="r" depth="4" NCoef="0" IVar="-1" Cut="0.0000000000000000e+00" cType="1" res="-9.9000000000000000e+01" rms="0.0000000000000000e+00" purity="4.3637704849243164e-01" nType="-1"/>
                </Node>
                <Node pos="r" depth="3" NCoef="0" IVar="-1" Cut="0.0000000000000000e+00" cType="1" res="-9.9000000000000000e+01" rms="0.0000000000000000e+00" purity="4.2375451326370239e-01" nType="-1"/>
              </Node>
              <Node pos="r" depth="2" NCoef="0" IVar="-1" Cut="1.6442524719238281e+02" cType="1" res="-9.9000000000000000e+01" rms="0.0000000000000000e+00" purity="4.3000140786170959e-01" nType="-1"/>
            </Node>
          </Node>
        </BinaryTree>
        <BinaryTree type="DecisionTree" boostWeight="3.3639660120613375e-02" itree="19">
          <Node pos="s" depth="0" NCoef="0" IVar="0" Cut="1.6176948547363281e+02" cType="0" res="-9.9000000000000000e+01" rms="0.0000000000000000e+00" purity="4.9374213814735413e-01" nType="0">
            <Node pos="l" depth="1" NCoef="0" IVar="1" Cut="1.0119881439208984e+02" cType="1" res="-9.9000000000000000e+01" rms="0.0000000000000000e+00" purity="5.9716075658798218e-01" nType="0">
              <Node pos="l" depth="2" NCoef="0" IVar="-1" Cut="1.3924005031585693e+00" cType="1" res="-9.9000000000000000e+01" rms="0.0000000000000000e+00" purity="6.4650774002075195e-01" nType="1"/>
              <Node pos="r" depth="2" NCoef="0" IVar="-1" Cut="0.0000000000000000e+00" cType="1" res="-9.9000000000000000e+01" rms="0.0000000000000000e+00" purity="4.7515809535980225e-01" nType="-1"/>
            </Node>
            <Node pos="r" depth="1" NCoef="0" IVar="2" Cut="1.1921294403076172e+02" cType="0" res="-9.9000000000000000e+01" rms="0.0000000000000000e+00" purity="4.7122538089752197e-01" nType="0">
              <Node pos="l" depth="2" NCoef="0" IVar="4" Cut="2.6211833953857422e+00" cType="1" res="-9.9000000000000000e+01" rms="0.0000000000000000e+00" purity="4.8025915026664734e-01" nType="0">
                <Node pos="l" depth="3" NCoef="0" IVar="4" Cut="1.1364525556564331e+00" cType="0" res="-9.9000000000000000e+01" rms="0.0000000000000000e+00" purity="4.8914942145347595e-01" nType="0">
                  <Node pos="l" depth="4" NCoef="0" IVar="-1" Cut="0.0000000000000000e+00" cType="1" res="-9.9000000000000000e+01" rms="0.0000000000000000e+00" purity="5.1237678527832031e-01" nType="1"/>
                  <Node pos="r" depth="4" NCoef="0" IVar="-1" Cut="0.0000000000000000e+00" cType="1" res="-9.9000000000000000e+01" rms="0.0000000000000000e+00" purity="4.3618157505989075e-01" nType="-1"/>
                </Node>
                <Node pos="r" depth="3" NCoef="0" IVar="-1" Cut="0.0000000000000000e+00" cType="1" res="-9.9000000000000000e+01" rms="0.0000000000000000e+00" purity="3.6944332718849182e-01" nType="-1"/>
              </Node>
              <Node pos="r" depth="2" NCoef="0" IVar="-1" Cut="0.0000000000000000e+00" cType="1" res="-9.9000000000000000e+01" rms="0.0000000000000000e+00" purity="3.3424362540245056e-01" nType="-1"/>
            </Node>
          </Node>
        </BinaryTree>
        <BinaryTree type="DecisionTree" boostWeight="3.9659483690207727e-02" itree="20">
          <Node pos="s" depth="0" NCoef="0" IVar="0" Cut="1.5023175048828125e+02" cType="0" res="-9.9000000000000000e+01" rms="0.0000000000000000e+00" purity="4.9180138111114502e-01" nType="0">
            <Node pos="l" depth="1" NCoef="0" IVar="6" Cut="1.6819815635681152e+00" cType="1" res="-9.9000000000000000e+01" rms="0.0000000000000000e+00" purity="5.8502048254013062e-01" nType="0">
              <Node pos="l" depth="2" NCoef="0" IVar="-1" Cut="9.8138641357421875e+01" cType="1" res="-9.9000000000000000e+01" rms="0.0000000000000000e+00" purity="6.3113564252853394e-01" nType="1"/>
              <Node pos="r" depth="2" NCoef="0" IVar="-1" Cut="0.0000000000000000e+00" cType="1" res="-9.9000000000000000e+01" rms="0.0000000000000000e+00" purity="4.6891653537750244e-01" nType="-1"/>
            </Node>
            <Node pos="r" depth="1" NCoef="0" IVar="5" Cut="8.5606008768081665e-01" cType="0" res="-9.9000000000000000e+01" rms="0.0000000000000000e+00" purity="4.6715006232261658e-01" nType="0">
              <Node pos="l" depth="2" NCoef="0" IVar="1" Cut="5.1764186859130859e+01" cType="0" res="-9.9000000000000000e+01" rms="0.0000000000000000e+00" purity="4.8122957348823547e-01" nType="0">
                <Node pos="l" depth="3" NCoef="0" IVar="1" Cut="8.8637413024902344e+01" cType="1" res="-9.9000000000000000e+01" rms="0.0000000000000000e+00" purity="4.9149498343467712e-01" nType="0">
                  <Node pos="l" depth="4" NCoef="0" IVar="-1" Cut="0.0000000000000000e+00" cType="1" res="-9.9000000000000000e+01" rms="0.0000000000000000e+00" purity="5.3464972972869873e-01" nType="1"/>
                  <Node pos="r" depth="4" NCoef="0" IVar="-1" Cut="0.0000000000000000e+00" cType="1" res="-9.9000000000000000e+01" rms="0.0000000000000000e+00" purity="4.5734706521034241e-01" nType="-1"/>
                </Node>
                <Node pos="r" depth="3" NCoef="0" IVar="-1" Cut="0.0000000000000000e+00" cType="1" res="-9.9000000000000000e+01" rms="0.0000000000000000e+00" purity="4.0238288044929504e-01" nType="-1"/>
              </Node>
              <Node pos="r" depth="2" NCoef="0" IVar="-1" Cut="1.5493611145019531e+02" cType="0" res="-9.9000000000000000e+01" rms="0.0000000000000000e+00" purity="3.8583108782768250e-01" nType="-1"/>
            </Node>
          </Node>
        </BinaryTree>
        <BinaryTree type="DecisionTree" boostWeight="3.8232200034629953e-02" itree="21">
          <Node pos="s" depth="0" NCoef="0" IVar="2" Cut="1.8257830810546875e+02" cType="0" res="-9.9000000000000000e+01" rms="0.0000000000000000e+00" purity="4.9370977282524109e-01" nType="0">
            <Node pos="l" depth="1" NCoef="0" IVar="0" Cut="2.4309809875488281e+02" cType="0" res="-9.9000000000000000e+01" rms="0.0000000000000000e+00" purity="5.5106192827224731e-01" nType="0">
              <Node pos="l" depth="2" NCoef="0" IVar="-1" Cut="0.0000000000000000e+00" cType="1" res="-9.9000000000000000e+01" rms="0.0000000000000000e+00" purity="6.9768691062927246e-01" nType="1"/>
              <Node pos="r" depth="2" NCoef="0" IVar="1" Cut="6.8667800903320312e+01" cType="0" res="-9.9000000000000000e+01" rms="0.0000000000000000e+00" purity="5.2808302640914917e-01" nType="0">
                <Node pos="l" depth="3" NCoef="0" IVar="-1" Cut="9.5061256408691406e+01" cType="1" res="-9.9000000000000000e+01" rms="0.0000000000000000e+00" purity="5.5286365747451782e-01" nType="1"/>
                <Node pos="r" depth="3" NCoef="0" IVar="-1" Cut="0.0000000000000000e+00" cType="1" res="-9.9000000000000000e+01" rms="0.0000000000000000e+00" purity="4.3918308615684509e-01" nType="-1"/>
              </Node>
            </Node>
            <Node pos="r" depth="1" NCoef="0" IVar="3" Cut="1.9241821289062500e+02" cType="1" res="-9.9000000000000000e+01" rms="0.0000000000000000e+00" purity="4.5753020048141479e-01" nType="0">
              <Node pos="l" depth="2" NCoef="0" IVar="2" Cut="1.2036211395263672e+02" cType="0" res="-9.9000000000000000e+01" rms="0.0000000000000000e+00" purity="4.7968003153800964e-01" nType="0">
                <Node pos="l" depth="3" NCoef="0" IVar="4" Cut="1.0472910404205322e+00" cType="0" res="-9.9000000000000000e+01" rms="0.0000000000000000e+00" purity="4.9463313817977905e-01" nType="0">
                  <Node pos="l" depth="4" NCoef="0" IVar="-1" Cut="0.0000000000000000e+00" cType="1" res="-9.9000000000000000e+01" rms="0.0000000000000000e+00" purity="5.1227700710296631e-01" nType="1"/>
                  <Node pos="r" depth="4" NCoef="0" IVar="-1" Cut="0.0000000000000000e+00" cType="1" res="-9.9000000000000000e+01" rms="0.0000000000000000e+00" purity="4.1322794556617737e-01" nType="-1"/>
                </Node>
                <Node pos="r" depth="3" NCoef="0" IVar="-1" Cut="0.0000000000000000e+00" cType="1" res="-9.9000000000000000e+01" rms="0.0000000000000000e+00" purity="3.5729166865348816e-01" nType="-1"/>
              </Node>
              <Node pos="r" depth="2" NCoef="0" IVar="-1" Cut="1.2058472633361816e+00" cType="0" res="-9.9000000000000000e+01" rms="0.0000000000000000e+00" purity="3.7391227483749390e-01" nType="-1"/>
            </Node>
          </Node>
        </BinaryTree>
        <BinaryTree type="DecisionTree" boostWeight="2.7305704476230024e-02" itree="22">
          <Node pos="s" depth="0" NCoef="0" IVar="0" Cut="1.5023175048828125e+02" cType="0" res="-9.9000000000000000e+01" rms="0.0000000000000000e+00" purity="4.9058663845062256e-01" nType="0">
            <Node pos="l" depth="1" NCoef="0" IVar="1" Cut="1.0119881439208984e+02" cType="1" res="-9.9000000000000000e+01" rms="0.0000000000000000e+00" purity="5.7856076955795288e-01" nType="0">
              <Node pos="l" depth="2" NCoef="0" IVar="-1" Cut="1.5703747272491455e+00" cType="1" res="-9.9000000000000000e+01" rms="0.0000000000000000e+00" purity="6.2161141633987427e-01" nType="1"/>
              <Node pos="r" depth="2" NCoef="0" IVar="-1" Cut="0.0000000000000000e+00" cType="1" res="-9.9000000000000000e+01" rms="0.0000000000000000e+00" purity="4.7384053468704224e-01" nType="-1"/>
            </Node>
            <Node pos="r" depth="1" NCoef="0" IVar="-1" Cut="3.2457237243652344e+00" cType="1" res="-9.9000000000000000e+01" rms="0.0000000000000000e+00" purity="4.6738520264625549e-01" nType="-1"/>
          </Node>
        </BinaryTree>
        <BinaryTree type="DecisionTree" boostWeight="3.2947529696603486e-02" itree="23">
          <Node pos="s" depth="0" NCoef="0" IVar="5" Cut="1.2693318128585815e+00" cType="0" res="-9.9000000000000000e+01" rms="0.0000000000000000e+00" purity="4.9562656879425049e-01" nType="0">
            <Node pos="l" depth="1" NCoef="0" IVar="1" Cut="1.1585250854492188e+02" cType="1" res="-9.9000000000000000e+01" rms="0.0000000000000000e+00" purity="5.5766165256500244e-01" nType="0">
              <Node pos="l" depth="2" NCoef="0" IVar="6" Cut="2.0385088920593262e+00" cType="1" res="-9.9000000000000000e+01" rms="0.0000000000000000e+00" purity="5.8502101898193359e-01" nType="0">
                <Node pos="l" depth="3" NCoef="0" IVar="-1" Cut="1.9434822797775269e+00" cType="0" res="-9.9000000000000000e+01" rms="0.0000000000000000e+00" purity="6.2235391139984131e-01" nType="1"/>
                <Node pos="r" depth="3" NCoef="0" IVar="-1" Cut="0.0000000000000000e+00" cType="1" res="-9.9000000000000000e+01" rms="0.0000000000000000e+00" purity="4.7538185119628906e-01" nType="-1"/>
              </Node>
              <Node pos="r" depth="2" NCoef="0" IVar="-1" Cut="0.0000000000000000e+00" cType="1" res="-9.9000000000000000e+01" rms="0.0000000000000000e+00" purity="4.3836164474487305e-01" nType="-1"/>
            </Node>
            <Node pos="r" depth="1" NCoef="0" IVar="5" Cut="7.5492823123931885e-01" cType="0" res="-9.9000000000000000e+01" rms="0.0000000000000000e+00" purity="4.6663430333137512e-01" nType="0">
              <Node pos="l" depth="2" NCoef="0" IVar="6" Cut="3.2457237243652344e+00" cType="1" res="-9.9000000000000000e+01" rms="0.0000000000000000e+00" purity="4.7636678814888000e-01" nType="0">
                <Node pos="l" depth="3" NCoef="0" IVar="3" Cut="2.3814323425292969e+02" cType="1" res="-9.9000000000000000e+01" rms="0.0000000000000000e+00" purity="4.8726481199264526e-01" nType="0">
                  <Node pos="l" depth="4" NCoef="0" IVar="-1" Cut="0.0000000000000000e+00" cType="1" res="-9.9000000000000000e+01" rms="0.0000000000000000e+00" purity="5.0323987007141113e-01" nType="1"/>
                  <Node pos="r" depth="4" NCoef="0" IVar="-1" Cut="0.0000000000000000e+00" cType="1" res="-9.9000000000000000e+01" rms="0.0000000000000000e+00" purity="4.1281208395957947e-01" nType="-1"/>
                </Node>
                <Node pos="r" depth="3" NCoef="0" IVar="-1" Cut="0.0000000000000000e+00" cType="1" res="-9.9000000000000000e+01" rms="0.0000000000000000e+00" purity="3.7952965497970581e-01" nType="-1"/>
              </Node>
              <Node pos="r" depth="2" NCoef="0" IVar="-1" Cut="0.0000000000000000e+00" cType="1" res="-9.9000000000000000e+01" rms="0.0000000000000000e+00" purity="3.4607410430908203e-01" nType="-1"/>
            </Node>
          </Node>
        </BinaryTree>
        <BinaryTree type="DecisionTree" boostWeight="3.0766846528279795e-02" itree="24">
          <Node pos="s" depth="0" NCoef="0" IVar="5" Cut="1.2693318128585815e+00" cType="0" res="-9.9000000000000000e+01" rms="0.0000000000000000e+00" purity="4.9307775497436523e-01" nType="0">
            <Node pos="l" depth="1" NCoef="0" IVar="1" Cut="1.1585250854492188e+02" cType="1" res="-9.9000000000000000e+01" rms="0.0000000000000000e+00" purity="5.5634665489196777e-01" nType="0">
              <Node pos="l" depth="2" NCoef="0" IVar="6" Cut="2.0385088920593262e+00" cType="1" res="-9.9000000000000000e+01" rms="0.0000000000000000e+00" purity="5.8138549327850342e-01" nType="0">
                <Node pos="l" depth="3" NCoef="0" IVar="-1" Cut="1.9434822797775269e+00" cType="0" res="-9.9000000000000000e+01" rms="0.0000000000000000e+00" purity="6.1457711458206177e-01" nType="1"/>
                <Node pos="r" depth="3" NCoef="0" IVar="-1" Cut="0.0000000000000000e+00" cType="1" res="-9.9000000000000000e+01" rms="0.0000000000000000e+00" purity="4.8436552286148071e-01" nType="-1"/>
              </Node>
              <Node pos="r" depth="2" NCoef="0" IVar="-1" Cut="0.0000000000000000e+00" cType="1" res="-9.9000000000000000e+01" rms="0.0000000000000000e+00" purity="4.4744089245796204e-01" nType="-1"/>
            </Node>
            <Node pos="r" depth="1" NCoef="0" IVar="-1" Cut="7.5492823123931885e-01" cType="0" res="-9.9000000000000000e+01" rms="0.0000000000000000e+00" purity="4.6354687213897705e-01" nType="-1"/>
          </Node>
        </BinaryTree>
        <BinaryTree type="DecisionTree" boostWeight="3.4547279960632588e-02" itree="25">
          <Node pos="s" depth="0" NCoef="0" IVar="2" Cut="1.7347157287597656e+02" cType="0" res="-9.9000000000000000e+01" rms="0.0000000000000000e+00" purity="4.9800613522529602e-01" nType="0">
            <Node pos="l" depth="1" NCoef="0" IVar="0" Cut="2.4253356933593750e+02" cType="0" res="-9.9000000000000000e+01" rms="0.0000000000000000e+00" purity="5.4099947214126587e-01" nType="0">
              <Node pos="l" depth="2" NCoef="0" IVar="-1" Cut="0.0000000000000000e+00" cType="1" res="-9.9000000000000000e+01" rms="0.0000000000000000e+00" purity="6.7737311124801636e-01" nType="1"/>
              <Node pos="r" depth="2" NCoef="0" IVar="1" Cut="6.4965713500976562e+01" cType="0" res="-9.9000000000000000e+01" rms="0.0000000000000000e+00" purity="5.2356654405593872e-01" nType="0">
                <Node pos="l" depth="3" NCoef="0" IVar="-1" Cut="9.4805191040039062e+01" cType="1" res="-9.9000000000000000e+01" rms="0.0000000000000000e+00" purity="5.4190659523010254e-01" nType="1"/>
                <Node pos="r" depth="3" NCoef="0" IVar="-1" Cut="0.0000000000000000e+00" cType="1" res="-9.9000000000000000e+01" rms="0.0000000000000000e+00" purity="4.4388422369956970e-01" nType="-1"/>
              </Node>
            </Node>
            <Node pos="r" depth="1" NCoef="0" IVar="3" Cut="1.8120628356933594e+02" cType="1" res="-9.9000000000000000e+01" rms="0.0000000000000000e+00" purity="4.6018773317337036e-01" nType="0">
              <Node pos="l" depth="2" NCoef="0" IVar="6" Cut="3.2690269947052002e+00" cType="1" res="-9.9000000000000000e+01" rms="0.0000000000000000e+00" purity="4.8022460937500000e-01" nType="0">
                <Node pos="l" depth="3" NCoef="0" IVar="1" Cut="1.1102051544189453e+02" cType="1" res="-9.9000000000000000e+01" rms="0.0000000000000000e+00" purity="4.9501863121986389e-01" nType="0">
                  <Node pos="l" depth="4" NCoef="0" IVar="-1" Cut="0.0000000000000000e+00" cType="1" res="-9.9000000000000000e+01" rms="0.0000000000000000e+00" purity="5.1434147357940674e-01" nType="1"/>
                  <Node pos="r" depth="4" NCoef="0" IVar="-1" Cut="0.0000000000000000e+00" cType="1" res="-9.9000000000000000e+01" rms="0.0000000000000000e+00" purity="4.2511844635009766e-01" nType="-1"/>
                </Node>
                <Node pos="r" depth="3" NCoef="0" IVar="-1" Cut="0.0000000000000000e+00" cType="1" res="-9.9000000000000000e+01" rms="0.0000000000000000e+00" purity="3.7813568115234375e-01" nType="-1"/>
              </Node>
              <Node pos="r" depth="2" NCoef="0" IVar="-1" Cut="1.2072581052780151e+00" cType="0" res="-9.9000000000000000e+01" rms="0.0000000000000000e+00" purity="3.8500320911407471e-01" nType="-1"/>
            </Node>
          </Node>
        </BinaryTree>
        <BinaryTree type="DecisionTree" boostWeight="2.7625410610117581e-02" itree="26">
          <Node pos="s" depth="0" NCoef="0" IVar="5" Cut="1.1805211305618286e+00" cType="0" res="-9.9000000000000000e+01" rms="0.0000000000000000e+00" purity="4.9501270055770874e-01" nType="0">
            <Node pos="l" depth="1" NCoef="0" IVar="5" Cut="2.1618518829345703e+00" cType="0" res="-9.9000000000000000e+01" rms="0.0000000000000000e+00" purity="5.4250705242156982e-01" nType="0">
              <Node pos="l" depth="2" NCoef="0" IVar="-1" Cut="0.0000000000000000e+00" cType="1" res="-9.9000000000000000e+01" rms="0.0000000000000000e+00" purity="6.5431123971939087e-01" nType="1"/>
              <Node pos="r" depth="2" NCoef="0" IVar="3" Cut="3.4072259521484375e+02" cType="1" res="-9.9000000000000000e+01" rms="0.0000000000000000e+00" purity="5.2599769830703735e-01" nType="0">
                <Node pos="l" depth="3" NCoef="0" IVar="-1" Cut="1.4536575317382812e+02" cType="0" res="-9.9000000000000000e+01" rms="0.0000000000000000e+00" purity="5.4299211502075195e-01" nType="1"/>
                <Node pos="r" depth="3" NCoef="0" IVar="-1" Cut="0.0000000000000000e+00" cType="1" res="-9.9000000000000000e+01" rms="0.0000000000000000e+00" purity="4.4819170236587524e-01" nType="-1"/>
              </Node>
            </Node>
            <Node pos="r" depth="1" NCoef="0" IVar="-1" Cut="7.5845021009445190e-01" cType="0" res="-9.9000000000000000e+01" rms="0.0000000000000000e+00" purity="4.6276444196701050e-01" nType="-1"/>
          </Node>
        </BinaryTree>
        <BinaryTree type="DecisionTree" boostWeight="3.4877534352571862e-02" itree="27">
          <Node pos="s" depth="0" NCoef="0" IVar="2" Cut="1.6436482238769531e+02" cType="0" res="-9.9000000000000000e+01" rms="0.0000000000000000e+00" purity="4.9731242656707764e-01" nType="0">
            <Node pos="l" depth="1" NCoef="0" IVar="0" Cut="2.4253356933593750e+02" cType="0" res="-9.9000000000000000e+01" rms="0.0000000000000000e+00" purity="5.3020745515823364e-01" nType="0">
              <Node pos="l" depth="2" NCoef="0" IVar="-1" Cut="0.0000000000000000e+00" cType="1" res="-9.9000000000000000e+01" rms="0.0000000000000000e+00" purity="6.6148871183395386e-01" nType="1"/>
              <Node pos="r" depth="2" NCoef="0" IVar="4" Cut="6.7721575498580933e-01" cType="0" res="-9.9000000000000000e+01" rms="0.0000000000000000e+00" purity="5.1609569787979126e-01" nType="0">
                <Node pos="l" depth="3" NCoef="0" IVar="4" Cut="2.1880981922149658e+00" cType="1" res="-9.9000000000000000e+01" rms="0.0000000000000000e+00" purity="5.2851289510726929e-01" nType="0">
                  <Node pos="l" depth="4" NCoef="0" IVar="-1" Cut="0.0000000000000000e+00" cType="1" res="-9.9000000000000000e+01" rms="0.0000000000000000e+00" purity="5.4478144645690918e-01" nType="1"/>
                  <Node pos="r" depth="4" NCoef="0" IVar="-1" Cut="0.0000000000000000e+00" cType="1" res="-9.9000000000000000e+01" rms="0.0000000000000000e+00" purity="4.2640766501426697e-01" nType="-1"/>
                </Node>
                <Node pos="r" depth="3" NCoef="0" IVar="-1" Cut="0.0000000000000000e+00" cType="1" res="-9.9000000000000000e+01" rms="0.0000000000000000e+00" purity="4.2351323366165161e-01" nType="-1"/>
              </Node>
            </Node>
            <Node pos="r" depth="1" NCoef="0" IVar="3" Cut="1.6999435424804688e+02" cType="1" res="-9.9000000000000000e+01" rms="0.0000000000000000e+00" purity="4.5617520809173584e-01" nType="0">
              <Node pos="l" depth="2" NCoef="0" IVar="2" Cut="1.2036334228515625e+02" cType="0" res="-9.9000000000000000e+01" rms="0.0000000000000000e+00" purity="4.7480520606040955e-01" nType="0">
                <Node pos="l" depth="3" NCoef="0" IVar="4" Cut="1.2114921808242798e+00" cType="0" res="-9.9000000000000000e+01" rms="0.0000000000000000e+00" purity="4.9040678143501282e-01" nType="0">
                  <Node pos="l" depth="4" NCoef="0" IVar="-1" Cut="0.0000000000000000e+00" cType="1" res="-9.9000000000000000e+01" rms="0.0000000000000000e+00" purity="5.0765645503997803e-01" nType="1"/>
                  <Node pos="r" depth="4" NCoef="0" IVar="-1" Cut="0.0000000000000000e+00" cType="1" res="-9.9000000000000000e+01" rms="0.0000000000000000e+00" purity="4.3109306693077087e-01" nType="-1"/>
                </Node>
                <Node pos="r" depth="3" NCoef="0" IVar="-1" Cut="0.0000000000000000e+00" cType="1" res="-9.9000000000000000e+01" rms="0.0000000000000000e+00" purity="3.8169345259666443e-01" nType="-1"/>
              </Node>
              <Node pos="r" depth="2" NCoef="0" IVar="-1" Cut="0.0000000000000000e+00" cType="1" res="-9.9000000000000000e+01" rms="0.0000000000000000e+00" purity="3.8432255387306213e-01" nType="-1"/>
            </Node>
          </Node>
        </BinaryTree>
        <BinaryTree type="DecisionTree" boostWeight="2.9575054889274251e-02" itree="28">
          <Node pos="s" depth="0" NCoef="0" IVar="5" Cut="1.8910064697265625e+00" cType="0" res="-9.9000000000000000e+01" rms="0.0000000000000000e+00" purity="4.9441266059875488e-01" nType="0">
            <Node pos="l" depth="1" NCoef="0" IVar="-1" Cut="0.0000000000000000e+00" cType="1" res="-9.9000000000000000e+01" rms="0.0000000000000000e+00" purity="6.1325567960739136e-01" nType="1"/>
            <Node pos="r" depth="1" NCoef="0" IVar="5" Cut="8.3581453561782837e-01" cType="0" res="-9.9000000000000000e+01" rms="0.0000000000000000e+00" purity="4.8355725407600403e-01" nType="0">
              <Node pos="l" depth="2" NCoef="0" IVar="1" Cut="5.0157363891601562e+01" cType="0" res="-9.9000000000000000e+01" rms="0.0000000000000000e+00" purity="4.9352067708969116e-01" nType="0">
                <Node pos="l" depth="3" NCoef="0" IVar="1" Cut="8.9232406616210938e+01" cType="1" res="-9.9000000000000000e+01" rms="0.0000000000000000e+00" purity="5.0233709812164307e-01" nType="0">
                  <Node pos="l" depth="4" NCoef="0" IVar="-1" Cut="0.0000000000000000e+00" cType="1" res="-9.9000000000000000e+01" rms="0.0000000000000000e+00" purity="5.3619641065597534e-01" nType="1"/>
                  <Node pos="r" depth="4" NCoef="0" IVar="-1" Cut="0.0000000000000000e+00" cType="1" res="-9.9000000000000000e+01" rms="0.0000000000000000e+00" purity="4.7289916872978210e-01" nType="-1"/>
                </Node>
                <Node pos="r" depth="3" NCoef="0" IVar="-1" Cut="0.0000000000000000e+00" cType="1" res="-9.9000000000000000e+01" rms="0.0000000000000000e+00" purity="4.1893127560615540e-01" nType="-1"/>
              </Node>
              <Node pos="r" depth="2" NCoef="0" IVar="-1" Cut="0.0000000000000000e+00" cType="1" res="-9.9000000000000000e+01" rms="0.0000000000000000e+00" purity="4.0195795893669128e-01" nType="-1"/>
            </Node>
          </Node>
        </BinaryTree>
        <BinaryTree type="DecisionTree" boostWeight="3.2387619318165334e-02" itree="29">
          <Node pos="s" depth="0" NCoef="0" IVar="2" Cut="1.5525808715820312e+02" cType="0" res="-9.9000000000000000e+01" rms="0.0000000000000000e+00" purity="4.9565193057060242e-01" nType="0">
            <Node pos="l" depth="1" NCoef="0" IVar="5" Cut="1.7186061143875122e+00" cType="0" res="-9.9000000000000000e+01" rms="0.0000000000000000e+00" purity="5.2093869447708130e-01" nType="0">
              <Node pos="l" depth="2" NCoef="0" IVar="-1" Cut="2.5702087402343750e+02" cType="0" res="-9.9000000000000000e+01" rms="0.0000000000000000e+00" purity="6.0372078418731689e-01" nType="1"/>
              <Node pos="r" depth="2" NCoef="0" IVar="3" Cut="2.6489028930664062e+02" cType="1" res="-9.9000000000000000e+01" rms="0.0000000000000000e+00" purity="5.0451129674911499e-01" nType="0">
                <Node pos="l" depth="3" NCoef="0" IVar="4" Cut="2.2289066314697266e+00" cType="1" res="-9.9000000000000000e+01" rms="0.0000000000000000e+00" purity="5.2347433567047119e-01" nType="0">
                  <Node pos="l" depth="4" NCoef="0" IVar="-1" Cut="0.0000000000000000e+00" cType="1" res="-9.9000000000000000e+01" rms="0.0000000000000000e+00" purity="5.3741389513015747e-01" nType="1"/>
                  <Node pos="r" depth="4" NCoef="0" IVar="-1" Cut="0.0000000000000000e+00" cType="1" res="-9.9000000000000000e+01" rms="0.0000000000000000e+00" purity="4.5014622807502747e-01" nType="-1"/>
                </Node>
                <Node pos="r" depth="3" NCoef="0" IVar="-1" Cut="1.5368767976760864e+00" cType="1" res="-9.9000000000000000e+01" rms="0.0000000000000000e+00" purity="4.4694581627845764e-01" nType="-1"/>
              </Node>
            </Node>
            <Node pos="r" depth="1" NCoef="0" IVar="5" Cut="8.9392757415771484e-01" cType="0" res="-9.9000000000000000e+01" rms="0.0000000000000000e+00" purity="4.4893521070480347e-01" nType="0">
              <Node pos="l" depth="2" NCoef="0" IVar="3" Cut="1.5878242492675781e+02" cType="1" res="-9.9000000000000000e+01" rms="0.0000000000000000e+00" purity="4.6698138117790222e-01" nType="0">
                <Node pos="l" depth="3" NCoef="0" IVar="4" Cut="1.2950224876403809e+00" cType="0" res="-9.9000000000000000e+01" rms="0.0000000000000000e+00" purity="4.8504912853240967e-01" nType="0">
                  <Node pos="l" depth="4" NCoef="0" IVar="-1" Cut="0.0000000000000000e+00" cType="1" res="-9.9000000000000000e+01" rms="0.0000000000000000e+00" purity="5.0478518009185791e-01" nType="1"/>
                  <Node pos="r" depth="4" NCoef="0" IVar="-1" Cut="0.0000000000000000e+00" cType="1" res="-9.9000000000000000e+01" rms="0.0000000000000000e+00" purity="4.2718416452407837e-01" nType="-1"/>
                </Node>
                <Node pos="r" depth="3" NCoef="0" IVar="-1" Cut="0.0000000000000000e+00" cType="1" res="-9.9000000000000000e+01" rms="0.0000000000000000e+00" purity="4.0446299314498901e-01" nType="-1"/>
              </Node>
              <Node pos="r" depth="2" NCoef="0" IVar="-1" Cut="0.0000000000000000e+00" cType="1" res="-9.9000000000000000e+01" rms="0.0000000000000000e+00" purity="3.8189890980720520e-01" nType="-1"/>
            </Node>
          </Node>
        </BinaryTree>
        <BinaryTree type="DecisionTree" boostWeight="3.2222317041408897e-02" itree="30">
          <Node pos="s" depth="0" NCoef="0" IVar="2" Cut="1.8257830810546875e+02" cType="0" res="-9.9000000000000000e+01" rms="0.0000000000000000e+00" purity="4.9394181370735168e-01" nType="0">
            <Node pos="l" depth="1" NCoef="0" IVar="0" Cut="2.4309809875488281e+02" cType="0" res="-9.9000000000000000e+01" rms="0.0000000000000000e+00" purity="5.3547281026840210e-01" nType="0">
              <Node pos="l" depth="2" NCoef="0" IVar="-1" Cut="0.0000000000000000e+00" cType="1" res="-9.9000000000000000e+01" rms="0.0000000000000000e+00" purity="6.4600926637649536e-01" nType="1"/>
              <Node pos="r" depth="2" NCoef="0" IVar="1" Cut="7.0518844604492188e+01" cType="0" res="-9.9000000000000000e+01" rms="0.0000000000000000e+00" purity="5.1878821849822998e-01" nType="0">
                <Node pos="l" depth="3" NCoef="0" IVar="1" Cut="9.3942276000976562e+01" cType="1" res="-9.9000000000000000e+01" rms="0.0000000000000000e+00" purity="5.3886580467224121e-01" nType="0">
                  <Node pos="l" depth="4" NCoef="0" IVar="-1" Cut="0.0000000000000000e+00" cType="1" res="-9.9000000000000000e+01" rms="0.0000000000000000e+00" purity="5.9664171934127808e-01" nType="1"/>
                  <Node pos="r" depth="4" NCoef="0" IVar="-1" Cut="0.0000000000000000e+00" cType="1" res="-9.9000000000000000e+01" rms="0.0000000000000000e+00" purity="4.9615108966827393e-01" nType="-1"/>
                </Node>
                <Node pos="r" depth="3" NCoef="0" IVar="-1" Cut="0.0000000000000000e+00" cType="1" res="-9.9000000000000000e+01" rms="0.0000000000000000e+00" purity="4.5467138290405273e-01" nType="-1"/>
              </Node>
            </Node>
            <Node pos="r" depth="1" NCoef="0" IVar="3" Cut="1.9241821289062500e+02" cType="1" res="-9.9000000000000000e+01" rms="0.0000000000000000e+00" purity="4.6788612008094788e-01" nType="0">
              <Node pos="l" depth="2" NCoef="0" IVar="2" Cut="1.4200054931640625e+02" cType="0" res="-9.9000000000000000e+01" rms="0.0000000000000000e+00" purity="4.8279002308845520e-01" nType="0">
                <Node pos="l" depth="3" NCoef="0" IVar="4" Cut="1.1635922193527222e+00" cType="0" res="-9.9000000000000000e+01" rms="0.0000000000000000e+00" purity="5.0969129800796509e-01" nType="0">
                  <Node pos="l" depth="4" NCoef="0" IVar="-1" Cut="0.0000000000000000e+00" cType="1" res="-9.9000000000000000e+01" rms="0.0000000000000000e+00" purity="5.2605175971984863e-01" nType="1"/>
                  <Node pos="r" depth="4" NCoef="0" IVar="-1" Cut="0.0000000000000000e+00" cType="1" res="-9.9000000000000000e+01" rms="0.0000000000000000e+00" purity="4.5719024538993835e-01" nType="-1"/>
                </Node>
                <Node pos="r" depth="3" NCoef="0" IVar="-1" Cut="9.2884892225265503e-01" cType="0" res="-9.9000000000000000e+01" rms="0.0000000000000000e+00" purity="4.4142159819602966e-01" nType="-1"/>
              </Node>
              <Node pos="r" depth="2" NCoef="0" IVar="-1" Cut="1.1453940868377686e+00" cType="0" res="-9.9000000000000000e+01" rms="0.0000000000000000e+00" purity="4.1103428602218628e-01" nType="-1"/>
            </Node>
          </Node>
        </BinaryTree>
        <BinaryTree type="DecisionTree" boostWeight="2.8401702876654590e-02" itree="31">
          <Node pos="s" depth="0" NCoef="0" IVar="2" Cut="1.8257830810546875e+02" cType="0" res="-9.9000000000000000e+01" rms="0.0000000000000000e+00" purity="4.9597758054733276e-01" nType="0">
            <Node pos="l" depth="1" NCoef="0" IVar="0" Cut="2.4309809875488281e+02" cType="0" res="-9.9000000000000000e+01" rms="0.0000000000000000e+00" purity="5.3718715906143188e-01" nType="0">
              <Node pos="l" depth="2" NCoef="0" IVar="-1" Cut="0.0000000000000000e+00" cType="1" res="-9.9000000000000000e+01" rms="0.0000000000000000e+00" purity="6.3860642910003662e-01" nType="1"/>
              <Node pos="r" depth="2" NCoef="0" IVar="3" Cut="2.9031436157226562e+02" cType="1" res="-9.9000000000000000e+01" rms="0.0000000000000000e+00" purity="5.2193814516067505e-01" nType="0">
                <Node pos="l" depth="3" NCoef="0" IVar="6" Cut="2.3044013977050781e+00" cType="1" res="-9.9000000000000000e+01" rms="0.0000000000000000e+00" purity="5.4637241363525391e-01" nType="0">
                  <Node pos="l" depth="4" NCoef="0" IVar="-1" Cut="0.0000000000000000e+00" cType="1" res="-9.9000000000000000e+01" rms="0.0000000000000000e+00" purity="5.7127529382705688e-01" nType="1"/>
                  <Node pos="r" depth="4" NCoef="0" IVar="-1" Cut="0.0000000000000000e+00" cType="1" res="-9.9000000000000000e+01" rms="0.0000000000000000e+00" purity="4.9595379829406738e-01" nType="-1"/>
                </Node>
                <Node pos="r" depth="3" NCoef="0" IVar="2" Cut="2.3679650878906250e+02" cType="0" res="-9.9000000000000000e+01" rms="0.0000000000000000e+00" purity="4.7134757041931152e-01" nType="0">
                  <Node pos="l" depth="4" NCoef="0" IVar="-1" Cut="0.0000000000000000e+00" cType="1" res="-9.9000000000000000e+01" rms="0.0000000000000000e+00" purity="5.1740092039108276e-01" nType="1"/>
                  <Node pos="r" depth="4" NCoef="0" IVar="-1" Cut="0.0000000000000000e+00" cType="1" res="-9.9000000000000000e+01" rms="0.0000000000000000e+00" purity="4.2699491977691650e-01" nType="-1"/>
                </Node>
              </Node>
            </Node>
            <Node pos="r" depth="1" NCoef="0" IVar="6" Cut="3.2457237243652344e+00" cType="1" res="-9.9000000000000000e+01" rms="0.0000000000000000e+00" purity="4.7012269496917725e-01" nType="0">
              <Node pos="l" depth="2" NCoef="0" IVar="4" Cut="1.0463415384292603e+00" cType="0" res="-9.9000000000000000e+01" rms="0.0000000000000000e+00" purity="4.7999379038810730e-01" nType="0">
                <Node pos="l" depth="3" NCoef="0" IVar="1" Cut="5.1696613311767578e+01" cType="0" res="-9.9000000000000000e+01" rms="0.0000000000000000e+00" purity="4.9371117353439331e-01" nType="0">
                  <Node pos="l" depth="4" NCoef="0" IVar="-1" Cut="0.0000000000000000e+00" cType="1" res="-9.9000000000000000e+01" rms="0.0000000000000000e+00" purity="5.0781178474426270e-01" nType="1"/>
                  <Node pos="r" depth="4" NCoef="0" IVar="-1" Cut="0.0000000000000000e+00" cType="1" res="-9.9000000000000000e+01" rms="0.0000000000000000e+00" purity="4.1842576861381531e-01" nType="-1"/>
                </Node>
                <Node pos="r" depth="3" NCoef="0" IVar="-1" Cut="0.0000000000000000e+00" cType="1" res="-9.9000000000000000e+01" rms="0.0000000000000000e+00" purity="4.2268297076225281e-01" nType="-1"/>
              </Node>
              <Node pos="r" depth="2" NCoef="0" IVar="-1" Cut="0.0000000000000000e+00" cType="1" res="-9.9000000000000000e+01" rms="0.0000000000000000e+00" purity="3.9381548762321472e-01" nType="-1"/>
            </Node>
          </Node>
        </BinaryTree>
        <BinaryTree type="DecisionTree" boostWeight="2.6933677107859558e-02" itree="32">
          <Node pos="s" depth="0" NCoef="0" IVar="2" Cut="1.8257830810546875e+02" cType="0" res="-9.9000000000000000e+01" rms="0.0000000000000000e+00" purity="4.9424743652343750e-01" nType="0">
            <Node pos="l" depth="1" NCoef="0" IVar="0" Cut="2.4309809875488281e+02" cType="0" res="-9.9000000000000000e+01" rms="0.0000000000000000e+00" purity="5.3502458333969116e-01" nType="0">
              <Node pos="l" depth="2" NCoef="0" IVar="-1" Cut="0.0000000000000000e+00" cType="1" res="-9.9000000000000000e+01" rms="0.0000000000000000e+00" purity="6.3202619552612305e-01" nType="1"/>
              <Node pos="r" depth="2" NCoef="0" IVar="3" Cut="2.9031436157226562e+02" cType="1" res="-9.9000000000000000e+01" rms="0.0000000000000000e+00" purity="5.2048039436340332e-01" nType="0">
                <Node pos="l" depth="3" NCoef="0" IVar="4" Cut="8.9757543802261353e-01" cType="0" res="-9.9000000000000000e+01" rms="0.0000000000000000e+00" purity="5.4408431053161621e-01" nType="0">
                  <Node pos="l" depth="4" NCoef="0" IVar="-1" Cut="0.0000000000000000e+00" cType="1" res="-9.9000000000000000e+01" rms="0.0000000000000000e+00" purity="5.6347602605819702e-01" nType="1"/>
                  <Node pos="r" depth="4" NCoef="0" IVar="-1" Cut="0.0000000000000000e+00" cType="1" res="-9.9000000000000000e+01" rms="0.0000000000000000e+00" purity="4.8066174983978271e-01" nType="-1"/>
                </Node>
                <Node pos="r" depth="3" NCoef="0" IVar="6" Cut="1.2872741222381592e+00" cType="1" res="-9.9000000000000000e+01" rms="0.0000000000000000e+00" purity="4.7162452340126038e-01" nType="0">
                  <Node pos="l" depth="4" NCoef="0" IVar="-1" Cut="0.0000000000000000e+00" cType="1" res="-9.9000000000000000e+01" rms="0.0000000000000000e+00" purity="5.1234889030456543e-01" nType="1"/>
                  <Node pos="r" depth="4" NCoef="0" IVar="-1" Cut="0.0000000000000000e+00" cType="1" res="-9.9000000000000000e+01" rms="0.0000000000000000e+00" purity="4.2981877923011780e-01" nType="-1"/>
                </Node>
              </Node>
            </Node>
            <Node pos="r" depth="1" NCoef="0" IVar="2" Cut="1.2036371612548828e+02" cType="0" res="-9.9000000000000000e+01" rms="0.0000000000000000e+00" purity="4.6867865324020386e-01" nType="0">
              <Node pos="l" depth="2" NCoef="0" IVar="3" Cut="1.8171972656250000e+02" cType="1" res="-9.9000000000000000e+01" rms="0.0000000000000000e+00" purity="4.7732985019683838e-01" nType="0">
                <Node pos="l" depth="3" NCoef="0" IVar="1" Cut="1.2324456787109375e+02" cType="1" res="-9.9000000000000000e+01" rms="0.0000000000000000e+00" purity="4.9337533116340637e-01" nType="0">
                  <Node pos="l" depth="4" NCoef="0" IVar="-1" Cut="0.0000000000000000e+00" cType="1" res="-9.9000000000000000e+01" rms="0.0000000000000000e+00" purity="5.0332027673721313e-01" nType="1"/>
                  <Node pos="r" depth="4" NCoef="0" IVar="-1" Cut="0.0000000000000000e+00" cType="1" res="-9.9000000000000000e+01" rms="0.0000000000000000e+00" purity="4.3099331855773926e-01" nType="-1"/>
                </Node>
                <Node pos="r" depth="3" NCoef="0" IVar="-1" Cut="1.1453940868377686e+00" cType="0" res="-9.9000000000000000e+01" rms="0.0000000000000000e+00" purity="4.2768624424934387e-01" nType="-1"/>
              </Node>
              <Node pos="r" depth="2" NCoef="0" IVar="-1" Cut="0.0000000000000000e+00" cType="1" res="-9.9000000000000000e+01" rms="0.0000000000000000e+00" purity="3.8433209061622620e-01" nType="-1"/>
            </Node>
          </Node>
        </BinaryTree>
        <BinaryTree type="DecisionTree" boostWeight="2.7202241679259869e-02" itree="33">
          <Node pos="s" depth="0" NCoef="0" IVar="2" Cut="1.8257830810546875e+02" cType="0" res="-9.9000000000000000e+01" rms="0.0000000000000000e+00" purity="4.9240306019783020e-01" nType="0">
            <Node pos="l" depth="1" NCoef="0" IVar="1" Cut="6.8667800903320312e+01" cType="0" res="-9.9000000000000000e+01" rms="0.0000000000000000e+00" purity="5.3218162059783936e-01" nType="0">
              <Node pos="l" depth="2" NCoef="0" IVar="1" Cut="9.5061256408691406e+01" cType="1" res="-9.9000000000000000e+01" rms="0.0000000000000000e+00" purity="5.5189740657806396e-01" nType="0">
                <Node pos="l" depth="3" NCoef="0" IVar="-1" Cut="1.5004795789718628e+00" cType="0" res="-9.9000000000000000e+01" rms="0.0000000000000000e+00" purity="6.0821104049682617e-01" nType="1"/>
                <Node pos="r" depth="3" NCoef="0" IVar="3" Cut="2.8131219482421875e+02" cType="1" res="-9.9000000000000000e+01" rms="0.0000000000000000e+00" purity="5.0194871425628662e-01" nType="0">
                  <Node pos="l" depth="4" NCoef="0" IVar="-1" Cut="0.0000000000000000e+00" cType="1" res="-9.9000000000000000e+01" rms="0.0000000000000000e+00" purity="5.3562247753143311e-01" nType="1"/>
                  <Node pos="r" depth="4" NCoef="0" IVar="-1" Cut="0.0000000000000000e+00" cType="1" res="-9.9000000000000000e+01" rms="0.0000000000000000e+00" purity="4.4508931040763855e-01" nType="-1"/>
                </Node>
              </Node>
              <Node pos="r" depth="2" NCoef="0" IVar="-1" Cut="0.0000000000000000e+00" cType="1" res="-9.9000000000000000e+01" rms="0.0000000000000000e+00" purity="4.6292719244956970e-01" nType="-1"/>
            </Node>
            <Node pos="r" depth="1" NCoef="0" IVar="-1" Cut="1.2036371612548828e+02" cType="0" res="-9.9000000000000000e+01" rms="0.0000000000000000e+00" purity="4.6747601032257080e-01" nType="-1"/>
          </Node>
        </BinaryTree>
        <BinaryTree type="DecisionTree" boostWeight="2.8640816782527910e-02" itree="34">
          <Node pos="s" depth="0" NCoef="0" IVar="5" Cut="1.0917105674743652e+00" cType="0" res="-9.9000000000000000e+01" rms="0.0000000000000000e+00" purity="4.9614563584327698e-01" nType="0">
            <Node pos="l" depth="1" NCoef="0" IVar="5" Cut="2.0835814476013184e+00" cType="0" res="-9.9000000000000000e+01" rms="0.0000000000000000e+00" purity="5.2510190010070801e-01" nType="0">
              <Node pos="l" depth="2" NCoef="0" IVar="-1" Cut="0.0000000000000000e+00" cType="1" res="-9.9000000000000000e+01" rms="0.0000000000000000e+00" purity="6.1025589704513550e-01" nType="1"/>
              <Node pos="r" depth="2" NCoef="0" IVar="4" Cut="6.8227344751358032e-01" cType="0" res="-9.9000000000000000e+01" rms="0.0000000000000000e+00" purity="5.1453208923339844e-01" nType="0">
                <Node pos="l" depth="3" NCoef="0" IVar="4" Cut="2.1057784557342529e+00" cType="1" res="-9.9000000000000000e+01" rms="0.0000000000000000e+00" purity="5.2431875467300415e-01" nType="0">
                  <Node pos="l" depth="4" NCoef="0" IVar="-1" Cut="0.0000000000000000e+00" cType="1" res="-9.9000000000000000e+01" rms="0.0000000000000000e+00" purity="5.3631502389907837e-01" nType="1"/>
                  <Node pos="r" depth="4" NCoef="0" IVar="-1" Cut="0.0000000000000000e+00" cType="1" res="-9.9000000000000000e+01" rms="0.0000000000000000e+00" purity="4.6053841710090637e-01" nType="-1"/>
                </Node>
                <Node pos="r" depth="3" NCoef="0" IVar="-1" Cut="0.0000000000000000e+00" cType="1" res="-9.9000000000000000e+01" rms="0.0000000000000000e+00" purity="4.4201204180717468e-01" nType="-1"/>
              </Node>
            </Node>
            <Node pos="r" depth="1" NCoef="0" IVar="3" Cut="2.2185075378417969e+02" cType="1" res="-9.9000000000000000e+01" rms="0.0000000000000000e+00" purity="4.6414339542388916e-01" nType="0">
              <Node pos="l" depth="2" NCoef="0" IVar="2" Cut="1.3538116455078125e+02" cType="0" res="-9.9000000000000000e+01" rms="0.0000000000000000e+00" purity="4.7818055748939514e-01" nType="0">
                <Node pos="l" depth="3" NCoef="0" IVar="1" Cut="6.8352264404296875e+01" cType="0" res="-9.9000000000000000e+01" rms="0.0000000000000000e+00" purity="4.9944326281547546e-01" nType="0">
                  <Node pos="l" depth="4" NCoef="0" IVar="-1" Cut="0.0000000000000000e+00" cType="1" res="-9.9000000000000000e+01" rms="0.0000000000000000e+00" purity="5.1272970438003540e-01" nType="1"/>
                  <Node pos="r" depth="4" NCoef="0" IVar="-1" Cut="0.0000000000000000e+00" cType="1" res="-9.9000000000000000e+01" rms="0.0000000000000000e+00" purity="4.5231646299362183e-01" nType="-1"/>
                </Node>
                <Node pos="r" depth="3" NCoef="0" IVar="-1" Cut="9.5608919858932495e-01" cType="0" res="-9.9000000000000000e+01" rms="0.0000000000000000e+00" purity="4.2033815383911133e-01" nType="-1"/>
              </Node>
              <Node pos="r" depth="2" NCoef="0" IVar="-1" Cut="0.0000000000000000e+00" cType="1" res="-9.9000000000000000e+01" rms="0.0000000000000000e+00" purity="3.9015167951583862e-01" nType="-1"/>
            </Node>
          </Node>
        </BinaryTree>
        <BinaryTree type="DecisionTree" boostWeight="2.8608990995141345e-02" itree="35">
          <Node pos="s" depth="0" NCoef="0" IVar="5" Cut="1.0917105674743652e+00" cType="0" res="-9.9000000000000000e+01" rms="0.0000000000000000e+00" purity="4.9428713321685791e-01" nType="0">
            <Node pos="l" depth="1" NCoef="0" IVar="2" Cut="2.5610021972656250e+02" cType="0" res="-9.9000000000000000e+01" rms="0.0000000000000000e+00" purity="5.2131956815719604e-01" nType="0">
              <Node pos="l" depth="2" NCoef="0" IVar="-1" Cut="0.0000000000000000e+00" cType="1" res="-9.9000000000000000e+01" rms="0.0000000000000000e+00" purity="5.9182560443878174e-01" nType="1"/>
              <Node pos="r" depth="2" NCoef="0" IVar="4" Cut="7.3093318939208984e-01" cType="0" res="-9.9000000000000000e+01" rms="0.0000000000000000e+00" purity="5.0891274213790894e-01" nType="0">
                <Node pos="l" depth="3" NCoef="0" IVar="1" Cut="6.0320720672607422e+01" cType="0" res="-9.9000000000000000e+01" rms="0.0000000000000000e+00" purity="5.2011746168136597e-01" nType="0">
                  <Node pos="l" depth="4" NCoef="0" IVar="-1" Cut="0.0000000000000000e+00" cType="1" res="-9.9000000000000000e+01" rms="0.0000000000000000e+00" purity="5.3242641687393188e-01" nType="1"/>
                  <Node pos="r" depth="4" NCoef="0" IVar="-1" Cut="0.0000000000000000e+00" cType="1" res="-9.9000000000000000e+01" rms="0.0000000000000000e+00" purity="4.6706852316856384e-01" nType="-1"/>
                </Node>
                <Node pos="r" depth="3" NCoef="0" IVar="-1" Cut="0.0000000000000000e+00" cType="1" res="-9.9000000000000000e+01" rms="0.0000000000000000e+00" purity="4.3135854601860046e-01" nType="-1"/>
              </Node>
            </Node>
            <Node pos="r" depth="1" NCoef="0" IVar="3" Cut="2.0555825805664062e+02" cType="1" res="-9.9000000000000000e+01" rms="0.0000000000000000e+00" purity="4.6440905332565308e-01" nType="0">
              <Node pos="l" depth="2" NCoef="0" IVar="2" Cut="1.6038764953613281e+02" cType="0" res="-9.9000000000000000e+01" rms="0.0000000000000000e+00" purity="4.7932457923889160e-01" nType="0">
                <Node pos="l" depth="3" NCoef="0" IVar="-1" Cut="2.6478226184844971e+00" cType="1" res="-9.9000000000000000e+01" rms="0.0000000000000000e+00" purity="5.2513581514358521e-01" nType="1"/>
                <Node pos="r" depth="3" NCoef="0" IVar="-1" Cut="9.2377082824707031e+01" cType="1" res="-9.9000000000000000e+01" rms="0.0000000000000000e+00" purity="4.5345196127891541e-01" nType="-1"/>
              </Node>
              <Node pos="r" depth="2" NCoef="0" IVar="-1" Cut="0.0000000000000000e+00" cType="1" res="-9.9000000000000000e+01" rms="0.0000000000000000e+00" purity="4.0607455372810364e-01" nType="-1"/>
            </Node>
          </Node>
        </BinaryTree>
        <BinaryTree type="DecisionTree" boostWeight="1.9373762831983193e-02" itree="36">
          <Node pos="s" depth="0" NCoef="0" IVar="1" Cut="1.2790121459960938e+02" cType="1" res="-9.9000000000000000e+01" rms="0.0000000000000000e+00" purity="4.9390286207199097e-01" nType="0">
            <Node pos="l" depth="1" NCoef="0" IVar="0" Cut="1.8761294555664062e+02" cType="0" res="-9.9000000000000000e+01" rms="0.0000000000000000e+00" purity="5.0418877601623535e-01" nType="0">
              <Node pos="l" depth="2" NCoef="0" IVar="-1" Cut="1.2391351461410522e+00" cType="1" res="-9.9000000000000000e+01" rms="0.0000000000000000e+00" purity="5.9137350320816040e-01" nType="1"/>
              <Node pos="r" depth="2" NCoef="0" IVar="4" Cut="2.6790263652801514e+00" cType="1" res="-9.9000000000000000e+01" rms="0.0000000000000000e+00" purity="4.9184986948966980e-01" nType="0">
                <Node pos="l" depth="3" NCoef="0" IVar="5" Cut="7.9180866479873657e-01" cType="0" res="-9.9000000000000000e+01" rms="0.0000000000000000e+00" purity="4.9925494194030762e-01" nType="0">
                  <Node pos="l" depth="4" NCoef="0" IVar="-1" Cut="0.0000000000000000e+00" cType="1" res="-9.9000000000000000e+01" rms="0.0000000000000000e+00" purity="5.0484752655029297e-01" nType="1"/>
                  <Node pos="r" depth="4" NCoef="0" IVar="-1" Cut="0.0000000000000000e+00" cType="1" res="-9.9000000000000000e+01" rms="0.0000000000000000e+00" purity="4.3125823140144348e-01" nType="-1"/>
                </Node>
                <Node pos="r" depth="3" NCoef="0" IVar="-1" Cut="0.0000000000000000e+00" cType="1" res="-9.9000000000000000e+01" rms="0.0000000000000000e+00" purity="3.9583575725555420e-01" nType="-1"/>
              </Node>
            </Node>
            <Node pos="r" depth="1" NCoef="0" IVar="-1" Cut="1.4329618835449219e+02" cType="1" res="-9.9000000000000000e+01" rms="0.0000000000000000e+00" purity="4.2303296923637390e-01" nType="-1"/>
          </Node>
        </BinaryTree>
        <BinaryTree type="DecisionTree" boostWeight="1.5610900374707786e-02" itree="37">
          <Node pos="s" depth="0" NCoef="0" IVar="0" Cut="1.8484494018554688e+02" cType="0" res="-9.9000000000000000e+01" rms="0.0000000000000000e+00" purity="4.9134185910224915e-01" nType="0">
            <Node pos="l" depth="1" NCoef="0" IVar="1" Cut="9.0208541870117188e+01" cType="1" res="-9.9000000000000000e+01" rms="0.0000000000000000e+00" purity="5.6025224924087524e-01" nType="0">
              <Node pos="l" depth="2" NCoef="0" IVar="-1" Cut="0.0000000000000000e+00" cType="1" res="-9.9000000000000000e+01" rms="0.0000000000000000e+00" purity="6.0314929485321045e-01" nType="1"/>
              <Node pos="r" depth="2" NCoef="0" IVar="-1" Cut="0.0000000000000000e+00" cType="1" res="-9.9000000000000000e+01" rms="0.0000000000000000e+00" purity="4.9980387091636658e-01" nType="-1"/>
            </Node>
            <Node pos="r" depth="1" NCoef="0" IVar="5" Cut="7.5523936748504639e-01" cType="0" res="-9.9000000000000000e+01" rms="0.0000000000000000e+00" purity="4.8126110434532166e-01" nType="0">
              <Node pos="l" depth="2" NCoef="0" IVar="4" Cut="2.6058020591735840e+00" cType="1" res="-9.9000000000000000e+01" rms="0.0000000000000000e+00" purity="4.8715955018997192e-01" nType="0">
                <Node pos="l" depth="3" NCoef="0" IVar="1" Cut="1.2534291076660156e+02" cType="1" res="-9.9000000000000000e+01" rms="0.0000000000000000e+00" purity="4.9274623394012451e-01" nType="0">
                  <Node pos="l" depth="4" NCoef="0" IVar="-1" Cut="0.0000000000000000e+00" cType="1" res="-9.9000000000000000e+01" rms="0.0000000000000000e+00" purity="5.0150424242019653e-01" nType="1"/>
                  <Node pos="r" depth="4" NCoef="0" IVar="-1" Cut="0.0000000000000000e+00" cType="1" res="-9.9000000000000000e+01" rms="0.0000000000000000e+00" purity="4.4364154338836670e-01" nType="-1"/>
                </Node>
                <Node pos="r" depth="3" NCoef="0" IVar="-1" Cut="0.0000000000000000e+00" cType="1" res="-9.9000000000000000e+01" rms="0.0000000000000000e+00" purity="4.2053902149200439e-01" nType="-1"/>
              </Node>
              <Node pos="r" depth="2" NCoef="0" IVar="-1" Cut="0.0000000000000000e+00" cType="1" res="-9.9000000000000000e+01" rms="0.0000000000000000e+00" purity="3.8426238298416138e-01" nType="-1"/>
            </Node>
          </Node>
        </BinaryTree>
        <BinaryTree type="DecisionTree" boostWeight="1.5387157392915490e-02" itree="38">
          <Node pos="s" depth="0" NCoef="0" IVar="0" Cut="1.8484494018554688e+02" cType="0" res="-9.9000000000000000e+01" rms="0.0000000000000000e+00" purity="4.8967373371124268e-01" nType="0">
            <Node pos="l" depth="1" NCoef="0" IVar="-1" Cut="9.0208541870117188e+01" cType="1" res="-9.9000000000000000e+01" rms="0.0000000000000000e+00" purity="5.5993103981018066e-01" nType="1"/>
            <Node pos="r" depth="1" NCoef="0" IVar="-1" Cut="7.8692859411239624e-01" cType="0" res="-9.9000000000000000e+01" rms="0.0000000000000000e+00" purity="4.7939601540565491e-01" nType="-1"/>
          </Node>
        </BinaryTree>
        <BinaryTree type="DecisionTree" boostWeight="2.0988220871125091e-02" itree="39">
          <Node pos="s" depth="0" NCoef="0" IVar="2" Cut="2.5543228149414062e+02" cType="0" res="-9.9000000000000000e+01" rms="0.0000000000000000e+00" purity="4.9262985587120056e-01" nType="0">
            <Node pos="l" depth="1" NCoef="0" IVar="-1" Cut="0.0000000000000000e+00" cType="1" res="-9.9000000000000000e+01" rms="0.0000000000000000e+00" purity="5.7248467206954956e-01" nType="1"/>
            <Node pos="r" depth="1" NCoef="0" IVar="4" Cut="6.3694477081298828e-01" cType="0" res="-9.9000000000000000e+01" rms="0.0000000000000000e+00" purity="4.8500496149063110e-01" nType="0">
              <Node pos="l" depth="2" NCoef="0" IVar="4" Cut="2.6685752868652344e+00" cType="1" res="-9.9000000000000000e+01" rms="0.0000000000000000e+00" purity="4.9060198664665222e-01" nType="0">
                <Node pos="l" depth="3" NCoef="0" IVar="2" Cut="1.6940670776367188e+02" cType="0" res="-9.9000000000000000e+01" rms="0.0000000000000000e+00" purity="4.9685060977935791e-01" nType="0">
                  <Node pos="l" depth="4" NCoef="0" IVar="-1" Cut="0.0000000000000000e+00" cType="1" res="-9.9000000000000000e+01" rms="0.0000000000000000e+00" purity="5.2017140388488770e-01" nType="1"/>
                  <Node pos="r" depth="4" NCoef="0" IVar="-1" Cut="0.0000000000000000e+00" cType="1" res="-9.9000000000000000e+01" rms="0.0000000000000000e+00" purity="4.7665688395500183e-01" nType="-1"/>
                </Node>
                <Node pos="r" depth="3" NCoef="0" IVar="-1" Cut="0.0000000000000000e+00" cType="1" res="-9.9000000000000000e+01" rms="0.0000000000000000e+00" purity="4.0644615888595581e-01" nType="-1"/>
              </Node>
              <Node pos="r" depth="2" NCoef="0" IVar="-1" Cut="0.0000000000000000e+00" cType="1" res="-9.9000000000000000e+01" rms="0.0000000000000000e+00" purity="4.0077978372573853e-01" nType="-1"/>
            </Node>
          </Node>
        </BinaryTree>
        <BinaryTree type="DecisionTree" boostWeight="1.6075767631461103e-02" itree="40">
          <Node pos="s" depth="0" NCoef="0" IVar="5" Cut="2.1574385166168213e+00" cType="0" res="-9.9000000000000000e+01" rms="0.0000000000000000e+00" purity="4.9313649535179138e-01" nType="0">
            <Node pos="l" depth="1" NCoef="0" IVar="-1" Cut="0.0000000000000000e+00" cType="1" res="-9.9000000000000000e+01" rms="0.0000000000000000e+00" purity="5.9519839286804199e-01" nType="1"/>
            <Node pos="r" depth="1" NCoef="0" IVar="1" Cut="1.4270956420898438e+02" cType="1" res="-9.9000000000000000e+01" rms="0.0000000000000000e+00" purity="4.8767548799514771e-01" nType="0">
              <Node pos="l" depth="2" NCoef="0" IVar="6" Cut="3.2523350715637207e+00" cType="1" res="-9.9000000000000000e+01" rms="0.0000000000000000e+00" purity="4.9312067031860352e-01" nType="0">
                <Node pos="l" depth="3" NCoef="0" IVar="1" Cut="5.0394275665283203e+01" cType="0" res="-9.9000000000000000e+01" rms="0.0000000000000000e+00" purity="4.9944493174552917e-01" nType="0">
                  <Node pos="l" depth="4" NCoef="0" IVar="-1" Cut="0.0000000000000000e+00" cType="1" res="-9.9000000000000000e+01" rms="0.0000000000000000e+00" purity="5.0705432891845703e-01" nType="1"/>
                  <Node pos="r" depth="4" NCoef="0" IVar="-1" Cut="0.0000000000000000e+00" cType="1" res="-9.9000000000000000e+01" rms="0.0000000000000000e+00" purity="4.4160413742065430e-01" nType="-1"/>
                </Node>
                <Node pos="r" depth="3" NCoef="0" IVar="-1" Cut="0.0000000000000000e+00" cType="1" res="-9.9000000000000000e+01" rms="0.0000000000000000e+00" purity="4.1991198062896729e-01" nType="-1"/>
              </Node>
              <Node pos="r" depth="2" NCoef="0" IVar="-1" Cut="0.0000000000000000e+00" cType="1" res="-9.9000000000000000e+01" rms="0.0000000000000000e+00" purity="4.0327876806259155e-01" nType="-1"/>
            </Node>
          </Node>
        </BinaryTree>
        <BinaryTree type="DecisionTree" boostWeight="1.7691829824654844e-02" itree="41">
          <Node pos="s" depth="0" NCoef="0" IVar="5" Cut="2.1574385166168213e+00" cType="0" res="-9.9000000000000000e+01" rms="0.0000000000000000e+00" purity="4.9091789126396179e-01" nType="0">
            <Node pos="l" depth="1" NCoef="0" IVar="-1" Cut="0.0000000000000000e+00" cType="1" res="-9.9000000000000000e+01" rms="0.0000000000000000e+00" purity="5.9131932258605957e-01" nType="1"/>
            <Node pos="r" depth="1" NCoef="0" IVar="5" Cut="8.3756458759307861e-01" cType="0" res="-9.9000000000000000e+01" rms="0.0000000000000000e+00" purity="4.8555225133895874e-01" nType="0">
              <Node pos="l" depth="2" NCoef="0" IVar="1" Cut="1.3345434570312500e+02" cType="1" res="-9.9000000000000000e+01" rms="0.0000000000000000e+00" purity="4.9246263504028320e-01" nType="0">
                <Node pos="l" depth="3" NCoef="0" IVar="1" Cut="6.4246765136718750e+01" cType="0" res="-9.9000000000000000e+01" rms="0.0000000000000000e+00" purity="4.9885562062263489e-01" nType="0">
                  <Node pos="l" depth="4" NCoef="0" IVar="-1" Cut="0.0000000000000000e+00" cType="1" res="-9.9000000000000000e+01" rms="0.0000000000000000e+00" purity="5.0926351547241211e-01" nType="1"/>
                  <Node pos="r" depth="4" NCoef="0" IVar="-1" Cut="0.0000000000000000e+00" cType="1" res="-9.9000000000000000e+01" rms="0.0000000000000000e+00" purity="4.6147179603576660e-01" nType="-1"/>
                </Node>
                <Node pos="r" depth="3" NCoef="0" IVar="-1" Cut="0.0000000000000000e+00" cType="1" res="-9.9000000000000000e+01" rms="0.0000000000000000e+00" purity="4.3331697583198547e-01" nType="-1"/>
              </Node>
              <Node pos="r" depth="2" NCoef="0" IVar="-1" Cut="0.0000000000000000e+00" cType="1" res="-9.9000000000000000e+01" rms="0.0000000000000000e+00" purity="4.2699256539344788e-01" nType="-1"/>
            </Node>
          </Node>
        </BinaryTree>
        <BinaryTree type="DecisionTree" boostWeight="1.9210845431200791e-02" itree="42">
          <Node pos="s" depth="0" NCoef="0" IVar="5" Cut="2.1574385166168213e+00" cType="0" res="-9.9000000000000000e+01" rms="0.0000000000000000e+00" purity="4.8960775136947632e-01" nType="0">
            <Node pos="l" depth="1" NCoef="0" IVar="-1" Cut="0.0000000000000000e+00" cType="1" res="-9.9000000000000000e+01" rms="0.0000000000000000e+00" purity="5.8703708648681641e-01" nType="1"/>
            <Node pos="r" depth="1" NCoef="0" IVar="4" Cut="6.2999939918518066e-01" cType="0" res="-9.9000000000000000e+01" rms="0.0000000000000000e+00" purity="4.8440742492675781e-01" nType="0">
              <Node pos="l" depth="2" NCoef="0" IVar="4" Cut="2.6659045219421387e+00" cType="1" res="-9.9000000000000000e+01" rms="0.0000000000000000e+00" purity="4.8977270722389221e-01" nType="0">
                <Node pos="l" depth="3" NCoef="0" IVar="1" Cut="9.0159797668457031e+01" cType="1" res="-9.9000000000000000e+01" rms="0.0000000000000000e+00" purity="4.9524179100990295e-01" nType="0">
                  <Node pos="l" depth="4" NCoef="0" IVar="-1" Cut="0.0000000000000000e+00" cType="1" res="-9.9000000000000000e+01" rms="0.0000000000000000e+00" purity="5.1472496986389160e-01" nType="1"/>
                  <Node pos="r" depth="4" NCoef="0" IVar="-1" Cut="0.0000000000000000e+00" cType="1" res="-9.9000000000000000e+01" rms="0.0000000000000000e+00" purity="4.7366842627525330e-01" nType="-1"/>
                </Node>
                <Node pos="r" depth="3" NCoef="0" IVar="-1" Cut="0.0000000000000000e+00" cType="1" res="-9.9000000000000000e+01" rms="0.0000000000000000e+00" purity="4.1359081864356995e-01" nType="-1"/>
              </Node>
              <Node pos="r" depth="2" NCoef="0" IVar="-1" Cut="0.0000000000000000e+00" cType="1" res="-9.9000000000000000e+01" rms="0.0000000000000000e+00" purity="4.1193944215774536e-01" nType="-1"/>
            </Node>
          </Node>
        </BinaryTree>
        <BinaryTree type="DecisionTree" boostWeight="1.8739459936498486e-02" itree="43">
          <Node pos="s" depth="0" NCoef="0" IVar="2" Cut="2.5543228149414062e+02" cType="0" res="-9.9000000000000000e+01" rms="0.0000000000000000e+00" purity="4.8981395363807678e-01" nType="0">
            <Node pos="l" depth="1" NCoef="0" IVar="-1" Cut="0.0000000000000000e+00" cType="1" res="-9.9000000000000000e+01" rms="0.0000000000000000e+00" purity="5.6034719944000244e-01" nType="1"/>
            <Node pos="r" depth="1" NCoef="0" IVar="3" Cut="2.8113800048828125e+02" cType="1" res="-9.9000000000000000e+01" rms="0.0000000000000000e+00" purity="4.8311117291450500e-01" nType="0">
              <Node pos="l" depth="2" NCoef="0" IVar="0" Cut="1.4079318237304688e+02" cType="0" res="-9.9000000000000000e+01" rms="0.0000000000000000e+00" purity="4.9205857515335083e-01" nType="0">
                <Node pos="l" depth="3" NCoef="0" IVar="-1" Cut="1.1585385799407959e+00" cType="0" res="-9.9000000000000000e+01" rms="0.0000000000000000e+00" purity="5.5088406801223755e-01" nType="1"/>
                <Node pos="r" depth="3" NCoef="0" IVar="-1" Cut="3.2457237243652344e+00" cType="1" res="-9.9000000000000000e+01" rms="0.0000000000000000e+00" purity="4.8302042484283447e-01" nType="-1"/>
              </Node>
              <Node pos="r" depth="2" NCoef="0" IVar="-1" Cut="1.9026200771331787e+00" cType="1" res="-9.9000000000000000e+01" rms="0.0000000000000000e+00" purity="4.3205973505973816e-01" nType="-1"/>
            </Node>
          </Node>
        </BinaryTree>
        <BinaryTree type="DecisionTree" boostWeight="1.5870901761194704e-02" itree="44">
          <Node pos="s" depth="0" NCoef="0" IVar="5" Cut="2.1574385166168213e+00" cType="0" res="-9.9000000000000000e+01" rms="0.0000000000000000e+00" purity="4.9280834197998047e-01" nType="0">
            <Node pos="l" depth="1" NCoef="0" IVar="-1" Cut="0.0000000000000000e+00" cType="1" res="-9.9000000000000000e+01" rms="0.0000000000000000e+00" purity="5.8088928461074829e-01" nType="1"/>
            <Node pos="r" depth="1" NCoef="0" IVar="4" Cut="6.2999939918518066e-01" cType="0" res="-9.9000000000000000e+01" rms="0.0000000000000000e+00" purity="4.8811796307563782e-01" nType="0">
              <Node pos="l" depth="2" NCoef="0" IVar="6" Cut="3.1767895221710205e+00" cType="1" res="-9.9000000000000000e+01" rms="0.0000000000000000e+00" purity="4.9329730868339539e-01" nType="0">
                <Node pos="l" depth="3" NCoef="0" IVar="3" Cut="2.8702069091796875e+02" cType="1" res="-9.9000000000000000e+01" rms="0.0000000000000000e+00" purity="4.9984145164489746e-01" nType="0">
                  <Node pos="l" depth="4" NCoef="0" IVar="-1" Cut="0.0000000000000000e+00" cType="1" res="-9.9000000000000000e+01" rms="0.0000000000000000e+00" purity="5.0836980342864990e-01" nType="1"/>
                  <Node pos="r" depth="4" NCoef="0" IVar="-1" Cut="0.0000000000000000e+00" cType="1" res="-9.9000000000000000e+01" rms="0.0000000000000000e+00" purity="4.5714607834815979e-01" nType="-1"/>
                </Node>
                <Node pos="r" depth="3" NCoef="0" IVar="-1" Cut="0.0000000000000000e+00" cType="1" res="-9.9000000000000000e+01" rms="0.0000000000000000e+00" purity="4.3674167990684509e-01" nType="-1"/>
              </Node>
              <Node pos="r" depth="2" NCoef="0" IVar="-1" Cut="0.0000000000000000e+00" cType="1" res="-9.9000000000000000e+01" rms="0.0000000000000000e+00" purity="4.1806259751319885e-01" nType="-1"/>
            </Node>
          </Node>
        </BinaryTree>
        <BinaryTree type="DecisionTree" boostWeight="1.7574102278567309e-02" itree="45">
          <Node pos="s" depth="0" NCoef="0" IVar="2" Cut="2.5543228149414062e+02" cType="0" res="-9.9000000000000000e+01" rms="0.0000000000000000e+00" purity="4.9115967750549316e-01" nType="0">
            <Node pos="l" depth="1" NCoef="0" IVar="-1" Cut="0.0000000000000000e+00" cType="1" res="-9.9000000000000000e+01" rms="0.0000000000000000e+00" purity="5.5614078044891357e-01" nType="1"/>
            <Node pos="r" depth="1" NCoef="0" IVar="4" Cut="7.7777796983718872e-01" cType="0" res="-9.9000000000000000e+01" rms="0.0000000000000000e+00" purity="4.8499158024787903e-01" nType="0">
              <Node pos="l" depth="2" NCoef="0" IVar="4" Cut="2.4405896663665771e+00" cType="1" res="-9.9000000000000000e+01" rms="0.0000000000000000e+00" purity="4.9218404293060303e-01" nType="0">
                <Node pos="l" depth="3" NCoef="0" IVar="3" Cut="2.8216714477539062e+02" cType="1" res="-9.9000000000000000e+01" rms="0.0000000000000000e+00" purity="5.0004643201828003e-01" nType="0">
                  <Node pos="l" depth="4" NCoef="0" IVar="-1" Cut="0.0000000000000000e+00" cType="1" res="-9.9000000000000000e+01" rms="0.0000000000000000e+00" purity="5.0900387763977051e-01" nType="1"/>
                  <Node pos="r" depth="4" NCoef="0" IVar="-1" Cut="0.0000000000000000e+00" cType="1" res="-9.9000000000000000e+01" rms="0.0000000000000000e+00" purity="4.4821968674659729e-01" nType="-1"/>
                </Node>
                <Node pos="r" depth="3" NCoef="0" IVar="-1" Cut="0.0000000000000000e+00" cType="1" res="-9.9000000000000000e+01" rms="0.0000000000000000e+00" purity="4.4209888577461243e-01" nType="-1"/>
              </Node>
              <Node pos="r" depth="2" NCoef="0" IVar="-1" Cut="6.3972473144531250e-01" cType="0" res="-9.9000000000000000e+01" rms="0.0000000000000000e+00" purity="4.3155756592750549e-01" nType="-1"/>
            </Node>
          </Node>
        </BinaryTree>
        <BinaryTree type="DecisionTree" boostWeight="2.0883125321561093e-02" itree="46">
          <Node pos="s" depth="0" NCoef="0" IVar="5" Cut="1.7133851051330566e+00" cType="0" res="-9.9000000000000000e+01" rms="0.0000000000000000e+00" purity="4.8961481451988220e-01" nType="0">
            <Node pos="l" depth="1" NCoef="0" IVar="6" Cut="1.2221305370330811e+00" cType="1" res="-9.9000000000000000e+01" rms="0.0000000000000000e+00" purity="5.4510551691055298e-01" nType="0">
              <Node pos="l" depth="2" NCoef="0" IVar="-1" Cut="0.0000000000000000e+00" cType="1" res="-9.9000000000000000e+01" rms="0.0000000000000000e+00" purity="5.8581590652465820e-01" nType="1"/>
              <Node pos="r" depth="2" NCoef="0" IVar="-1" Cut="0.0000000000000000e+00" cType="1" res="-9.9000000000000000e+01" rms="0.0000000000000000e+00" purity="4.9639892578125000e-01" nType="-1"/>
            </Node>
            <Node pos="r" depth="1" NCoef="0" IVar="5" Cut="7.6548361778259277e-01" cType="0" res="-9.9000000000000000e+01" rms="0.0000000000000000e+00" purity="4.8229855298995972e-01" nType="0">
              <Node pos="l" depth="2" NCoef="0" IVar="1" Cut="7.0518844604492188e+01" cType="0" res="-9.9000000000000000e+01" rms="0.0000000000000000e+00" purity="4.8710098862648010e-01" nType="0">
                <Node pos="l" depth="3" NCoef="0" IVar="1" Cut="8.8737426757812500e+01" cType="1" res="-9.9000000000000000e+01" rms="0.0000000000000000e+00" purity="4.9532130360603333e-01" nType="0">
                  <Node pos="l" depth="4" NCoef="0" IVar="-1" Cut="0.0000000000000000e+00" cType="1" res="-9.9000000000000000e+01" rms="0.0000000000000000e+00" purity="5.3221738338470459e-01" nType="1"/>
                  <Node pos="r" depth="4" NCoef="0" IVar="-1" Cut="0.0000000000000000e+00" cType="1" res="-9.9000000000000000e+01" rms="0.0000000000000000e+00" purity="4.7626084089279175e-01" nType="-1"/>
                </Node>
                <Node pos="r" depth="3" NCoef="0" IVar="-1" Cut="2.1616107177734375e+02" cType="1" res="-9.9000000000000000e+01" rms="0.0000000000000000e+00" purity="4.6356725692749023e-01" nType="-1"/>
              </Node>
              <Node pos="r" depth="2" NCoef="0" IVar="-1" Cut="0.0000000000000000e+00" cType="1" res="-9.9000000000000000e+01" rms="0.0000000000000000e+00" purity="4.1026213765144348e-01" nType="-1"/>
            </Node>
          </Node>
        </BinaryTree>
        <BinaryTree type="DecisionTree" boostWeight="1.1764993053882325e-02" itree="47">
          <Node pos="s" depth="0" NCoef="0" IVar="5" Cut="1.7133851051330566e+00" cType="0" res="-9.9000000000000000e+01" rms="0.0000000000000000e+00" purity="4.9210366606712341e-01" nType="0">
            <Node pos="l" depth="1" NCoef="0" IVar="1" Cut="8.9213005065917969e+01" cType="1" res="-9.9000000000000000e+01" rms="0.0000000000000000e+00" purity="5.4510408639907837e-01" nType="0">
              <Node pos="l" depth="2" NCoef="0" IVar="-1" Cut="0.0000000000000000e+00" cType="1" res="-9.9000000000000000e+01" rms="0.0000000000000000e+00" purity="5.8192873001098633e-01" nType="1"/>
              <Node pos="r" depth="2" NCoef="0" IVar="-1" Cut="0.0000000000000000e+00" cType="1" res="-9.9000000000000000e+01" rms="0.0000000000000000e+00" purity="4.9652171134948730e-01" nType="-1"/>
            </Node>
            <Node pos="r" depth="1" NCoef="0" IVar="5" Cut="7.6548361778259277e-01" cType="0" res="-9.9000000000000000e+01" rms="0.0000000000000000e+00" purity="4.8511263728141785e-01" nType="0">
              <Node pos="l" depth="2" NCoef="0" IVar="3" Cut="2.8702069091796875e+02" cType="1" res="-9.9000000000000000e+01" rms="0.0000000000000000e+00" purity="4.8975735902786255e-01" nType="0">
                <Node pos="l" depth="3" NCoef="0" IVar="2" Cut="1.2248210906982422e+02" cType="0" res="-9.9000000000000000e+01" rms="0.0000000000000000e+00" purity="4.9543586373329163e-01" nType="0">
                  <Node pos="l" depth="4" NCoef="0" IVar="-1" Cut="0.0000000000000000e+00" cType="1" res="-9.9000000000000000e+01" rms="0.0000000000000000e+00" purity="5.0064587593078613e-01" nType="1"/>
                  <Node pos="r" depth="4" NCoef="0" IVar="-1" Cut="0.0000000000000000e+00" cType="1" res="-9.9000000000000000e+01" rms="0.0000000000000000e+00" purity="4.3789806962013245e-01" nType="-1"/>
                </Node>
                <Node pos="r" depth="3" NCoef="0" IVar="-1" Cut="1.5226514339447021e+00" cType="1" res="-9.9000000000000000e+01" rms="0.0000000000000000e+00" purity="4.5592236518859863e-01" nType="-1"/>
              </Node>
              <Node pos="r" depth="2" NCoef="0" IVar="-1" Cut="0.0000000000000000e+00" cType="1" res="-9.9000000000000000e+01" rms="0.0000000000000000e+00" purity="4.1534456610679626e-01" nType="-1"/>
            </Node>
          </Node>
        </BinaryTree>
        <BinaryTree type="DecisionTree" boostWeight="1.1781263626655375e-02" itree="48">
          <Node pos="s" depth="0" NCoef="0" IVar="5" Cut="1.7133851051330566e+00" cType="0" res="-9.9000000000000000e+01" rms="0.0000000000000000e+00" purity="4.9086114764213562e-01" nType="0">
            <Node pos="l" depth="1" NCoef="0" IVar="2" Cut="2.3602514648437500e+02" cType="0" res="-9.9000000000000000e+01" rms="0.0000000000000000e+00" purity="5.4495340585708618e-01" nType="0">
              <Node pos="l" depth="2" NCoef="0" IVar="-1" Cut="0.0000000000000000e+00" cType="1" res="-9.9000000000000000e+01" rms="0.0000000000000000e+00" purity="5.8144134283065796e-01" nType="1"/>
              <Node pos="r" depth="2" NCoef="0" IVar="-1" Cut="0.0000000000000000e+00" cType="1" res="-9.9000000000000000e+01" rms="0.0000000000000000e+00" purity="4.9991798400878906e-01" nType="-1"/>
            </Node>
            <Node pos="r" depth="1" NCoef="0" IVar="-1" Cut="7.6548361778259277e-01" cType="0" res="-9.9000000000000000e+01" rms="0.0000000000000000e+00" purity="4.8372551798820496e-01" nType="-1"/>
          </Node>
        </BinaryTree>
        <BinaryTree type="DecisionTree" boostWeight="2.4260413895409481e-02" itree="49">
          <Node pos="s" depth="0" NCoef="0" IVar="2" Cut="1.9168505859375000e+02" cType="0" res="-9.9000000000000000e+01" rms="0.0000000000000000e+00" purity="4.9351480603218079e-01" nType="0">
            <Node pos="l" depth="1" NCoef="0" IVar="1" Cut="7.2369895935058594e+01" cType="0" res="-9.9000000000000000e+01" rms="0.0000000000000000e+00" purity="5.2131944894790649e-01" nType="0">
              <Node pos="l" depth="2" NCoef="0" IVar="1" Cut="9.4181480407714844e+01" cType="1" res="-9.9000000000000000e+01" rms="0.0000000000000000e+00" purity="5.4478609561920166e-01" nType="0">
                <Node pos="l" depth="3" NCoef="0" IVar="-1" Cut="0.0000000000000000e+00" cType="1" res="-9.9000000000000000e+01" rms="0.0000000000000000e+00" purity="6.0398745536804199e-01" nType="1"/>
                <Node pos="r" depth="3" NCoef="0" IVar="3" Cut="2.7031399536132812e+02" cType="1" res="-9.9000000000000000e+01" rms="0.0000000000000000e+00" purity="5.0035268068313599e-01" nType="0">
                  <Node pos="l" depth="4" NCoef="0" IVar="-1" Cut="0.0000000000000000e+00" cType="1" res="-9.9000000000000000e+01" rms="0.0000000000000000e+00" purity="5.3173547983169556e-01" nType="1"/>
                  <Node pos="r" depth="4" NCoef="0" IVar="-1" Cut="0.0000000000000000e+00" cType="1" res="-9.9000000000000000e+01" rms="0.0000000000000000e+00" purity="4.6195325255393982e-01" nType="-1"/>
                </Node>
              </Node>
              <Node pos="r" depth="2" NCoef="0" IVar="-1" Cut="0.0000000000000000e+00" cType="1" res="-9.9000000000000000e+01" rms="0.0000000000000000e+00" purity="4.5803776383399963e-01" nType="-1"/>
            </Node>
            <Node pos="r" depth="1" NCoef="0" IVar="4" Cut="1.2002776861190796e+00" cType="0" res="-9.9000000000000000e+01" rms="0.0000000000000000e+00" purity="4.8072439432144165e-01" nType="0">
              <Node pos="l" depth="2" NCoef="0" IVar="6" Cut="3.2457237243652344e+00" cType="1" res="-9.9000000000000000e+01" rms="0.0000000000000000e+00" purity="4.9365812540054321e-01" nType="0">
                <Node pos="l" depth="3" NCoef="0" IVar="3" Cut="2.0713217163085938e+02" cType="1" res="-9.9000000000000000e+01" rms="0.0000000000000000e+00" purity="5.0161767005920410e-01" nType="0">
                  <Node pos="l" depth="4" NCoef="0" IVar="-1" Cut="0.0000000000000000e+00" cType="1" res="-9.9000000000000000e+01" rms="0.0000000000000000e+00" purity="5.1205378770828247e-01" nType="1"/>
                  <Node pos="r" depth="4" NCoef="0" IVar="-1" Cut="0.0000000000000000e+00" cType="1" res="-9.9000000000000000e+01" rms="0.0000000000000000e+00" purity="4.5631149411201477e-01" nType="-1"/>
                </Node>
                <Node pos="r" depth="3" NCoef="0" IVar="-1" Cut="0.0000000000000000e+00" cType="1" res="-9.9000000000000000e+01" rms="0.0000000000000000e+00" purity="4.3538406491279602e-01" nType="-1"/>
              </Node>
              <Node pos="r" depth="2" NCoef="0" IVar="-1" Cut="8.6948974609375000e+01" cType="1" res="-9.9000000000000000e+01" rms="0.0000000000000000e+00" purity="4.4321197271347046e-01" nType="-1"/>
            </Node>
          </Node>
        </BinaryTree>
        <BinaryTree type="DecisionTree" boostWeight="1.3588329814224977e-02" itree="50">
          <Node pos="s" depth="0" NCoef="0" IVar="0" Cut="1.8484494018554688e+02" cType="0" res="-9.9000000000000000e+01" rms="0.0000000000000000e+00" purity="4.9320983886718750e-01" nType="0">
            <Node pos="l" depth="1" NCoef="0" IVar="1" Cut="9.0208541870117188e+01" cType="1" res="-9.9000000000000000e+01" rms="0.0000000000000000e+00" purity="5.4512202739715576e-01" nType="0">
              <Node pos="l" depth="2" NCoef="0" IVar="-1" Cut="0.0000000000000000e+00" cType="1" res="-9.9000000000000000e+01" rms="0.0000000000000000e+00" purity="5.7946491241455078e-01" nType="1"/>
              <Node pos="r" depth="2" NCoef="0" IVar="-1" Cut="0.0000000000000000e+00" cType="1" res="-9.9000000000000000e+01" rms="0.0000000000000000e+00" purity="4.9742779135704041e-01" nType="-1"/>
            </Node>
            <Node pos="r" depth="1" NCoef="0" IVar="5" Cut="7.8692859411239624e-01" cType="0" res="-9.9000000000000000e+01" rms="0.0000000000000000e+00" purity="4.8565447330474854e-01" nType="0">
              <Node pos="l" depth="2" NCoef="0" IVar="4" Cut="6.6528159379959106e-01" cType="0" res="-9.9000000000000000e+01" rms="0.0000000000000000e+00" purity="4.9054488539695740e-01" nType="0">
                <Node pos="l" depth="3" NCoef="0" IVar="1" Cut="7.0444847106933594e+01" cType="0" res="-9.9000000000000000e+01" rms="0.0000000000000000e+00" purity="4.9413865804672241e-01" nType="0">
                  <Node pos="l" depth="4" NCoef="0" IVar="-1" Cut="0.0000000000000000e+00" cType="1" res="-9.9000000000000000e+01" rms="0.0000000000000000e+00" purity="5.0378870964050293e-01" nType="1"/>
                  <Node pos="r" depth="4" NCoef="0" IVar="-1" Cut="0.0000000000000000e+00" cType="1" res="-9.9000000000000000e+01" rms="0.0000000000000000e+00" purity="4.6830448508262634e-01" nType="-1"/>
                </Node>
                <Node pos="r" depth="3" NCoef="0" IVar="-1" Cut="0.0000000000000000e+00" cType="1" res="-9.9000000000000000e+01" rms="0.0000000000000000e+00" purity="4.4805592298507690e-01" nType="-1"/>
              </Node>
              <Node pos="r" depth="2" NCoef="0" IVar="-1" Cut="0.0000000000000000e+00" cType="1" res="-9.9000000000000000e+01" rms="0.0000000000000000e+00" purity="4.2626744508743286e-01" nType="-1"/>
            </Node>
          </Node>
        </BinaryTree>
        <BinaryTree type="DecisionTree" boostWeight="1.1358426525971807e-02" itree="51">
          <Node pos="s" depth="0" NCoef="0" IVar="0" Cut="1.8484494018554688e+02" cType="0" res="-9.9000000000000000e+01" rms="0.0000000000000000e+00" purity="4.9246549606323242e-01" nType="0">
            <Node pos="l" depth="1" NCoef="0" IVar="-1" Cut="9.0208541870117188e+01" cType="1" res="-9.9000000000000000e+01" rms="0.0000000000000000e+00" purity="5.4481256008148193e-01" nType="1"/>
            <Node pos="r" depth="1" NCoef="0" IVar="-1" Cut="7.8692859411239624e-01" cType="0" res="-9.9000000000000000e+01" rms="0.0000000000000000e+00" purity="4.8484662175178528e-01" nType="-1"/>
          </Node>
        </BinaryTree>
        <BinaryTree type="DecisionTree" boostWeight="1.5525783494800976e-02" itree="52">
          <Node pos="s" depth="0" NCoef="0" IVar="1" Cut="1.4270956420898438e+02" cType="1" res="-9.9000000000000000e+01" rms="0.0000000000000000e+00" purity="4.9463912844657898e-01" nType="0">
            <Node pos="l" depth="1" NCoef="0" IVar="5" Cut="1.3808562755584717e+00" cType="0" res="-9.9000000000000000e+01" rms="0.0000000000000000e+00" purity="4.9941605329513550e-01" nType="0">
              <Node pos="l" depth="2" NCoef="0" IVar="6" Cut="1.6819815635681152e+00" cType="1" res="-9.9000000000000000e+01" rms="0.0000000000000000e+00" purity="5.3892815113067627e-01" nType="0">
                <Node pos="l" depth="3" NCoef="0" IVar="1" Cut="9.5775756835937500e+01" cType="1" res="-9.9000000000000000e+01" rms="0.0000000000000000e+00" purity="5.6291276216506958e-01" nType="0">
                  <Node pos="l" depth="4" NCoef="0" IVar="-1" Cut="0.0000000000000000e+00" cType="1" res="-9.9000000000000000e+01" rms="0.0000000000000000e+00" purity="5.9974694252014160e-01" nType="1"/>
                  <Node pos="r" depth="4" NCoef="0" IVar="-1" Cut="0.0000000000000000e+00" cType="1" res="-9.9000000000000000e+01" rms="0.0000000000000000e+00" purity="4.9178791046142578e-01" nType="-1"/>
                </Node>
                <Node pos="r" depth="3" NCoef="0" IVar="-1" Cut="0.0000000000000000e+00" cType="1" res="-9.9000000000000000e+01" rms="0.0000000000000000e+00" purity="4.9252662062644958e-01" nType="-1"/>
              </Node>
              <Node pos="r" depth="2" NCoef="0" IVar="5" Cut="8.1269550323486328e-01" cType="0" res="-9.9000000000000000e+01" rms="0.0000000000000000e+00" purity="4.8699918389320374e-01" nType="0">
                <Node pos="l" depth="3" NCoef="0" IVar="1" Cut="7.0626701354980469e+01" cType="0" res="-9.9000000000000000e+01" rms="0.0000000000000000e+00" purity="4.9251067638397217e-01" nType="0">
                  <Node pos="l" depth="4" NCoef="0" IVar="-1" Cut="0.0000000000000000e+00" cType="1" res="-9.9000000000000000e+01" rms="0.0000000000000000e+00" purity="5.0109654664993286e-01" nType="1"/>
                  <Node pos="r" depth="4" NCoef="0" IVar="-1" Cut="0.0000000000000000e+00" cType="1" res="-9.9000000000000000e+01" rms="0.0000000000000000e+00" purity="4.6979391574859619e-01" nType="-1"/>
                </Node>
                <Node pos="r" depth="3" NCoef="0" IVar="-1" Cut="0.0000000000000000e+00" cType="1" res="-9.9000000000000000e+01" rms="0.0000000000000000e+00" purity="4.4112712144851685e-01" nType="-1"/>
              </Node>
            </Node>
            <Node pos="r" depth="1" NCoef="0" IVar="-1" Cut="0.0000000000000000e+00" cType="1" res="-9.9000000000000000e+01" rms="0.0000000000000000e+00" purity="4.1970431804656982e-01" nType="-1"/>
          </Node>
        </BinaryTree>
        <BinaryTree type="DecisionTree" boostWeight="2.0804098871347404e-02" itree="53">
          <Node pos="s" depth="0" NCoef="0" IVar="0" Cut="1.1561857604980469e+02" cType="0" res="-9.9000000000000000e+01" rms="0.0000000000000000e+00" purity="4.9421560764312744e-01" nType="0">
            <Node pos="l" depth="1" NCoef="0" IVar="1" Cut="1.1951593780517578e+02" cType="1" res="-9.9000000000000000e+01" rms="0.0000000000000000e+00" purity="5.2136367559432983e-01" nType="0">
              <Node pos="l" depth="2" NCoef="0" IVar="5" Cut="1.3757120370864868e+00" cType="0" res="-9.9000000000000000e+01" rms="0.0000000000000000e+00" purity="5.3422743082046509e-01" nType="0">
                <Node pos="l" depth="3" NCoef="0" IVar="-1" Cut="7.2787429809570312e+01" cType="0" res="-9.9000000000000000e+01" rms="0.0000000000000000e+00" purity="5.5548536777496338e-01" nType="1"/>
                <Node pos="r" depth="3" NCoef="0" IVar="-1" Cut="0.0000000000000000e+00" cType="1" res="-9.9000000000000000e+01" rms="0.0000000000000000e+00" purity="4.8166680335998535e-01" nType="-1"/>
              </Node>
              <Node pos="r" depth="2" NCoef="0" IVar="-1" Cut="0.0000000000000000e+00" cType="1" res="-9.9000000000000000e+01" rms="0.0000000000000000e+00" purity="4.5610579848289490e-01" nType="-1"/>
            </Node>
            <Node pos="r" depth="1" NCoef="0" IVar="5" Cut="7.5713282823562622e-01" cType="0" res="-9.9000000000000000e+01" rms="0.0000000000000000e+00" purity="4.8047709465026855e-01" nType="0">
              <Node pos="l" depth="2" NCoef="0" IVar="2" Cut="1.6747734069824219e+02" cType="0" res="-9.9000000000000000e+01" rms="0.0000000000000000e+00" purity="4.8518395423889160e-01" nType="0">
                <Node pos="l" depth="3" NCoef="0" IVar="3" Cut="2.1410316467285156e+02" cType="1" res="-9.9000000000000000e+01" rms="0.0000000000000000e+00" purity="5.0346541404724121e-01" nType="0">
                  <Node pos="l" depth="4" NCoef="0" IVar="-1" Cut="0.0000000000000000e+00" cType="1" res="-9.9000000000000000e+01" rms="0.0000000000000000e+00" purity="5.2148061990737915e-01" nType="1"/>
                  <Node pos="r" depth="4" NCoef="0" IVar="-1" Cut="0.0000000000000000e+00" cType="1" res="-9.9000000000000000e+01" rms="0.0000000000000000e+00" purity="4.7227147221565247e-01" nType="-1"/>
                </Node>
                <Node pos="r" depth="3" NCoef="0" IVar="-1" Cut="1.3411108255386353e+00" cType="0" res="-9.9000000000000000e+01" rms="0.0000000000000000e+00" purity="4.7307845950126648e-01" nType="-1"/>
              </Node>
              <Node pos="r" depth="2" NCoef="0" IVar="-1" Cut="0.0000000000000000e+00" cType="1" res="-9.9000000000000000e+01" rms="0.0000000000000000e+00" purity="4.2332592606544495e-01" nType="-1"/>
            </Node>
          </Node>
        </BinaryTree>
        <BinaryTree type="DecisionTree" boostWeight="1.5281349610828636e-02" itree="54">
          <Node pos="s" depth="0" NCoef="0" IVar="0" Cut="1.1561857604980469e+02" cType="0" res="-9.9000000000000000e+01" rms="0.0000000000000000e+00" purity="4.9577927589416504e-01" nType="0">
            <Node pos="l" depth="1" NCoef="0" IVar="3" Cut="4.0284204101562500e+02" cType="1" res="-9.9000000000000000e+01" rms="0.0000000000000000e+00" purity="5.2048385143280029e-01" nType="0">
              <Node pos="l" depth="2" NCoef="0" IVar="5" Cut="1.3504488468170166e+00" cType="0" res="-9.9000000000000000e+01" rms="0.0000000000000000e+00" purity="5.3354638814926147e-01" nType="0">
                <Node pos="l" depth="3" NCoef="0" IVar="1" Cut="1.0110221099853516e+02" cType="1" res="-9.9000000000000000e+01" rms="0.0000000000000000e+00" purity="5.5223786830902100e-01" nType="0">
                  <Node pos="l" depth="4" NCoef="0" IVar="-1" Cut="0.0000000000000000e+00" cType="1" res="-9.9000000000000000e+01" rms="0.0000000000000000e+00" purity="5.7835423946380615e-01" nType="1"/>
                  <Node pos="r" depth="4" NCoef="0" IVar="-1" Cut="0.0000000000000000e+00" cType="1" res="-9.9000000000000000e+01" rms="0.0000000000000000e+00" purity="4.9417746067047119e-01" nType="-1"/>
                </Node>
                <Node pos="r" depth="3" NCoef="0" IVar="-1" Cut="0.0000000000000000e+00" cType="1" res="-9.9000000000000000e+01" rms="0.0000000000000000e+00" purity="4.8653909564018250e-01" nType="-1"/>
              </Node>
              <Node pos="r" depth="2" NCoef="0" IVar="-1" Cut="0.0000000000000000e+00" cType="1" res="-9.9000000000000000e+01" rms="0.0000000000000000e+00" purity="4.6219208836555481e-01" nType="-1"/>
            </Node>
            <Node pos="r" depth="1" NCoef="0" IVar="-1" Cut="7.5713282823562622e-01" cType="0" res="-9.9000000000000000e+01" rms="0.0000000000000000e+00" purity="4.8328000307083130e-01" nType="-1"/>
          </Node>
        </BinaryTree>
        <BinaryTree type="DecisionTree" boostWeight="1.6948266611862016e-02" itree="55">
          <Node pos="s" depth="0" NCoef="0" IVar="1" Cut="1.4270956420898438e+02" cType="1" res="-9.9000000000000000e+01" rms="0.0000000000000000e+00" purity="4.9866241216659546e-01" nType="0">
            <Node pos="l" depth="1" NCoef="0" IVar="2" Cut="2.1925344848632812e+02" cType="0" res="-9.9000000000000000e+01" rms="0.0000000000000000e+00" purity="5.0300824642181396e-01" nType="0">
              <Node pos="l" depth="2" NCoef="0" IVar="1" Cut="7.4413993835449219e+01" cType="0" res="-9.9000000000000000e+01" rms="0.0000000000000000e+00" purity="5.4639852046966553e-01" nType="0">
                <Node pos="l" depth="3" NCoef="0" IVar="-1" Cut="9.4695999145507812e+01" cType="1" res="-9.9000000000000000e+01" rms="0.0000000000000000e+00" purity="5.8957022428512573e-01" nType="1"/>
                <Node pos="r" depth="3" NCoef="0" IVar="-1" Cut="0.0000000000000000e+00" cType="1" res="-9.9000000000000000e+01" rms="0.0000000000000000e+00" purity="4.5767682790756226e-01" nType="-1"/>
              </Node>
              <Node pos="r" depth="2" NCoef="0" IVar="4" Cut="8.8340288400650024e-01" cType="0" res="-9.9000000000000000e+01" rms="0.0000000000000000e+00" purity="4.9431091547012329e-01" nType="0">
                <Node pos="l" depth="3" NCoef="0" IVar="6" Cut="3.2575447559356689e+00" cType="1" res="-9.9000000000000000e+01" rms="0.0000000000000000e+00" purity="5.0113159418106079e-01" nType="0">
                  <Node pos="l" depth="4" NCoef="0" IVar="-1" Cut="0.0000000000000000e+00" cType="1" res="-9.9000000000000000e+01" rms="0.0000000000000000e+00" purity="5.0653785467147827e-01" nType="1"/>
                  <Node pos="r" depth="4" NCoef="0" IVar="-1" Cut="0.0000000000000000e+00" cType="1" res="-9.9000000000000000e+01" rms="0.0000000000000000e+00" purity="4.4960159063339233e-01" nType="-1"/>
                </Node>
                <Node pos="r" depth="3" NCoef="0" IVar="-1" Cut="9.8080551147460938e+01" cType="1" res="-9.9000000000000000e+01" rms="0.0000000000000000e+00" purity="4.5278164744377136e-01" nType="-1"/>
              </Node>
            </Node>
            <Node pos="r" depth="1" NCoef="0" IVar="-1" Cut="0.0000000000000000e+00" cType="1" res="-9.9000000000000000e+01" rms="0.0000000000000000e+00" purity="4.3031138181686401e-01" nType="-1"/>
          </Node>
        </BinaryTree>
        <BinaryTree type="DecisionTree" boostWeight="1.4533206039197114e-02" itree="56">
          <Node pos="s" depth="0" NCoef="0" IVar="2" Cut="2.1900529479980469e+02" cType="0" res="-9.9000000000000000e+01" rms="0.0000000000000000e+00" purity="4.9688524007797241e-01" nType="0">
            <Node pos="l" depth="1" NCoef="0" IVar="1" Cut="7.4220939636230469e+01" cType="0" res="-9.9000000000000000e+01" rms="0.0000000000000000e+00" purity="5.3499960899353027e-01" nType="0">
              <Node pos="l" depth="2" NCoef="0" IVar="-1" Cut="9.6983856201171875e+01" cType="1" res="-9.9000000000000000e+01" rms="0.0000000000000000e+00" purity="5.6626683473587036e-01" nType="1"/>
              <Node pos="r" depth="2" NCoef="0" IVar="-1" Cut="0.0000000000000000e+00" cType="1" res="-9.9000000000000000e+01" rms="0.0000000000000000e+00" purity="4.6165248751640320e-01" nType="-1"/>
            </Node>
            <Node pos="r" depth="1" NCoef="0" IVar="2" Cut="1.2054383850097656e+02" cType="0" res="-9.9000000000000000e+01" rms="0.0000000000000000e+00" purity="4.8905038833618164e-01" nType="0">
              <Node pos="l" depth="2" NCoef="0" IVar="6" Cut="1.1401995420455933e+00" cType="0" res="-9.9000000000000000e+01" rms="0.0000000000000000e+00" purity="4.9350124597549438e-01" nType="0">
                <Node pos="l" depth="3" NCoef="0" IVar="3" Cut="2.7534683227539062e+02" cType="1" res="-9.9000000000000000e+01" rms="0.0000000000000000e+00" purity="4.9842131137847900e-01" nType="0">
                  <Node pos="l" depth="4" NCoef="0" IVar="-1" Cut="0.0000000000000000e+00" cType="1" res="-9.9000000000000000e+01" rms="0.0000000000000000e+00" purity="5.0420665740966797e-01" nType="1"/>
                  <Node pos="r" depth="4" NCoef="0" IVar="-1" Cut="0.0000000000000000e+00" cType="1" res="-9.9000000000000000e+01" rms="0.0000000000000000e+00" purity="4.5753356814384460e-01" nType="-1"/>
                </Node>
                <Node pos="r" depth="3" NCoef="0" IVar="-1" Cut="0.0000000000000000e+00" cType="1" res="-9.9000000000000000e+01" rms="0.0000000000000000e+00" purity="4.3575307726860046e-01" nType="-1"/>
              </Node>
              <Node pos="r" depth="2" NCoef="0" IVar="-1" Cut="0.0000000000000000e+00" cType="1" res="-9.9000000000000000e+01" rms="0.0000000000000000e+00" purity="4.2914324998855591e-01" nType="-1"/>
            </Node>
          </Node>
        </BinaryTree>
        <BinaryTree type="DecisionTree" boostWeight="1.4338989368073833e-02" itree="57">
          <Node pos="s" depth="0" NCoef="0" IVar="5" Cut="2.1574385166168213e+00" cType="0" res="-9.9000000000000000e+01" rms="0.0000000000000000e+00" purity="4.9515807628631592e-01" nType="0">
            <Node pos="l" depth="1" NCoef="0" IVar="-1" Cut="0.0000000000000000e+00" cType="1" res="-9.9000000000000000e+01" rms="0.0000000000000000e+00" purity="5.7166415452957153e-01" nType="1"/>
            <Node pos="r" depth="1" NCoef="0" IVar="5" Cut="9.7121137380599976e-01" cType="0" res="-9.9000000000000000e+01" rms="0.0000000000000000e+00" purity="4.9109366536140442e-01" nType="0">
              <Node pos="l" depth="2" NCoef="0" IVar="4" Cut="6.5162575244903564e-01" cType="0" res="-9.9000000000000000e+01" rms="0.0000000000000000e+00" purity="4.9967548251152039e-01" nType="0">
                <Node pos="l" depth="3" NCoef="0" IVar="0" Cut="1.1681426239013672e+02" cType="0" res="-9.9000000000000000e+01" rms="0.0000000000000000e+00" purity="5.0402843952178955e-01" nType="0">
                  <Node pos="l" depth="4" NCoef="0" IVar="-1" Cut="0.0000000000000000e+00" cType="1" res="-9.9000000000000000e+01" rms="0.0000000000000000e+00" purity="5.2367490530014038e-01" nType="1"/>
                  <Node pos="r" depth="4" NCoef="0" IVar="-1" Cut="0.0000000000000000e+00" cType="1" res="-9.9000000000000000e+01" rms="0.0000000000000000e+00" purity="4.9235591292381287e-01" nType="-1"/>
                </Node>
                <Node pos="r" depth="3" NCoef="0" IVar="-1" Cut="0.0000000000000000e+00" cType="1" res="-9.9000000000000000e+01" rms="0.0000000000000000e+00" purity="4.5346680283546448e-01" nType="-1"/>
              </Node>
              <Node pos="r" depth="2" NCoef="0" IVar="2" Cut="1.3366076660156250e+02" cType="0" res="-9.9000000000000000e+01" rms="0.0000000000000000e+00" purity="4.6580669283866882e-01" nType="0">
                <Node pos="l" depth="3" NCoef="0" IVar="3" Cut="1.9499418640136719e+02" cType="1" res="-9.9000000000000000e+01" rms="0.0000000000000000e+00" purity="4.7998511791229248e-01" nType="0">
                  <Node pos="l" depth="4" NCoef="0" IVar="-1" Cut="0.0000000000000000e+00" cType="1" res="-9.9000000000000000e+01" rms="0.0000000000000000e+00" purity="5.0139069557189941e-01" nType="1"/>
                  <Node pos="r" depth="4" NCoef="0" IVar="-1" Cut="0.0000000000000000e+00" cType="1" res="-9.9000000000000000e+01" rms="0.0000000000000000e+00" purity="4.2754703760147095e-01" nType="-1"/>
                </Node>
                <Node pos="r" depth="3" NCoef="0" IVar="-1" Cut="0.0000000000000000e+00" cType="1" res="-9.9000000000000000e+01" rms="0.0000000000000000e+00" purity="4.1342651844024658e-01" nType="-1"/>
              </Node>
            </Node>
          </Node>
        </BinaryTree>
        <BinaryTree type="DecisionTree" boostWeight="1.8037709710955991e-02" itree="58">
          <Node pos="s" depth="0" NCoef="0" IVar="2" Cut="2.1900529479980469e+02" cType="0" res="-9.9000000000000000e+01" rms="0.0000000000000000e+00" purity="4.9571320414543152e-01" nType="0">
            <Node pos="l" depth="1" NCoef="0" IVar="6" Cut="1.4384001493453979e+00" cType="1" res="-9.9000000000000000e+01" rms="0.0000000000000000e+00" purity="5.3257626295089722e-01" nType="0">
              <Node pos="l" depth="2" NCoef="0" IVar="-1" Cut="9.2054878234863281e+01" cType="1" res="-9.9000000000000000e+01" rms="0.0000000000000000e+00" purity="5.6159293651580811e-01" nType="1"/>
              <Node pos="r" depth="2" NCoef="0" IVar="-1" Cut="0.0000000000000000e+00" cType="1" res="-9.9000000000000000e+01" rms="0.0000000000000000e+00" purity="4.6296980977058411e-01" nType="-1"/>
            </Node>
            <Node pos="r" depth="1" NCoef="0" IVar="4" Cut="1.1650693416595459e+00" cType="0" res="-9.9000000000000000e+01" rms="0.0000000000000000e+00" purity="4.8814111948013306e-01" nType="0">
              <Node pos="l" depth="2" NCoef="0" IVar="1" Cut="4.2971252441406250e+01" cType="0" res="-9.9000000000000000e+01" rms="0.0000000000000000e+00" purity="4.9738684296607971e-01" nType="0">
                <Node pos="l" depth="3" NCoef="0" IVar="3" Cut="2.6223791503906250e+02" cType="1" res="-9.9000000000000000e+01" rms="0.0000000000000000e+00" purity="5.0329363346099854e-01" nType="0">
                  <Node pos="l" depth="4" NCoef="0" IVar="-1" Cut="0.0000000000000000e+00" cType="1" res="-9.9000000000000000e+01" rms="0.0000000000000000e+00" purity="5.0945776700973511e-01" nType="1"/>
                  <Node pos="r" depth="4" NCoef="0" IVar="-1" Cut="0.0000000000000000e+00" cType="1" res="-9.9000000000000000e+01" rms="0.0000000000000000e+00" purity="4.5781531929969788e-01" nType="-1"/>
                </Node>
                <Node pos="r" depth="3" NCoef="0" IVar="-1" Cut="0.0000000000000000e+00" cType="1" res="-9.9000000000000000e+01" rms="0.0000000000000000e+00" purity="4.4392359256744385e-01" nType="-1"/>
              </Node>
              <Node pos="r" depth="2" NCoef="0" IVar="1" Cut="8.3241958618164062e+01" cType="1" res="-9.9000000000000000e+01" rms="0.0000000000000000e+00" purity="4.6330881118774414e-01" nType="0">
                <Node pos="l" depth="3" NCoef="0" IVar="-1" Cut="0.0000000000000000e+00" cType="1" res="-9.9000000000000000e+01" rms="0.0000000000000000e+00" purity="5.1633220911026001e-01" nType="1"/>
                <Node pos="r" depth="3" NCoef="0" IVar="-1" Cut="1.4052562713623047e+00" cType="0" res="-9.9000000000000000e+01" rms="0.0000000000000000e+00" purity="4.4540020823478699e-01" nType="-1"/>
              </Node>
            </Node>
          </Node>
        </BinaryTree>
        <BinaryTree type="DecisionTree" boostWeight="1.6054871186068732e-02" itree="59">
          <Node pos="s" depth="0" NCoef="0" IVar="5" Cut="1.0028998851776123e+00" cType="0" res="-9.9000000000000000e+01" rms="0.0000000000000000e+00" purity="4.9433284997940063e-01" nType="0">
            <Node pos="l" depth="1" NCoef="0" IVar="5" Cut="2.0888543128967285e+00" cType="0" res="-9.9000000000000000e+01" rms="0.0000000000000000e+00" purity="5.0532507896423340e-01" nType="0">
              <Node pos="l" depth="2" NCoef="0" IVar="-1" Cut="0.0000000000000000e+00" cType="1" res="-9.9000000000000000e+01" rms="0.0000000000000000e+00" purity="5.6241929531097412e-01" nType="1"/>
              <Node pos="r" depth="2" NCoef="0" IVar="4" Cut="6.4902353286743164e-01" cType="0" res="-9.9000000000000000e+01" rms="0.0000000000000000e+00" purity="5.0032693147659302e-01" nType="0">
                <Node pos="l" depth="3" NCoef="0" IVar="6" Cut="1.9455972909927368e+00" cType="1" res="-9.9000000000000000e+01" rms="0.0000000000000000e+00" purity="5.0489789247512817e-01" nType="0">
                  <Node pos="l" depth="4" NCoef="0" IVar="-1" Cut="0.0000000000000000e+00" cType="1" res="-9.9000000000000000e+01" rms="0.0000000000000000e+00" purity="5.2106171846389771e-01" nType="1"/>
                  <Node pos="r" depth="4" NCoef="0" IVar="-1" Cut="0.0000000000000000e+00" cType="1" res="-9.9000000000000000e+01" rms="0.0000000000000000e+00" purity="4.9232244491577148e-01" nType="-1"/>
                </Node>
                <Node pos="r" depth="3" NCoef="0" IVar="-1" Cut="0.0000000000000000e+00" cType="1" res="-9.9000000000000000e+01" rms="0.0000000000000000e+00" purity="4.5216333866119385e-01" nType="-1"/>
              </Node>
            </Node>
            <Node pos="r" depth="1" NCoef="0" IVar="3" Cut="2.0886665344238281e+02" cType="1" res="-9.9000000000000000e+01" rms="0.0000000000000000e+00" purity="4.6854209899902344e-01" nType="0">
              <Node pos="l" depth="2" NCoef="0" IVar="2" Cut="1.3333856201171875e+02" cType="0" res="-9.9000000000000000e+01" rms="0.0000000000000000e+00" purity="4.8184657096862793e-01" nType="0">
                <Node pos="l" depth="3" NCoef="0" IVar="1" Cut="1.0644947814941406e+02" cType="1" res="-9.9000000000000000e+01" rms="0.0000000000000000e+00" purity="4.9819159507751465e-01" nType="0">
                  <Node pos="l" depth="4" NCoef="0" IVar="-1" Cut="0.0000000000000000e+00" cType="1" res="-9.9000000000000000e+01" rms="0.0000000000000000e+00" purity="5.1280200481414795e-01" nType="1"/>
                  <Node pos="r" depth="4" NCoef="0" IVar="-1" Cut="0.0000000000000000e+00" cType="1" res="-9.9000000000000000e+01" rms="0.0000000000000000e+00" purity="4.6755820512771606e-01" nType="-1"/>
                </Node>
                <Node pos="r" depth="3" NCoef="0" IVar="-1" Cut="0.0000000000000000e+00" cType="1" res="-9.9000000000000000e+01" rms="0.0000000000000000e+00" purity="4.3379989266395569e-01" nType="-1"/>
              </Node>
              <Node pos="r" depth="2" NCoef="0" IVar="-1" Cut="0.0000000000000000e+00" cType="1" res="-9.9000000000000000e+01" rms="0.0000000000000000e+00" purity="4.0831455588340759e-01" nType="-1"/>
            </Node>
          </Node>
        </BinaryTree>
        <BinaryTree type="DecisionTree" boostWeight="1.5822510793201197e-02" itree="60">
          <Node pos="s" depth="0" NCoef="0" IVar="5" Cut="1.0028998851776123e+00" cType="0" res="-9.9000000000000000e+01" rms="0.0000000000000000e+00" purity="4.9486640095710754e-01" nType="0">
            <Node pos="l" depth="1" NCoef="0" IVar="5" Cut="2.0888543128967285e+00" cType="0" res="-9.9000000000000000e+01" rms="0.0000000000000000e+00" purity="5.0579398870468140e-01" nType="0">
              <Node pos="l" depth="2" NCoef="0" IVar="-1" Cut="0.0000000000000000e+00" cType="1" res="-9.9000000000000000e+01" rms="0.0000000000000000e+00" purity="5.5846422910690308e-01" nType="1"/>
              <Node pos="r" depth="2" NCoef="0" IVar="3" Cut="3.8172937011718750e+02" cType="1" res="-9.9000000000000000e+01" rms="0.0000000000000000e+00" purity="5.0118702650070190e-01" nType="0">
                <Node pos="l" depth="3" NCoef="0" IVar="6" Cut="1.0503623485565186e+00" cType="0" res="-9.9000000000000000e+01" rms="0.0000000000000000e+00" purity="5.0588637590408325e-01" nType="0">
                  <Node pos="l" depth="4" NCoef="0" IVar="-1" Cut="0.0000000000000000e+00" cType="1" res="-9.9000000000000000e+01" rms="0.0000000000000000e+00" purity="5.1095902919769287e-01" nType="1"/>
                  <Node pos="r" depth="4" NCoef="0" IVar="-1" Cut="0.0000000000000000e+00" cType="1" res="-9.9000000000000000e+01" rms="0.0000000000000000e+00" purity="4.5951795578002930e-01" nType="-1"/>
                </Node>
                <Node pos="r" depth="3" NCoef="0" IVar="-1" Cut="0.0000000000000000e+00" cType="1" res="-9.9000000000000000e+01" rms="0.0000000000000000e+00" purity="4.5461046695709229e-01" nType="-1"/>
              </Node>
            </Node>
            <Node pos="r" depth="1" NCoef="0" IVar="3" Cut="2.0886665344238281e+02" cType="1" res="-9.9000000000000000e+01" rms="0.0000000000000000e+00" purity="4.6921637654304504e-01" nType="0">
              <Node pos="l" depth="2" NCoef="0" IVar="2" Cut="1.4379548645019531e+02" cType="0" res="-9.9000000000000000e+01" rms="0.0000000000000000e+00" purity="4.8179522156715393e-01" nType="0">
                <Node pos="l" depth="3" NCoef="0" IVar="1" Cut="9.3264091491699219e+01" cType="1" res="-9.9000000000000000e+01" rms="0.0000000000000000e+00" purity="5.0354433059692383e-01" nType="0">
                  <Node pos="l" depth="4" NCoef="0" IVar="-1" Cut="0.0000000000000000e+00" cType="1" res="-9.9000000000000000e+01" rms="0.0000000000000000e+00" purity="5.2085965871810913e-01" nType="1"/>
                  <Node pos="r" depth="4" NCoef="0" IVar="-1" Cut="0.0000000000000000e+00" cType="1" res="-9.9000000000000000e+01" rms="0.0000000000000000e+00" purity="4.8632064461708069e-01" nType="-1"/>
                </Node>
                <Node pos="r" depth="3" NCoef="0" IVar="-1" Cut="0.0000000000000000e+00" cType="1" res="-9.9000000000000000e+01" rms="0.0000000000000000e+00" purity="4.4942960143089294e-01" nType="-1"/>
              </Node>
              <Node pos="r" depth="2" NCoef="0" IVar="-1" Cut="0.0000000000000000e+00" cType="1" res="-9.9000000000000000e+01" rms="0.0000000000000000e+00" purity="4.1221860051155090e-01" nType="-1"/>
            </Node>
          </Node>
        </BinaryTree>
        <BinaryTree type="DecisionTree" boostWeight="1.2443960546871143e-02" itree="61">
          <Node pos="s" depth="0" NCoef="0" IVar="2" Cut="2.1900529479980469e+02" cType="0" res="-9.9000000000000000e+01" rms="0.0000000000000000e+00" purity="4.9363771080970764e-01" nType="0">
            <Node pos="l" depth="1" NCoef="0" IVar="1" Cut="7.4220939636230469e+01" cType="0" res="-9.9000000000000000e+01" rms="0.0000000000000000e+00" purity="5.2853244543075562e-01" nType="0">
              <Node pos="l" depth="2" NCoef="0" IVar="1" Cut="9.6983856201171875e+01" cType="1" res="-9.9000000000000000e+01" rms="0.0000000000000000e+00" purity="5.5782687664031982e-01" nType="0">
                <Node pos="l" depth="3" NCoef="0" IVar="-1" Cut="0.0000000000000000e+00" cType="1" res="-9.9000000000000000e+01" rms="0.0000000000000000e+00" purity="6.1936259269714355e-01" nType="1"/>
                <Node pos="r" depth="3" NCoef="0" IVar="-1" Cut="0.0000000000000000e+00" cType="1" res="-9.9000000000000000e+01" rms="0.0000000000000000e+00" purity="4.9512115120887756e-01" nType="-1"/>
              </Node>
              <Node pos="r" depth="2" NCoef="0" IVar="-1" Cut="0.0000000000000000e+00" cType="1" res="-9.9000000000000000e+01" rms="0.0000000000000000e+00" purity="4.6004563570022583e-01" nType="-1"/>
            </Node>
            <Node pos="r" depth="1" NCoef="0" IVar="-1" Cut="1.2054383850097656e+02" cType="0" res="-9.9000000000000000e+01" rms="0.0000000000000000e+00" purity="4.8647886514663696e-01" nType="-1"/>
          </Node>
        </BinaryTree>
        <BinaryTree type="DecisionTree" boostWeight="1.9274074913558082e-02" itree="62">
          <Node pos="s" depth="0" NCoef="0" IVar="2" Cut="1.9168505859375000e+02" cType="0" res="-9.9000000000000000e+01" rms="0.0000000000000000e+00" purity="4.9647018313407898e-01" nType="0">
            <Node pos="l" depth="1" NCoef="0" IVar="1" Cut="7.2369895935058594e+01" cType="0" res="-9.9000000000000000e+01" rms="0.0000000000000000e+00" purity="5.1893270015716553e-01" nType="0">
              <Node pos="l" depth="2" NCoef="0" IVar="1" Cut="9.4181480407714844e+01" cType="1" res="-9.9000000000000000e+01" rms="0.0000000000000000e+00" purity="5.3825879096984863e-01" nType="0">
                <Node pos="l" depth="3" NCoef="0" IVar="-1" Cut="0.0000000000000000e+00" cType="1" res="-9.9000000000000000e+01" rms="0.0000000000000000e+00" purity="5.8436864614486694e-01" nType="1"/>
                <Node pos="r" depth="3" NCoef="0" IVar="5" Cut="1.3823992013931274e+00" cType="1" res="-9.9000000000000000e+01" rms="0.0000000000000000e+00" purity="5.0407117605209351e-01" nType="0">
                  <Node pos="l" depth="4" NCoef="0" IVar="-1" Cut="0.0000000000000000e+00" cType="1" res="-9.9000000000000000e+01" rms="0.0000000000000000e+00" purity="5.2873182296752930e-01" nType="1"/>
                  <Node pos="r" depth="4" NCoef="0" IVar="-1" Cut="0.0000000000000000e+00" cType="1" res="-9.9000000000000000e+01" rms="0.0000000000000000e+00" purity="4.7268107533454895e-01" nType="-1"/>
                </Node>
              </Node>
              <Node pos="r" depth="2" NCoef="0" IVar="-1" Cut="0.0000000000000000e+00" cType="1" res="-9.9000000000000000e+01" rms="0.0000000000000000e+00" purity="4.6708571910858154e-01" nType="-1"/>
            </Node>
            <Node pos="r" depth="1" NCoef="0" IVar="3" Cut="1.9241821289062500e+02" cType="1" res="-9.9000000000000000e+01" rms="0.0000000000000000e+00" purity="4.8616337776184082e-01" nType="0">
              <Node pos="l" depth="2" NCoef="0" IVar="4" Cut="1.1650693416595459e+00" cType="0" res="-9.9000000000000000e+01" rms="0.0000000000000000e+00" purity="4.9489989876747131e-01" nType="0">
                <Node pos="l" depth="3" NCoef="0" IVar="1" Cut="5.8676898956298828e+01" cType="0" res="-9.9000000000000000e+01" rms="0.0000000000000000e+00" purity="5.0308626890182495e-01" nType="0">
                  <Node pos="l" depth="4" NCoef="0" IVar="-1" Cut="0.0000000000000000e+00" cType="1" res="-9.9000000000000000e+01" rms="0.0000000000000000e+00" purity="5.1182526350021362e-01" nType="1"/>
                  <Node pos="r" depth="4" NCoef="0" IVar="-1" Cut="0.0000000000000000e+00" cType="1" res="-9.9000000000000000e+01" rms="0.0000000000000000e+00" purity="4.6838256716728210e-01" nType="-1"/>
                </Node>
                <Node pos="r" depth="3" NCoef="0" IVar="-1" Cut="1.0068067169189453e+02" cType="1" res="-9.9000000000000000e+01" rms="0.0000000000000000e+00" purity="4.6654686331748962e-01" nType="-1"/>
              </Node>
              <Node pos="r" depth="2" NCoef="0" IVar="-1" Cut="1.1453940868377686e+00" cType="0" res="-9.9000000000000000e+01" rms="0.0000000000000000e+00" purity="4.5488759875297546e-01" nType="-1"/>
            </Node>
          </Node>
        </BinaryTree>
        <BinaryTree type="DecisionTree" boostWeight="1.3328735419139932e-02" itree="63">
          <Node pos="s" depth="0" NCoef="0" IVar="5" Cut="2.1574385166168213e+00" cType="0" res="-9.9000000000000000e+01" rms="0.0000000000000000e+00" purity="4.9652478098869324e-01" nType="0">
            <Node pos="l" depth="1" NCoef="0" IVar="-1" Cut="0.0000000000000000e+00" cType="1" res="-9.9000000000000000e+01" rms="0.0000000000000000e+00" purity="5.6314498186111450e-01" nType="1"/>
            <Node pos="r" depth="1" NCoef="0" IVar="5" Cut="9.7121137380599976e-01" cType="0" res="-9.9000000000000000e+01" rms="0.0000000000000000e+00" purity="4.9299263954162598e-01" nType="0">
              <Node pos="l" depth="2" NCoef="0" IVar="1" Cut="1.3347726440429688e+02" cType="1" res="-9.9000000000000000e+01" rms="0.0000000000000000e+00" purity="5.0139367580413818e-01" nType="0">
                <Node pos="l" depth="3" NCoef="0" IVar="6" Cut="2.1513485908508301e+00" cType="1" res="-9.9000000000000000e+01" rms="0.0000000000000000e+00" purity="5.0560963153839111e-01" nType="0">
                  <Node pos="l" depth="4" NCoef="0" IVar="-1" Cut="0.0000000000000000e+00" cType="1" res="-9.9000000000000000e+01" rms="0.0000000000000000e+00" purity="5.1860892772674561e-01" nType="1"/>
                  <Node pos="r" depth="4" NCoef="0" IVar="-1" Cut="0.0000000000000000e+00" cType="1" res="-9.9000000000000000e+01" rms="0.0000000000000000e+00" purity="4.9159058928489685e-01" nType="-1"/>
                </Node>
                <Node pos="r" depth="3" NCoef="0" IVar="-1" Cut="0.0000000000000000e+00" cType="1" res="-9.9000000000000000e+01" rms="0.0000000000000000e+00" purity="4.6224945783615112e-01" nType="-1"/>
              </Node>
              <Node pos="r" depth="2" NCoef="0" IVar="-1" Cut="1.3366076660156250e+02" cType="0" res="-9.9000000000000000e+01" rms="0.0000000000000000e+00" purity="4.6819660067558289e-01" nType="-1"/>
            </Node>
          </Node>
        </BinaryTree>
        <BinaryTree type="DecisionTree" boostWeight="1.1640968110122947e-02" itree="64">
          <Node pos="s" depth="0" NCoef="0" IVar="1" Cut="1.4270956420898438e+02" cType="1" res="-9.9000000000000000e+01" rms="0.0000000000000000e+00" purity="4.9733000993728638e-01" nType="0">
            <Node pos="l" depth="1" NCoef="0" IVar="5" Cut="1.7948654890060425e+00" cType="0" res="-9.9000000000000000e+01" rms="0.0000000000000000e+00" purity="5.0102430582046509e-01" nType="0">
              <Node pos="l" depth="2" NCoef="0" IVar="-1" Cut="0.0000000000000000e+00" cType="1" res="-9.9000000000000000e+01" rms="0.0000000000000000e+00" purity="5.5248630046844482e-01" nType="1"/>
              <Node pos="r" depth="2" NCoef="0" IVar="5" Cut="8.7664449214935303e-01" cType="0" res="-9.9000000000000000e+01" rms="0.0000000000000000e+00" purity="4.9539086222648621e-01" nType="0">
                <Node pos="l" depth="3" NCoef="0" IVar="0" Cut="1.0097788238525391e+02" cType="0" res="-9.9000000000000000e+01" rms="0.0000000000000000e+00" purity="5.0080811977386475e-01" nType="0">
                  <Node pos="l" depth="4" NCoef="0" IVar="-1" Cut="0.0000000000000000e+00" cType="1" res="-9.9000000000000000e+01" rms="0.0000000000000000e+00" purity="5.1205950975418091e-01" nType="1"/>
                  <Node pos="r" depth="4" NCoef="0" IVar="-1" Cut="0.0000000000000000e+00" cType="1" res="-9.9000000000000000e+01" rms="0.0000000000000000e+00" purity="4.9333038926124573e-01" nType="-1"/>
                </Node>
                <Node pos="r" depth="3" NCoef="0" IVar="-1" Cut="1.4965676879882812e+02" cType="0" res="-9.9000000000000000e+01" rms="0.0000000000000000e+00" purity="4.6328902244567871e-01" nType="-1"/>
              </Node>
            </Node>
            <Node pos="r" depth="1" NCoef="0" IVar="-1" Cut="0.0000000000000000e+00" cType="1" res="-9.9000000000000000e+01" rms="0.0000000000000000e+00" purity="4.3915116786956787e-01" nType="-1"/>
          </Node>
        </BinaryTree>
        <BinaryTree type="DecisionTree" boostWeight="9.0980807935832596e-03" itree="65">
          <Node pos="s" depth="0" NCoef="0" IVar="1" Cut="1.4270956420898438e+02" cType="1" res="-9.9000000000000000e+01" rms="0.0000000000000000e+00" purity="4.9803206324577332e-01" nType="0">
            <Node pos="l" depth="1" NCoef="0" IVar="5" Cut="1.8776674270629883e+00" cType="0" res="-9.9000000000000000e+01" rms="0.0000000000000000e+00" purity="5.0158476829528809e-01" nType="0">
              <Node pos="l" depth="2" NCoef="0" IVar="-1" Cut="0.0000000000000000e+00" cType="1" res="-9.9000000000000000e+01" rms="0.0000000000000000e+00" purity="5.5434650182723999e-01" nType="1"/>
              <Node pos="r" depth="2" NCoef="0" IVar="5" Cut="8.0451399087905884e-01" cType="0" res="-9.9000000000000000e+01" rms="0.0000000000000000e+00" purity="4.9675723910331726e-01" nType="0">
                <Node pos="l" depth="3" NCoef="0" IVar="6" Cut="3.2523350715637207e+00" cType="1" res="-9.9000000000000000e+01" rms="0.0000000000000000e+00" purity="5.0045001506805420e-01" nType="0">
                  <Node pos="l" depth="4" NCoef="0" IVar="-1" Cut="0.0000000000000000e+00" cType="1" res="-9.9000000000000000e+01" rms="0.0000000000000000e+00" purity="5.0317442417144775e-01" nType="1"/>
                  <Node pos="r" depth="4" NCoef="0" IVar="-1" Cut="0.0000000000000000e+00" cType="1" res="-9.9000000000000000e+01" rms="0.0000000000000000e+00" purity="4.6817055344581604e-01" nType="-1"/>
                </Node>
                <Node pos="r" depth="3" NCoef="0" IVar="-1" Cut="0.0000000000000000e+00" cType="1" res="-9.9000000000000000e+01" rms="0.0000000000000000e+00" purity="4.5616719126701355e-01" nType="-1"/>
              </Node>
            </Node>
            <Node pos="r" depth="1" NCoef="0" IVar="-1" Cut="0.0000000000000000e+00" cType="1" res="-9.9000000000000000e+01" rms="0.0000000000000000e+00" purity="4.4205507636070251e-01" nType="-1"/>
          </Node>
        </BinaryTree>
        <BinaryTree type="DecisionTree" boostWeight="9.5291620086389740e-03" itree="66">
          <Node pos="s" depth="0" NCoef="0" IVar="5" Cut="2.1574385166168213e+00" cType="0" res="-9.9000000000000000e+01" rms="0.0000000000000000e+00" purity="4.9663367867469788e-01" nType="0">
            <Node pos="l" depth="1" NCoef="0" IVar="-1" Cut="0.0000000000000000e+00" cType="1" res="-9.9000000000000000e+01" rms="0.0000000000000000e+00" purity="5.5533856153488159e-01" nType="1"/>
            <Node pos="r" depth="1" NCoef="0" IVar="2" Cut="1.1921294403076172e+02" cType="0" res="-9.9000000000000000e+01" rms="0.0000000000000000e+00" purity="4.9352693557739258e-01" nType="0">
              <Node pos="l" depth="2" NCoef="0" IVar="6" Cut="8.2509464025497437e-01" cType="0" res="-9.9000000000000000e+01" rms="0.0000000000000000e+00" purity="4.9647849798202515e-01" nType="0">
                <Node pos="l" depth="3" NCoef="0" IVar="4" Cut="2.4594206809997559e+00" cType="1" res="-9.9000000000000000e+01" rms="0.0000000000000000e+00" purity="4.9981349706649780e-01" nType="0">
                  <Node pos="l" depth="4" NCoef="0" IVar="-1" Cut="0.0000000000000000e+00" cType="1" res="-9.9000000000000000e+01" rms="0.0000000000000000e+00" purity="5.0459361076354980e-01" nType="1"/>
                  <Node pos="r" depth="4" NCoef="0" IVar="-1" Cut="0.0000000000000000e+00" cType="1" res="-9.9000000000000000e+01" rms="0.0000000000000000e+00" purity="4.6008524298667908e-01" nType="-1"/>
                </Node>
                <Node pos="r" depth="3" NCoef="0" IVar="-1" Cut="0.0000000000000000e+00" cType="1" res="-9.9000000000000000e+01" rms="0.0000000000000000e+00" purity="4.4241550564765930e-01" nType="-1"/>
              </Node>
              <Node pos="r" depth="2" NCoef="0" IVar="-1" Cut="0.0000000000000000e+00" cType="1" res="-9.9000000000000000e+01" rms="0.0000000000000000e+00" purity="4.4072803854942322e-01" nType="-1"/>
            </Node>
          </Node>
        </BinaryTree>
        <BinaryTree type="DecisionTree" boostWeight="1.1239619022163907e-02" itree="67">
          <Node pos="s" depth="0" NCoef="0" IVar="5" Cut="2.1574385166168213e+00" cType="0" res="-9.9000000000000000e+01" rms="0.0000000000000000e+00" purity="4.9517592787742615e-01" nType="0">
            <Node pos="l" depth="1" NCoef="0" IVar="-1" Cut="0.0000000000000000e+00" cType="1" res="-9.9000000000000000e+01" rms="0.0000000000000000e+00" purity="5.5298417806625366e-01" nType="1"/>
            <Node pos="r" depth="1" NCoef="0" IVar="4" Cut="6.2999939918518066e-01" cType="0" res="-9.9000000000000000e+01" rms="0.0000000000000000e+00" purity="4.9211794137954712e-01" nType="0">
              <Node pos="l" depth="2" NCoef="0" IVar="4" Cut="2.6659045219421387e+00" cType="1" res="-9.9000000000000000e+01" rms="0.0000000000000000e+00" purity="4.9535405635833740e-01" nType="0">
                <Node pos="l" depth="3" NCoef="0" IVar="2" Cut="1.8846813964843750e+02" cType="0" res="-9.9000000000000000e+01" rms="0.0000000000000000e+00" purity="4.9861943721771240e-01" nType="0">
                  <Node pos="l" depth="4" NCoef="0" IVar="-1" Cut="0.0000000000000000e+00" cType="1" res="-9.9000000000000000e+01" rms="0.0000000000000000e+00" purity="5.1694226264953613e-01" nType="1"/>
                  <Node pos="r" depth="4" NCoef="0" IVar="-1" Cut="0.0000000000000000e+00" cType="1" res="-9.9000000000000000e+01" rms="0.0000000000000000e+00" purity="4.9052551388740540e-01" nType="-1"/>
                </Node>
                <Node pos="r" depth="3" NCoef="0" IVar="-1" Cut="0.0000000000000000e+00" cType="1" res="-9.9000000000000000e+01" rms="0.0000000000000000e+00" purity="4.4944202899932861e-01" nType="-1"/>
              </Node>
              <Node pos="r" depth="2" NCoef="0" IVar="-1" Cut="0.0000000000000000e+00" cType="1" res="-9.9000000000000000e+01" rms="0.0000000000000000e+00" purity="4.4805252552032471e-01" nType="-1"/>
            </Node>
          </Node>
        </BinaryTree>
        <BinaryTree type="DecisionTree" boostWeight="7.9358717521598610e-03" itree="68">
          <Node pos="s" depth="0" NCoef="0" IVar="1" Cut="1.4270956420898438e+02" cType="1" res="-9.9000000000000000e+01" rms="0.0000000000000000e+00" purity="4.9631297588348389e-01" nType="0">
            <Node pos="l" depth="1" NCoef="0" IVar="5" Cut="1.8776674270629883e+00" cType="0" res="-9.9000000000000000e+01" rms="0.0000000000000000e+00" purity="4.9966183304786682e-01" nType="0">
              <Node pos="l" depth="2" NCoef="0" IVar="-1" Cut="0.0000000000000000e+00" cType="1" res="-9.9000000000000000e+01" rms="0.0000000000000000e+00" purity="5.4818493127822876e-01" nType="1"/>
              <Node pos="r" depth="2" NCoef="0" IVar="5" Cut="7.7664077281951904e-01" cType="0" res="-9.9000000000000000e+01" rms="0.0000000000000000e+00" purity="4.9522787332534790e-01" nType="0">
                <Node pos="l" depth="3" NCoef="0" IVar="3" Cut="3.3692727661132812e+02" cType="1" res="-9.9000000000000000e+01" rms="0.0000000000000000e+00" purity="4.9813136458396912e-01" nType="0">
                  <Node pos="l" depth="4" NCoef="0" IVar="-1" Cut="0.0000000000000000e+00" cType="1" res="-9.9000000000000000e+01" rms="0.0000000000000000e+00" purity="5.0134825706481934e-01" nType="1"/>
                  <Node pos="r" depth="4" NCoef="0" IVar="-1" Cut="0.0000000000000000e+00" cType="1" res="-9.9000000000000000e+01" rms="0.0000000000000000e+00" purity="4.6984285116195679e-01" nType="-1"/>
                </Node>
                <Node pos="r" depth="3" NCoef="0" IVar="-1" Cut="0.0000000000000000e+00" cType="1" res="-9.9000000000000000e+01" rms="0.0000000000000000e+00" purity="4.5397979021072388e-01" nType="-1"/>
              </Node>
            </Node>
            <Node pos="r" depth="1" NCoef="0" IVar="-1" Cut="0.0000000000000000e+00" cType="1" res="-9.9000000000000000e+01" rms="0.0000000000000000e+00" purity="4.4353154301643372e-01" nType="-1"/>
          </Node>
        </BinaryTree>
        <BinaryTree type="DecisionTree" boostWeight="1.1881369898367643e-02" itree="69">
          <Node pos="s" depth="0" NCoef="0" IVar="1" Cut="1.2790121459960938e+02" cType="1" res="-9.9000000000000000e+01" rms="0.0000000000000000e+00" purity="4.9511653184890747e-01" nType="0">
            <Node pos="l" depth="1" NCoef="0" IVar="2" Cut="2.5658575439453125e+02" cType="0" res="-9.9000000000000000e+01" rms="0.0000000000000000e+00" purity="4.9993109703063965e-01" nType="0">
              <Node pos="l" depth="2" NCoef="0" IVar="-1" Cut="0.0000000000000000e+00" cType="1" res="-9.9000000000000000e+01" rms="0.0000000000000000e+00" purity="5.5660682916641235e-01" nType="1"/>
              <Node pos="r" depth="2" NCoef="0" IVar="3" Cut="3.4531634521484375e+02" cType="1" res="-9.9000000000000000e+01" rms="0.0000000000000000e+00" purity="4.9470147490501404e-01" nType="0">
                <Node pos="l" depth="3" NCoef="0" IVar="0" Cut="1.4082022094726562e+02" cType="0" res="-9.9000000000000000e+01" rms="0.0000000000000000e+00" purity="4.9840509891510010e-01" nType="0">
                  <Node pos="l" depth="4" NCoef="0" IVar="-1" Cut="0.0000000000000000e+00" cType="1" res="-9.9000000000000000e+01" rms="0.0000000000000000e+00" purity="5.2821791172027588e-01" nType="1"/>
                  <Node pos="r" depth="4" NCoef="0" IVar="-1" Cut="0.0000000000000000e+00" cType="1" res="-9.9000000000000000e+01" rms="0.0000000000000000e+00" purity="4.9281147122383118e-01" nType="-1"/>
                </Node>
                <Node pos="r" depth="3" NCoef="0" IVar="-1" Cut="0.0000000000000000e+00" cType="1" res="-9.9000000000000000e+01" rms="0.0000000000000000e+00" purity="4.5295864343643188e-01" nType="-1"/>
              </Node>
            </Node>
            <Node pos="r" depth="1" NCoef="0" IVar="-1" Cut="1.0659301280975342e+00" cType="0" res="-9.9000000000000000e+01" rms="0.0000000000000000e+00" purity="4.6178072690963745e-01" nType="-1"/>
          </Node>
        </BinaryTree>
        <BinaryTree type="DecisionTree" boostWeight="9.6062936686612619e-03" itree="70">
          <Node pos="s" depth="0" NCoef="0" IVar="1" Cut="1.2790121459960938e+02" cType="1" res="-9.9000000000000000e+01" rms="0.0000000000000000e+00" purity="4.9699679017066956e-01" nType="0">
            <Node pos="l" depth="1" NCoef="0" IVar="5" Cut="1.9604692459106445e+00" cType="0" res="-9.9000000000000000e+01" rms="0.0000000000000000e+00" purity="5.0164860486984253e-01" nType="0">
              <Node pos="l" depth="2" NCoef="0" IVar="-1" Cut="0.0000000000000000e+00" cType="1" res="-9.9000000000000000e+01" rms="0.0000000000000000e+00" purity="5.5993646383285522e-01" nType="1"/>
              <Node pos="r" depth="2" NCoef="0" IVar="1" Cut="4.2936275482177734e+01" cType="0" res="-9.9000000000000000e+01" rms="0.0000000000000000e+00" purity="4.9714303016662598e-01" nType="0">
                <Node pos="l" depth="3" NCoef="0" IVar="4" Cut="6.5185874700546265e-01" cType="0" res="-9.9000000000000000e+01" rms="0.0000000000000000e+00" purity="5.0061720609664917e-01" nType="0">
                  <Node pos="l" depth="4" NCoef="0" IVar="-1" Cut="0.0000000000000000e+00" cType="1" res="-9.9000000000000000e+01" rms="0.0000000000000000e+00" purity="5.0397294759750366e-01" nType="1"/>
                  <Node pos="r" depth="4" NCoef="0" IVar="-1" Cut="0.0000000000000000e+00" cType="1" res="-9.9000000000000000e+01" rms="0.0000000000000000e+00" purity="4.5865425467491150e-01" nType="-1"/>
                </Node>
                <Node pos="r" depth="3" NCoef="0" IVar="-1" Cut="0.0000000000000000e+00" cType="1" res="-9.9000000000000000e+01" rms="0.0000000000000000e+00" purity="4.5759412646293640e-01" nType="-1"/>
              </Node>
            </Node>
            <Node pos="r" depth="1" NCoef="0" IVar="-1" Cut="1.0659301280975342e+00" cType="0" res="-9.9000000000000000e+01" rms="0.0000000000000000e+00" purity="4.6478071808815002e-01" nType="-1"/>
          </Node>
        </BinaryTree>
        <BinaryTree type="DecisionTree" boostWeight="8.2674026469861314e-03" itree="71">
          <Node pos="s" depth="0" NCoef="0" IVar="5" Cut="2.1574385166168213e+00" cType="0" res="-9.9000000000000000e+01" rms="0.0000000000000000e+00" purity="4.9578392505645752e-01" nType="0">
            <Node pos="l" depth="1" NCoef="0" IVar="-1" Cut="0.0000000000000000e+00" cType="1" res="-9.9000000000000000e+01" rms="0.0000000000000000e+00" purity="5.4583281278610229e-01" nType="1"/>
            <Node pos="r" depth="1" NCoef="0" IVar="3" Cut="4.0123660278320312e+02" cType="1" res="-9.9000000000000000e+01" rms="0.0000000000000000e+00" purity="4.9314230680465698e-01" nType="0">
              <Node pos="l" depth="2" NCoef="0" IVar="0" Cut="1.8780790710449219e+02" cType="0" res="-9.9000000000000000e+01" rms="0.0000000000000000e+00" purity="4.9611517786979675e-01" nType="0">
                <Node pos="l" depth="3" NCoef="0" IVar="-1" Cut="0.0000000000000000e+00" cType="1" res="-9.9000000000000000e+01" rms="0.0000000000000000e+00" purity="5.4507029056549072e-01" nType="1"/>
                <Node pos="r" depth="3" NCoef="0" IVar="-1" Cut="1.1087671518325806e+00" cType="0" res="-9.9000000000000000e+01" rms="0.0000000000000000e+00" purity="4.9287694692611694e-01" nType="-1"/>
              </Node>
              <Node pos="r" depth="2" NCoef="0" IVar="-1" Cut="0.0000000000000000e+00" cType="1" res="-9.9000000000000000e+01" rms="0.0000000000000000e+00" purity="4.5079344511032104e-01" nType="-1"/>
            </Node>
          </Node>
        </BinaryTree>
        <BinaryTree type="DecisionTree" boostWeight="9.3740386911794777e-03" itree="72">
          <Node pos="s" depth="0" NCoef="0" IVar="1" Cut="1.4270956420898438e+02" cType="1" res="-9.9000000000000000e+01" rms="0.0000000000000000e+00" purity="4.9745112657546997e-01" nType="0">
            <Node pos="l" depth="1" NCoef="0" IVar="2" Cut="2.5658575439453125e+02" cType="0" res="-9.9000000000000000e+01" rms="0.0000000000000000e+00" purity="5.0029593706130981e-01" nType="0">
              <Node pos="l" depth="2" NCoef="0" IVar="-1" Cut="0.0000000000000000e+00" cType="1" res="-9.9000000000000000e+01" rms="0.0000000000000000e+00" purity="5.4349124431610107e-01" nType="1"/>
              <Node pos="r" depth="2" NCoef="0" IVar="3" Cut="3.7057604980468750e+02" cType="1" res="-9.9000000000000000e+01" rms="0.0000000000000000e+00" purity="4.9636307358741760e-01" nType="0">
                <Node pos="l" depth="3" NCoef="0" IVar="5" Cut="8.8048964738845825e-01" cType="0" res="-9.9000000000000000e+01" rms="0.0000000000000000e+00" purity="4.9978229403495789e-01" nType="0">
                  <Node pos="l" depth="4" NCoef="0" IVar="-1" Cut="0.0000000000000000e+00" cType="1" res="-9.9000000000000000e+01" rms="0.0000000000000000e+00" purity="5.0454908609390259e-01" nType="1"/>
                  <Node pos="r" depth="4" NCoef="0" IVar="-1" Cut="0.0000000000000000e+00" cType="1" res="-9.9000000000000000e+01" rms="0.0000000000000000e+00" purity="4.7255808115005493e-01" nType="-1"/>
                </Node>
                <Node pos="r" depth="3" NCoef="0" IVar="-1" Cut="0.0000000000000000e+00" cType="1" res="-9.9000000000000000e+01" rms="0.0000000000000000e+00" purity="4.4674384593963623e-01" nType="-1"/>
              </Node>
            </Node>
            <Node pos="r" depth="1" NCoef="0" IVar="-1" Cut="0.0000000000000000e+00" cType="1" res="-9.9000000000000000e+01" rms="0.0000000000000000e+00" purity="4.5255205035209656e-01" nType="-1"/>
          </Node>
        </BinaryTree>
        <BinaryTree type="DecisionTree" boostWeight="1.6808185351221305e-02" itree="73">
          <Node pos="s" depth="0" NCoef="0" IVar="1" Cut="5.9412582397460938e+01" cType="0" res="-9.9000000000000000e+01" rms="0.0000000000000000e+00" purity="4.9621295928955078e-01" nType="0">
            <Node pos="l" depth="1" NCoef="0" IVar="1" Cut="8.9047752380371094e+01" cType="1" res="-9.9000000000000000e+01" rms="0.0000000000000000e+00" purity="5.0109744071960449e-01" nType="0">
              <Node pos="l" depth="2" NCoef="0" IVar="5" Cut="1.6381018161773682e+00" cType="0" res="-9.9000000000000000e+01" rms="0.0000000000000000e+00" purity="5.2165693044662476e-01" nType="0">
                <Node pos="l" depth="3" NCoef="0" IVar="-1" Cut="0.0000000000000000e+00" cType="1" res="-9.9000000000000000e+01" rms="0.0000000000000000e+00" purity="5.8667647838592529e-01" nType="1"/>
                <Node pos="r" depth="3" NCoef="0" IVar="3" Cut="1.8522610473632812e+02" cType="1" res="-9.9000000000000000e+01" rms="0.0000000000000000e+00" purity="5.1024508476257324e-01" nType="0">
                  <Node pos="l" depth="4" NCoef="0" IVar="-1" Cut="0.0000000000000000e+00" cType="1" res="-9.9000000000000000e+01" rms="0.0000000000000000e+00" purity="5.2801012992858887e-01" nType="1"/>
                  <Node pos="r" depth="4" NCoef="0" IVar="-1" Cut="0.0000000000000000e+00" cType="1" res="-9.9000000000000000e+01" rms="0.0000000000000000e+00" purity="4.8496386408805847e-01" nType="-1"/>
                </Node>
              </Node>
              <Node pos="r" depth="2" NCoef="0" IVar="2" Cut="1.5525808715820312e+02" cType="0" res="-9.9000000000000000e+01" rms="0.0000000000000000e+00" purity="4.8572623729705811e-01" nType="0">
                <Node pos="l" depth="3" NCoef="0" IVar="4" Cut="1.1651581525802612e+00" cType="0" res="-9.9000000000000000e+01" rms="0.0000000000000000e+00" purity="4.9763983488082886e-01" nType="0">
                  <Node pos="l" depth="4" NCoef="0" IVar="-1" Cut="0.0000000000000000e+00" cType="1" res="-9.9000000000000000e+01" rms="0.0000000000000000e+00" purity="5.1499295234680176e-01" nType="1"/>
                  <Node pos="r" depth="4" NCoef="0" IVar="-1" Cut="0.0000000000000000e+00" cType="1" res="-9.9000000000000000e+01" rms="0.0000000000000000e+00" purity="4.8020392656326294e-01" nType="-1"/>
                </Node>
                <Node pos="r" depth="3" NCoef="0" IVar="-1" Cut="7.1927261352539062e+01" cType="0" res="-9.9000000000000000e+01" rms="0.0000000000000000e+00" purity="4.6130868792533875e-01" nType="-1"/>
              </Node>
            </Node>
            <Node pos="r" depth="1" NCoef="0" IVar="-1" Cut="2.2050590515136719e+02" cType="1" res="-9.9000000000000000e+01" rms="0.0000000000000000e+00" purity="4.7067734599113464e-01" nType="-1"/>
          </Node>
        </BinaryTree>
        <BinaryTree type="DecisionTree" boostWeight="8.2174751039898047e-03" itree="74">
          <Node pos="s" depth="0" NCoef="0" IVar="5" Cut="2.1574385166168213e+00" cType="0" res="-9.9000000000000000e+01" rms="0.0000000000000000e+00" purity="4.9717029929161072e-01" nType="0">
            <Node pos="l" depth="1" NCoef="0" IVar="-1" Cut="0.0000000000000000e+00" cType="1" res="-9.9000000000000000e+01" rms="0.0000000000000000e+00" purity="5.4352492094039917e-01" nType="1"/>
            <Node pos="r" depth="1" NCoef="0" IVar="2" Cut="1.1921294403076172e+02" cType="0" res="-9.9000000000000000e+01" rms="0.0000000000000000e+00" purity="4.9472513794898987e-01" nType="0">
              <Node pos="l" depth="2" NCoef="0" IVar="6" Cut="8.2509464025497437e-01" cType="0" res="-9.9000000000000000e+01" rms="0.0000000000000000e+00" purity="4.9736344814300537e-01" nType="0">
                <Node pos="l" depth="3" NCoef="0" IVar="4" Cut="2.4594206809997559e+00" cType="1" res="-9.9000000000000000e+01" rms="0.0000000000000000e+00" purity="5.0035607814788818e-01" nType="0">
                  <Node pos="l" depth="4" NCoef="0" IVar="-1" Cut="0.0000000000000000e+00" cType="1" res="-9.9000000000000000e+01" rms="0.0000000000000000e+00" purity="5.0429648160934448e-01" nType="1"/>
                  <Node pos="r" depth="4" NCoef="0" IVar="-1" Cut="0.0000000000000000e+00" cType="1" res="-9.9000000000000000e+01" rms="0.0000000000000000e+00" purity="4.6758219599723816e-01" nType="-1"/>
                </Node>
                <Node pos="r" depth="3" NCoef="0" IVar="-1" Cut="0.0000000000000000e+00" cType="1" res="-9.9000000000000000e+01" rms="0.0000000000000000e+00" purity="4.4878011941909790e-01" nType="-1"/>
              </Node>
              <Node pos="r" depth="2" NCoef="0" IVar="-1" Cut="0.0000000000000000e+00" cType="1" res="-9.9000000000000000e+01" rms="0.0000000000000000e+00" purity="4.4743156433105469e-01" nType="-1"/>
            </Node>
          </Node>
        </BinaryTree>
        <BinaryTree type="DecisionTree" boostWeight="7.7020085927230059e-03" itree="75">
          <Node pos="s" depth="0" NCoef="0" IVar="5" Cut="2.1574385166168213e+00" cType="0" res="-9.9000000000000000e+01" rms="0.0000000000000000e+00" purity="4.9591237306594849e-01" nType="0">
            <Node pos="l" depth="1" NCoef="0" IVar="-1" Cut="0.0000000000000000e+00" cType="1" res="-9.9000000000000000e+01" rms="0.0000000000000000e+00" purity="5.4148542881011963e-01" nType="1"/>
            <Node pos="r" depth="1" NCoef="0" IVar="2" Cut="1.1921294403076172e+02" cType="0" res="-9.9000000000000000e+01" rms="0.0000000000000000e+00" purity="4.9350914359092712e-01" nType="0">
              <Node pos="l" depth="2" NCoef="0" IVar="3" Cut="4.0445285034179688e+02" cType="1" res="-9.9000000000000000e+01" rms="0.0000000000000000e+00" purity="4.9596494436264038e-01" nType="0">
                <Node pos="l" depth="3" NCoef="0" IVar="0" Cut="1.8780790710449219e+02" cType="0" res="-9.9000000000000000e+01" rms="0.0000000000000000e+00" purity="4.9907115101814270e-01" nType="0">
                  <Node pos="l" depth="4" NCoef="0" IVar="-1" Cut="0.0000000000000000e+00" cType="1" res="-9.9000000000000000e+01" rms="0.0000000000000000e+00" purity="5.4202628135681152e-01" nType="1"/>
                  <Node pos="r" depth="4" NCoef="0" IVar="-1" Cut="0.0000000000000000e+00" cType="1" res="-9.9000000000000000e+01" rms="0.0000000000000000e+00" purity="4.9608081579208374e-01" nType="-1"/>
                </Node>
                <Node pos="r" depth="3" NCoef="0" IVar="-1" Cut="0.0000000000000000e+00" cType="1" res="-9.9000000000000000e+01" rms="0.0000000000000000e+00" purity="4.5301747322082520e-01" nType="-1"/>
              </Node>
              <Node pos="r" depth="2" NCoef="0" IVar="-1" Cut="0.0000000000000000e+00" cType="1" res="-9.9000000000000000e+01" rms="0.0000000000000000e+00" purity="4.4947132468223572e-01" nType="-1"/>
            </Node>
          </Node>
        </BinaryTree>
        <BinaryTree type="DecisionTree" boostWeight="1.0575645677978066e-02" itree="76">
          <Node pos="s" depth="0" NCoef="0" IVar="4" Cut="5.9471720457077026e-01" cType="0" res="-9.9000000000000000e+01" rms="0.0000000000000000e+00" purity="4.9746620655059814e-01" nType="0">
            <Node pos="l" depth="1" NCoef="0" IVar="2" Cut="2.2309574890136719e+02" cType="0" res="-9.9000000000000000e+01" rms="0.0000000000000000e+00" purity="5.0010854005813599e-01" nType="0">
              <Node pos="l" depth="2" NCoef="0" IVar="6" Cut="1.2368987798690796e+00" cType="1" res="-9.9000000000000000e+01" rms="0.0000000000000000e+00" purity="5.2968138456344604e-01" nType="0">
                <Node pos="l" depth="3" NCoef="0" IVar="-1" Cut="0.0000000000000000e+00" cType="1" res="-9.9000000000000000e+01" rms="0.0000000000000000e+00" purity="5.6903147697448730e-01" nType="1"/>
                <Node pos="r" depth="3" NCoef="0" IVar="-1" Cut="0.0000000000000000e+00" cType="1" res="-9.9000000000000000e+01" rms="0.0000000000000000e+00" purity="4.8371422290802002e-01" nType="-1"/>
              </Node>
              <Node pos="r" depth="2" NCoef="0" IVar="3" Cut="2.2565354919433594e+02" cType="1" res="-9.9000000000000000e+01" rms="0.0000000000000000e+00" purity="4.9538591504096985e-01" nType="0">
                <Node pos="l" depth="3" NCoef="0" IVar="2" Cut="1.2017041778564453e+02" cType="0" res="-9.9000000000000000e+01" rms="0.0000000000000000e+00" purity="5.0132137537002563e-01" nType="0">
                  <Node pos="l" depth="4" NCoef="0" IVar="-1" Cut="0.0000000000000000e+00" cType="1" res="-9.9000000000000000e+01" rms="0.0000000000000000e+00" purity="5.0459587574005127e-01" nType="1"/>
                  <Node pos="r" depth="4" NCoef="0" IVar="-1" Cut="0.0000000000000000e+00" cType="1" res="-9.9000000000000000e+01" rms="0.0000000000000000e+00" purity="4.6267965435981750e-01" nType="-1"/>
                </Node>
                <Node pos="r" depth="3" NCoef="0" IVar="-1" Cut="1.1653558015823364e+00" cType="0" res="-9.9000000000000000e+01" rms="0.0000000000000000e+00" purity="4.7175848484039307e-01" nType="-1"/>
              </Node>
            </Node>
            <Node pos="r" depth="1" NCoef="0" IVar="-1" Cut="0.0000000000000000e+00" cType="1" res="-9.9000000000000000e+01" rms="0.0000000000000000e+00" purity="4.5752891898155212e-01" nType="-1"/>
          </Node>
        </BinaryTree>
        <BinaryTree type="DecisionTree" boostWeight="9.6232962346992825e-03" itree="77">
          <Node pos="s" depth="0" NCoef="0" IVar="1" Cut="1.4270956420898438e+02" cType="1" res="-9.9000000000000000e+01" rms="0.0000000000000000e+00" purity="4.9662870168685913e-01" nType="0">
            <Node pos="l" depth="1" NCoef="0" IVar="2" Cut="2.5658575439453125e+02" cType="0" res="-9.9000000000000000e+01" rms="0.0000000000000000e+00" purity="4.9920737743377686e-01" nType="0">
              <Node pos="l" depth="2" NCoef="0" IVar="-1" Cut="0.0000000000000000e+00" cType="1" res="-9.9000000000000000e+01" rms="0.0000000000000000e+00" purity="5.4136282205581665e-01" nType="1"/>
              <Node pos="r" depth="2" NCoef="0" IVar="3" Cut="3.7057604980468750e+02" cType="1" res="-9.9000000000000000e+01" rms="0.0000000000000000e+00" purity="4.9537172913551331e-01" nType="0">
                <Node pos="l" depth="3" NCoef="0" IVar="0" Cut="1.4079318237304688e+02" cType="0" res="-9.9000000000000000e+01" rms="0.0000000000000000e+00" purity="4.9830937385559082e-01" nType="0">
                  <Node pos="l" depth="4" NCoef="0" IVar="-1" Cut="0.0000000000000000e+00" cType="1" res="-9.9000000000000000e+01" rms="0.0000000000000000e+00" purity="5.2361547946929932e-01" nType="1"/>
                  <Node pos="r" depth="4" NCoef="0" IVar="-1" Cut="0.0000000000000000e+00" cType="1" res="-9.9000000000000000e+01" rms="0.0000000000000000e+00" purity="4.9341449141502380e-01" nType="-1"/>
                </Node>
                <Node pos="r" depth="3" NCoef="0" IVar="-1" Cut="0.0000000000000000e+00" cType="1" res="-9.9000000000000000e+01" rms="0.0000000000000000e+00" purity="4.5272281765937805e-01" nType="-1"/>
              </Node>
            </Node>
            <Node pos="r" depth="1" NCoef="0" IVar="-1" Cut="0.0000000000000000e+00" cType="1" res="-9.9000000000000000e+01" rms="0.0000000000000000e+00" purity="4.5590230822563171e-01" nType="-1"/>
          </Node>
        </BinaryTree>
        <BinaryTree type="DecisionTree" boostWeight="8.4277395915355532e-03" itree="78">
          <Node pos="s" depth="0" NCoef="0" IVar="3" Cut="4.4253338623046875e+02" cType="1" res="-9.9000000000000000e+01" rms="0.0000000000000000e+00" purity="4.9805396795272827e-01" nType="0">
            <Node pos="l" depth="1" NCoef="0" IVar="0" Cut="1.9545225524902344e+02" cType="0" res="-9.9000000000000000e+01" rms="0.0000000000000000e+00" purity="5.0070625543594360e-01" nType="0">
              <Node pos="l" depth="2" NCoef="0" IVar="-1" Cut="0.0000000000000000e+00" cType="1" res="-9.9000000000000000e+01" rms="0.0000000000000000e+00" purity="5.4918909072875977e-01" nType="1"/>
              <Node pos="r" depth="2" NCoef="0" IVar="6" Cut="1.1087671518325806e+00" cType="0" res="-9.9000000000000000e+01" rms="0.0000000000000000e+00" purity="4.9626407027244568e-01" nType="0">
                <Node pos="l" depth="3" NCoef="0" IVar="6" Cut="3.1973309516906738e+00" cType="1" res="-9.9000000000000000e+01" rms="0.0000000000000000e+00" purity="4.9950611591339111e-01" nType="0">
                  <Node pos="l" depth="4" NCoef="0" IVar="-1" Cut="0.0000000000000000e+00" cType="1" res="-9.9000000000000000e+01" rms="0.0000000000000000e+00" purity="5.0312787294387817e-01" nType="1"/>
                  <Node pos="r" depth="4" NCoef="0" IVar="-1" Cut="0.0000000000000000e+00" cType="1" res="-9.9000000000000000e+01" rms="0.0000000000000000e+00" purity="4.6999898552894592e-01" nType="-1"/>
                </Node>
                <Node pos="r" depth="3" NCoef="0" IVar="-1" Cut="0.0000000000000000e+00" cType="1" res="-9.9000000000000000e+01" rms="0.0000000000000000e+00" purity="4.5966479182243347e-01" nType="-1"/>
              </Node>
            </Node>
            <Node pos="r" depth="1" NCoef="0" IVar="-1" Cut="0.0000000000000000e+00" cType="1" res="-9.9000000000000000e+01" rms="0.0000000000000000e+00" purity="4.6028810739517212e-01" nType="-1"/>
          </Node>
        </BinaryTree>
        <BinaryTree type="DecisionTree" boostWeight="7.8670214689713722e-03" itree="79">
          <Node pos="s" depth="0" NCoef="0" IVar="1" Cut="1.4270956420898438e+02" cType="1" res="-9.9000000000000000e+01" rms="0.0000000000000000e+00" purity="4.9689355492591858e-01" nType="0">
            <Node pos="l" depth="1" NCoef="0" IVar="2" Cut="2.7151867675781250e+02" cType="0" res="-9.9000000000000000e+01" rms="0.0000000000000000e+00" purity="4.9938654899597168e-01" nType="0">
              <Node pos="l" depth="2" NCoef="0" IVar="-1" Cut="0.0000000000000000e+00" cType="1" res="-9.9000000000000000e+01" rms="0.0000000000000000e+00" purity="5.4479396343231201e-01" nType="1"/>
              <Node pos="r" depth="2" NCoef="0" IVar="3" Cut="3.7801248168945312e+02" cType="1" res="-9.9000000000000000e+01" rms="0.0000000000000000e+00" purity="4.9618455767631531e-01" nType="0">
                <Node pos="l" depth="3" NCoef="0" IVar="0" Cut="1.8764381408691406e+02" cType="0" res="-9.9000000000000000e+01" rms="0.0000000000000000e+00" purity="4.9928313493728638e-01" nType="0">
                  <Node pos="l" depth="4" NCoef="0" IVar="-1" Cut="0.0000000000000000e+00" cType="1" res="-9.9000000000000000e+01" rms="0.0000000000000000e+00" purity="5.4249745607376099e-01" nType="1"/>
                  <Node pos="r" depth="4" NCoef="0" IVar="-1" Cut="0.0000000000000000e+00" cType="1" res="-9.9000000000000000e+01" rms="0.0000000000000000e+00" purity="4.9633985757827759e-01" nType="-1"/>
                </Node>
                <Node pos="r" depth="3" NCoef="0" IVar="-1" Cut="0.0000000000000000e+00" cType="1" res="-9.9000000000000000e+01" rms="0.0000000000000000e+00" purity="4.5156741142272949e-01" nType="-1"/>
              </Node>
            </Node>
            <Node pos="r" depth="1" NCoef="0" IVar="-1" Cut="0.0000000000000000e+00" cType="1" res="-9.9000000000000000e+01" rms="0.0000000000000000e+00" purity="4.5750889182090759e-01" nType="-1"/>
          </Node>
        </BinaryTree>
        <BinaryTree type="DecisionTree" boostWeight="1.6730918853641641e-02" itree="80">
          <Node pos="s" depth="0" NCoef="0" IVar="1" Cut="6.3114673614501953e+01" cType="0" res="-9.9000000000000000e+01" rms="0.0000000000000000e+00" purity="4.9844333529472351e-01" nType="0">
            <Node pos="l" depth="1" NCoef="0" IVar="1" Cut="8.9230926513671875e+01" cType="1" res="-9.9000000000000000e+01" rms="0.0000000000000000e+00" purity="5.0317829847335815e-01" nType="0">
              <Node pos="l" depth="2" NCoef="0" IVar="5" Cut="1.5660970211029053e+00" cType="0" res="-9.9000000000000000e+01" rms="0.0000000000000000e+00" purity="5.2397280931472778e-01" nType="0">
                <Node pos="l" depth="3" NCoef="0" IVar="-1" Cut="0.0000000000000000e+00" cType="1" res="-9.9000000000000000e+01" rms="0.0000000000000000e+00" purity="5.8099651336669922e-01" nType="1"/>
                <Node pos="r" depth="3" NCoef="0" IVar="3" Cut="1.8522610473632812e+02" cType="1" res="-9.9000000000000000e+01" rms="0.0000000000000000e+00" purity="5.1222109794616699e-01" nType="0">
                  <Node pos="l" depth="4" NCoef="0" IVar="-1" Cut="0.0000000000000000e+00" cType="1" res="-9.9000000000000000e+01" rms="0.0000000000000000e+00" purity="5.2627205848693848e-01" nType="1"/>
                  <Node pos="r" depth="4" NCoef="0" IVar="-1" Cut="0.0000000000000000e+00" cType="1" res="-9.9000000000000000e+01" rms="0.0000000000000000e+00" purity="4.9130314588546753e-01" nType="-1"/>
                </Node>
              </Node>
              <Node pos="r" depth="2" NCoef="0" IVar="2" Cut="1.7347157287597656e+02" cType="0" res="-9.9000000000000000e+01" rms="0.0000000000000000e+00" purity="4.8866340517997742e-01" nType="0">
                <Node pos="l" depth="3" NCoef="0" IVar="5" Cut="1.3717048168182373e+00" cType="1" res="-9.9000000000000000e+01" rms="0.0000000000000000e+00" purity="5.0434899330139160e-01" nType="0">
                  <Node pos="l" depth="4" NCoef="0" IVar="-1" Cut="0.0000000000000000e+00" cType="1" res="-9.9000000000000000e+01" rms="0.0000000000000000e+00" purity="5.1927888393402100e-01" nType="1"/>
                  <Node pos="r" depth="4" NCoef="0" IVar="-1" Cut="0.0000000000000000e+00" cType="1" res="-9.9000000000000000e+01" rms="0.0000000000000000e+00" purity="4.7787657380104065e-01" nType="-1"/>
                </Node>
                <Node pos="r" depth="3" NCoef="0" IVar="4" Cut="1.8522071838378906e+00" cType="0" res="-9.9000000000000000e+01" rms="0.0000000000000000e+00" purity="4.7390413284301758e-01" nType="0">
                  <Node pos="l" depth="4" NCoef="0" IVar="-1" Cut="0.0000000000000000e+00" cType="1" res="-9.9000000000000000e+01" rms="0.0000000000000000e+00" purity="5.0671619176864624e-01" nType="1"/>
                  <Node pos="r" depth="4" NCoef="0" IVar="-1" Cut="0.0000000000000000e+00" cType="1" res="-9.9000000000000000e+01" rms="0.0000000000000000e+00" purity="4.6001404523849487e-01" nType="-1"/>
                </Node>
              </Node>
            </Node>
            <Node pos="r" depth="1" NCoef="0" IVar="3" Cut="2.2036143493652344e+02" cType="1" res="-9.9000000000000000e+01" rms="0.0000000000000000e+00" purity="4.7807005047798157e-01" nType="0">
              <Node pos="l" depth="2" NCoef="0" IVar="4" Cut="2.3162117004394531e+00" cType="1" res="-9.9000000000000000e+01" rms="0.0000000000000000e+00" purity="4.9396741390228271e-01" nType="0">
                <Node pos="l" depth="3" NCoef="0" IVar="-1" Cut="0.0000000000000000e+00" cType="1" res="-9.9000000000000000e+01" rms="0.0000000000000000e+00" purity="5.1203811168670654e-01" nType="1"/>
                <Node pos="r" depth="3" NCoef="0" IVar="-1" Cut="0.0000000000000000e+00" cType="1" res="-9.9000000000000000e+01" rms="0.0000000000000000e+00" purity="4.7159662842750549e-01" nType="-1"/>
              </Node>
              <Node pos="r" depth="2" NCoef="0" IVar="-1" Cut="0.0000000000000000e+00" cType="1" res="-9.9000000000000000e+01" rms="0.0000000000000000e+00" purity="4.4600850343704224e-01" nType="-1"/>
            </Node>
          </Node>
        </BinaryTree>
        <BinaryTree type="DecisionTree" boostWeight="9.0051073011866694e-03" itree="81">
          <Node pos="s" depth="0" NCoef="0" IVar="1" Cut="1.4270956420898438e+02" cType="1" res="-9.9000000000000000e+01" rms="0.0000000000000000e+00" purity="4.9839636683464050e-01" nType="0">
            <Node pos="l" depth="1" NCoef="0" IVar="2" Cut="2.5658575439453125e+02" cType="0" res="-9.9000000000000000e+01" rms="0.0000000000000000e+00" purity="5.0085520744323730e-01" nType="0">
              <Node pos="l" depth="2" NCoef="0" IVar="-1" Cut="0.0000000000000000e+00" cType="1" res="-9.9000000000000000e+01" rms="0.0000000000000000e+00" purity="5.3910070657730103e-01" nType="1"/>
              <Node pos="r" depth="2" NCoef="0" IVar="4" Cut="8.8340288400650024e-01" cType="0" res="-9.9000000000000000e+01" rms="0.0000000000000000e+00" purity="4.9737679958343506e-01" nType="0">
                <Node pos="l" depth="3" NCoef="0" IVar="5" Cut="1.3211908340454102e+00" cType="0" res="-9.9000000000000000e+01" rms="0.0000000000000000e+00" purity="5.0191164016723633e-01" nType="0">
                  <Node pos="l" depth="4" NCoef="0" IVar="-1" Cut="0.0000000000000000e+00" cType="1" res="-9.9000000000000000e+01" rms="0.0000000000000000e+00" purity="5.2489262819290161e-01" nType="1"/>
                  <Node pos="r" depth="4" NCoef="0" IVar="-1" Cut="0.0000000000000000e+00" cType="1" res="-9.9000000000000000e+01" rms="0.0000000000000000e+00" purity="4.9612554907798767e-01" nType="-1"/>
                </Node>
                <Node pos="r" depth="3" NCoef="0" IVar="-1" Cut="1.2811858654022217e+00" cType="0" res="-9.9000000000000000e+01" rms="0.0000000000000000e+00" purity="4.7321254014968872e-01" nType="-1"/>
              </Node>
            </Node>
            <Node pos="r" depth="1" NCoef="0" IVar="-1" Cut="0.0000000000000000e+00" cType="1" res="-9.9000000000000000e+01" rms="0.0000000000000000e+00" purity="4.5952305197715759e-01" nType="-1"/>
          </Node>
        </BinaryTree>
        <BinaryTree type="DecisionTree" boostWeight="7.8191162285665573e-03" itree="82">
          <Node pos="s" depth="0" NCoef="0" IVar="3" Cut="4.4253338623046875e+02" cType="1" res="-9.9000000000000000e+01" rms="0.0000000000000000e+00" purity="4.9966201186180115e-01" nType="0">
            <Node pos="l" depth="1" NCoef="0" IVar="0" Cut="1.9545225524902344e+02" cType="0" res="-9.9000000000000000e+01" rms="0.0000000000000000e+00" purity="5.0222140550613403e-01" nType="0">
              <Node pos="l" depth="2" NCoef="0" IVar="-1" Cut="0.0000000000000000e+00" cType="1" res="-9.9000000000000000e+01" rms="0.0000000000000000e+00" purity="5.4591655731201172e-01" nType="1"/>
              <Node pos="r" depth="2" NCoef="0" IVar="5" Cut="7.6479750871658325e-01" cType="0" res="-9.9000000000000000e+01" rms="0.0000000000000000e+00" purity="4.9822199344635010e-01" nType="0">
                <Node pos="l" depth="3" NCoef="0" IVar="6" Cut="1.1087671518325806e+00" cType="0" res="-9.9000000000000000e+01" rms="0.0000000000000000e+00" purity="5.0088965892791748e-01" nType="0">
                  <Node pos="l" depth="4" NCoef="0" IVar="-1" Cut="0.0000000000000000e+00" cType="1" res="-9.9000000000000000e+01" rms="0.0000000000000000e+00" purity="5.0373464822769165e-01" nType="1"/>
                  <Node pos="r" depth="4" NCoef="0" IVar="-1" Cut="0.0000000000000000e+00" cType="1" res="-9.9000000000000000e+01" rms="0.0000000000000000e+00" purity="4.7007179260253906e-01" nType="-1"/>
                </Node>
                <Node pos="r" depth="3" NCoef="0" IVar="-1" Cut="0.0000000000000000e+00" cType="1" res="-9.9000000000000000e+01" rms="0.0000000000000000e+00" purity="4.5730206370353699e-01" nType="-1"/>
              </Node>
            </Node>
            <Node pos="r" depth="1" NCoef="0" IVar="-1" Cut="0.0000000000000000e+00" cType="1" res="-9.9000000000000000e+01" rms="0.0000000000000000e+00" purity="4.6320432424545288e-01" nType="-1"/>
          </Node>
        </BinaryTree>
        <BinaryTree type="DecisionTree" boostWeight="1.5504964192710437e-02" itree="83">
          <Node pos="s" depth="0" NCoef="0" IVar="1" Cut="7.0518844604492188e+01" cType="0" res="-9.9000000000000000e+01" rms="0.0000000000000000e+00" purity="4.9844479560852051e-01" nType="0">
            <Node pos="l" depth="1" NCoef="0" IVar="1" Cut="8.7436210632324219e+01" cType="1" res="-9.9000000000000000e+01" rms="0.0000000000000000e+00" purity="5.0422507524490356e-01" nType="0">
              <Node pos="l" depth="2" NCoef="0" IVar="6" Cut="1.5689895153045654e+00" cType="1" res="-9.9000000000000000e+01" rms="0.0000000000000000e+00" purity="5.3348809480667114e-01" nType="0">
                <Node pos="l" depth="3" NCoef="0" IVar="-1" Cut="0.0000000000000000e+00" cType="1" res="-9.9000000000000000e+01" rms="0.0000000000000000e+00" purity="5.7545685768127441e-01" nType="1"/>
                <Node pos="r" depth="3" NCoef="0" IVar="3" Cut="2.0297761535644531e+02" cType="1" res="-9.9000000000000000e+01" rms="0.0000000000000000e+00" purity="5.1827180385589600e-01" nType="0">
                  <Node pos="l" depth="4" NCoef="0" IVar="-1" Cut="0.0000000000000000e+00" cType="1" res="-9.9000000000000000e+01" rms="0.0000000000000000e+00" purity="5.3533762693405151e-01" nType="1"/>
                  <Node pos="r" depth="4" NCoef="0" IVar="-1" Cut="0.0000000000000000e+00" cType="1" res="-9.9000000000000000e+01" rms="0.0000000000000000e+00" purity="4.7706097364425659e-01" nType="-1"/>
                </Node>
              </Node>
              <Node pos="r" depth="2" NCoef="0" IVar="2" Cut="1.5525808715820312e+02" cType="0" res="-9.9000000000000000e+01" rms="0.0000000000000000e+00" purity="4.9050375819206238e-01" nType="0">
                <Node pos="l" depth="3" NCoef="0" IVar="1" Cut="1.3278598022460938e+02" cType="1" res="-9.9000000000000000e+01" rms="0.0000000000000000e+00" purity="5.0064837932586670e-01" nType="0">
                  <Node pos="l" depth="4" NCoef="0" IVar="-1" Cut="0.0000000000000000e+00" cType="1" res="-9.9000000000000000e+01" rms="0.0000000000000000e+00" purity="5.0784182548522949e-01" nType="1"/>
                  <Node pos="r" depth="4" NCoef="0" IVar="-1" Cut="0.0000000000000000e+00" cType="1" res="-9.9000000000000000e+01" rms="0.0000000000000000e+00" purity="4.7449633479118347e-01" nType="-1"/>
                </Node>
                <Node pos="r" depth="3" NCoef="0" IVar="-1" Cut="7.8373168945312500e+01" cType="0" res="-9.9000000000000000e+01" rms="0.0000000000000000e+00" purity="4.6983096003532410e-01" nType="-1"/>
              </Node>
            </Node>
            <Node pos="r" depth="1" NCoef="0" IVar="3" Cut="2.1616107177734375e+02" cType="1" res="-9.9000000000000000e+01" rms="0.0000000000000000e+00" purity="4.8207569122314453e-01" nType="0">
              <Node pos="l" depth="2" NCoef="0" IVar="6" Cut="2.8473575115203857e+00" cType="1" res="-9.9000000000000000e+01" rms="0.0000000000000000e+00" purity="4.9643519520759583e-01" nType="0">
                <Node pos="l" depth="3" NCoef="0" IVar="1" Cut="5.5690387725830078e+01" cType="0" res="-9.9000000000000000e+01" rms="0.0000000000000000e+00" purity="5.0830662250518799e-01" nType="0">
                  <Node pos="l" depth="4" NCoef="0" IVar="-1" Cut="0.0000000000000000e+00" cType="1" res="-9.9000000000000000e+01" rms="0.0000000000000000e+00" purity="5.1837712526321411e-01" nType="1"/>
                  <Node pos="r" depth="4" NCoef="0" IVar="-1" Cut="0.0000000000000000e+00" cType="1" res="-9.9000000000000000e+01" rms="0.0000000000000000e+00" purity="4.9912175536155701e-01" nType="-1"/>
                </Node>
                <Node pos="r" depth="3" NCoef="0" IVar="-1" Cut="0.0000000000000000e+00" cType="1" res="-9.9000000000000000e+01" rms="0.0000000000000000e+00" purity="4.7286075353622437e-01" nType="-1"/>
              </Node>
              <Node pos="r" depth="2" NCoef="0" IVar="-1" Cut="0.0000000000000000e+00" cType="1" res="-9.9000000000000000e+01" rms="0.0000000000000000e+00" purity="4.5511394739151001e-01" nType="-1"/>
            </Node>
          </Node>
        </BinaryTree>
        <BinaryTree type="DecisionTree" boostWeight="8.6050812873886169e-03" itree="84">
          <Node pos="s" depth="0" NCoef="0" IVar="4" Cut="5.9471720457077026e-01" cType="0" res="-9.9000000000000000e+01" rms="0.0000000000000000e+00" purity="4.9845531582832336e-01" nType="0">
            <Node pos="l" depth="1" NCoef="0" IVar="2" Cut="2.2309574890136719e+02" cType="0" res="-9.9000000000000000e+01" rms="0.0000000000000000e+00" purity="5.0086522102355957e-01" nType="0">
              <Node pos="l" depth="2" NCoef="0" IVar="6" Cut="1.2368987798690796e+00" cType="1" res="-9.9000000000000000e+01" rms="0.0000000000000000e+00" purity="5.2811306715011597e-01" nType="0">
                <Node pos="l" depth="3" NCoef="0" IVar="-1" Cut="0.0000000000000000e+00" cType="1" res="-9.9000000000000000e+01" rms="0.0000000000000000e+00" purity="5.6474316120147705e-01" nType="1"/>
                <Node pos="r" depth="3" NCoef="0" IVar="-1" Cut="0.0000000000000000e+00" cType="1" res="-9.9000000000000000e+01" rms="0.0000000000000000e+00" purity="4.8543906211853027e-01" nType="-1"/>
              </Node>
              <Node pos="r" depth="2" NCoef="0" IVar="3" Cut="2.6223791503906250e+02" cType="1" res="-9.9000000000000000e+01" rms="0.0000000000000000e+00" purity="4.9651914834976196e-01" nType="0">
                <Node pos="l" depth="3" NCoef="0" IVar="0" Cut="1.4820196533203125e+02" cType="0" res="-9.9000000000000000e+01" rms="0.0000000000000000e+00" purity="5.0037491321563721e-01" nType="0">
                  <Node pos="l" depth="4" NCoef="0" IVar="-1" Cut="0.0000000000000000e+00" cType="1" res="-9.9000000000000000e+01" rms="0.0000000000000000e+00" purity="5.3544431924819946e-01" nType="1"/>
                  <Node pos="r" depth="4" NCoef="0" IVar="-1" Cut="0.0000000000000000e+00" cType="1" res="-9.9000000000000000e+01" rms="0.0000000000000000e+00" purity="4.9743136763572693e-01" nType="-1"/>
                </Node>
                <Node pos="r" depth="3" NCoef="0" IVar="-1" Cut="1.9555647373199463e+00" cType="1" res="-9.9000000000000000e+01" rms="0.0000000000000000e+00" purity="4.7351908683776855e-01" nType="-1"/>
              </Node>
            </Node>
            <Node pos="r" depth="1" NCoef="0" IVar="-1" Cut="0.0000000000000000e+00" cType="1" res="-9.9000000000000000e+01" rms="0.0000000000000000e+00" purity="4.6201887726783752e-01" nType="-1"/>
          </Node>
        </BinaryTree>
        <BinaryTree type="DecisionTree" boostWeight="1.0175450346839707e-02" itree="85">
          <Node pos="s" depth="0" NCoef="0" IVar="4" Cut="5.9471720457077026e-01" cType="0" res="-9.9000000000000000e+01" rms="0.0000000000000000e+00" purity="5.0012105703353882e-01" nType="0">
            <Node pos="l" depth="1" NCoef="0" IVar="2" Cut="2.2309574890136719e+02" cType="0" res="-9.9000000000000000e+01" rms="0.0000000000000000e+00" purity="5.0248843431472778e-01" nType="0">
              <Node pos="l" depth="2" NCoef="0" IVar="6" Cut="1.2368987798690796e+00" cType="1" res="-9.9000000000000000e+01" rms="0.0000000000000000e+00" purity="5.2804082632064819e-01" nType="0">
                <Node pos="l" depth="3" NCoef="0" IVar="-1" Cut="0.0000000000000000e+00" cType="1" res="-9.9000000000000000e+01" rms="0.0000000000000000e+00" purity="5.6262606382369995e-01" nType="1"/>
                <Node pos="r" depth="3" NCoef="0" IVar="-1" Cut="0.0000000000000000e+00" cType="1" res="-9.9000000000000000e+01" rms="0.0000000000000000e+00" purity="4.8778158426284790e-01" nType="-1"/>
              </Node>
              <Node pos="r" depth="2" NCoef="0" IVar="3" Cut="2.6223791503906250e+02" cType="1" res="-9.9000000000000000e+01" rms="0.0000000000000000e+00" purity="4.9841347336769104e-01" nType="0">
                <Node pos="l" depth="3" NCoef="0" IVar="4" Cut="1.1920869350433350e+00" cType="0" res="-9.9000000000000000e+01" rms="0.0000000000000000e+00" purity="5.0221645832061768e-01" nType="0">
                  <Node pos="l" depth="4" NCoef="0" IVar="-1" Cut="0.0000000000000000e+00" cType="1" res="-9.9000000000000000e+01" rms="0.0000000000000000e+00" purity="5.0795465707778931e-01" nType="1"/>
                  <Node pos="r" depth="4" NCoef="0" IVar="-1" Cut="0.0000000000000000e+00" cType="1" res="-9.9000000000000000e+01" rms="0.0000000000000000e+00" purity="4.8400074243545532e-01" nType="-1"/>
                </Node>
                <Node pos="r" depth="3" NCoef="0" IVar="-1" Cut="1.9555647373199463e+00" cType="1" res="-9.9000000000000000e+01" rms="0.0000000000000000e+00" purity="4.7572585940361023e-01" nType="-1"/>
              </Node>
            </Node>
            <Node pos="r" depth="1" NCoef="0" IVar="-1" Cut="0.0000000000000000e+00" cType="1" res="-9.9000000000000000e+01" rms="0.0000000000000000e+00" purity="4.6432855725288391e-01" nType="-1"/>
          </Node>
        </BinaryTree>
        <BinaryTree type="DecisionTree" boostWeight="8.6853863043558164e-03" itree="86">
          <Node pos="s" depth="0" NCoef="0" IVar="5" Cut="2.1574385166168213e+00" cType="0" res="-9.9000000000000000e+01" rms="0.0000000000000000e+00" purity="4.9966701865196228e-01" nType="0">
            <Node pos="l" depth="1" NCoef="0" IVar="-1" Cut="0.0000000000000000e+00" cType="1" res="-9.9000000000000000e+01" rms="0.0000000000000000e+00" purity="5.3931105136871338e-01" nType="1"/>
            <Node pos="r" depth="1" NCoef="0" IVar="2" Cut="1.1921294403076172e+02" cType="0" res="-9.9000000000000000e+01" rms="0.0000000000000000e+00" purity="4.9757838249206543e-01" nType="0">
              <Node pos="l" depth="2" NCoef="0" IVar="6" Cut="8.2509464025497437e-01" cType="0" res="-9.9000000000000000e+01" rms="0.0000000000000000e+00" purity="4.9973413348197937e-01" nType="0">
                <Node pos="l" depth="3" NCoef="0" IVar="1" Cut="6.9103965759277344e+01" cType="0" res="-9.9000000000000000e+01" rms="0.0000000000000000e+00" purity="5.0233417749404907e-01" nType="0">
                  <Node pos="l" depth="4" NCoef="0" IVar="-1" Cut="0.0000000000000000e+00" cType="1" res="-9.9000000000000000e+01" rms="0.0000000000000000e+00" purity="5.0805282592773438e-01" nType="1"/>
                  <Node pos="r" depth="4" NCoef="0" IVar="-1" Cut="0.0000000000000000e+00" cType="1" res="-9.9000000000000000e+01" rms="0.0000000000000000e+00" purity="4.8542243242263794e-01" nType="-1"/>
                </Node>
                <Node pos="r" depth="3" NCoef="0" IVar="-1" Cut="0.0000000000000000e+00" cType="1" res="-9.9000000000000000e+01" rms="0.0000000000000000e+00" purity="4.5740628242492676e-01" nType="-1"/>
              </Node>
              <Node pos="r" depth="2" NCoef="0" IVar="-1" Cut="0.0000000000000000e+00" cType="1" res="-9.9000000000000000e+01" rms="0.0000000000000000e+00" purity="4.5885211229324341e-01" nType="-1"/>
            </Node>
          </Node>
        </BinaryTree>
        <BinaryTree type="DecisionTree" boostWeight="1.5521295364416515e-02" itree="87">
          <Node pos="s" depth="0" NCoef="0" IVar="1" Cut="8.9029289245605469e+01" cType="1" res="-9.9000000000000000e+01" rms="0.0000000000000000e+00" purity="4.9887925386428833e-01" nType="0">
            <Node pos="l" depth="1" NCoef="0" IVar="1" Cut="7.2901329040527344e+01" cType="0" res="-9.9000000000000000e+01" rms="0.0000000000000000e+00" purity="5.0776249170303345e-01" nType="0">
              <Node pos="l" depth="2" NCoef="0" IVar="0" Cut="1.4405220031738281e+02" cType="0" res="-9.9000000000000000e+01" rms="0.0000000000000000e+00" purity="5.3204870223999023e-01" nType="0">
                <Node pos="l" depth="3" NCoef="0" IVar="-1" Cut="0.0000000000000000e+00" cType="1" res="-9.9000000000000000e+01" rms="0.0000000000000000e+00" purity="5.8454549312591553e-01" nType="1"/>
                <Node pos="r" depth="3" NCoef="0" IVar="1" Cut="8.4078804016113281e+01" cType="1" res="-9.9000000000000000e+01" rms="0.0000000000000000e+00" purity="5.1570415496826172e-01" nType="0">
                  <Node pos="l" depth="4" NCoef="0" IVar="-1" Cut="0.0000000000000000e+00" cType="1" res="-9.9000000000000000e+01" rms="0.0000000000000000e+00" purity="5.2380490303039551e-01" nType="1"/>
                  <Node pos="r" depth="4" NCoef="0" IVar="-1" Cut="0.0000000000000000e+00" cType="1" res="-9.9000000000000000e+01" rms="0.0000000000000000e+00" purity="4.9796402454376221e-01" nType="-1"/>
                </Node>
              </Node>
              <Node pos="r" depth="2" NCoef="0" IVar="3" Cut="2.1616107177734375e+02" cType="1" res="-9.9000000000000000e+01" rms="0.0000000000000000e+00" purity="4.8851743340492249e-01" nType="0">
                <Node pos="l" depth="3" NCoef="0" IVar="4" Cut="2.4459404945373535e+00" cType="1" res="-9.9000000000000000e+01" rms="0.0000000000000000e+00" purity="5.0276094675064087e-01" nType="0">
                  <Node pos="l" depth="4" NCoef="0" IVar="-1" Cut="0.0000000000000000e+00" cType="1" res="-9.9000000000000000e+01" rms="0.0000000000000000e+00" purity="5.1249474287033081e-01" nType="1"/>
                  <Node pos="r" depth="4" NCoef="0" IVar="-1" Cut="0.0000000000000000e+00" cType="1" res="-9.9000000000000000e+01" rms="0.0000000000000000e+00" purity="4.7983053326606750e-01" nType="-1"/>
                </Node>
                <Node pos="r" depth="3" NCoef="0" IVar="-1" Cut="5.7987834930419922e+01" cType="0" res="-9.9000000000000000e+01" rms="0.0000000000000000e+00" purity="4.6210414171218872e-01" nType="-1"/>
              </Node>
            </Node>
            <Node pos="r" depth="1" NCoef="0" IVar="2" Cut="1.8257830810546875e+02" cType="0" res="-9.9000000000000000e+01" rms="0.0000000000000000e+00" purity="4.8927626013755798e-01" nType="0">
              <Node pos="l" depth="2" NCoef="0" IVar="5" Cut="1.2911130189895630e+00" cType="1" res="-9.9000000000000000e+01" rms="0.0000000000000000e+00" purity="5.0453919172286987e-01" nType="0">
                <Node pos="l" depth="3" NCoef="0" IVar="-1" Cut="0.0000000000000000e+00" cType="1" res="-9.9000000000000000e+01" rms="0.0000000000000000e+00" purity="5.2542519569396973e-01" nType="1"/>
                <Node pos="r" depth="3" NCoef="0" IVar="-1" Cut="0.0000000000000000e+00" cType="1" res="-9.9000000000000000e+01" rms="0.0000000000000000e+00" purity="4.8168888688087463e-01" nType="-1"/>
              </Node>
              <Node pos="r" depth="2" NCoef="0" IVar="4" Cut="1.9668519496917725e+00" cType="0" res="-9.9000000000000000e+01" rms="0.0000000000000000e+00" purity="4.7933548688888550e-01" nType="0">
                <Node pos="l" depth="3" NCoef="0" IVar="-1" Cut="0.0000000000000000e+00" cType="1" res="-9.9000000000000000e+01" rms="0.0000000000000000e+00" purity="5.1052606105804443e-01" nType="1"/>
                <Node pos="r" depth="3" NCoef="0" IVar="0" Cut="1.0128019714355469e+02" cType="0" res="-9.9000000000000000e+01" rms="0.0000000000000000e+00" purity="4.7032102942466736e-01" nType="0">
                  <Node pos="l" depth="4" NCoef="0" IVar="-1" Cut="0.0000000000000000e+00" cType="1" res="-9.9000000000000000e+01" rms="0.0000000000000000e+00" purity="5.0055599212646484e-01" nType="1"/>
                  <Node pos="r" depth="4" NCoef="0" IVar="-1" Cut="0.0000000000000000e+00" cType="1" res="-9.9000000000000000e+01" rms="0.0000000000000000e+00" purity="4.5877474546432495e-01" nType="-1"/>
                </Node>
              </Node>
            </Node>
          </Node>
        </BinaryTree>
        <BinaryTree type="DecisionTree" boostWeight="1.2828698113273272e-02" itree="88">
          <Node pos="s" depth="0" NCoef="0" IVar="2" Cut="2.1900529479980469e+02" cType="0" res="-9.9000000000000000e+01" rms="0.0000000000000000e+00" purity="4.9867811799049377e-01" nType="0">
            <Node pos="l" depth="1" NCoef="0" IVar="1" Cut="7.4220939636230469e+01" cType="0" res="-9.9000000000000000e+01" rms="0.0000000000000000e+00" purity="5.1926344633102417e-01" nType="0">
              <Node pos="l" depth="2" NCoef="0" IVar="1" Cut="9.6983856201171875e+01" cType="1" res="-9.9000000000000000e+01" rms="0.0000000000000000e+00" purity="5.4427278041839600e-01" nType="0">
                <Node pos="l" depth="3" NCoef="0" IVar="-1" Cut="0.0000000000000000e+00" cType="1" res="-9.9000000000000000e+01" rms="0.0000000000000000e+00" purity="5.9102755784988403e-01" nType="1"/>
                <Node pos="r" depth="3" NCoef="0" IVar="-1" Cut="0.0000000000000000e+00" cType="1" res="-9.9000000000000000e+01" rms="0.0000000000000000e+00" purity="4.9736306071281433e-01" nType="-1"/>
              </Node>
              <Node pos="r" depth="2" NCoef="0" IVar="-1" Cut="0.0000000000000000e+00" cType="1" res="-9.9000000000000000e+01" rms="0.0000000000000000e+00" purity="4.6145382523536682e-01" nType="-1"/>
            </Node>
            <Node pos="r" depth="1" NCoef="0" IVar="6" Cut="1.1087671518325806e+00" cType="0" res="-9.9000000000000000e+01" rms="0.0000000000000000e+00" purity="4.9447378516197205e-01" nType="0">
              <Node pos="l" depth="2" NCoef="0" IVar="1" Cut="8.4852981567382812e+01" cType="1" res="-9.9000000000000000e+01" rms="0.0000000000000000e+00" purity="4.9735325574874878e-01" nType="0">
                <Node pos="l" depth="3" NCoef="0" IVar="4" Cut="2.4732789993286133e+00" cType="1" res="-9.9000000000000000e+01" rms="0.0000000000000000e+00" purity="5.0763553380966187e-01" nType="0">
                  <Node pos="l" depth="4" NCoef="0" IVar="-1" Cut="0.0000000000000000e+00" cType="1" res="-9.9000000000000000e+01" rms="0.0000000000000000e+00" purity="5.1576250791549683e-01" nType="1"/>
                  <Node pos="r" depth="4" NCoef="0" IVar="-1" Cut="0.0000000000000000e+00" cType="1" res="-9.9000000000000000e+01" rms="0.0000000000000000e+00" purity="4.7586634755134583e-01" nType="-1"/>
                </Node>
                <Node pos="r" depth="3" NCoef="0" IVar="-1" Cut="1.5967523193359375e+02" cType="0" res="-9.9000000000000000e+01" rms="0.0000000000000000e+00" purity="4.8795214295387268e-01" nType="-1"/>
              </Node>
              <Node pos="r" depth="2" NCoef="0" IVar="-1" Cut="0.0000000000000000e+00" cType="1" res="-9.9000000000000000e+01" rms="0.0000000000000000e+00" purity="4.5663827657699585e-01" nType="-1"/>
            </Node>
          </Node>
        </BinaryTree>
        <BinaryTree type="DecisionTree" boostWeight="9.1848005704954338e-03" itree="89">
          <Node pos="s" depth="0" NCoef="0" IVar="2" Cut="2.1900529479980469e+02" cType="0" res="-9.9000000000000000e+01" rms="0.0000000000000000e+00" purity="4.9967333674430847e-01" nType="0">
            <Node pos="l" depth="1" NCoef="0" IVar="6" Cut="1.4384001493453979e+00" cType="1" res="-9.9000000000000000e+01" rms="0.0000000000000000e+00" purity="5.2040123939514160e-01" nType="0">
              <Node pos="l" depth="2" NCoef="0" IVar="-1" Cut="9.2054878234863281e+01" cType="1" res="-9.9000000000000000e+01" rms="0.0000000000000000e+00" purity="5.4442638158798218e-01" nType="1"/>
              <Node pos="r" depth="2" NCoef="0" IVar="-1" Cut="0.0000000000000000e+00" cType="1" res="-9.9000000000000000e+01" rms="0.0000000000000000e+00" purity="4.6328684687614441e-01" nType="-1"/>
            </Node>
            <Node pos="r" depth="1" NCoef="0" IVar="6" Cut="1.1087671518325806e+00" cType="0" res="-9.9000000000000000e+01" rms="0.0000000000000000e+00" purity="4.9544018507003784e-01" nType="0">
              <Node pos="l" depth="2" NCoef="0" IVar="2" Cut="1.2054383850097656e+02" cType="0" res="-9.9000000000000000e+01" rms="0.0000000000000000e+00" purity="4.9814331531524658e-01" nType="0">
                <Node pos="l" depth="3" NCoef="0" IVar="6" Cut="3.1928579807281494e+00" cType="1" res="-9.9000000000000000e+01" rms="0.0000000000000000e+00" purity="5.0076967477798462e-01" nType="0">
                  <Node pos="l" depth="4" NCoef="0" IVar="-1" Cut="0.0000000000000000e+00" cType="1" res="-9.9000000000000000e+01" rms="0.0000000000000000e+00" purity="5.0338852405548096e-01" nType="1"/>
                  <Node pos="r" depth="4" NCoef="0" IVar="-1" Cut="0.0000000000000000e+00" cType="1" res="-9.9000000000000000e+01" rms="0.0000000000000000e+00" purity="4.7726872563362122e-01" nType="-1"/>
                </Node>
                <Node pos="r" depth="3" NCoef="0" IVar="-1" Cut="0.0000000000000000e+00" cType="1" res="-9.9000000000000000e+01" rms="0.0000000000000000e+00" purity="4.6395316720008850e-01" nType="-1"/>
              </Node>
              <Node pos="r" depth="2" NCoef="0" IVar="-1" Cut="0.0000000000000000e+00" cType="1" res="-9.9000000000000000e+01" rms="0.0000000000000000e+00" purity="4.5991313457489014e-01" nType="-1"/>
            </Node>
          </Node>
        </BinaryTree>
        <BinaryTree type="DecisionTree" boostWeight="1.0732383277946742e-02" itree="90">
          <Node pos="s" depth="0" NCoef="0" IVar="2" Cut="2.1900529479980469e+02" cType="0" res="-9.9000000000000000e+01" rms="0.0000000000000000e+00" purity="4.9846795201301575e-01" nType="0">
            <Node pos="l" depth="1" NCoef="0" IVar="1" Cut="7.4220939636230469e+01" cType="0" res="-9.9000000000000000e+01" rms="0.0000000000000000e+00" purity="5.1950538158416748e-01" nType="0">
              <Node pos="l" depth="2" NCoef="0" IVar="1" Cut="9.6983856201171875e+01" cType="1" res="-9.9000000000000000e+01" rms="0.0000000000000000e+00" purity="5.4338634014129639e-01" nType="0">
                <Node pos="l" depth="3" NCoef="0" IVar="-1" Cut="0.0000000000000000e+00" cType="1" res="-9.9000000000000000e+01" rms="0.0000000000000000e+00" purity="5.8708965778350830e-01" nType="1"/>
                <Node pos="r" depth="3" NCoef="0" IVar="-1" Cut="0.0000000000000000e+00" cType="1" res="-9.9000000000000000e+01" rms="0.0000000000000000e+00" purity="4.9963897466659546e-01" nType="-1"/>
              </Node>
              <Node pos="r" depth="2" NCoef="0" IVar="-1" Cut="0.0000000000000000e+00" cType="1" res="-9.9000000000000000e+01" rms="0.0000000000000000e+00" purity="4.6432808041572571e-01" nType="-1"/>
            </Node>
            <Node pos="r" depth="1" NCoef="0" IVar="4" Cut="1.0594444274902344e+00" cType="0" res="-9.9000000000000000e+01" rms="0.0000000000000000e+00" purity="4.9417269229888916e-01" nType="0">
              <Node pos="l" depth="2" NCoef="0" IVar="3" Cut="2.9882226562500000e+02" cType="1" res="-9.9000000000000000e+01" rms="0.0000000000000000e+00" purity="4.9901568889617920e-01" nType="0">
                <Node pos="l" depth="3" NCoef="0" IVar="5" Cut="1.2666524648666382e+00" cType="0" res="-9.9000000000000000e+01" rms="0.0000000000000000e+00" purity="5.0200611352920532e-01" nType="0">
                  <Node pos="l" depth="4" NCoef="0" IVar="-1" Cut="0.0000000000000000e+00" cType="1" res="-9.9000000000000000e+01" rms="0.0000000000000000e+00" purity="5.3099733591079712e-01" nType="1"/>
                  <Node pos="r" depth="4" NCoef="0" IVar="-1" Cut="0.0000000000000000e+00" cType="1" res="-9.9000000000000000e+01" rms="0.0000000000000000e+00" purity="4.9628931283950806e-01" nType="-1"/>
                </Node>
                <Node pos="r" depth="3" NCoef="0" IVar="-1" Cut="0.0000000000000000e+00" cType="1" res="-9.9000000000000000e+01" rms="0.0000000000000000e+00" purity="4.6794092655181885e-01" nType="-1"/>
              </Node>
              <Node pos="r" depth="2" NCoef="0" IVar="-1" Cut="1.4141330718994141e+00" cType="0" res="-9.9000000000000000e+01" rms="0.0000000000000000e+00" purity="4.7696539759635925e-01" nType="-1"/>
            </Node>
          </Node>
        </BinaryTree>
        <BinaryTree type="DecisionTree" boostWeight="6.7541406981531148e-03" itree="91">
          <Node pos="s" depth="0" NCoef="0" IVar="5" Cut="2.1574385166168213e+00" cType="0" res="-9.9000000000000000e+01" rms="0.0000000000000000e+00" purity="5.0035876035690308e-01" nType="0">
            <Node pos="l" depth="1" NCoef="0" IVar="-1" Cut="0.0000000000000000e+00" cType="1" res="-9.9000000000000000e+01" rms="0.0000000000000000e+00" purity="5.4012787342071533e-01" nType="1"/>
            <Node pos="r" depth="1" NCoef="0" IVar="3" Cut="4.0123660278320312e+02" cType="1" res="-9.9000000000000000e+01" rms="0.0000000000000000e+00" purity="4.9826267361640930e-01" nType="0">
              <Node pos="l" depth="2" NCoef="0" IVar="5" Cut="9.2105698585510254e-01" cType="0" res="-9.9000000000000000e+01" rms="0.0000000000000000e+00" purity="5.0063383579254150e-01" nType="0">
                <Node pos="l" depth="3" NCoef="0" IVar="-1" Cut="1.8780790710449219e+02" cType="0" res="-9.9000000000000000e+01" rms="0.0000000000000000e+00" purity="5.0509446859359741e-01" nType="1"/>
                <Node pos="r" depth="3" NCoef="0" IVar="2" Cut="1.4093156433105469e+02" cType="0" res="-9.9000000000000000e+01" rms="0.0000000000000000e+00" purity="4.8152256011962891e-01" nType="0">
                  <Node pos="l" depth="4" NCoef="0" IVar="-1" Cut="0.0000000000000000e+00" cType="1" res="-9.9000000000000000e+01" rms="0.0000000000000000e+00" purity="5.0113707780838013e-01" nType="1"/>
                  <Node pos="r" depth="4" NCoef="0" IVar="-1" Cut="0.0000000000000000e+00" cType="1" res="-9.9000000000000000e+01" rms="0.0000000000000000e+00" purity="4.3934661149978638e-01" nType="-1"/>
                </Node>
              </Node>
              <Node pos="r" depth="2" NCoef="0" IVar="-1" Cut="0.0000000000000000e+00" cType="1" res="-9.9000000000000000e+01" rms="0.0000000000000000e+00" purity="4.6433073282241821e-01" nType="-1"/>
            </Node>
          </Node>
        </BinaryTree>
        <BinaryTree type="DecisionTree" boostWeight="1.1642465811654167e-02" itree="92">
          <Node pos="s" depth="0" NCoef="0" IVar="2" Cut="2.1900529479980469e+02" cType="0" res="-9.9000000000000000e+01" rms="0.0000000000000000e+00" purity="4.9905902147293091e-01" nType="0">
            <Node pos="l" depth="1" NCoef="0" IVar="6" Cut="1.4384001493453979e+00" cType="1" res="-9.9000000000000000e+01" rms="0.0000000000000000e+00" purity="5.1959323883056641e-01" nType="0">
              <Node pos="l" depth="2" NCoef="0" IVar="-1" Cut="9.2054878234863281e+01" cType="1" res="-9.9000000000000000e+01" rms="0.0000000000000000e+00" purity="5.4240918159484863e-01" nType="1"/>
              <Node pos="r" depth="2" NCoef="0" IVar="-1" Cut="0.0000000000000000e+00" cType="1" res="-9.9000000000000000e+01" rms="0.0000000000000000e+00" purity="4.6537619829177856e-01" nType="-1"/>
            </Node>
            <Node pos="r" depth="1" NCoef="0" IVar="4" Cut="1.1650693416595459e+00" cType="0" res="-9.9000000000000000e+01" rms="0.0000000000000000e+00" purity="4.9486738443374634e-01" nType="0">
              <Node pos="l" depth="2" NCoef="0" IVar="3" Cut="2.2565354919433594e+02" cType="1" res="-9.9000000000000000e+01" rms="0.0000000000000000e+00" purity="5.0027066469192505e-01" nType="0">
                <Node pos="l" depth="3" NCoef="0" IVar="6" Cut="3.1078555583953857e+00" cType="1" res="-9.9000000000000000e+01" rms="0.0000000000000000e+00" purity="5.0482308864593506e-01" nType="0">
                  <Node pos="l" depth="4" NCoef="0" IVar="-1" Cut="0.0000000000000000e+00" cType="1" res="-9.9000000000000000e+01" rms="0.0000000000000000e+00" purity="5.0939798355102539e-01" nType="1"/>
                  <Node pos="r" depth="4" NCoef="0" IVar="-1" Cut="0.0000000000000000e+00" cType="1" res="-9.9000000000000000e+01" rms="0.0000000000000000e+00" purity="4.8492544889450073e-01" nType="-1"/>
                </Node>
                <Node pos="r" depth="3" NCoef="0" IVar="-1" Cut="1.6881042718887329e+00" cType="1" res="-9.9000000000000000e+01" rms="0.0000000000000000e+00" purity="4.7874408960342407e-01" nType="-1"/>
              </Node>
              <Node pos="r" depth="2" NCoef="0" IVar="6" Cut="1.4141330718994141e+00" cType="0" res="-9.9000000000000000e+01" rms="0.0000000000000000e+00" purity="4.8033902049064636e-01" nType="0">
                <Node pos="l" depth="3" NCoef="0" IVar="6" Cut="2.0460810661315918e+00" cType="1" res="-9.9000000000000000e+01" rms="0.0000000000000000e+00" purity="4.9280843138694763e-01" nType="0">
                  <Node pos="l" depth="4" NCoef="0" IVar="-1" Cut="0.0000000000000000e+00" cType="1" res="-9.9000000000000000e+01" rms="0.0000000000000000e+00" purity="5.0482589006423950e-01" nType="1"/>
                  <Node pos="r" depth="4" NCoef="0" IVar="-1" Cut="0.0000000000000000e+00" cType="1" res="-9.9000000000000000e+01" rms="0.0000000000000000e+00" purity="4.8119300603866577e-01" nType="-1"/>
                </Node>
                <Node pos="r" depth="3" NCoef="0" IVar="-1" Cut="0.0000000000000000e+00" cType="1" res="-9.9000000000000000e+01" rms="0.0000000000000000e+00" purity="4.5688405632972717e-01" nType="-1"/>
              </Node>
            </Node>
          </Node>
        </BinaryTree>
        <BinaryTree type="DecisionTree" boostWeight="7.9615849816700723e-03" itree="93">
          <Node pos="s" depth="0" NCoef="0" IVar="2" Cut="2.1900529479980469e+02" cType="0" res="-9.9000000000000000e+01" rms="0.0000000000000000e+00" purity="4.9851077795028687e-01" nType="0">
            <Node pos="l" depth="1" NCoef="0" IVar="1" Cut="7.4220939636230469e+01" cType="0" res="-9.9000000000000000e+01" rms="0.0000000000000000e+00" purity="5.1845616102218628e-01" nType="0">
              <Node pos="l" depth="2" NCoef="0" IVar="1" Cut="9.9512992858886719e+01" cType="1" res="-9.9000000000000000e+01" rms="0.0000000000000000e+00" purity="5.4136234521865845e-01" nType="0">
                <Node pos="l" depth="3" NCoef="0" IVar="-1" Cut="0.0000000000000000e+00" cType="1" res="-9.9000000000000000e+01" rms="0.0000000000000000e+00" purity="5.7995575666427612e-01" nType="1"/>
                <Node pos="r" depth="3" NCoef="0" IVar="-1" Cut="0.0000000000000000e+00" cType="1" res="-9.9000000000000000e+01" rms="0.0000000000000000e+00" purity="4.9682182073593140e-01" nType="-1"/>
              </Node>
              <Node pos="r" depth="2" NCoef="0" IVar="-1" Cut="0.0000000000000000e+00" cType="1" res="-9.9000000000000000e+01" rms="0.0000000000000000e+00" purity="4.6556109189987183e-01" nType="-1"/>
            </Node>
            <Node pos="r" depth="1" NCoef="0" IVar="6" Cut="1.1087671518325806e+00" cType="0" res="-9.9000000000000000e+01" rms="0.0000000000000000e+00" purity="4.9444037675857544e-01" nType="0">
              <Node pos="l" depth="2" NCoef="0" IVar="2" Cut="1.2054383850097656e+02" cType="0" res="-9.9000000000000000e+01" rms="0.0000000000000000e+00" purity="4.9669799208641052e-01" nType="0">
                <Node pos="l" depth="3" NCoef="0" IVar="1" Cut="4.2971252441406250e+01" cType="0" res="-9.9000000000000000e+01" rms="0.0000000000000000e+00" purity="4.9894070625305176e-01" nType="0">
                  <Node pos="l" depth="4" NCoef="0" IVar="-1" Cut="0.0000000000000000e+00" cType="1" res="-9.9000000000000000e+01" rms="0.0000000000000000e+00" purity="5.0124609470367432e-01" nType="1"/>
                  <Node pos="r" depth="4" NCoef="0" IVar="-1" Cut="0.0000000000000000e+00" cType="1" res="-9.9000000000000000e+01" rms="0.0000000000000000e+00" purity="4.7232297062873840e-01" nType="-1"/>
                </Node>
                <Node pos="r" depth="3" NCoef="0" IVar="-1" Cut="0.0000000000000000e+00" cType="1" res="-9.9000000000000000e+01" rms="0.0000000000000000e+00" purity="4.6747937798500061e-01" nType="-1"/>
              </Node>
              <Node pos="r" depth="2" NCoef="0" IVar="-1" Cut="0.0000000000000000e+00" cType="1" res="-9.9000000000000000e+01" rms="0.0000000000000000e+00" purity="4.6474954485893250e-01" nType="-1"/>
            </Node>
          </Node>
        </BinaryTree>
        <BinaryTree type="DecisionTree" boostWeight="1.1825135981876312e-02" itree="94">
          <Node pos="s" depth="0" NCoef="0" IVar="2" Cut="2.1900529479980469e+02" cType="0" res="-9.9000000000000000e+01" rms="0.0000000000000000e+00" purity="4.9764013290405273e-01" nType="0">
            <Node pos="l" depth="1" NCoef="0" IVar="1" Cut="7.4220939636230469e+01" cType="0" res="-9.9000000000000000e+01" rms="0.0000000000000000e+00" purity="5.1905494928359985e-01" nType="0">
              <Node pos="l" depth="2" NCoef="0" IVar="1" Cut="9.9512992858886719e+01" cType="1" res="-9.9000000000000000e+01" rms="0.0000000000000000e+00" purity="5.4127776622772217e-01" nType="0">
                <Node pos="l" depth="3" NCoef="0" IVar="-1" Cut="0.0000000000000000e+00" cType="1" res="-9.9000000000000000e+01" rms="0.0000000000000000e+00" purity="5.7801496982574463e-01" nType="1"/>
                <Node pos="r" depth="3" NCoef="0" IVar="-1" Cut="0.0000000000000000e+00" cType="1" res="-9.9000000000000000e+01" rms="0.0000000000000000e+00" purity="4.9891388416290283e-01" nType="-1"/>
              </Node>
              <Node pos="r" depth="2" NCoef="0" IVar="-1" Cut="0.0000000000000000e+00" cType="1" res="-9.9000000000000000e+01" rms="0.0000000000000000e+00" purity="4.6775814890861511e-01" nType="-1"/>
            </Node>
            <Node pos="r" depth="1" NCoef="0" IVar="4" Cut="1.2354859113693237e+00" cType="0" res="-9.9000000000000000e+01" rms="0.0000000000000000e+00" purity="4.9327030777931213e-01" nType="0">
              <Node pos="l" depth="2" NCoef="0" IVar="5" Cut="8.5343271493911743e-01" cType="0" res="-9.9000000000000000e+01" rms="0.0000000000000000e+00" purity="4.9852505326271057e-01" nType="0">
                <Node pos="l" depth="3" NCoef="0" IVar="3" Cut="1.4029002380371094e+02" cType="1" res="-9.9000000000000000e+01" rms="0.0000000000000000e+00" purity="5.0201946496963501e-01" nType="0">
                  <Node pos="l" depth="4" NCoef="0" IVar="-1" Cut="0.0000000000000000e+00" cType="1" res="-9.9000000000000000e+01" rms="0.0000000000000000e+00" purity="5.2602213621139526e-01" nType="1"/>
                  <Node pos="r" depth="4" NCoef="0" IVar="-1" Cut="0.0000000000000000e+00" cType="1" res="-9.9000000000000000e+01" rms="0.0000000000000000e+00" purity="4.9548420310020447e-01" nType="-1"/>
                </Node>
                <Node pos="r" depth="3" NCoef="0" IVar="-1" Cut="0.0000000000000000e+00" cType="1" res="-9.9000000000000000e+01" rms="0.0000000000000000e+00" purity="4.7747346758842468e-01" nType="-1"/>
              </Node>
              <Node pos="r" depth="2" NCoef="0" IVar="2" Cut="1.4419924926757812e+02" cType="0" res="-9.9000000000000000e+01" rms="0.0000000000000000e+00" purity="4.8132047057151794e-01" nType="0">
                <Node pos="l" depth="3" NCoef="0" IVar="1" Cut="8.3241958618164062e+01" cType="1" res="-9.9000000000000000e+01" rms="0.0000000000000000e+00" purity="4.8917385935783386e-01" nType="0">
                  <Node pos="l" depth="4" NCoef="0" IVar="-1" Cut="0.0000000000000000e+00" cType="1" res="-9.9000000000000000e+01" rms="0.0000000000000000e+00" purity="5.1836097240447998e-01" nType="1"/>
                  <Node pos="r" depth="4" NCoef="0" IVar="-1" Cut="0.0000000000000000e+00" cType="1" res="-9.9000000000000000e+01" rms="0.0000000000000000e+00" purity="4.7872844338417053e-01" nType="-1"/>
                </Node>
                <Node pos="r" depth="3" NCoef="0" IVar="-1" Cut="0.0000000000000000e+00" cType="1" res="-9.9000000000000000e+01" rms="0.0000000000000000e+00" purity="4.5122531056404114e-01" nType="-1"/>
              </Node>
            </Node>
          </Node>
        </BinaryTree>
        <BinaryTree type="DecisionTree" boostWeight="9.9981426321062595e-03" itree="95">
          <Node pos="s" depth="0" NCoef="0" IVar="2" Cut="2.1900529479980469e+02" cType="0" res="-9.9000000000000000e+01" rms="0.0000000000000000e+00" purity="4.9933698773384094e-01" nType="0">
            <Node pos="l" depth="1" NCoef="0" IVar="6" Cut="1.4384001493453979e+00" cType="1" res="-9.9000000000000000e+01" rms="0.0000000000000000e+00" purity="5.1994335651397705e-01" nType="0">
              <Node pos="l" depth="2" NCoef="0" IVar="-1" Cut="9.2054878234863281e+01" cType="1" res="-9.9000000000000000e+01" rms="0.0000000000000000e+00" purity="5.4108953475952148e-01" nType="1"/>
              <Node pos="r" depth="2" NCoef="0" IVar="-1" Cut="0.0000000000000000e+00" cType="1" res="-9.9000000000000000e+01" rms="0.0000000000000000e+00" purity="4.6969991922378540e-01" nType="-1"/>
            </Node>
            <Node pos="r" depth="1" NCoef="0" IVar="4" Cut="1.2354859113693237e+00" cType="0" res="-9.9000000000000000e+01" rms="0.0000000000000000e+00" purity="4.9513253569602966e-01" nType="0">
              <Node pos="l" depth="2" NCoef="0" IVar="6" Cut="3.1981430053710938e+00" cType="1" res="-9.9000000000000000e+01" rms="0.0000000000000000e+00" purity="5.0043612718582153e-01" nType="0">
                <Node pos="l" depth="3" NCoef="0" IVar="3" Cut="2.2565354919433594e+02" cType="1" res="-9.9000000000000000e+01" rms="0.0000000000000000e+00" purity="5.0367200374603271e-01" nType="0">
                  <Node pos="l" depth="4" NCoef="0" IVar="-1" Cut="0.0000000000000000e+00" cType="1" res="-9.9000000000000000e+01" rms="0.0000000000000000e+00" purity="5.0750404596328735e-01" nType="1"/>
                  <Node pos="r" depth="4" NCoef="0" IVar="-1" Cut="0.0000000000000000e+00" cType="1" res="-9.9000000000000000e+01" rms="0.0000000000000000e+00" purity="4.8645767569541931e-01" nType="-1"/>
                </Node>
                <Node pos="r" depth="3" NCoef="0" IVar="-1" Cut="0.0000000000000000e+00" cType="1" res="-9.9000000000000000e+01" rms="0.0000000000000000e+00" purity="4.7788220643997192e-01" nType="-1"/>
              </Node>
              <Node pos="r" depth="2" NCoef="0" IVar="-1" Cut="1.4419924926757812e+02" cType="0" res="-9.9000000000000000e+01" rms="0.0000000000000000e+00" purity="4.8306900262832642e-01" nType="-1"/>
            </Node>
          </Node>
        </BinaryTree>
        <BinaryTree type="DecisionTree" boostWeight="8.7574332354883877e-03" itree="96">
          <Node pos="s" depth="0" NCoef="0" IVar="5" Cut="2.1574385166168213e+00" cType="0" res="-9.9000000000000000e+01" rms="0.0000000000000000e+00" purity="4.9919968843460083e-01" nType="0">
            <Node pos="l" depth="1" NCoef="0" IVar="-1" Cut="0.0000000000000000e+00" cType="1" res="-9.9000000000000000e+01" rms="0.0000000000000000e+00" purity="5.3827446699142456e-01" nType="1"/>
            <Node pos="r" depth="1" NCoef="0" IVar="3" Cut="4.0123660278320312e+02" cType="1" res="-9.9000000000000000e+01" rms="0.0000000000000000e+00" purity="4.9714201688766479e-01" nType="0">
              <Node pos="l" depth="2" NCoef="0" IVar="2" Cut="1.9411712646484375e+02" cType="0" res="-9.9000000000000000e+01" rms="0.0000000000000000e+00" purity="4.9928718805313110e-01" nType="0">
                <Node pos="l" depth="3" NCoef="0" IVar="4" Cut="1.5410190820693970e+00" cType="1" res="-9.9000000000000000e+01" rms="0.0000000000000000e+00" purity="5.1657253503799438e-01" nType="0">
                  <Node pos="l" depth="4" NCoef="0" IVar="-1" Cut="0.0000000000000000e+00" cType="1" res="-9.9000000000000000e+01" rms="0.0000000000000000e+00" purity="5.3280979394912720e-01" nType="1"/>
                  <Node pos="r" depth="4" NCoef="0" IVar="-1" Cut="0.0000000000000000e+00" cType="1" res="-9.9000000000000000e+01" rms="0.0000000000000000e+00" purity="4.7123610973358154e-01" nType="-1"/>
                </Node>
                <Node pos="r" depth="3" NCoef="0" IVar="-1" Cut="1.9269166564941406e+02" cType="1" res="-9.9000000000000000e+01" rms="0.0000000000000000e+00" purity="4.9405992031097412e-01" nType="-1"/>
              </Node>
              <Node pos="r" depth="2" NCoef="0" IVar="-1" Cut="0.0000000000000000e+00" cType="1" res="-9.9000000000000000e+01" rms="0.0000000000000000e+00" purity="4.6641281247138977e-01" nType="-1"/>
            </Node>
          </Node>
        </BinaryTree>
        <BinaryTree type="DecisionTree" boostWeight="8.2134783705510878e-03" itree="97">
          <Node pos="s" depth="0" NCoef="0" IVar="3" Cut="4.4253338623046875e+02" cType="1" res="-9.9000000000000000e+01" rms="0.0000000000000000e+00" purity="5.0053000450134277e-01" nType="0">
            <Node pos="l" depth="1" NCoef="0" IVar="0" Cut="1.8764381408691406e+02" cType="0" res="-9.9000000000000000e+01" rms="0.0000000000000000e+00" purity="5.0277298688888550e-01" nType="0">
              <Node pos="l" depth="2" NCoef="0" IVar="-1" Cut="0.0000000000000000e+00" cType="1" res="-9.9000000000000000e+01" rms="0.0000000000000000e+00" purity="5.4168426990509033e-01" nType="1"/>
              <Node pos="r" depth="2" NCoef="0" IVar="5" Cut="9.6878373622894287e-01" cType="0" res="-9.9000000000000000e+01" rms="0.0000000000000000e+00" purity="4.9866911768913269e-01" nType="0">
                <Node pos="l" depth="3" NCoef="0" IVar="5" Cut="1.5151633024215698e+00" cType="1" res="-9.9000000000000000e+01" rms="0.0000000000000000e+00" purity="5.0385224819183350e-01" nType="0">
                  <Node pos="l" depth="4" NCoef="0" IVar="-1" Cut="0.0000000000000000e+00" cType="1" res="-9.9000000000000000e+01" rms="0.0000000000000000e+00" purity="5.0603067874908447e-01" nType="1"/>
                  <Node pos="r" depth="4" NCoef="0" IVar="-1" Cut="0.0000000000000000e+00" cType="1" res="-9.9000000000000000e+01" rms="0.0000000000000000e+00" purity="4.8085308074951172e-01" nType="-1"/>
                </Node>
                <Node pos="r" depth="3" NCoef="0" IVar="-1" Cut="1.3462391662597656e+02" cType="0" res="-9.9000000000000000e+01" rms="0.0000000000000000e+00" purity="4.8478680849075317e-01" nType="-1"/>
              </Node>
            </Node>
            <Node pos="r" depth="1" NCoef="0" IVar="-1" Cut="0.0000000000000000e+00" cType="1" res="-9.9000000000000000e+01" rms="0.0000000000000000e+00" purity="4.6848547458648682e-01" nType="-1"/>
          </Node>
        </BinaryTree>
        <BinaryTree type="DecisionTree" boostWeight="8.0588302405431769e-03" itree="98">
          <Node pos="s" depth="0" NCoef="0" IVar="5" Cut="2.1574385166168213e+00" cType="0" res="-9.9000000000000000e+01" rms="0.0000000000000000e+00" purity="4.9992564320564270e-01" nType="0">
            <Node pos="l" depth="1" NCoef="0" IVar="-1" Cut="0.0000000000000000e+00" cType="1" res="-9.9000000000000000e+01" rms="0.0000000000000000e+00" purity="5.3590071201324463e-01" nType="1"/>
            <Node pos="r" depth="1" NCoef="0" IVar="4" Cut="6.2999939918518066e-01" cType="0" res="-9.9000000000000000e+01" rms="0.0000000000000000e+00" purity="4.9803155660629272e-01" nType="0">
              <Node pos="l" depth="2" NCoef="0" IVar="2" Cut="2.0231918334960938e+02" cType="0" res="-9.9000000000000000e+01" rms="0.0000000000000000e+00" purity="5.0013530254364014e-01" nType="0">
                <Node pos="l" depth="3" NCoef="0" IVar="6" Cut="1.6902767419815063e+00" cType="1" res="-9.9000000000000000e+01" rms="0.0000000000000000e+00" purity="5.1566421985626221e-01" nType="0">
                  <Node pos="l" depth="4" NCoef="0" IVar="-1" Cut="0.0000000000000000e+00" cType="1" res="-9.9000000000000000e+01" rms="0.0000000000000000e+00" purity="5.4081469774246216e-01" nType="1"/>
                  <Node pos="r" depth="4" NCoef="0" IVar="-1" Cut="0.0000000000000000e+00" cType="1" res="-9.9000000000000000e+01" rms="0.0000000000000000e+00" purity="4.7515654563903809e-01" nType="-1"/>
                </Node>
                <Node pos="r" depth="3" NCoef="0" IVar="3" Cut="2.0363014221191406e+02" cType="1" res="-9.9000000000000000e+01" rms="0.0000000000000000e+00" purity="4.9624353647232056e-01" nType="0">
                  <Node pos="l" depth="4" NCoef="0" IVar="-1" Cut="0.0000000000000000e+00" cType="1" res="-9.9000000000000000e+01" rms="0.0000000000000000e+00" purity="5.0073403120040894e-01" nType="1"/>
                  <Node pos="r" depth="4" NCoef="0" IVar="-1" Cut="0.0000000000000000e+00" cType="1" res="-9.9000000000000000e+01" rms="0.0000000000000000e+00" purity="4.7858151793479919e-01" nType="-1"/>
                </Node>
              </Node>
              <Node pos="r" depth="2" NCoef="0" IVar="-1" Cut="0.0000000000000000e+00" cType="1" res="-9.9000000000000000e+01" rms="0.0000000000000000e+00" purity="4.6925970911979675e-01" nType="-1"/>
            </Node>
          </Node>
        </BinaryTree>
        <BinaryTree type="DecisionTree" boostWeight="8.5743827988857702e-03" itree="99">
          <Node pos="s" depth="0" NCoef="0" IVar="2" Cut="2.1900529479980469e+02" cType="0" res="-9.9000000000000000e+01" rms="0.0000000000000000e+00" purity="4.9902969598770142e-01" nType="0">
            <Node pos="l" depth="1" NCoef="0" IVar="1" Cut="7.4220939636230469e+01" cType="0" res="-9.9000000000000000e+01" rms="0.0000000000000000e+00" purity="5.1715654134750366e-01" nType="0">
              <Node pos="l" depth="2" NCoef="0" IVar="-1" Cut="9.6983856201171875e+01" cType="1" res="-9.9000000000000000e+01" rms="0.0000000000000000e+00" purity="5.3824830055236816e-01" nType="1"/>
              <Node pos="r" depth="2" NCoef="0" IVar="-1" Cut="0.0000000000000000e+00" cType="1" res="-9.9000000000000000e+01" rms="0.0000000000000000e+00" purity="4.6850094199180603e-01" nType="-1"/>
            </Node>
            <Node pos="r" depth="1" NCoef="0" IVar="2" Cut="1.2054383850097656e+02" cType="0" res="-9.9000000000000000e+01" rms="0.0000000000000000e+00" purity="4.9533417820930481e-01" nType="0">
              <Node pos="l" depth="2" NCoef="0" IVar="6" Cut="1.2662414312362671e+00" cType="0" res="-9.9000000000000000e+01" rms="0.0000000000000000e+00" purity="4.9745884537696838e-01" nType="0">
                <Node pos="l" depth="3" NCoef="0" IVar="1" Cut="6.9147331237792969e+01" cType="0" res="-9.9000000000000000e+01" rms="0.0000000000000000e+00" purity="4.9986842274665833e-01" nType="0">
                  <Node pos="l" depth="4" NCoef="0" IVar="-1" Cut="0.0000000000000000e+00" cType="1" res="-9.9000000000000000e+01" rms="0.0000000000000000e+00" purity="5.0419431924819946e-01" nType="1"/>
                  <Node pos="r" depth="4" NCoef="0" IVar="-1" Cut="0.0000000000000000e+00" cType="1" res="-9.9000000000000000e+01" rms="0.0000000000000000e+00" purity="4.8786917328834534e-01" nType="-1"/>
                </Node>
                <Node pos="r" depth="3" NCoef="0" IVar="-1" Cut="0.0000000000000000e+00" cType="1" res="-9.9000000000000000e+01" rms="0.0000000000000000e+00" purity="4.7646379470825195e-01" nType="-1"/>
              </Node>
              <Node pos="r" depth="2" NCoef="0" IVar="-1" Cut="0.0000000000000000e+00" cType="1" res="-9.9000000000000000e+01" rms="0.0000000000000000e+00" purity="4.6645155549049377e-01" nType="-1"/>
            </Node>
          </Node>
        </BinaryTree>
        <BinaryTree type="DecisionTree" boostWeight="8.2292740619702830e-03" itree="100">
          <Node pos="s" depth="0" NCoef="0" IVar="2" Cut="2.1900529479980469e+02" cType="0" res="-9.9000000000000000e+01" rms="0.0000000000000000e+00" purity="4.9849808216094971e-01" nType="0">
            <Node pos="l" depth="1" NCoef="0" IVar="1" Cut="7.4220939636230469e+01" cType="0" res="-9.9000000000000000e+01" rms="0.0000000000000000e+00" purity="5.1637452840805054e-01" nType="0">
              <Node pos="l" depth="2" NCoef="0" IVar="1" Cut="9.6983856201171875e+01" cType="1" res="-9.9000000000000000e+01" rms="0.0000000000000000e+00" purity="5.3611582517623901e-01" nType="0">
                <Node pos="l" depth="3" NCoef="0" IVar="-1" Cut="0.0000000000000000e+00" cType="1" res="-9.9000000000000000e+01" rms="0.0000000000000000e+00" purity="5.7325994968414307e-01" nType="1"/>
                <Node pos="r" depth="3" NCoef="0" IVar="-1" Cut="0.0000000000000000e+00" cType="1" res="-9.9000000000000000e+01" rms="0.0000000000000000e+00" purity="4.9917581677436829e-01" nType="-1"/>
              </Node>
              <Node pos="r" depth="2" NCoef="0" IVar="-1" Cut="0.0000000000000000e+00" cType="1" res="-9.9000000000000000e+01" rms="0.0000000000000000e+00" purity="4.7085583209991455e-01" nType="-1"/>
            </Node>
            <Node pos="r" depth="1" NCoef="0" IVar="2" Cut="1.2054383850097656e+02" cType="0" res="-9.9000000000000000e+01" rms="0.0000000000000000e+00" purity="4.9485409259796143e-01" nType="0">
              <Node pos="l" depth="2" NCoef="0" IVar="6" Cut="1.1401995420455933e+00" cType="0" res="-9.9000000000000000e+01" rms="0.0000000000000000e+00" purity="4.9678543210029602e-01" nType="0">
                <Node pos="l" depth="3" NCoef="0" IVar="1" Cut="8.6598052978515625e+01" cType="1" res="-9.9000000000000000e+01" rms="0.0000000000000000e+00" purity="4.9860605597496033e-01" nType="0">
                  <Node pos="l" depth="4" NCoef="0" IVar="-1" Cut="0.0000000000000000e+00" cType="1" res="-9.9000000000000000e+01" rms="0.0000000000000000e+00" purity="5.0503915548324585e-01" nType="1"/>
                  <Node pos="r" depth="4" NCoef="0" IVar="-1" Cut="0.0000000000000000e+00" cType="1" res="-9.9000000000000000e+01" rms="0.0000000000000000e+00" purity="4.9222141504287720e-01" nType="-1"/>
                </Node>
                <Node pos="r" depth="3" NCoef="0" IVar="-1" Cut="0.0000000000000000e+00" cType="1" res="-9.9000000000000000e+01" rms="0.0000000000000000e+00" purity="4.7525304555892944e-01" nType="-1"/>
              </Node>
              <Node pos="r" depth="2" NCoef="0" IVar="-1" Cut="0.0000000000000000e+00" cType="1" res="-9.9000000000000000e+01" rms="0.0000000000000000e+00" purity="4.6859323978424072e-01" nType="-1"/>
            </Node>
          </Node>
        </BinaryTree>
        <BinaryTree type="DecisionTree" boostWeight="6.3101472698693798e-03" itree="101">
          <Node pos="s" depth="0" NCoef="0" IVar="2" Cut="2.1900529479980469e+02" cType="0" res="-9.9000000000000000e+01" rms="0.0000000000000000e+00" purity="4.9887830018997192e-01" nType="0">
            <Node pos="l" depth="1" NCoef="0" IVar="6" Cut="1.4384001493453979e+00" cType="1" res="-9.9000000000000000e+01" rms="0.0000000000000000e+00" purity="5.1709932088851929e-01" nType="0">
              <Node pos="l" depth="2" NCoef="0" IVar="-1" Cut="9.2054878234863281e+01" cType="1" res="-9.9000000000000000e+01" rms="0.0000000000000000e+00" purity="5.3616279363632202e-01" nType="1"/>
              <Node pos="r" depth="2" NCoef="0" IVar="-1" Cut="0.0000000000000000e+00" cType="1" res="-9.9000000000000000e+01" rms="0.0000000000000000e+00" purity="4.7181713581085205e-01" nType="-1"/>
            </Node>
            <Node pos="r" depth="1" NCoef="0" IVar="2" Cut="1.2054383850097656e+02" cType="0" res="-9.9000000000000000e+01" rms="0.0000000000000000e+00" purity="4.9516421556472778e-01" nType="0">
              <Node pos="l" depth="2" NCoef="0" IVar="6" Cut="1.1401995420455933e+00" cType="0" res="-9.9000000000000000e+01" rms="0.0000000000000000e+00" purity="4.9696674942970276e-01" nType="0">
                <Node pos="l" depth="3" NCoef="0" IVar="1" Cut="4.2971252441406250e+01" cType="0" res="-9.9000000000000000e+01" rms="0.0000000000000000e+00" purity="4.9862468242645264e-01" nType="0">
                  <Node pos="l" depth="4" NCoef="0" IVar="-1" Cut="0.0000000000000000e+00" cType="1" res="-9.9000000000000000e+01" rms="0.0000000000000000e+00" purity="5.0059068202972412e-01" nType="1"/>
                  <Node pos="r" depth="4" NCoef="0" IVar="-1" Cut="0.0000000000000000e+00" cType="1" res="-9.9000000000000000e+01" rms="0.0000000000000000e+00" purity="4.7598493099212646e-01" nType="-1"/>
                </Node>
                <Node pos="r" depth="3" NCoef="0" IVar="-1" Cut="0.0000000000000000e+00" cType="1" res="-9.9000000000000000e+01" rms="0.0000000000000000e+00" purity="4.7735658288002014e-01" nType="-1"/>
              </Node>
              <Node pos="r" depth="2" NCoef="0" IVar="-1" Cut="0.0000000000000000e+00" cType="1" res="-9.9000000000000000e+01" rms="0.0000000000000000e+00" purity="4.7064960002899170e-01" nType="-1"/>
            </Node>
          </Node>
        </BinaryTree>
        <BinaryTree type="DecisionTree" boostWeight="8.8566323648989320e-03" itree="102">
          <Node pos="s" depth="0" NCoef="0" IVar="2" Cut="2.1900529479980469e+02" cType="0" res="-9.9000000000000000e+01" rms="0.0000000000000000e+00" purity="4.9801334738731384e-01" nType="0">
            <Node pos="l" depth="1" NCoef="0" IVar="1" Cut="7.4220939636230469e+01" cType="0" res="-9.9000000000000000e+01" rms="0.0000000000000000e+00" purity="5.1648050546646118e-01" nType="0">
              <Node pos="l" depth="2" NCoef="0" IVar="1" Cut="1.0204212188720703e+02" cType="1" res="-9.9000000000000000e+01" rms="0.0000000000000000e+00" purity="5.3549861907958984e-01" nType="0">
                <Node pos="l" depth="3" NCoef="0" IVar="-1" Cut="0.0000000000000000e+00" cType="1" res="-9.9000000000000000e+01" rms="0.0000000000000000e+00" purity="5.6590604782104492e-01" nType="1"/>
                <Node pos="r" depth="3" NCoef="0" IVar="-1" Cut="0.0000000000000000e+00" cType="1" res="-9.9000000000000000e+01" rms="0.0000000000000000e+00" purity="4.9458533525466919e-01" nType="-1"/>
              </Node>
              <Node pos="r" depth="2" NCoef="0" IVar="-1" Cut="0.0000000000000000e+00" cType="1" res="-9.9000000000000000e+01" rms="0.0000000000000000e+00" purity="4.7263815999031067e-01" nType="-1"/>
            </Node>
            <Node pos="r" depth="1" NCoef="0" IVar="5" Cut="8.1302314996719360e-01" cType="0" res="-9.9000000000000000e+01" rms="0.0000000000000000e+00" purity="4.9424967169761658e-01" nType="0">
              <Node pos="l" depth="2" NCoef="0" IVar="4" Cut="1.3411108255386353e+00" cType="0" res="-9.9000000000000000e+01" rms="0.0000000000000000e+00" purity="4.9638906121253967e-01" nType="0">
                <Node pos="l" depth="3" NCoef="0" IVar="3" Cut="1.2809523010253906e+02" cType="1" res="-9.9000000000000000e+01" rms="0.0000000000000000e+00" purity="5.0142276287078857e-01" nType="0">
                  <Node pos="l" depth="4" NCoef="0" IVar="-1" Cut="0.0000000000000000e+00" cType="1" res="-9.9000000000000000e+01" rms="0.0000000000000000e+00" purity="5.3405600786209106e-01" nType="1"/>
                  <Node pos="r" depth="4" NCoef="0" IVar="-1" Cut="0.0000000000000000e+00" cType="1" res="-9.9000000000000000e+01" rms="0.0000000000000000e+00" purity="4.9702146649360657e-01" nType="-1"/>
                </Node>
                <Node pos="r" depth="3" NCoef="0" IVar="-1" Cut="1.4419924926757812e+02" cType="0" res="-9.9000000000000000e+01" rms="0.0000000000000000e+00" purity="4.8780596256256104e-01" nType="-1"/>
              </Node>
              <Node pos="r" depth="2" NCoef="0" IVar="-1" Cut="0.0000000000000000e+00" cType="1" res="-9.9000000000000000e+01" rms="0.0000000000000000e+00" purity="4.7354033589363098e-01" nType="-1"/>
            </Node>
          </Node>
        </BinaryTree>
        <BinaryTree type="DecisionTree" boostWeight="6.9763811756693049e-03" itree="103">
          <Node pos="s" depth="0" NCoef="0" IVar="5" Cut="2.1574385166168213e+00" cType="0" res="-9.9000000000000000e+01" rms="0.0000000000000000e+00" purity="4.9972102046012878e-01" nType="0">
            <Node pos="l" depth="1" NCoef="0" IVar="-1" Cut="0.0000000000000000e+00" cType="1" res="-9.9000000000000000e+01" rms="0.0000000000000000e+00" purity="5.3433787822723389e-01" nType="1"/>
            <Node pos="r" depth="1" NCoef="0" IVar="3" Cut="4.0123660278320312e+02" cType="1" res="-9.9000000000000000e+01" rms="0.0000000000000000e+00" purity="4.9789902567863464e-01" nType="0">
              <Node pos="l" depth="2" NCoef="0" IVar="0" Cut="1.8780790710449219e+02" cType="0" res="-9.9000000000000000e+01" rms="0.0000000000000000e+00" purity="4.9985733628273010e-01" nType="0">
                <Node pos="l" depth="3" NCoef="0" IVar="-1" Cut="0.0000000000000000e+00" cType="1" res="-9.9000000000000000e+01" rms="0.0000000000000000e+00" purity="5.3281569480895996e-01" nType="1"/>
                <Node pos="r" depth="3" NCoef="0" IVar="2" Cut="1.9411712646484375e+02" cType="0" res="-9.9000000000000000e+01" rms="0.0000000000000000e+00" purity="4.9768117070198059e-01" nType="0">
                  <Node pos="l" depth="4" NCoef="0" IVar="-1" Cut="0.0000000000000000e+00" cType="1" res="-9.9000000000000000e+01" rms="0.0000000000000000e+00" purity="5.1290458440780640e-01" nType="1"/>
                  <Node pos="r" depth="4" NCoef="0" IVar="-1" Cut="0.0000000000000000e+00" cType="1" res="-9.9000000000000000e+01" rms="0.0000000000000000e+00" purity="4.9387297034263611e-01" nType="-1"/>
                </Node>
              </Node>
              <Node pos="r" depth="2" NCoef="0" IVar="-1" Cut="0.0000000000000000e+00" cType="1" res="-9.9000000000000000e+01" rms="0.0000000000000000e+00" purity="4.6981799602508545e-01" nType="-1"/>
            </Node>
          </Node>
        </BinaryTree>
        <BinaryTree type="DecisionTree" boostWeight="5.6966599083552363e-03" itree="104">
          <Node pos="s" depth="0" NCoef="0" IVar="3" Cut="4.4253338623046875e+02" cType="1" res="-9.9000000000000000e+01" rms="0.0000000000000000e+00" purity="5.0053203105926514e-01" nType="0">
            <Node pos="l" depth="1" NCoef="0" IVar="0" Cut="1.9545225524902344e+02" cType="0" res="-9.9000000000000000e+01" rms="0.0000000000000000e+00" purity="5.0262784957885742e-01" nType="0">
              <Node pos="l" depth="2" NCoef="0" IVar="-1" Cut="0.0000000000000000e+00" cType="1" res="-9.9000000000000000e+01" rms="0.0000000000000000e+00" purity="5.4092568159103394e-01" nType="1"/>
              <Node pos="r" depth="2" NCoef="0" IVar="5" Cut="7.6479750871658325e-01" cType="0" res="-9.9000000000000000e+01" rms="0.0000000000000000e+00" purity="4.9912619590759277e-01" nType="0">
                <Node pos="l" depth="3" NCoef="0" IVar="2" Cut="2.0559217834472656e+02" cType="0" res="-9.9000000000000000e+01" rms="0.0000000000000000e+00" purity="5.0119900703430176e-01" nType="0">
                  <Node pos="l" depth="4" NCoef="0" IVar="-1" Cut="0.0000000000000000e+00" cType="1" res="-9.9000000000000000e+01" rms="0.0000000000000000e+00" purity="5.1528823375701904e-01" nType="1"/>
                  <Node pos="r" depth="4" NCoef="0" IVar="-1" Cut="0.0000000000000000e+00" cType="1" res="-9.9000000000000000e+01" rms="0.0000000000000000e+00" purity="4.9876919388771057e-01" nType="-1"/>
                </Node>
                <Node pos="r" depth="3" NCoef="0" IVar="-1" Cut="0.0000000000000000e+00" cType="1" res="-9.9000000000000000e+01" rms="0.0000000000000000e+00" purity="4.6718180179595947e-01" nType="-1"/>
              </Node>
            </Node>
            <Node pos="r" depth="1" NCoef="0" IVar="-1" Cut="0.0000000000000000e+00" cType="1" res="-9.9000000000000000e+01" rms="0.0000000000000000e+00" purity="4.7056949138641357e-01" nType="-1"/>
          </Node>
        </BinaryTree>
        <BinaryTree type="DecisionTree" boostWeight="5.0038105777897163e-03" itree="105">
          <Node pos="s" depth="0" NCoef="0" IVar="3" Cut="4.4253338623046875e+02" cType="1" res="-9.9000000000000000e+01" rms="0.0000000000000000e+00" purity="5.0141680240631104e-01" nType="0">
            <Node pos="l" depth="1" NCoef="0" IVar="0" Cut="1.9545225524902344e+02" cType="0" res="-9.9000000000000000e+01" rms="0.0000000000000000e+00" purity="5.0346648693084717e-01" nType="0">
              <Node pos="l" depth="2" NCoef="0" IVar="-1" Cut="0.0000000000000000e+00" cType="1" res="-9.9000000000000000e+01" rms="0.0000000000000000e+00" purity="5.3951072692871094e-01" nType="1"/>
              <Node pos="r" depth="2" NCoef="0" IVar="5" Cut="7.6479750871658325e-01" cType="0" res="-9.9000000000000000e+01" rms="0.0000000000000000e+00" purity="5.0017166137695312e-01" nType="0">
                <Node pos="l" depth="3" NCoef="0" IVar="-1" Cut="2.0559217834472656e+02" cType="0" res="-9.9000000000000000e+01" rms="0.0000000000000000e+00" purity="5.0221973657608032e-01" nType="1"/>
                <Node pos="r" depth="3" NCoef="0" IVar="-1" Cut="0.0000000000000000e+00" cType="1" res="-9.9000000000000000e+01" rms="0.0000000000000000e+00" purity="4.6860265731811523e-01" nType="-1"/>
              </Node>
            </Node>
            <Node pos="r" depth="1" NCoef="0" IVar="-1" Cut="0.0000000000000000e+00" cType="1" res="-9.9000000000000000e+01" rms="0.0000000000000000e+00" purity="4.7211641073226929e-01" nType="-1"/>
          </Node>
        </BinaryTree>
        <BinaryTree type="DecisionTree" boostWeight="1.0285288031790241e-02" itree="106">
          <Node pos="s" depth="0" NCoef="0" IVar="4" Cut="5.9471720457077026e-01" cType="0" res="-9.9000000000000000e+01" rms="0.0000000000000000e+00" purity="5.0046420097351074e-01" nType="0">
            <Node pos="l" depth="1" NCoef="0" IVar="6" Cut="1.5223716497421265e+00" cType="1" res="-9.9000000000000000e+01" rms="0.0000000000000000e+00" purity="5.0236123800277710e-01" nType="0">
              <Node pos="l" depth="2" NCoef="0" IVar="2" Cut="2.0412361145019531e+02" cType="0" res="-9.9000000000000000e+01" rms="0.0000000000000000e+00" purity="5.1940351724624634e-01" nType="0">
                <Node pos="l" depth="3" NCoef="0" IVar="-1" Cut="9.2773208618164062e+01" cType="1" res="-9.9000000000000000e+01" rms="0.0000000000000000e+00" purity="5.4536432027816772e-01" nType="1"/>
                <Node pos="r" depth="3" NCoef="0" IVar="-1" Cut="0.0000000000000000e+00" cType="1" res="-9.9000000000000000e+01" rms="0.0000000000000000e+00" purity="4.8762345314025879e-01" nType="-1"/>
              </Node>
              <Node pos="r" depth="2" NCoef="0" IVar="3" Cut="2.6223791503906250e+02" cType="1" res="-9.9000000000000000e+01" rms="0.0000000000000000e+00" purity="4.9705535173416138e-01" nType="0">
                <Node pos="l" depth="3" NCoef="0" IVar="1" Cut="6.8671348571777344e+01" cType="0" res="-9.9000000000000000e+01" rms="0.0000000000000000e+00" purity="5.0238549709320068e-01" nType="0">
                  <Node pos="l" depth="4" NCoef="0" IVar="-1" Cut="0.0000000000000000e+00" cType="1" res="-9.9000000000000000e+01" rms="0.0000000000000000e+00" purity="5.0722241401672363e-01" nType="1"/>
                  <Node pos="r" depth="4" NCoef="0" IVar="-1" Cut="0.0000000000000000e+00" cType="1" res="-9.9000000000000000e+01" rms="0.0000000000000000e+00" purity="4.8926964402198792e-01" nType="-1"/>
                </Node>
                <Node pos="r" depth="3" NCoef="0" IVar="-1" Cut="0.0000000000000000e+00" cType="1" res="-9.9000000000000000e+01" rms="0.0000000000000000e+00" purity="4.6480053663253784e-01" nType="-1"/>
              </Node>
            </Node>
            <Node pos="r" depth="1" NCoef="0" IVar="-1" Cut="0.0000000000000000e+00" cType="1" res="-9.9000000000000000e+01" rms="0.0000000000000000e+00" purity="4.7174426913261414e-01" nType="-1"/>
          </Node>
        </BinaryTree>
        <BinaryTree type="DecisionTree" boostWeight="1.0728689682568245e-02" itree="107">
          <Node pos="s" depth="0" NCoef="0" IVar="1" Cut="1.4270956420898438e+02" cType="1" res="-9.9000000000000000e+01" rms="0.0000000000000000e+00" purity="5.0012093782424927e-01" nType="0">
            <Node pos="l" depth="1" NCoef="0" IVar="6" Cut="1.5320438146591187e+00" cType="1" res="-9.9000000000000000e+01" rms="0.0000000000000000e+00" purity="5.0198781490325928e-01" nType="0">
              <Node pos="l" depth="2" NCoef="0" IVar="2" Cut="1.9109178161621094e+02" cType="0" res="-9.9000000000000000e+01" rms="0.0000000000000000e+00" purity="5.1826113462448120e-01" nType="0">
                <Node pos="l" depth="3" NCoef="0" IVar="-1" Cut="9.5781059265136719e+01" cType="1" res="-9.9000000000000000e+01" rms="0.0000000000000000e+00" purity="5.3794872760772705e-01" nType="1"/>
                <Node pos="r" depth="3" NCoef="0" IVar="-1" Cut="0.0000000000000000e+00" cType="1" res="-9.9000000000000000e+01" rms="0.0000000000000000e+00" purity="4.8141074180603027e-01" nType="-1"/>
              </Node>
              <Node pos="r" depth="2" NCoef="0" IVar="3" Cut="2.1454772949218750e+02" cType="1" res="-9.9000000000000000e+01" rms="0.0000000000000000e+00" purity="4.9631503224372864e-01" nType="0">
                <Node pos="l" depth="3" NCoef="0" IVar="4" Cut="1.4467357397079468e+00" cType="0" res="-9.9000000000000000e+01" rms="0.0000000000000000e+00" purity="5.0354760885238647e-01" nType="0">
                  <Node pos="l" depth="4" NCoef="0" IVar="-1" Cut="0.0000000000000000e+00" cType="1" res="-9.9000000000000000e+01" rms="0.0000000000000000e+00" purity="5.0805801153182983e-01" nType="1"/>
                  <Node pos="r" depth="4" NCoef="0" IVar="-1" Cut="0.0000000000000000e+00" cType="1" res="-9.9000000000000000e+01" rms="0.0000000000000000e+00" purity="4.9288401007652283e-01" nType="-1"/>
                </Node>
                <Node pos="r" depth="3" NCoef="0" IVar="-1" Cut="2.3182463645935059e+00" cType="1" res="-9.9000000000000000e+01" rms="0.0000000000000000e+00" purity="4.7396945953369141e-01" nType="-1"/>
              </Node>
            </Node>
            <Node pos="r" depth="1" NCoef="0" IVar="-1" Cut="0.0000000000000000e+00" cType="1" res="-9.9000000000000000e+01" rms="0.0000000000000000e+00" purity="4.7057583928108215e-01" nType="-1"/>
          </Node>
        </BinaryTree>
        <BinaryTree type="DecisionTree" boostWeight="1.1393339964877919e-02" itree="108">
          <Node pos="s" depth="0" NCoef="0" IVar="6" Cut="1.9359761476516724e+00" cType="1" res="-9.9000000000000000e+01" rms="0.0000000000000000e+00" purity="4.9998515844345093e-01" nType="0">
            <Node pos="l" depth="1" NCoef="0" IVar="1" Cut="1.2977641296386719e+02" cType="1" res="-9.9000000000000000e+01" rms="0.0000000000000000e+00" purity="5.0895237922668457e-01" nType="0">
              <Node pos="l" depth="2" NCoef="0" IVar="2" Cut="1.8358363342285156e+02" cType="0" res="-9.9000000000000000e+01" rms="0.0000000000000000e+00" purity="5.1591569185256958e-01" nType="0">
                <Node pos="l" depth="3" NCoef="0" IVar="-1" Cut="7.2231315612792969e+01" cType="0" res="-9.9000000000000000e+01" rms="0.0000000000000000e+00" purity="5.3011453151702881e-01" nType="1"/>
                <Node pos="r" depth="3" NCoef="0" IVar="3" Cut="1.7250668334960938e+02" cType="1" res="-9.9000000000000000e+01" rms="0.0000000000000000e+00" purity="4.9360767006874084e-01" nType="0">
                  <Node pos="l" depth="4" NCoef="0" IVar="-1" Cut="0.0000000000000000e+00" cType="1" res="-9.9000000000000000e+01" rms="0.0000000000000000e+00" purity="5.0734710693359375e-01" nType="1"/>
                  <Node pos="r" depth="4" NCoef="0" IVar="-1" Cut="0.0000000000000000e+00" cType="1" res="-9.9000000000000000e+01" rms="0.0000000000000000e+00" purity="4.7719344496726990e-01" nType="-1"/>
                </Node>
              </Node>
              <Node pos="r" depth="2" NCoef="0" IVar="-1" Cut="0.0000000000000000e+00" cType="1" res="-9.9000000000000000e+01" rms="0.0000000000000000e+00" purity="4.6885830163955688e-01" nType="-1"/>
            </Node>
            <Node pos="r" depth="1" NCoef="0" IVar="3" Cut="2.1345875549316406e+02" cType="1" res="-9.9000000000000000e+01" rms="0.0000000000000000e+00" purity="4.9377670884132385e-01" nType="0">
              <Node pos="l" depth="2" NCoef="0" IVar="6" Cut="3.3310384750366211e+00" cType="1" res="-9.9000000000000000e+01" rms="0.0000000000000000e+00" purity="4.9987220764160156e-01" nType="0">
                <Node pos="l" depth="3" NCoef="0" IVar="0" Cut="5.1706295013427734e+01" cType="1" res="-9.9000000000000000e+01" rms="0.0000000000000000e+00" purity="5.0219362974166870e-01" nType="0">
                  <Node pos="l" depth="4" NCoef="0" IVar="-1" Cut="0.0000000000000000e+00" cType="1" res="-9.9000000000000000e+01" rms="0.0000000000000000e+00" purity="5.1469570398330688e-01" nType="1"/>
                  <Node pos="r" depth="4" NCoef="0" IVar="-1" Cut="0.0000000000000000e+00" cType="1" res="-9.9000000000000000e+01" rms="0.0000000000000000e+00" purity="4.9354317784309387e-01" nType="-1"/>
                </Node>
                <Node pos="r" depth="3" NCoef="0" IVar="-1" Cut="0.0000000000000000e+00" cType="1" res="-9.9000000000000000e+01" rms="0.0000000000000000e+00" purity="4.8127052187919617e-01" nType="-1"/>
              </Node>
              <Node pos="r" depth="2" NCoef="0" IVar="-1" Cut="1.7985491943359375e+02" cType="1" res="-9.9000000000000000e+01" rms="0.0000000000000000e+00" purity="4.6938571333885193e-01" nType="-1"/>
            </Node>
          </Node>
        </BinaryTree>
        <BinaryTree type="DecisionTree" boostWeight="6.5128452202723851e-03" itree="109">
          <Node pos="s" depth="0" NCoef="0" IVar="3" Cut="4.4253338623046875e+02" cType="1" res="-9.9000000000000000e+01" rms="0.0000000000000000e+00" purity="5.0023895502090454e-01" nType="0">
            <Node pos="l" depth="1" NCoef="0" IVar="0" Cut="1.8764381408691406e+02" cType="0" res="-9.9000000000000000e+01" rms="0.0000000000000000e+00" purity="5.0223326683044434e-01" nType="0">
              <Node pos="l" depth="2" NCoef="0" IVar="-1" Cut="0.0000000000000000e+00" cType="1" res="-9.9000000000000000e+01" rms="0.0000000000000000e+00" purity="5.3428357839584351e-01" nType="1"/>
              <Node pos="r" depth="2" NCoef="0" IVar="5" Cut="9.6878373622894287e-01" cType="0" res="-9.9000000000000000e+01" rms="0.0000000000000000e+00" purity="4.9885883927345276e-01" nType="0">
                <Node pos="l" depth="3" NCoef="0" IVar="3" Cut="2.1745046997070312e+02" cType="0" res="-9.9000000000000000e+01" rms="0.0000000000000000e+00" purity="5.0330692529678345e-01" nType="0">
                  <Node pos="l" depth="4" NCoef="0" IVar="-1" Cut="0.0000000000000000e+00" cType="1" res="-9.9000000000000000e+01" rms="0.0000000000000000e+00" purity="5.1453387737274170e-01" nType="1"/>
                  <Node pos="r" depth="4" NCoef="0" IVar="-1" Cut="0.0000000000000000e+00" cType="1" res="-9.9000000000000000e+01" rms="0.0000000000000000e+00" purity="4.9897104501724243e-01" nType="-1"/>
                </Node>
                <Node pos="r" depth="3" NCoef="0" IVar="-1" Cut="1.3462391662597656e+02" cType="0" res="-9.9000000000000000e+01" rms="0.0000000000000000e+00" purity="4.8693662881851196e-01" nType="-1"/>
              </Node>
            </Node>
            <Node pos="r" depth="1" NCoef="0" IVar="-1" Cut="0.0000000000000000e+00" cType="1" res="-9.9000000000000000e+01" rms="0.0000000000000000e+00" purity="4.7171717882156372e-01" nType="-1"/>
          </Node>
        </BinaryTree>
        <BinaryTree type="DecisionTree" boostWeight="5.7863750672905072e-03" itree="110">
          <Node pos="s" depth="0" NCoef="0" IVar="3" Cut="4.4253338623046875e+02" cType="1" res="-9.9000000000000000e+01" rms="0.0000000000000000e+00" purity="5.0103878974914551e-01" nType="0">
            <Node pos="l" depth="1" NCoef="0" IVar="0" Cut="1.9545225524902344e+02" cType="0" res="-9.9000000000000000e+01" rms="0.0000000000000000e+00" purity="5.0296598672866821e-01" nType="0">
              <Node pos="l" depth="2" NCoef="0" IVar="-1" Cut="0.0000000000000000e+00" cType="1" res="-9.9000000000000000e+01" rms="0.0000000000000000e+00" purity="5.3486329317092896e-01" nType="1"/>
              <Node pos="r" depth="2" NCoef="0" IVar="5" Cut="7.6479750871658325e-01" cType="0" res="-9.9000000000000000e+01" rms="0.0000000000000000e+00" purity="5.0005316734313965e-01" nType="0">
                <Node pos="l" depth="3" NCoef="0" IVar="0" Cut="2.5367393493652344e+01" cType="0" res="-9.9000000000000000e+01" rms="0.0000000000000000e+00" purity="5.0200331211090088e-01" nType="0">
                  <Node pos="l" depth="4" NCoef="0" IVar="-1" Cut="0.0000000000000000e+00" cType="1" res="-9.9000000000000000e+01" rms="0.0000000000000000e+00" purity="5.0351142883300781e-01" nType="1"/>
                  <Node pos="r" depth="4" NCoef="0" IVar="-1" Cut="0.0000000000000000e+00" cType="1" res="-9.9000000000000000e+01" rms="0.0000000000000000e+00" purity="4.8322924971580505e-01" nType="-1"/>
                </Node>
                <Node pos="r" depth="3" NCoef="0" IVar="-1" Cut="0.0000000000000000e+00" cType="1" res="-9.9000000000000000e+01" rms="0.0000000000000000e+00" purity="4.6997377276420593e-01" nType="-1"/>
              </Node>
            </Node>
            <Node pos="r" depth="1" NCoef="0" IVar="-1" Cut="0.0000000000000000e+00" cType="1" res="-9.9000000000000000e+01" rms="0.0000000000000000e+00" purity="4.7348043322563171e-01" nType="-1"/>
          </Node>
        </BinaryTree>
        <BinaryTree type="DecisionTree" boostWeight="9.7915252186936454e-03" itree="111">
          <Node pos="s" depth="0" NCoef="0" IVar="2" Cut="1.3704458618164062e+02" cType="0" res="-9.9000000000000000e+01" rms="0.0000000000000000e+00" purity="5.0011181831359863e-01" nType="0">
            <Node pos="l" depth="1" NCoef="0" IVar="4" Cut="2.3202211856842041e+00" cType="1" res="-9.9000000000000000e+01" rms="0.0000000000000000e+00" purity="5.0323873758316040e-01" nType="0">
              <Node pos="l" depth="2" NCoef="0" IVar="3" Cut="4.4000799560546875e+02" cType="1" res="-9.9000000000000000e+01" rms="0.0000000000000000e+00" purity="5.0749206542968750e-01" nType="0">
                <Node pos="l" depth="3" NCoef="0" IVar="-1" Cut="1.7061980962753296e+00" cType="0" res="-9.9000000000000000e+01" rms="0.0000000000000000e+00" purity="5.1038730144500732e-01" nType="1"/>
                <Node pos="r" depth="3" NCoef="0" IVar="-1" Cut="0.0000000000000000e+00" cType="1" res="-9.9000000000000000e+01" rms="0.0000000000000000e+00" purity="4.7712180018424988e-01" nType="-1"/>
              </Node>
              <Node pos="r" depth="2" NCoef="0" IVar="-1" Cut="0.0000000000000000e+00" cType="1" res="-9.9000000000000000e+01" rms="0.0000000000000000e+00" purity="4.7076651453971863e-01" nType="-1"/>
            </Node>
            <Node pos="r" depth="1" NCoef="0" IVar="4" Cut="1.8436490297317505e+00" cType="0" res="-9.9000000000000000e+01" rms="0.0000000000000000e+00" purity="4.8504972457885742e-01" nType="0">
              <Node pos="l" depth="2" NCoef="0" IVar="-1" Cut="0.0000000000000000e+00" cType="1" res="-9.9000000000000000e+01" rms="0.0000000000000000e+00" purity="5.1425373554229736e-01" nType="1"/>
              <Node pos="r" depth="2" NCoef="0" IVar="-1" Cut="0.0000000000000000e+00" cType="1" res="-9.9000000000000000e+01" rms="0.0000000000000000e+00" purity="4.5367255806922913e-01" nType="-1"/>
            </Node>
          </Node>
        </BinaryTree>
        <BinaryTree type="DecisionTree" boostWeight="9.0471273493135870e-03" itree="112">
          <Node pos="s" depth="0" NCoef="0" IVar="4" Cut="5.9471720457077026e-01" cType="0" res="-9.9000000000000000e+01" rms="0.0000000000000000e+00" purity="4.9886304140090942e-01" nType="0">
            <Node pos="l" depth="1" NCoef="0" IVar="6" Cut="1.6602398157119751e+00" cType="1" res="-9.9000000000000000e+01" rms="0.0000000000000000e+00" purity="5.0058770179748535e-01" nType="0">
              <Node pos="l" depth="2" NCoef="0" IVar="5" Cut="1.7298094034194946e+00" cType="0" res="-9.9000000000000000e+01" rms="0.0000000000000000e+00" purity="5.1381653547286987e-01" nType="0">
                <Node pos="l" depth="3" NCoef="0" IVar="-1" Cut="0.0000000000000000e+00" cType="1" res="-9.9000000000000000e+01" rms="0.0000000000000000e+00" purity="5.5243366956710815e-01" nType="1"/>
                <Node pos="r" depth="3" NCoef="0" IVar="2" Cut="1.9031503295898438e+02" cType="0" res="-9.9000000000000000e+01" rms="0.0000000000000000e+00" purity="5.0072938203811646e-01" nType="0">
                  <Node pos="l" depth="4" NCoef="0" IVar="-1" Cut="0.0000000000000000e+00" cType="1" res="-9.9000000000000000e+01" rms="0.0000000000000000e+00" purity="5.1987272500991821e-01" nType="1"/>
                  <Node pos="r" depth="4" NCoef="0" IVar="-1" Cut="0.0000000000000000e+00" cType="1" res="-9.9000000000000000e+01" rms="0.0000000000000000e+00" purity="4.8081859946250916e-01" nType="-1"/>
                </Node>
              </Node>
              <Node pos="r" depth="2" NCoef="0" IVar="3" Cut="2.1345875549316406e+02" cType="1" res="-9.9000000000000000e+01" rms="0.0000000000000000e+00" purity="4.9535420536994934e-01" nType="0">
                <Node pos="l" depth="3" NCoef="0" IVar="0" Cut="9.8881744384765625e+01" cType="0" res="-9.9000000000000000e+01" rms="0.0000000000000000e+00" purity="5.0115483999252319e-01" nType="0">
                  <Node pos="l" depth="4" NCoef="0" IVar="-1" Cut="0.0000000000000000e+00" cType="1" res="-9.9000000000000000e+01" rms="0.0000000000000000e+00" purity="5.1493328809738159e-01" nType="1"/>
                  <Node pos="r" depth="4" NCoef="0" IVar="-1" Cut="0.0000000000000000e+00" cType="1" res="-9.9000000000000000e+01" rms="0.0000000000000000e+00" purity="4.9803030490875244e-01" nType="-1"/>
                </Node>
                <Node pos="r" depth="3" NCoef="0" IVar="-1" Cut="2.3112072944641113e+00" cType="1" res="-9.9000000000000000e+01" rms="0.0000000000000000e+00" purity="4.7598594427108765e-01" nType="-1"/>
              </Node>
            </Node>
            <Node pos="r" depth="1" NCoef="0" IVar="-1" Cut="0.0000000000000000e+00" cType="1" res="-9.9000000000000000e+01" rms="0.0000000000000000e+00" purity="4.7277668118476868e-01" nType="-1"/>
          </Node>
        </BinaryTree>
        <BinaryTree type="DecisionTree" boostWeight="4.4617198129485664e-03" itree="113">
          <Node pos="s" depth="0" NCoef="0" IVar="1" Cut="1.4270956420898438e+02" cType="1" res="-9.9000000000000000e+01" rms="0.0000000000000000e+00" purity="4.9995458126068115e-01" nType="0">
            <Node pos="l" depth="1" NCoef="0" IVar="0" Cut="2.4268684387207031e+02" cType="0" res="-9.9000000000000000e+01" rms="0.0000000000000000e+00" purity="5.0157558917999268e-01" nType="0">
              <Node pos="l" depth="2" NCoef="0" IVar="-1" Cut="0.0000000000000000e+00" cType="1" res="-9.9000000000000000e+01" rms="0.0000000000000000e+00" purity="5.3545320034027100e-01" nType="1"/>
              <Node pos="r" depth="2" NCoef="0" IVar="5" Cut="7.8396135568618774e-01" cType="0" res="-9.9000000000000000e+01" rms="0.0000000000000000e+00" purity="4.9953347444534302e-01" nType="0">
                <Node pos="l" depth="3" NCoef="0" IVar="3" Cut="3.8576882934570312e+02" cType="1" res="-9.9000000000000000e+01" rms="0.0000000000000000e+00" purity="5.0099450349807739e-01" nType="0">
                  <Node pos="l" depth="4" NCoef="0" IVar="-1" Cut="0.0000000000000000e+00" cType="1" res="-9.9000000000000000e+01" rms="0.0000000000000000e+00" purity="5.0234836339950562e-01" nType="1"/>
                  <Node pos="r" depth="4" NCoef="0" IVar="-1" Cut="0.0000000000000000e+00" cType="1" res="-9.9000000000000000e+01" rms="0.0000000000000000e+00" purity="4.8398143053054810e-01" nType="-1"/>
                </Node>
                <Node pos="r" depth="3" NCoef="0" IVar="-1" Cut="0.0000000000000000e+00" cType="1" res="-9.9000000000000000e+01" rms="0.0000000000000000e+00" purity="4.7936150431632996e-01" nType="-1"/>
              </Node>
            </Node>
            <Node pos="r" depth="1" NCoef="0" IVar="-1" Cut="0.0000000000000000e+00" cType="1" res="-9.9000000000000000e+01" rms="0.0000000000000000e+00" purity="4.7430148720741272e-01" nType="-1"/>
          </Node>
        </BinaryTree>
        <BinaryTree type="DecisionTree" boostWeight="8.6395300145786710e-03" itree="114">
          <Node pos="s" depth="0" NCoef="0" IVar="4" Cut="5.9471720457077026e-01" cType="0" res="-9.9000000000000000e+01" rms="0.0000000000000000e+00" purity="4.9924120306968689e-01" nType="0">
            <Node pos="l" depth="1" NCoef="0" IVar="6" Cut="1.5223716497421265e+00" cType="1" res="-9.9000000000000000e+01" rms="0.0000000000000000e+00" purity="5.0086653232574463e-01" nType="0">
              <Node pos="l" depth="2" NCoef="0" IVar="5" Cut="1.7298094034194946e+00" cType="0" res="-9.9000000000000000e+01" rms="0.0000000000000000e+00" purity="5.1420390605926514e-01" nType="0">
                <Node pos="l" depth="3" NCoef="0" IVar="-1" Cut="0.0000000000000000e+00" cType="1" res="-9.9000000000000000e+01" rms="0.0000000000000000e+00" purity="5.5516737699508667e-01" nType="1"/>
                <Node pos="r" depth="3" NCoef="0" IVar="2" Cut="2.0412361145019531e+02" cType="0" res="-9.9000000000000000e+01" rms="0.0000000000000000e+00" purity="4.9865442514419556e-01" nType="0">
                  <Node pos="l" depth="4" NCoef="0" IVar="-1" Cut="0.0000000000000000e+00" cType="1" res="-9.9000000000000000e+01" rms="0.0000000000000000e+00" purity="5.1945149898529053e-01" nType="1"/>
                  <Node pos="r" depth="4" NCoef="0" IVar="-1" Cut="0.0000000000000000e+00" cType="1" res="-9.9000000000000000e+01" rms="0.0000000000000000e+00" purity="4.8257750272750854e-01" nType="-1"/>
                </Node>
              </Node>
              <Node pos="r" depth="2" NCoef="0" IVar="3" Cut="3.2321185302734375e+02" cType="1" res="-9.9000000000000000e+01" rms="0.0000000000000000e+00" purity="4.9671903252601624e-01" nType="0">
                <Node pos="l" depth="3" NCoef="0" IVar="1" Cut="6.8671348571777344e+01" cType="0" res="-9.9000000000000000e+01" rms="0.0000000000000000e+00" purity="4.9983587861061096e-01" nType="0">
                  <Node pos="l" depth="4" NCoef="0" IVar="-1" Cut="0.0000000000000000e+00" cType="1" res="-9.9000000000000000e+01" rms="0.0000000000000000e+00" purity="5.0430464744567871e-01" nType="1"/>
                  <Node pos="r" depth="4" NCoef="0" IVar="-1" Cut="0.0000000000000000e+00" cType="1" res="-9.9000000000000000e+01" rms="0.0000000000000000e+00" purity="4.8779842257499695e-01" nType="-1"/>
                </Node>
                <Node pos="r" depth="3" NCoef="0" IVar="-1" Cut="0.0000000000000000e+00" cType="1" res="-9.9000000000000000e+01" rms="0.0000000000000000e+00" purity="4.5934805274009705e-01" nType="-1"/>
              </Node>
            </Node>
            <Node pos="r" depth="1" NCoef="0" IVar="-1" Cut="0.0000000000000000e+00" cType="1" res="-9.9000000000000000e+01" rms="0.0000000000000000e+00" purity="4.7465968132019043e-01" nType="-1"/>
          </Node>
        </BinaryTree>
        <BinaryTree type="DecisionTree" boostWeight="4.1935277690165994e-03" itree="115">
          <Node pos="s" depth="0" NCoef="0" IVar="0" Cut="2.4253356933593750e+02" cType="0" res="-9.9000000000000000e+01" rms="0.0000000000000000e+00" purity="4.9876579642295837e-01" nType="0">
            <Node pos="l" depth="1" NCoef="0" IVar="-1" Cut="0.0000000000000000e+00" cType="1" res="-9.9000000000000000e+01" rms="0.0000000000000000e+00" purity="5.2426838874816895e-01" nType="1"/>
            <Node pos="r" depth="1" NCoef="0" IVar="6" Cut="8.3303087949752808e-01" cType="0" res="-9.9000000000000000e+01" rms="0.0000000000000000e+00" purity="4.9723133444786072e-01" nType="0">
              <Node pos="l" depth="2" NCoef="0" IVar="0" Cut="2.1824649810791016e+01" cType="0" res="-9.9000000000000000e+01" rms="0.0000000000000000e+00" purity="4.9877616763114929e-01" nType="0">
                <Node pos="l" depth="3" NCoef="0" IVar="3" Cut="3.8001974487304688e+02" cType="1" res="-9.9000000000000000e+01" rms="0.0000000000000000e+00" purity="5.0034779310226440e-01" nType="0">
                  <Node pos="l" depth="4" NCoef="0" IVar="-1" Cut="0.0000000000000000e+00" cType="1" res="-9.9000000000000000e+01" rms="0.0000000000000000e+00" purity="5.0192356109619141e-01" nType="1"/>
                  <Node pos="r" depth="4" NCoef="0" IVar="-1" Cut="0.0000000000000000e+00" cType="1" res="-9.9000000000000000e+01" rms="0.0000000000000000e+00" purity="4.7782558202743530e-01" nType="-1"/>
                </Node>
                <Node pos="r" depth="3" NCoef="0" IVar="-1" Cut="0.0000000000000000e+00" cType="1" res="-9.9000000000000000e+01" rms="0.0000000000000000e+00" purity="4.7537404298782349e-01" nType="-1"/>
              </Node>
              <Node pos="r" depth="2" NCoef="0" IVar="-1" Cut="0.0000000000000000e+00" cType="1" res="-9.9000000000000000e+01" rms="0.0000000000000000e+00" purity="4.7121131420135498e-01" nType="-1"/>
            </Node>
          </Node>
        </BinaryTree>
        <BinaryTree type="DecisionTree" boostWeight="4.5439603330422297e-03" itree="116">
          <Node pos="s" depth="0" NCoef="0" IVar="0" Cut="2.4253356933593750e+02" cType="0" res="-9.9000000000000000e+01" rms="0.0000000000000000e+00" purity="4.9806129932403564e-01" nType="0">
            <Node pos="l" depth="1" NCoef="0" IVar="-1" Cut="0.0000000000000000e+00" cType="1" res="-9.9000000000000000e+01" rms="0.0000000000000000e+00" purity="5.2322232723236084e-01" nType="1"/>
            <Node pos="r" depth="1" NCoef="0" IVar="5" Cut="7.6303297281265259e-01" cType="0" res="-9.9000000000000000e+01" rms="0.0000000000000000e+00" purity="4.9654760956764221e-01" nType="0">
              <Node pos="l" depth="2" NCoef="0" IVar="4" Cut="6.2999939918518066e-01" cType="0" res="-9.9000000000000000e+01" rms="0.0000000000000000e+00" purity="4.9806138873100281e-01" nType="0">
                <Node pos="l" depth="3" NCoef="0" IVar="6" Cut="1.6602398157119751e+00" cType="1" res="-9.9000000000000000e+01" rms="0.0000000000000000e+00" purity="4.9930030107498169e-01" nType="0">
                  <Node pos="l" depth="4" NCoef="0" IVar="-1" Cut="0.0000000000000000e+00" cType="1" res="-9.9000000000000000e+01" rms="0.0000000000000000e+00" purity="5.0691759586334229e-01" nType="1"/>
                  <Node pos="r" depth="4" NCoef="0" IVar="-1" Cut="0.0000000000000000e+00" cType="1" res="-9.9000000000000000e+01" rms="0.0000000000000000e+00" purity="4.9660459160804749e-01" nType="-1"/>
                </Node>
                <Node pos="r" depth="3" NCoef="0" IVar="-1" Cut="0.0000000000000000e+00" cType="1" res="-9.9000000000000000e+01" rms="0.0000000000000000e+00" purity="4.8132008314132690e-01" nType="-1"/>
              </Node>
              <Node pos="r" depth="2" NCoef="0" IVar="-1" Cut="0.0000000000000000e+00" cType="1" res="-9.9000000000000000e+01" rms="0.0000000000000000e+00" purity="4.7101700305938721e-01" nType="-1"/>
            </Node>
          </Node>
        </BinaryTree>
        <BinaryTree type="DecisionTree" boostWeight="4.2975266361126724e-03" itree="117">
          <Node pos="s" depth="0" NCoef="0" IVar="1" Cut="1.4270956420898438e+02" cType="1" res="-9.9000000000000000e+01" rms="0.0000000000000000e+00" purity="4.9858516454696655e-01" nType="0">
            <Node pos="l" depth="1" NCoef="0" IVar="0" Cut="2.4268684387207031e+02" cType="0" res="-9.9000000000000000e+01" rms="0.0000000000000000e+00" purity="5.0012773275375366e-01" nType="0">
              <Node pos="l" depth="2" NCoef="0" IVar="-1" Cut="0.0000000000000000e+00" cType="1" res="-9.9000000000000000e+01" rms="0.0000000000000000e+00" purity="5.3189408779144287e-01" nType="1"/>
              <Node pos="r" depth="2" NCoef="0" IVar="5" Cut="7.8396135568618774e-01" cType="0" res="-9.9000000000000000e+01" rms="0.0000000000000000e+00" purity="4.9821385741233826e-01" nType="0">
                <Node pos="l" depth="3" NCoef="0" IVar="0" Cut="4.1047149658203125e+01" cType="1" res="-9.9000000000000000e+01" rms="0.0000000000000000e+00" purity="4.9950894713401794e-01" nType="0">
                  <Node pos="l" depth="4" NCoef="0" IVar="-1" Cut="0.0000000000000000e+00" cType="1" res="-9.9000000000000000e+01" rms="0.0000000000000000e+00" purity="5.0862634181976318e-01" nType="1"/>
                  <Node pos="r" depth="4" NCoef="0" IVar="-1" Cut="0.0000000000000000e+00" cType="1" res="-9.9000000000000000e+01" rms="0.0000000000000000e+00" purity="4.9772277474403381e-01" nType="-1"/>
                </Node>
                <Node pos="r" depth="3" NCoef="0" IVar="-1" Cut="0.0000000000000000e+00" cType="1" res="-9.9000000000000000e+01" rms="0.0000000000000000e+00" purity="4.8032689094543457e-01" nType="-1"/>
              </Node>
            </Node>
            <Node pos="r" depth="1" NCoef="0" IVar="-1" Cut="0.0000000000000000e+00" cType="1" res="-9.9000000000000000e+01" rms="0.0000000000000000e+00" purity="4.7417435050010681e-01" nType="-1"/>
          </Node>
        </BinaryTree>
        <BinaryTree type="DecisionTree" boostWeight="3.9942715510397075e-03" itree="118">
          <Node pos="s" depth="0" NCoef="0" IVar="1" Cut="1.4270956420898438e+02" cType="1" res="-9.9000000000000000e+01" rms="0.0000000000000000e+00" purity="4.9926957488059998e-01" nType="0">
            <Node pos="l" depth="1" NCoef="0" IVar="0" Cut="2.4268684387207031e+02" cType="0" res="-9.9000000000000000e+01" rms="0.0000000000000000e+00" purity="5.0078707933425903e-01" nType="0">
              <Node pos="l" depth="2" NCoef="0" IVar="-1" Cut="0.0000000000000000e+00" cType="1" res="-9.9000000000000000e+01" rms="0.0000000000000000e+00" purity="5.3082400560379028e-01" nType="1"/>
              <Node pos="r" depth="2" NCoef="0" IVar="0" Cut="2.1844396591186523e+01" cType="0" res="-9.9000000000000000e+01" rms="0.0000000000000000e+00" purity="4.9897766113281250e-01" nType="0">
                <Node pos="l" depth="3" NCoef="0" IVar="0" Cut="3.7159374237060547e+01" cType="1" res="-9.9000000000000000e+01" rms="0.0000000000000000e+00" purity="5.0021743774414062e-01" nType="0">
                  <Node pos="l" depth="4" NCoef="0" IVar="-1" Cut="0.0000000000000000e+00" cType="1" res="-9.9000000000000000e+01" rms="0.0000000000000000e+00" purity="5.1507192850112915e-01" nType="1"/>
                  <Node pos="r" depth="4" NCoef="0" IVar="-1" Cut="0.0000000000000000e+00" cType="1" res="-9.9000000000000000e+01" rms="0.0000000000000000e+00" purity="4.9848100543022156e-01" nType="-1"/>
                </Node>
                <Node pos="r" depth="3" NCoef="0" IVar="-1" Cut="0.0000000000000000e+00" cType="1" res="-9.9000000000000000e+01" rms="0.0000000000000000e+00" purity="4.7943550348281860e-01" nType="-1"/>
              </Node>
            </Node>
            <Node pos="r" depth="1" NCoef="0" IVar="-1" Cut="0.0000000000000000e+00" cType="1" res="-9.9000000000000000e+01" rms="0.0000000000000000e+00" purity="4.7525319457054138e-01" nType="-1"/>
          </Node>
        </BinaryTree>
        <BinaryTree type="DecisionTree" boostWeight="8.4164181370945928e-03" itree="119">
          <Node pos="s" depth="0" NCoef="0" IVar="2" Cut="1.3704458618164062e+02" cType="0" res="-9.9000000000000000e+01" rms="0.0000000000000000e+00" purity="5.0000298023223877e-01" nType="0">
            <Node pos="l" depth="1" NCoef="0" IVar="4" Cut="2.3202211856842041e+00" cType="1" res="-9.9000000000000000e+01" rms="0.0000000000000000e+00" purity="5.0274747610092163e-01" nType="0">
              <Node pos="l" depth="2" NCoef="0" IVar="3" Cut="4.6020553588867188e+02" cType="1" res="-9.9000000000000000e+01" rms="0.0000000000000000e+00" purity="5.0623452663421631e-01" nType="0">
                <Node pos="l" depth="3" NCoef="0" IVar="-1" Cut="1.7061980962753296e+00" cType="0" res="-9.9000000000000000e+01" rms="0.0000000000000000e+00" purity="5.0852745771408081e-01" nType="1"/>
                <Node pos="r" depth="3" NCoef="0" IVar="-1" Cut="0.0000000000000000e+00" cType="1" res="-9.9000000000000000e+01" rms="0.0000000000000000e+00" purity="4.7809207439422607e-01" nType="-1"/>
              </Node>
              <Node pos="r" depth="2" NCoef="0" IVar="-1" Cut="0.0000000000000000e+00" cType="1" res="-9.9000000000000000e+01" rms="0.0000000000000000e+00" purity="4.7611525654792786e-01" nType="-1"/>
            </Node>
            <Node pos="r" depth="1" NCoef="0" IVar="4" Cut="1.8436490297317505e+00" cType="0" res="-9.9000000000000000e+01" rms="0.0000000000000000e+00" purity="4.8678010702133179e-01" nType="0">
              <Node pos="l" depth="2" NCoef="0" IVar="-1" Cut="0.0000000000000000e+00" cType="1" res="-9.9000000000000000e+01" rms="0.0000000000000000e+00" purity="5.1392054557800293e-01" nType="1"/>
              <Node pos="r" depth="2" NCoef="0" IVar="-1" Cut="0.0000000000000000e+00" cType="1" res="-9.9000000000000000e+01" rms="0.0000000000000000e+00" purity="4.5760416984558105e-01" nType="-1"/>
            </Node>
          </Node>
        </BinaryTree>
        <BinaryTree type="DecisionTree" boostWeight="4.2376644290883086e-03" itree="120">
          <Node pos="s" depth="0" NCoef="0" IVar="1" Cut="1.4270956420898438e+02" cType="1" res="-9.9000000000000000e+01" rms="0.0000000000000000e+00" purity="4.9889117479324341e-01" nType="0">
            <Node pos="l" depth="1" NCoef="0" IVar="2" Cut="2.7898513793945312e+02" cType="0" res="-9.9000000000000000e+01" rms="0.0000000000000000e+00" purity="5.0040996074676514e-01" nType="0">
              <Node pos="l" depth="2" NCoef="0" IVar="-1" Cut="0.0000000000000000e+00" cType="1" res="-9.9000000000000000e+01" rms="0.0000000000000000e+00" purity="5.2988469600677490e-01" nType="1"/>
              <Node pos="r" depth="2" NCoef="0" IVar="3" Cut="3.8576882934570312e+02" cType="1" res="-9.9000000000000000e+01" rms="0.0000000000000000e+00" purity="4.9859899282455444e-01" nType="0">
                <Node pos="l" depth="3" NCoef="0" IVar="0" Cut="1.8764381408691406e+02" cType="0" res="-9.9000000000000000e+01" rms="0.0000000000000000e+00" purity="5.0048714876174927e-01" nType="0">
                  <Node pos="l" depth="4" NCoef="0" IVar="-1" Cut="0.0000000000000000e+00" cType="1" res="-9.9000000000000000e+01" rms="0.0000000000000000e+00" purity="5.2400958538055420e-01" nType="1"/>
                  <Node pos="r" depth="4" NCoef="0" IVar="-1" Cut="0.0000000000000000e+00" cType="1" res="-9.9000000000000000e+01" rms="0.0000000000000000e+00" purity="4.9878013134002686e-01" nType="-1"/>
                </Node>
                <Node pos="r" depth="3" NCoef="0" IVar="-1" Cut="0.0000000000000000e+00" cType="1" res="-9.9000000000000000e+01" rms="0.0000000000000000e+00" purity="4.7022920846939087e-01" nType="-1"/>
              </Node>
            </Node>
            <Node pos="r" depth="1" NCoef="0" IVar="-1" Cut="0.0000000000000000e+00" cType="1" res="-9.9000000000000000e+01" rms="0.0000000000000000e+00" purity="4.7485518455505371e-01" nType="-1"/>
          </Node>
        </BinaryTree>
        <BinaryTree type="DecisionTree" boostWeight="4.5553920391489446e-03" itree="121">
          <Node pos="s" depth="0" NCoef="0" IVar="1" Cut="1.4270956420898438e+02" cType="1" res="-9.9000000000000000e+01" rms="0.0000000000000000e+00" purity="4.9972894787788391e-01" nType="0">
            <Node pos="l" depth="1" NCoef="0" IVar="2" Cut="2.7898513793945312e+02" cType="0" res="-9.9000000000000000e+01" rms="0.0000000000000000e+00" purity="5.0123327970504761e-01" nType="0">
              <Node pos="l" depth="2" NCoef="0" IVar="-1" Cut="0.0000000000000000e+00" cType="1" res="-9.9000000000000000e+01" rms="0.0000000000000000e+00" purity="5.2882891893386841e-01" nType="1"/>
              <Node pos="r" depth="2" NCoef="0" IVar="3" Cut="3.8576882934570312e+02" cType="1" res="-9.9000000000000000e+01" rms="0.0000000000000000e+00" purity="4.9953794479370117e-01" nType="0">
                <Node pos="l" depth="3" NCoef="0" IVar="0" Cut="1.4079318237304688e+02" cType="0" res="-9.9000000000000000e+01" rms="0.0000000000000000e+00" purity="5.0141602754592896e-01" nType="0">
                  <Node pos="l" depth="4" NCoef="0" IVar="-1" Cut="0.0000000000000000e+00" cType="1" res="-9.9000000000000000e+01" rms="0.0000000000000000e+00" purity="5.1419854164123535e-01" nType="1"/>
                  <Node pos="r" depth="4" NCoef="0" IVar="-1" Cut="0.0000000000000000e+00" cType="1" res="-9.9000000000000000e+01" rms="0.0000000000000000e+00" purity="4.9866229295730591e-01" nType="-1"/>
                </Node>
                <Node pos="r" depth="3" NCoef="0" IVar="-1" Cut="0.0000000000000000e+00" cType="1" res="-9.9000000000000000e+01" rms="0.0000000000000000e+00" purity="4.7131821513175964e-01" nType="-1"/>
              </Node>
            </Node>
            <Node pos="r" depth="1" NCoef="0" IVar="-1" Cut="0.0000000000000000e+00" cType="1" res="-9.9000000000000000e+01" rms="0.0000000000000000e+00" purity="4.7591897845268250e-01" nType="-1"/>
          </Node>
        </BinaryTree>
        <BinaryTree type="DecisionTree" boostWeight="4.6120055149631656e-03" itree="122">
          <Node pos="s" depth="0" NCoef="0" IVar="1" Cut="1.4270956420898438e+02" cType="1" res="-9.9000000000000000e+01" rms="0.0000000000000000e+00" purity="5.0041735172271729e-01" nType="0">
            <Node pos="l" depth="1" NCoef="0" IVar="0" Cut="2.4268684387207031e+02" cType="0" res="-9.9000000000000000e+01" rms="0.0000000000000000e+00" purity="5.0189286470413208e-01" nType="0">
              <Node pos="l" depth="2" NCoef="0" IVar="-1" Cut="0.0000000000000000e+00" cType="1" res="-9.9000000000000000e+01" rms="0.0000000000000000e+00" purity="5.2818691730499268e-01" nType="1"/>
              <Node pos="r" depth="2" NCoef="0" IVar="0" Cut="2.1844396591186523e+01" cType="0" res="-9.9000000000000000e+01" rms="0.0000000000000000e+00" purity="5.0030952692031860e-01" nType="0">
                <Node pos="l" depth="3" NCoef="0" IVar="4" Cut="8.7697470188140869e-01" cType="0" res="-9.9000000000000000e+01" rms="0.0000000000000000e+00" purity="5.0148439407348633e-01" nType="0">
                  <Node pos="l" depth="4" NCoef="0" IVar="-1" Cut="0.0000000000000000e+00" cType="1" res="-9.9000000000000000e+01" rms="0.0000000000000000e+00" purity="5.0370514392852783e-01" nType="1"/>
                  <Node pos="r" depth="4" NCoef="0" IVar="-1" Cut="0.0000000000000000e+00" cType="1" res="-9.9000000000000000e+01" rms="0.0000000000000000e+00" purity="4.9110978841781616e-01" nType="-1"/>
                </Node>
                <Node pos="r" depth="3" NCoef="0" IVar="-1" Cut="0.0000000000000000e+00" cType="1" res="-9.9000000000000000e+01" rms="0.0000000000000000e+00" purity="4.8178699612617493e-01" nType="-1"/>
              </Node>
            </Node>
            <Node pos="r" depth="1" NCoef="0" IVar="-1" Cut="0.0000000000000000e+00" cType="1" res="-9.9000000000000000e+01" rms="0.0000000000000000e+00" purity="4.7706273198127747e-01" nType="-1"/>
          </Node>
        </BinaryTree>
        <BinaryTree type="DecisionTree" boostWeight="7.7200516176242186e-03" itree="123">
          <Node pos="s" depth="0" NCoef="0" IVar="4" Cut="5.9471720457077026e-01" cType="0" res="-9.9000000000000000e+01" rms="0.0000000000000000e+00" purity="4.9986585974693298e-01" nType="0">
            <Node pos="l" depth="1" NCoef="0" IVar="6" Cut="1.5223716497421265e+00" cType="1" res="-9.9000000000000000e+01" rms="0.0000000000000000e+00" purity="5.0126796960830688e-01" nType="0">
              <Node pos="l" depth="2" NCoef="0" IVar="5" Cut="1.7298094034194946e+00" cType="0" res="-9.9000000000000000e+01" rms="0.0000000000000000e+00" purity="5.1290625333786011e-01" nType="0">
                <Node pos="l" depth="3" NCoef="0" IVar="-1" Cut="0.0000000000000000e+00" cType="1" res="-9.9000000000000000e+01" rms="0.0000000000000000e+00" purity="5.4868739843368530e-01" nType="1"/>
                <Node pos="r" depth="3" NCoef="0" IVar="2" Cut="1.9031503295898438e+02" cType="0" res="-9.9000000000000000e+01" rms="0.0000000000000000e+00" purity="4.9935179948806763e-01" nType="0">
                  <Node pos="l" depth="4" NCoef="0" IVar="-1" Cut="0.0000000000000000e+00" cType="1" res="-9.9000000000000000e+01" rms="0.0000000000000000e+00" purity="5.1440221071243286e-01" nType="1"/>
                  <Node pos="r" depth="4" NCoef="0" IVar="-1" Cut="0.0000000000000000e+00" cType="1" res="-9.9000000000000000e+01" rms="0.0000000000000000e+00" purity="4.8182135820388794e-01" nType="-1"/>
                </Node>
              </Node>
              <Node pos="r" depth="2" NCoef="0" IVar="3" Cut="2.6223791503906250e+02" cType="1" res="-9.9000000000000000e+01" rms="0.0000000000000000e+00" purity="4.9765008687973022e-01" nType="0">
                <Node pos="l" depth="3" NCoef="0" IVar="6" Cut="3.3017570972442627e+00" cType="1" res="-9.9000000000000000e+01" rms="0.0000000000000000e+00" purity="5.0185894966125488e-01" nType="0">
                  <Node pos="l" depth="4" NCoef="0" IVar="-1" Cut="0.0000000000000000e+00" cType="1" res="-9.9000000000000000e+01" rms="0.0000000000000000e+00" purity="5.0384956598281860e-01" nType="1"/>
                  <Node pos="r" depth="4" NCoef="0" IVar="-1" Cut="0.0000000000000000e+00" cType="1" res="-9.9000000000000000e+01" rms="0.0000000000000000e+00" purity="4.8291847109794617e-01" nType="-1"/>
                </Node>
                <Node pos="r" depth="3" NCoef="0" IVar="-1" Cut="0.0000000000000000e+00" cType="1" res="-9.9000000000000000e+01" rms="0.0000000000000000e+00" purity="4.7216013073921204e-01" nType="-1"/>
              </Node>
            </Node>
            <Node pos="r" depth="1" NCoef="0" IVar="-1" Cut="0.0000000000000000e+00" cType="1" res="-9.9000000000000000e+01" rms="0.0000000000000000e+00" purity="4.7865670919418335e-01" nType="-1"/>
          </Node>
        </BinaryTree>
        <BinaryTree type="DecisionTree" boostWeight="8.2423551667033506e-03" itree="124">
          <Node pos="s" depth="0" NCoef="0" IVar="1" Cut="1.4270956420898438e+02" cType="1" res="-9.9000000000000000e+01" rms="0.0000000000000000e+00" purity="4.9908995628356934e-01" nType="0">
            <Node pos="l" depth="1" NCoef="0" IVar="6" Cut="1.5320438146591187e+00" cType="1" res="-9.9000000000000000e+01" rms="0.0000000000000000e+00" purity="5.0045031309127808e-01" nType="0">
              <Node pos="l" depth="2" NCoef="0" IVar="5" Cut="1.9604692459106445e+00" cType="0" res="-9.9000000000000000e+01" rms="0.0000000000000000e+00" purity="5.1179081201553345e-01" nType="0">
                <Node pos="l" depth="3" NCoef="0" IVar="-1" Cut="0.0000000000000000e+00" cType="1" res="-9.9000000000000000e+01" rms="0.0000000000000000e+00" purity="5.5026495456695557e-01" nType="1"/>
                <Node pos="r" depth="3" NCoef="0" IVar="2" Cut="1.9085305786132812e+02" cType="0" res="-9.9000000000000000e+01" rms="0.0000000000000000e+00" purity="5.0165224075317383e-01" nType="0">
                  <Node pos="l" depth="4" NCoef="0" IVar="-1" Cut="0.0000000000000000e+00" cType="1" res="-9.9000000000000000e+01" rms="0.0000000000000000e+00" purity="5.1535028219223022e-01" nType="1"/>
                  <Node pos="r" depth="4" NCoef="0" IVar="-1" Cut="0.0000000000000000e+00" cType="1" res="-9.9000000000000000e+01" rms="0.0000000000000000e+00" purity="4.8306575417518616e-01" nType="-1"/>
                </Node>
              </Node>
              <Node pos="r" depth="2" NCoef="0" IVar="3" Cut="2.1454772949218750e+02" cType="1" res="-9.9000000000000000e+01" rms="0.0000000000000000e+00" purity="4.9650198221206665e-01" nType="0">
                <Node pos="l" depth="3" NCoef="0" IVar="3" Cut="1.9283100891113281e+02" cType="1" res="-9.9000000000000000e+01" rms="0.0000000000000000e+00" purity="5.0250899791717529e-01" nType="0">
                  <Node pos="l" depth="4" NCoef="0" IVar="-1" Cut="0.0000000000000000e+00" cType="1" res="-9.9000000000000000e+01" rms="0.0000000000000000e+00" purity="5.0476962327957153e-01" nType="1"/>
                  <Node pos="r" depth="4" NCoef="0" IVar="-1" Cut="0.0000000000000000e+00" cType="1" res="-9.9000000000000000e+01" rms="0.0000000000000000e+00" purity="4.8842731118202209e-01" nType="-1"/>
                </Node>
                <Node pos="r" depth="3" NCoef="0" IVar="-1" Cut="7.8176139831542969e+01" cType="0" res="-9.9000000000000000e+01" rms="0.0000000000000000e+00" purity="4.7793161869049072e-01" nType="-1"/>
              </Node>
            </Node>
            <Node pos="r" depth="1" NCoef="0" IVar="-1" Cut="0.0000000000000000e+00" cType="1" res="-9.9000000000000000e+01" rms="0.0000000000000000e+00" purity="4.7755634784698486e-01" nType="-1"/>
          </Node>
        </BinaryTree>
        <BinaryTree type="DecisionTree" boostWeight="1.0422566084421107e-02" itree="125">
          <Node pos="s" depth="0" NCoef="0" IVar="2" Cut="1.3704458618164062e+02" cType="0" res="-9.9000000000000000e+01" rms="0.0000000000000000e+00" purity="4.9862411618232727e-01" nType="0">
            <Node pos="l" depth="1" NCoef="0" IVar="1" Cut="7.0518844604492188e+01" cType="0" res="-9.9000000000000000e+01" rms="0.0000000000000000e+00" purity="5.0120937824249268e-01" nType="0">
              <Node pos="l" depth="2" NCoef="0" IVar="1" Cut="8.7436210632324219e+01" cType="1" res="-9.9000000000000000e+01" rms="0.0000000000000000e+00" purity="5.0648957490921021e-01" nType="0">
                <Node pos="l" depth="3" NCoef="0" IVar="-1" Cut="2.0138127803802490e+00" cType="1" res="-9.9000000000000000e+01" rms="0.0000000000000000e+00" purity="5.2685838937759399e-01" nType="1"/>
                <Node pos="r" depth="3" NCoef="0" IVar="5" Cut="1.3636035919189453e+00" cType="1" res="-9.9000000000000000e+01" rms="0.0000000000000000e+00" purity="4.9745026230812073e-01" nType="0">
                  <Node pos="l" depth="4" NCoef="0" IVar="-1" Cut="0.0000000000000000e+00" cType="1" res="-9.9000000000000000e+01" rms="0.0000000000000000e+00" purity="5.0302815437316895e-01" nType="1"/>
                  <Node pos="r" depth="4" NCoef="0" IVar="-1" Cut="0.0000000000000000e+00" cType="1" res="-9.9000000000000000e+01" rms="0.0000000000000000e+00" purity="4.8153406381607056e-01" nType="-1"/>
                </Node>
              </Node>
              <Node pos="r" depth="2" NCoef="0" IVar="2" Cut="2.0729022216796875e+02" cType="1" res="-9.9000000000000000e+01" rms="0.0000000000000000e+00" purity="4.8564049601554871e-01" nType="0">
                <Node pos="l" depth="3" NCoef="0" IVar="6" Cut="2.1700325012207031e+00" cType="1" res="-9.9000000000000000e+01" rms="0.0000000000000000e+00" purity="4.9406719207763672e-01" nType="0">
                  <Node pos="l" depth="4" NCoef="0" IVar="-1" Cut="0.0000000000000000e+00" cType="1" res="-9.9000000000000000e+01" rms="0.0000000000000000e+00" purity="5.1724356412887573e-01" nType="1"/>
                  <Node pos="r" depth="4" NCoef="0" IVar="-1" Cut="0.0000000000000000e+00" cType="1" res="-9.9000000000000000e+01" rms="0.0000000000000000e+00" purity="4.8060724139213562e-01" nType="-1"/>
                </Node>
                <Node pos="r" depth="3" NCoef="0" IVar="-1" Cut="0.0000000000000000e+00" cType="1" res="-9.9000000000000000e+01" rms="0.0000000000000000e+00" purity="4.6205657720565796e-01" nType="-1"/>
              </Node>
            </Node>
            <Node pos="r" depth="1" NCoef="0" IVar="4" Cut="1.8436490297317505e+00" cType="0" res="-9.9000000000000000e+01" rms="0.0000000000000000e+00" purity="4.8616552352905273e-01" nType="0">
              <Node pos="l" depth="2" NCoef="0" IVar="-1" Cut="0.0000000000000000e+00" cType="1" res="-9.9000000000000000e+01" rms="0.0000000000000000e+00" purity="5.1066237688064575e-01" nType="1"/>
              <Node pos="r" depth="2" NCoef="0" IVar="-1" Cut="0.0000000000000000e+00" cType="1" res="-9.9000000000000000e+01" rms="0.0000000000000000e+00" purity="4.5983225107192993e-01" nType="-1"/>
            </Node>
          </Node>
        </BinaryTree>
        <BinaryTree type="DecisionTree" boostWeight="8.6445854677359643e-03" itree="126">
          <Node pos="s" depth="0" NCoef="0" IVar="2" Cut="1.3704458618164062e+02" cType="0" res="-9.9000000000000000e+01" rms="0.0000000000000000e+00" purity="4.9785453081130981e-01" nType="0">
            <Node pos="l" depth="1" NCoef="0" IVar="4" Cut="2.3202211856842041e+00" cType="1" res="-9.9000000000000000e+01" rms="0.0000000000000000e+00" purity="5.0030142068862915e-01" nType="0">
              <Node pos="l" depth="2" NCoef="0" IVar="1" Cut="7.2413261413574219e+01" cType="0" res="-9.9000000000000000e+01" rms="0.0000000000000000e+00" purity="5.0324565172195435e-01" nType="0">
                <Node pos="l" depth="3" NCoef="0" IVar="1" Cut="8.6520622253417969e+01" cType="1" res="-9.9000000000000000e+01" rms="0.0000000000000000e+00" purity="5.0747179985046387e-01" nType="0">
                  <Node pos="l" depth="4" NCoef="0" IVar="-1" Cut="0.0000000000000000e+00" cType="1" res="-9.9000000000000000e+01" rms="0.0000000000000000e+00" purity="5.3552961349487305e-01" nType="1"/>
                  <Node pos="r" depth="4" NCoef="0" IVar="-1" Cut="0.0000000000000000e+00" cType="1" res="-9.9000000000000000e+01" rms="0.0000000000000000e+00" purity="4.9775072932243347e-01" nType="-1"/>
                </Node>
                <Node pos="r" depth="3" NCoef="0" IVar="0" Cut="1.5396907043457031e+02" cType="1" res="-9.9000000000000000e+01" rms="0.0000000000000000e+00" purity="4.8945376276969910e-01" nType="0">
                  <Node pos="l" depth="4" NCoef="0" IVar="-1" Cut="0.0000000000000000e+00" cType="1" res="-9.9000000000000000e+01" rms="0.0000000000000000e+00" purity="5.0248104333877563e-01" nType="1"/>
                  <Node pos="r" depth="4" NCoef="0" IVar="-1" Cut="0.0000000000000000e+00" cType="1" res="-9.9000000000000000e+01" rms="0.0000000000000000e+00" purity="4.6188643574714661e-01" nType="-1"/>
                </Node>
              </Node>
              <Node pos="r" depth="2" NCoef="0" IVar="-1" Cut="0.0000000000000000e+00" cType="1" res="-9.9000000000000000e+01" rms="0.0000000000000000e+00" purity="4.7781455516815186e-01" nType="-1"/>
            </Node>
            <Node pos="r" depth="1" NCoef="0" IVar="4" Cut="1.8436490297317505e+00" cType="0" res="-9.9000000000000000e+01" rms="0.0000000000000000e+00" purity="4.8606139421463013e-01" nType="0">
              <Node pos="l" depth="2" NCoef="0" IVar="-1" Cut="0.0000000000000000e+00" cType="1" res="-9.9000000000000000e+01" rms="0.0000000000000000e+00" purity="5.0803279876708984e-01" nType="1"/>
              <Node pos="r" depth="2" NCoef="0" IVar="-1" Cut="0.0000000000000000e+00" cType="1" res="-9.9000000000000000e+01" rms="0.0000000000000000e+00" purity="4.6243506669998169e-01" nType="-1"/>
            </Node>
          </Node>
        </BinaryTree>
        <BinaryTree type="DecisionTree" boostWeight="1.0670410784137135e-02" itree="127">
          <Node pos="s" depth="0" NCoef="0" IVar="2" Cut="1.3704458618164062e+02" cType="0" res="-9.9000000000000000e+01" rms="0.0000000000000000e+00" purity="4.9853622913360596e-01" nType="0">
            <Node pos="l" depth="1" NCoef="0" IVar="1" Cut="7.2369895935058594e+01" cType="0" res="-9.9000000000000000e+01" rms="0.0000000000000000e+00" purity="5.0114208459854126e-01" nType="0">
              <Node pos="l" depth="2" NCoef="0" IVar="1" Cut="8.6484230041503906e+01" cType="1" res="-9.9000000000000000e+01" rms="0.0000000000000000e+00" purity="5.0625854730606079e-01" nType="0">
                <Node pos="l" depth="3" NCoef="0" IVar="-1" Cut="1.8451908826828003e+00" cType="1" res="-9.9000000000000000e+01" rms="0.0000000000000000e+00" purity="5.2727633714675903e-01" nType="1"/>
                <Node pos="r" depth="3" NCoef="0" IVar="2" Cut="1.7166835021972656e+02" cType="0" res="-9.9000000000000000e+01" rms="0.0000000000000000e+00" purity="4.9857187271118164e-01" nType="0">
                  <Node pos="l" depth="4" NCoef="0" IVar="-1" Cut="0.0000000000000000e+00" cType="1" res="-9.9000000000000000e+01" rms="0.0000000000000000e+00" purity="5.0464332103729248e-01" nType="1"/>
                  <Node pos="r" depth="4" NCoef="0" IVar="-1" Cut="0.0000000000000000e+00" cType="1" res="-9.9000000000000000e+01" rms="0.0000000000000000e+00" purity="4.8977452516555786e-01" nType="-1"/>
                </Node>
              </Node>
              <Node pos="r" depth="2" NCoef="0" IVar="2" Cut="2.0729022216796875e+02" cType="1" res="-9.9000000000000000e+01" rms="0.0000000000000000e+00" purity="4.8765677213668823e-01" nType="0">
                <Node pos="l" depth="3" NCoef="0" IVar="4" Cut="1.7936711311340332e+00" cType="1" res="-9.9000000000000000e+01" rms="0.0000000000000000e+00" purity="4.9610880017280579e-01" nType="0">
                  <Node pos="l" depth="4" NCoef="0" IVar="-1" Cut="0.0000000000000000e+00" cType="1" res="-9.9000000000000000e+01" rms="0.0000000000000000e+00" purity="5.1411294937133789e-01" nType="1"/>
                  <Node pos="r" depth="4" NCoef="0" IVar="-1" Cut="0.0000000000000000e+00" cType="1" res="-9.9000000000000000e+01" rms="0.0000000000000000e+00" purity="4.8429858684539795e-01" nType="-1"/>
                </Node>
                <Node pos="r" depth="3" NCoef="0" IVar="-1" Cut="0.0000000000000000e+00" cType="1" res="-9.9000000000000000e+01" rms="0.0000000000000000e+00" purity="4.6439734101295471e-01" nType="-1"/>
              </Node>
            </Node>
            <Node pos="r" depth="1" NCoef="0" IVar="5" Cut="9.6680468320846558e-01" cType="0" res="-9.9000000000000000e+01" rms="0.0000000000000000e+00" purity="4.8597508668899536e-01" nType="0">
              <Node pos="l" depth="2" NCoef="0" IVar="4" Cut="1.8070038557052612e+00" cType="0" res="-9.9000000000000000e+01" rms="0.0000000000000000e+00" purity="5.0178420543670654e-01" nType="0">
                <Node pos="l" depth="3" NCoef="0" IVar="-1" Cut="0.0000000000000000e+00" cType="1" res="-9.9000000000000000e+01" rms="0.0000000000000000e+00" purity="5.2799326181411743e-01" nType="1"/>
                <Node pos="r" depth="3" NCoef="0" IVar="-1" Cut="0.0000000000000000e+00" cType="1" res="-9.9000000000000000e+01" rms="0.0000000000000000e+00" purity="4.7396379709243774e-01" nType="-1"/>
              </Node>
              <Node pos="r" depth="2" NCoef="0" IVar="-1" Cut="0.0000000000000000e+00" cType="1" res="-9.9000000000000000e+01" rms="0.0000000000000000e+00" purity="4.5558053255081177e-01" nType="-1"/>
            </Node>
          </Node>
        </BinaryTree>
        <BinaryTree type="DecisionTree" boostWeight="9.3321515526615818e-03" itree="128">
          <Node pos="s" depth="0" NCoef="0" IVar="2" Cut="1.3704458618164062e+02" cType="0" res="-9.9000000000000000e+01" rms="0.0000000000000000e+00" purity="4.9831146001815796e-01" nType="0">
            <Node pos="l" depth="1" NCoef="0" IVar="4" Cut="5.7674378156661987e-01" cType="0" res="-9.9000000000000000e+01" rms="0.0000000000000000e+00" purity="5.0069189071655273e-01" nType="0">
              <Node pos="l" depth="2" NCoef="0" IVar="4" Cut="2.3381230831146240e+00" cType="1" res="-9.9000000000000000e+01" rms="0.0000000000000000e+00" purity="5.0264799594879150e-01" nType="0">
                <Node pos="l" depth="3" NCoef="0" IVar="1" Cut="7.2413261413574219e+01" cType="0" res="-9.9000000000000000e+01" rms="0.0000000000000000e+00" purity="5.0578296184539795e-01" nType="0">
                  <Node pos="l" depth="4" NCoef="0" IVar="-1" Cut="0.0000000000000000e+00" cType="1" res="-9.9000000000000000e+01" rms="0.0000000000000000e+00" purity="5.1049178838729858e-01" nType="1"/>
                  <Node pos="r" depth="4" NCoef="0" IVar="-1" Cut="0.0000000000000000e+00" cType="1" res="-9.9000000000000000e+01" rms="0.0000000000000000e+00" purity="4.9097931385040283e-01" nType="-1"/>
                </Node>
                <Node pos="r" depth="3" NCoef="0" IVar="-1" Cut="0.0000000000000000e+00" cType="1" res="-9.9000000000000000e+01" rms="0.0000000000000000e+00" purity="4.7942793369293213e-01" nType="-1"/>
              </Node>
              <Node pos="r" depth="2" NCoef="0" IVar="-1" Cut="0.0000000000000000e+00" cType="1" res="-9.9000000000000000e+01" rms="0.0000000000000000e+00" purity="4.7035792469978333e-01" nType="-1"/>
            </Node>
            <Node pos="r" depth="1" NCoef="0" IVar="5" Cut="9.6680468320846558e-01" cType="0" res="-9.9000000000000000e+01" rms="0.0000000000000000e+00" purity="4.8683413863182068e-01" nType="0">
              <Node pos="l" depth="2" NCoef="0" IVar="4" Cut="1.8070038557052612e+00" cType="0" res="-9.9000000000000000e+01" rms="0.0000000000000000e+00" purity="5.0170779228210449e-01" nType="0">
                <Node pos="l" depth="3" NCoef="0" IVar="-1" Cut="0.0000000000000000e+00" cType="1" res="-9.9000000000000000e+01" rms="0.0000000000000000e+00" purity="5.2532297372817993e-01" nType="1"/>
                <Node pos="r" depth="3" NCoef="0" IVar="-1" Cut="0.0000000000000000e+00" cType="1" res="-9.9000000000000000e+01" rms="0.0000000000000000e+00" purity="4.7664144635200500e-01" nType="-1"/>
              </Node>
              <Node pos="r" depth="2" NCoef="0" IVar="-1" Cut="0.0000000000000000e+00" cType="1" res="-9.9000000000000000e+01" rms="0.0000000000000000e+00" purity="4.5823252201080322e-01" nType="-1"/>
            </Node>
          </Node>
        </BinaryTree>
        <BinaryTree type="DecisionTree" boostWeight="3.9212054508440900e-03" itree="129">
          <Node pos="s" depth="0" NCoef="0" IVar="0" Cut="2.4253356933593750e+02" cType="0" res="-9.9000000000000000e+01" rms="0.0000000000000000e+00" purity="4.9796694517135620e-01" nType="0">
            <Node pos="l" depth="1" NCoef="0" IVar="-1" Cut="0.0000000000000000e+00" cType="1" res="-9.9000000000000000e+01" rms="0.0000000000000000e+00" purity="5.1891946792602539e-01" nType="1"/>
            <Node pos="r" depth="1" NCoef="0" IVar="5" Cut="7.6303297281265259e-01" cType="0" res="-9.9000000000000000e+01" rms="0.0000000000000000e+00" purity="4.9670708179473877e-01" nType="0">
              <Node pos="l" depth="2" NCoef="0" IVar="0" Cut="1.7773165893554688e+02" cType="1" res="-9.9000000000000000e+01" rms="0.0000000000000000e+00" purity="4.9812340736389160e-01" nType="0">
                <Node pos="l" depth="3" NCoef="0" IVar="2" Cut="2.2309574890136719e+02" cType="0" res="-9.9000000000000000e+01" rms="0.0000000000000000e+00" purity="4.9959489703178406e-01" nType="0">
                  <Node pos="l" depth="4" NCoef="0" IVar="-1" Cut="0.0000000000000000e+00" cType="1" res="-9.9000000000000000e+01" rms="0.0000000000000000e+00" purity="5.1685625314712524e-01" nType="1"/>
                  <Node pos="r" depth="4" NCoef="0" IVar="-1" Cut="0.0000000000000000e+00" cType="1" res="-9.9000000000000000e+01" rms="0.0000000000000000e+00" purity="4.9795958399772644e-01" nType="-1"/>
                </Node>
                <Node pos="r" depth="3" NCoef="0" IVar="-1" Cut="0.0000000000000000e+00" cType="1" res="-9.9000000000000000e+01" rms="0.0000000000000000e+00" purity="4.8381835222244263e-01" nType="-1"/>
              </Node>
              <Node pos="r" depth="2" NCoef="0" IVar="-1" Cut="0.0000000000000000e+00" cType="1" res="-9.9000000000000000e+01" rms="0.0000000000000000e+00" purity="4.7280025482177734e-01" nType="-1"/>
            </Node>
          </Node>
        </BinaryTree>
        <BinaryTree type="DecisionTree" boostWeight="4.8674882761970389e-03" itree="130">
          <Node pos="s" depth="0" NCoef="0" IVar="3" Cut="4.4253338623046875e+02" cType="1" res="-9.9000000000000000e+01" rms="0.0000000000000000e+00" purity="4.9871280789375305e-01" nType="0">
            <Node pos="l" depth="1" NCoef="0" IVar="0" Cut="1.9545225524902344e+02" cType="0" res="-9.9000000000000000e+01" rms="0.0000000000000000e+00" purity="5.0007873773574829e-01" nType="0">
              <Node pos="l" depth="2" NCoef="0" IVar="-1" Cut="0.0000000000000000e+00" cType="1" res="-9.9000000000000000e+01" rms="0.0000000000000000e+00" purity="5.2476757764816284e-01" nType="1"/>
              <Node pos="r" depth="2" NCoef="0" IVar="5" Cut="7.6479750871658325e-01" cType="0" res="-9.9000000000000000e+01" rms="0.0000000000000000e+00" purity="4.9782919883728027e-01" nType="0">
                <Node pos="l" depth="3" NCoef="0" IVar="3" Cut="1.6100366210937500e+02" cType="1" res="-9.9000000000000000e+01" rms="0.0000000000000000e+00" purity="4.9931085109710693e-01" nType="0">
                  <Node pos="l" depth="4" NCoef="0" IVar="-1" Cut="0.0000000000000000e+00" cType="1" res="-9.9000000000000000e+01" rms="0.0000000000000000e+00" purity="5.0496578216552734e-01" nType="1"/>
                  <Node pos="r" depth="4" NCoef="0" IVar="-1" Cut="0.0000000000000000e+00" cType="1" res="-9.9000000000000000e+01" rms="0.0000000000000000e+00" purity="4.9598613381385803e-01" nType="-1"/>
                </Node>
                <Node pos="r" depth="3" NCoef="0" IVar="-1" Cut="0.0000000000000000e+00" cType="1" res="-9.9000000000000000e+01" rms="0.0000000000000000e+00" purity="4.7494274377822876e-01" nType="-1"/>
              </Node>
            </Node>
            <Node pos="r" depth="1" NCoef="0" IVar="-1" Cut="0.0000000000000000e+00" cType="1" res="-9.9000000000000000e+01" rms="0.0000000000000000e+00" purity="4.7917604446411133e-01" nType="-1"/>
          </Node>
        </BinaryTree>
        <BinaryTree type="DecisionTree" boostWeight="8.1874113206337196e-03" itree="131">
          <Node pos="s" depth="0" NCoef="0" IVar="2" Cut="1.3704458618164062e+02" cType="0" res="-9.9000000000000000e+01" rms="0.0000000000000000e+00" purity="4.9902948737144470e-01" nType="0">
            <Node pos="l" depth="1" NCoef="0" IVar="4" Cut="5.7674378156661987e-01" cType="0" res="-9.9000000000000000e+01" rms="0.0000000000000000e+00" purity="5.0134372711181641e-01" nType="0">
              <Node pos="l" depth="2" NCoef="0" IVar="6" Cut="1.6730439662933350e+00" cType="1" res="-9.9000000000000000e+01" rms="0.0000000000000000e+00" purity="5.0313341617584229e-01" nType="0">
                <Node pos="l" depth="3" NCoef="0" IVar="1" Cut="1.0178089904785156e+02" cType="1" res="-9.9000000000000000e+01" rms="0.0000000000000000e+00" purity="5.1443648338317871e-01" nType="0">
                  <Node pos="l" depth="4" NCoef="0" IVar="-1" Cut="0.0000000000000000e+00" cType="1" res="-9.9000000000000000e+01" rms="0.0000000000000000e+00" purity="5.2826881408691406e-01" nType="1"/>
                  <Node pos="r" depth="4" NCoef="0" IVar="-1" Cut="0.0000000000000000e+00" cType="1" res="-9.9000000000000000e+01" rms="0.0000000000000000e+00" purity="4.9288564920425415e-01" nType="-1"/>
                </Node>
                <Node pos="r" depth="3" NCoef="0" IVar="2" Cut="2.0523538208007812e+02" cType="1" res="-9.9000000000000000e+01" rms="0.0000000000000000e+00" purity="4.9756416678428650e-01" nType="0">
                  <Node pos="l" depth="4" NCoef="0" IVar="-1" Cut="0.0000000000000000e+00" cType="1" res="-9.9000000000000000e+01" rms="0.0000000000000000e+00" purity="5.0123900175094604e-01" nType="1"/>
                  <Node pos="r" depth="4" NCoef="0" IVar="-1" Cut="0.0000000000000000e+00" cType="1" res="-9.9000000000000000e+01" rms="0.0000000000000000e+00" purity="4.7091493010520935e-01" nType="-1"/>
                </Node>
              </Node>
              <Node pos="r" depth="2" NCoef="0" IVar="-1" Cut="0.0000000000000000e+00" cType="1" res="-9.9000000000000000e+01" rms="0.0000000000000000e+00" purity="4.7359266877174377e-01" nType="-1"/>
            </Node>
            <Node pos="r" depth="1" NCoef="0" IVar="5" Cut="9.6680468320846558e-01" cType="0" res="-9.9000000000000000e+01" rms="0.0000000000000000e+00" purity="4.8786759376525879e-01" nType="0">
              <Node pos="l" depth="2" NCoef="0" IVar="4" Cut="1.8070038557052612e+00" cType="0" res="-9.9000000000000000e+01" rms="0.0000000000000000e+00" purity="5.0181543827056885e-01" nType="0">
                <Node pos="l" depth="3" NCoef="0" IVar="-1" Cut="0.0000000000000000e+00" cType="1" res="-9.9000000000000000e+01" rms="0.0000000000000000e+00" purity="5.2313947677612305e-01" nType="1"/>
                <Node pos="r" depth="3" NCoef="0" IVar="-1" Cut="0.0000000000000000e+00" cType="1" res="-9.9000000000000000e+01" rms="0.0000000000000000e+00" purity="4.7918105125427246e-01" nType="-1"/>
              </Node>
              <Node pos="r" depth="2" NCoef="0" IVar="-1" Cut="0.0000000000000000e+00" cType="1" res="-9.9000000000000000e+01" rms="0.0000000000000000e+00" purity="4.6103715896606445e-01" nType="-1"/>
            </Node>
          </Node>
        </BinaryTree>
        <BinaryTree type="DecisionTree" boostWeight="8.2564661561285134e-03" itree="132">
          <Node pos="s" depth="0" NCoef="0" IVar="6" Cut="1.5223716497421265e+00" cType="1" res="-9.9000000000000000e+01" rms="0.0000000000000000e+00" purity="4.9833497405052185e-01" nType="0">
            <Node pos="l" depth="1" NCoef="0" IVar="1" Cut="9.2675254821777344e+01" cType="1" res="-9.9000000000000000e+01" rms="0.0000000000000000e+00" purity="5.0689834356307983e-01" nType="0">
              <Node pos="l" depth="2" NCoef="0" IVar="5" Cut="1.6010105609893799e+00" cType="0" res="-9.9000000000000000e+01" rms="0.0000000000000000e+00" purity="5.2451103925704956e-01" nType="0">
                <Node pos="l" depth="3" NCoef="0" IVar="-1" Cut="0.0000000000000000e+00" cType="1" res="-9.9000000000000000e+01" rms="0.0000000000000000e+00" purity="5.5590438842773438e-01" nType="1"/>
                <Node pos="r" depth="3" NCoef="0" IVar="-1" Cut="0.0000000000000000e+00" cType="1" res="-9.9000000000000000e+01" rms="0.0000000000000000e+00" purity="4.9985271692276001e-01" nType="-1"/>
              </Node>
              <Node pos="r" depth="2" NCoef="0" IVar="5" Cut="1.3581424951553345e+00" cType="1" res="-9.9000000000000000e+01" rms="0.0000000000000000e+00" purity="4.9072620272636414e-01" nType="0">
                <Node pos="l" depth="3" NCoef="0" IVar="-1" Cut="0.0000000000000000e+00" cType="1" res="-9.9000000000000000e+01" rms="0.0000000000000000e+00" purity="5.0770831108093262e-01" nType="1"/>
                <Node pos="r" depth="3" NCoef="0" IVar="-1" Cut="0.0000000000000000e+00" cType="1" res="-9.9000000000000000e+01" rms="0.0000000000000000e+00" purity="4.7134709358215332e-01" nType="-1"/>
              </Node>
            </Node>
            <Node pos="r" depth="1" NCoef="0" IVar="3" Cut="3.2321185302734375e+02" cType="1" res="-9.9000000000000000e+01" rms="0.0000000000000000e+00" purity="4.9524945020675659e-01" nType="0">
              <Node pos="l" depth="2" NCoef="0" IVar="3" Cut="2.0391813659667969e+02" cType="1" res="-9.9000000000000000e+01" rms="0.0000000000000000e+00" purity="4.9792802333831787e-01" nType="0">
                <Node pos="l" depth="3" NCoef="0" IVar="2" Cut="1.5828738403320312e+02" cType="0" res="-9.9000000000000000e+01" rms="0.0000000000000000e+00" purity="5.0064861774444580e-01" nType="0">
                  <Node pos="l" depth="4" NCoef="0" IVar="-1" Cut="0.0000000000000000e+00" cType="1" res="-9.9000000000000000e+01" rms="0.0000000000000000e+00" purity="5.0806093215942383e-01" nType="1"/>
                  <Node pos="r" depth="4" NCoef="0" IVar="-1" Cut="0.0000000000000000e+00" cType="1" res="-9.9000000000000000e+01" rms="0.0000000000000000e+00" purity="4.9506396055221558e-01" nType="-1"/>
                </Node>
                <Node pos="r" depth="3" NCoef="0" IVar="1" Cut="7.7614418029785156e+01" cType="0" res="-9.9000000000000000e+01" rms="0.0000000000000000e+00" purity="4.8877301812171936e-01" nType="0">
                  <Node pos="l" depth="4" NCoef="0" IVar="-1" Cut="0.0000000000000000e+00" cType="1" res="-9.9000000000000000e+01" rms="0.0000000000000000e+00" purity="5.0568455457687378e-01" nType="1"/>
                  <Node pos="r" depth="4" NCoef="0" IVar="-1" Cut="0.0000000000000000e+00" cType="1" res="-9.9000000000000000e+01" rms="0.0000000000000000e+00" purity="4.6085658669471741e-01" nType="-1"/>
                </Node>
              </Node>
              <Node pos="r" depth="2" NCoef="0" IVar="-1" Cut="0.0000000000000000e+00" cType="1" res="-9.9000000000000000e+01" rms="0.0000000000000000e+00" purity="4.6339243650436401e-01" nType="-1"/>
            </Node>
          </Node>
        </BinaryTree>
        <BinaryTree type="DecisionTree" boostWeight="8.0538461647744579e-03" itree="133">
          <Node pos="s" depth="0" NCoef="0" IVar="6" Cut="1.5223716497421265e+00" cType="1" res="-9.9000000000000000e+01" rms="0.0000000000000000e+00" purity="4.9855619668960571e-01" nType="0">
            <Node pos="l" depth="1" NCoef="0" IVar="1" Cut="9.2675254821777344e+01" cType="1" res="-9.9000000000000000e+01" rms="0.0000000000000000e+00" purity="5.0698733329772949e-01" nType="0">
              <Node pos="l" depth="2" NCoef="0" IVar="-1" Cut="1.6010105609893799e+00" cType="0" res="-9.9000000000000000e+01" rms="0.0000000000000000e+00" purity="5.2478682994842529e-01" nType="1"/>
              <Node pos="r" depth="2" NCoef="0" IVar="4" Cut="1.0189745426177979e+00" cType="0" res="-9.9000000000000000e+01" rms="0.0000000000000000e+00" purity="4.9064573645591736e-01" nType="0">
                <Node pos="l" depth="3" NCoef="0" IVar="-1" Cut="0.0000000000000000e+00" cType="1" res="-9.9000000000000000e+01" rms="0.0000000000000000e+00" purity="5.1257610321044922e-01" nType="1"/>
                <Node pos="r" depth="3" NCoef="0" IVar="-1" Cut="0.0000000000000000e+00" cType="1" res="-9.9000000000000000e+01" rms="0.0000000000000000e+00" purity="4.7690382599830627e-01" nType="-1"/>
              </Node>
            </Node>
            <Node pos="r" depth="1" NCoef="0" IVar="3" Cut="3.2321185302734375e+02" cType="1" res="-9.9000000000000000e+01" rms="0.0000000000000000e+00" purity="4.9551838636398315e-01" nType="0">
              <Node pos="l" depth="2" NCoef="0" IVar="3" Cut="2.0391813659667969e+02" cType="1" res="-9.9000000000000000e+01" rms="0.0000000000000000e+00" purity="4.9804353713989258e-01" nType="0">
                <Node pos="l" depth="3" NCoef="0" IVar="1" Cut="8.5968521118164062e+01" cType="1" res="-9.9000000000000000e+01" rms="0.0000000000000000e+00" purity="5.0094431638717651e-01" nType="0">
                  <Node pos="l" depth="4" NCoef="0" IVar="-1" Cut="0.0000000000000000e+00" cType="1" res="-9.9000000000000000e+01" rms="0.0000000000000000e+00" purity="5.0694292783737183e-01" nType="1"/>
                  <Node pos="r" depth="4" NCoef="0" IVar="-1" Cut="0.0000000000000000e+00" cType="1" res="-9.9000000000000000e+01" rms="0.0000000000000000e+00" purity="4.9486845731735229e-01" nType="-1"/>
                </Node>
                <Node pos="r" depth="3" NCoef="0" IVar="1" Cut="7.7614418029785156e+01" cType="0" res="-9.9000000000000000e+01" rms="0.0000000000000000e+00" purity="4.8828127980232239e-01" nType="0">
                  <Node pos="l" depth="4" NCoef="0" IVar="-1" Cut="0.0000000000000000e+00" cType="1" res="-9.9000000000000000e+01" rms="0.0000000000000000e+00" purity="5.0361877679824829e-01" nType="1"/>
                  <Node pos="r" depth="4" NCoef="0" IVar="-1" Cut="0.0000000000000000e+00" cType="1" res="-9.9000000000000000e+01" rms="0.0000000000000000e+00" purity="4.6295848488807678e-01" nType="-1"/>
                </Node>
              </Node>
              <Node pos="r" depth="2" NCoef="0" IVar="-1" Cut="0.0000000000000000e+00" cType="1" res="-9.9000000000000000e+01" rms="0.0000000000000000e+00" purity="4.6548095345497131e-01" nType="-1"/>
            </Node>
          </Node>
        </BinaryTree>
        <BinaryTree type="DecisionTree" boostWeight="1.0093008888290811e-02" itree="134">
          <Node pos="s" depth="0" NCoef="0" IVar="6" Cut="1.9359761476516724e+00" cType="1" res="-9.9000000000000000e+01" rms="0.0000000000000000e+00" purity="4.9840813875198364e-01" nType="0">
            <Node pos="l" depth="1" NCoef="0" IVar="1" Cut="1.2977641296386719e+02" cType="1" res="-9.9000000000000000e+01" rms="0.0000000000000000e+00" purity="5.0417774915695190e-01" nType="0">
              <Node pos="l" depth="2" NCoef="0" IVar="5" Cut="1.9604692459106445e+00" cType="0" res="-9.9000000000000000e+01" rms="0.0000000000000000e+00" purity="5.0934725999832153e-01" nType="0">
                <Node pos="l" depth="3" NCoef="0" IVar="-1" Cut="0.0000000000000000e+00" cType="1" res="-9.9000000000000000e+01" rms="0.0000000000000000e+00" purity="5.4153680801391602e-01" nType="1"/>
                <Node pos="r" depth="3" NCoef="0" IVar="4" Cut="1.3237234354019165e+00" cType="0" res="-9.9000000000000000e+01" rms="0.0000000000000000e+00" purity="5.0330400466918945e-01" nType="0">
                  <Node pos="l" depth="4" NCoef="0" IVar="-1" Cut="0.0000000000000000e+00" cType="1" res="-9.9000000000000000e+01" rms="0.0000000000000000e+00" purity="5.1945173740386963e-01" nType="1"/>
                  <Node pos="r" depth="4" NCoef="0" IVar="-1" Cut="0.0000000000000000e+00" cType="1" res="-9.9000000000000000e+01" rms="0.0000000000000000e+00" purity="4.9717199802398682e-01" nType="-1"/>
                </Node>
              </Node>
              <Node pos="r" depth="2" NCoef="0" IVar="-1" Cut="0.0000000000000000e+00" cType="1" res="-9.9000000000000000e+01" rms="0.0000000000000000e+00" purity="4.7441634535789490e-01" nType="-1"/>
            </Node>
            <Node pos="r" depth="1" NCoef="0" IVar="3" Cut="2.1345875549316406e+02" cType="1" res="-9.9000000000000000e+01" rms="0.0000000000000000e+00" purity="4.9441584944725037e-01" nType="0">
              <Node pos="l" depth="2" NCoef="0" IVar="3" Cut="1.3980415344238281e+02" cType="1" res="-9.9000000000000000e+01" rms="0.0000000000000000e+00" purity="4.9896705150604248e-01" nType="0">
                <Node pos="l" depth="3" NCoef="0" IVar="0" Cut="5.2323020935058594e+01" cType="0" res="-9.9000000000000000e+01" rms="0.0000000000000000e+00" purity="5.0916314125061035e-01" nType="0">
                  <Node pos="l" depth="4" NCoef="0" IVar="-1" Cut="0.0000000000000000e+00" cType="1" res="-9.9000000000000000e+01" rms="0.0000000000000000e+00" purity="5.3826689720153809e-01" nType="1"/>
                  <Node pos="r" depth="4" NCoef="0" IVar="-1" Cut="0.0000000000000000e+00" cType="1" res="-9.9000000000000000e+01" rms="0.0000000000000000e+00" purity="4.8464038968086243e-01" nType="-1"/>
                </Node>
                <Node pos="r" depth="3" NCoef="0" IVar="0" Cut="4.0269630432128906e+01" cType="1" res="-9.9000000000000000e+01" rms="0.0000000000000000e+00" purity="4.9496719241142273e-01" nType="0">
                  <Node pos="l" depth="4" NCoef="0" IVar="-1" Cut="0.0000000000000000e+00" cType="1" res="-9.9000000000000000e+01" rms="0.0000000000000000e+00" purity="5.1601731777191162e-01" nType="1"/>
                  <Node pos="r" depth="4" NCoef="0" IVar="-1" Cut="0.0000000000000000e+00" cType="1" res="-9.9000000000000000e+01" rms="0.0000000000000000e+00" purity="4.8752242326736450e-01" nType="-1"/>
                </Node>
              </Node>
              <Node pos="r" depth="2" NCoef="0" IVar="-1" Cut="1.7985491943359375e+02" cType="1" res="-9.9000000000000000e+01" rms="0.0000000000000000e+00" purity="4.7618645429611206e-01" nType="-1"/>
            </Node>
          </Node>
        </BinaryTree>
        <BinaryTree type="DecisionTree" boostWeight="3.7692875480428373e-03" itree="135">
          <Node pos="s" depth="0" NCoef="0" IVar="0" Cut="2.3316755294799805e+01" cType="0" res="-9.9000000000000000e+01" rms="0.0000000000000000e+00" purity="4.9951663613319397e-01" nType="0">
            <Node pos="l" depth="1" NCoef="0" IVar="3" Cut="4.6417498779296875e+02" cType="1" res="-9.9000000000000000e+01" rms="0.0000000000000000e+00" purity="5.0079125165939331e-01" nType="0">
              <Node pos="l" depth="2" NCoef="0" IVar="5" Cut="1.7600333690643311e+00" cType="0" res="-9.9000000000000000e+01" rms="0.0000000000000000e+00" purity="5.0205439329147339e-01" nType="0">
                <Node pos="l" depth="3" NCoef="0" IVar="-1" Cut="0.0000000000000000e+00" cType="1" res="-9.9000000000000000e+01" rms="0.0000000000000000e+00" purity="5.2079474925994873e-01" nType="1"/>
                <Node pos="r" depth="3" NCoef="0" IVar="2" Cut="2.2964662170410156e+02" cType="1" res="-9.9000000000000000e+01" rms="0.0000000000000000e+00" purity="5.0019907951354980e-01" nType="0">
                  <Node pos="l" depth="4" NCoef="0" IVar="-1" Cut="0.0000000000000000e+00" cType="1" res="-9.9000000000000000e+01" rms="0.0000000000000000e+00" purity="5.0166839361190796e-01" nType="1"/>
                  <Node pos="r" depth="4" NCoef="0" IVar="-1" Cut="0.0000000000000000e+00" cType="1" res="-9.9000000000000000e+01" rms="0.0000000000000000e+00" purity="4.7939208149909973e-01" nType="-1"/>
                </Node>
              </Node>
              <Node pos="r" depth="2" NCoef="0" IVar="-1" Cut="0.0000000000000000e+00" cType="1" res="-9.9000000000000000e+01" rms="0.0000000000000000e+00" purity="4.8048919439315796e-01" nType="-1"/>
            </Node>
            <Node pos="r" depth="1" NCoef="0" IVar="-1" Cut="0.0000000000000000e+00" cType="1" res="-9.9000000000000000e+01" rms="0.0000000000000000e+00" purity="4.8096153140068054e-01" nType="-1"/>
          </Node>
        </BinaryTree>
        <BinaryTree type="DecisionTree" boostWeight="8.0277525432475554e-03" itree="136">
          <Node pos="s" depth="0" NCoef="0" IVar="6" Cut="1.5223716497421265e+00" cType="1" res="-9.9000000000000000e+01" rms="0.0000000000000000e+00" purity="4.9890261888504028e-01" nType="0">
            <Node pos="l" depth="1" NCoef="0" IVar="1" Cut="1.0178089904785156e+02" cType="1" res="-9.9000000000000000e+01" rms="0.0000000000000000e+00" purity="5.0716352462768555e-01" nType="0">
              <Node pos="l" depth="2" NCoef="0" IVar="5" Cut="1.5807838439941406e+00" cType="0" res="-9.9000000000000000e+01" rms="0.0000000000000000e+00" purity="5.2033352851867676e-01" nType="0">
                <Node pos="l" depth="3" NCoef="0" IVar="-1" Cut="0.0000000000000000e+00" cType="1" res="-9.9000000000000000e+01" rms="0.0000000000000000e+00" purity="5.4831212759017944e-01" nType="1"/>
                <Node pos="r" depth="3" NCoef="0" IVar="-1" Cut="0.0000000000000000e+00" cType="1" res="-9.9000000000000000e+01" rms="0.0000000000000000e+00" purity="4.9906975030899048e-01" nType="-1"/>
              </Node>
              <Node pos="r" depth="2" NCoef="0" IVar="5" Cut="1.3581424951553345e+00" cType="1" res="-9.9000000000000000e+01" rms="0.0000000000000000e+00" purity="4.8843449354171753e-01" nType="0">
                <Node pos="l" depth="3" NCoef="0" IVar="-1" Cut="0.0000000000000000e+00" cType="1" res="-9.9000000000000000e+01" rms="0.0000000000000000e+00" purity="5.0761288404464722e-01" nType="1"/>
                <Node pos="r" depth="3" NCoef="0" IVar="-1" Cut="0.0000000000000000e+00" cType="1" res="-9.9000000000000000e+01" rms="0.0000000000000000e+00" purity="4.6643969416618347e-01" nType="-1"/>
              </Node>
            </Node>
            <Node pos="r" depth="1" NCoef="0" IVar="3" Cut="2.6223791503906250e+02" cType="1" res="-9.9000000000000000e+01" rms="0.0000000000000000e+00" purity="4.9592614173889160e-01" nType="0">
              <Node pos="l" depth="2" NCoef="0" IVar="0" Cut="9.2716720581054688e+01" cType="0" res="-9.9000000000000000e+01" rms="0.0000000000000000e+00" purity="4.9918329715728760e-01" nType="0">
                <Node pos="l" depth="3" NCoef="0" IVar="1" Cut="8.0481620788574219e+01" cType="0" res="-9.9000000000000000e+01" rms="0.0000000000000000e+00" purity="5.0737476348876953e-01" nType="0">
                  <Node pos="l" depth="4" NCoef="0" IVar="-1" Cut="0.0000000000000000e+00" cType="1" res="-9.9000000000000000e+01" rms="0.0000000000000000e+00" purity="5.2601188421249390e-01" nType="1"/>
                  <Node pos="r" depth="4" NCoef="0" IVar="-1" Cut="0.0000000000000000e+00" cType="1" res="-9.9000000000000000e+01" rms="0.0000000000000000e+00" purity="4.8678788542747498e-01" nType="-1"/>
                </Node>
                <Node pos="r" depth="3" NCoef="0" IVar="-1" Cut="3.3017656803131104e+00" cType="1" res="-9.9000000000000000e+01" rms="0.0000000000000000e+00" purity="4.9592232704162598e-01" nType="-1"/>
              </Node>
              <Node pos="r" depth="2" NCoef="0" IVar="-1" Cut="0.0000000000000000e+00" cType="1" res="-9.9000000000000000e+01" rms="0.0000000000000000e+00" purity="4.7633135318756104e-01" nType="-1"/>
            </Node>
          </Node>
        </BinaryTree>
        <BinaryTree type="DecisionTree" boostWeight="5.2044189264427729e-03" itree="137">
          <Node pos="s" depth="0" NCoef="0" IVar="3" Cut="4.4253338623046875e+02" cType="1" res="-9.9000000000000000e+01" rms="0.0000000000000000e+00" purity="5.0004798173904419e-01" nType="0">
            <Node pos="l" depth="1" NCoef="0" IVar="0" Cut="1.8764381408691406e+02" cType="0" res="-9.9000000000000000e+01" rms="0.0000000000000000e+00" purity="5.0121223926544189e-01" nType="0">
              <Node pos="l" depth="2" NCoef="0" IVar="-1" Cut="0.0000000000000000e+00" cType="1" res="-9.9000000000000000e+01" rms="0.0000000000000000e+00" purity="5.2120065689086914e-01" nType="1"/>
              <Node pos="r" depth="2" NCoef="0" IVar="5" Cut="9.6878373622894287e-01" cType="0" res="-9.9000000000000000e+01" rms="0.0000000000000000e+00" purity="4.9911457300186157e-01" nType="0">
                <Node pos="l" depth="3" NCoef="0" IVar="3" Cut="2.1745046997070312e+02" cType="0" res="-9.9000000000000000e+01" rms="0.0000000000000000e+00" purity="5.0208491086959839e-01" nType="0">
                  <Node pos="l" depth="4" NCoef="0" IVar="-1" Cut="0.0000000000000000e+00" cType="1" res="-9.9000000000000000e+01" rms="0.0000000000000000e+00" purity="5.1368576288223267e-01" nType="1"/>
                  <Node pos="r" depth="4" NCoef="0" IVar="-1" Cut="0.0000000000000000e+00" cType="1" res="-9.9000000000000000e+01" rms="0.0000000000000000e+00" purity="4.9760553240776062e-01" nType="-1"/>
                </Node>
                <Node pos="r" depth="3" NCoef="0" IVar="3" Cut="1.9226806640625000e+02" cType="1" res="-9.9000000000000000e+01" rms="0.0000000000000000e+00" purity="4.9114486575126648e-01" nType="0">
                  <Node pos="l" depth="4" NCoef="0" IVar="-1" Cut="0.0000000000000000e+00" cType="1" res="-9.9000000000000000e+01" rms="0.0000000000000000e+00" purity="5.0072753429412842e-01" nType="1"/>
                  <Node pos="r" depth="4" NCoef="0" IVar="-1" Cut="0.0000000000000000e+00" cType="1" res="-9.9000000000000000e+01" rms="0.0000000000000000e+00" purity="4.5832362771034241e-01" nType="-1"/>
                </Node>
              </Node>
            </Node>
            <Node pos="r" depth="1" NCoef="0" IVar="-1" Cut="0.0000000000000000e+00" cType="1" res="-9.9000000000000000e+01" rms="0.0000000000000000e+00" purity="4.8339533805847168e-01" nType="-1"/>
          </Node>
        </BinaryTree>
        <BinaryTree type="DecisionTree" boostWeight="7.9643600977710467e-03" itree="138">
          <Node pos="s" depth="0" NCoef="0" IVar="5" Cut="9.1408920288085938e-01" cType="0" res="-9.9000000000000000e+01" rms="0.0000000000000000e+00" purity="5.0022006034851074e-01" nType="0">
            <Node pos="l" depth="1" NCoef="0" IVar="3" Cut="1.3280763244628906e+02" cType="1" res="-9.9000000000000000e+01" rms="0.0000000000000000e+00" purity="5.0224304199218750e-01" nType="0">
              <Node pos="l" depth="2" NCoef="0" IVar="-1" Cut="0.0000000000000000e+00" cType="1" res="-9.9000000000000000e+01" rms="0.0000000000000000e+00" purity="5.2155709266662598e-01" nType="1"/>
              <Node pos="r" depth="2" NCoef="0" IVar="4" Cut="1.6465215682983398e+00" cType="1" res="-9.9000000000000000e+01" rms="0.0000000000000000e+00" purity="5.0014978647232056e-01" nType="0">
                <Node pos="l" depth="3" NCoef="0" IVar="2" Cut="1.4966430664062500e+02" cType="0" res="-9.9000000000000000e+01" rms="0.0000000000000000e+00" purity="5.0616949796676636e-01" nType="0">
                  <Node pos="l" depth="4" NCoef="0" IVar="-1" Cut="0.0000000000000000e+00" cType="1" res="-9.9000000000000000e+01" rms="0.0000000000000000e+00" purity="5.0992971658706665e-01" nType="1"/>
                  <Node pos="r" depth="4" NCoef="0" IVar="-1" Cut="0.0000000000000000e+00" cType="1" res="-9.9000000000000000e+01" rms="0.0000000000000000e+00" purity="4.8166009783744812e-01" nType="-1"/>
                </Node>
                <Node pos="r" depth="3" NCoef="0" IVar="-1" Cut="1.8351976013183594e+02" cType="1" res="-9.9000000000000000e+01" rms="0.0000000000000000e+00" purity="4.8907825350761414e-01" nType="-1"/>
              </Node>
            </Node>
            <Node pos="r" depth="1" NCoef="0" IVar="2" Cut="1.4368405151367188e+02" cType="0" res="-9.9000000000000000e+01" rms="0.0000000000000000e+00" purity="4.9007147550582886e-01" nType="0">
              <Node pos="l" depth="2" NCoef="0" IVar="-1" Cut="0.0000000000000000e+00" cType="1" res="-9.9000000000000000e+01" rms="0.0000000000000000e+00" purity="5.0727033615112305e-01" nType="1"/>
              <Node pos="r" depth="2" NCoef="0" IVar="-1" Cut="0.0000000000000000e+00" cType="1" res="-9.9000000000000000e+01" rms="0.0000000000000000e+00" purity="4.5727443695068359e-01" nType="-1"/>
            </Node>
          </Node>
        </BinaryTree>
        <BinaryTree type="DecisionTree" boostWeight="7.0545064529599633e-03" itree="139">
          <Node pos="s" depth="0" NCoef="0" IVar="5" Cut="9.1408920288085938e-01" cType="0" res="-9.9000000000000000e+01" rms="0.0000000000000000e+00" purity="4.9977546930313110e-01" nType="0">
            <Node pos="l" depth="1" NCoef="0" IVar="3" Cut="4.4253338623046875e+02" cType="1" res="-9.9000000000000000e+01" rms="0.0000000000000000e+00" purity="5.0183421373367310e-01" nType="0">
              <Node pos="l" depth="2" NCoef="0" IVar="3" Cut="1.4015582275390625e+02" cType="1" res="-9.9000000000000000e+01" rms="0.0000000000000000e+00" purity="5.0357198715209961e-01" nType="0">
                <Node pos="l" depth="3" NCoef="0" IVar="4" Cut="1.8403447866439819e+00" cType="0" res="-9.9000000000000000e+01" rms="0.0000000000000000e+00" purity="5.1822131872177124e-01" nType="0">
                  <Node pos="l" depth="4" NCoef="0" IVar="-1" Cut="0.0000000000000000e+00" cType="1" res="-9.9000000000000000e+01" rms="0.0000000000000000e+00" purity="5.3656446933746338e-01" nType="1"/>
                  <Node pos="r" depth="4" NCoef="0" IVar="-1" Cut="0.0000000000000000e+00" cType="1" res="-9.9000000000000000e+01" rms="0.0000000000000000e+00" purity="4.9930435419082642e-01" nType="-1"/>
                </Node>
                <Node pos="r" depth="3" NCoef="0" IVar="4" Cut="1.6511764526367188e+00" cType="1" res="-9.9000000000000000e+01" rms="0.0000000000000000e+00" purity="5.0091296434402466e-01" nType="0">
                  <Node pos="l" depth="4" NCoef="0" IVar="-1" Cut="0.0000000000000000e+00" cType="1" res="-9.9000000000000000e+01" rms="0.0000000000000000e+00" purity="5.0711131095886230e-01" nType="1"/>
                  <Node pos="r" depth="4" NCoef="0" IVar="-1" Cut="0.0000000000000000e+00" cType="1" res="-9.9000000000000000e+01" rms="0.0000000000000000e+00" purity="4.8980885744094849e-01" nType="-1"/>
                </Node>
              </Node>
              <Node pos="r" depth="2" NCoef="0" IVar="-1" Cut="0.0000000000000000e+00" cType="1" res="-9.9000000000000000e+01" rms="0.0000000000000000e+00" purity="4.7974872589111328e-01" nType="-1"/>
            </Node>
            <Node pos="r" depth="1" NCoef="0" IVar="2" Cut="1.4368405151367188e+02" cType="0" res="-9.9000000000000000e+01" rms="0.0000000000000000e+00" purity="4.8944664001464844e-01" nType="0">
              <Node pos="l" depth="2" NCoef="0" IVar="-1" Cut="0.0000000000000000e+00" cType="1" res="-9.9000000000000000e+01" rms="0.0000000000000000e+00" purity="5.0527483224868774e-01" nType="1"/>
              <Node pos="r" depth="2" NCoef="0" IVar="-1" Cut="0.0000000000000000e+00" cType="1" res="-9.9000000000000000e+01" rms="0.0000000000000000e+00" purity="4.5925459265708923e-01" nType="-1"/>
            </Node>
          </Node>
        </BinaryTree>
        <BinaryTree type="DecisionTree" boostWeight="5.4334462868867112e-03" itree="140">
          <Node pos="s" depth="0" NCoef="0" IVar="5" Cut="9.1408920288085938e-01" cType="0" res="-9.9000000000000000e+01" rms="0.0000000000000000e+00" purity="4.9947300553321838e-01" nType="0">
            <Node pos="l" depth="1" NCoef="0" IVar="3" Cut="1.3280763244628906e+02" cType="1" res="-9.9000000000000000e+01" rms="0.0000000000000000e+00" purity="5.0158166885375977e-01" nType="0">
              <Node pos="l" depth="2" NCoef="0" IVar="-1" Cut="0.0000000000000000e+00" cType="1" res="-9.9000000000000000e+01" rms="0.0000000000000000e+00" purity="5.1946043968200684e-01" nType="1"/>
              <Node pos="r" depth="2" NCoef="0" IVar="1" Cut="7.4263679504394531e+01" cType="0" res="-9.9000000000000000e+01" rms="0.0000000000000000e+00" purity="4.9964436888694763e-01" nType="0">
                <Node pos="l" depth="3" NCoef="0" IVar="2" Cut="2.1970541381835938e+02" cType="0" res="-9.9000000000000000e+01" rms="0.0000000000000000e+00" purity="5.0374269485473633e-01" nType="0">
                  <Node pos="l" depth="4" NCoef="0" IVar="-1" Cut="0.0000000000000000e+00" cType="1" res="-9.9000000000000000e+01" rms="0.0000000000000000e+00" purity="5.2085661888122559e-01" nType="1"/>
                  <Node pos="r" depth="4" NCoef="0" IVar="-1" Cut="0.0000000000000000e+00" cType="1" res="-9.9000000000000000e+01" rms="0.0000000000000000e+00" purity="4.9920162558555603e-01" nType="-1"/>
                </Node>
                <Node pos="r" depth="3" NCoef="0" IVar="-1" Cut="1.5412007141113281e+02" cType="1" res="-9.9000000000000000e+01" rms="0.0000000000000000e+00" purity="4.9019291996955872e-01" nType="-1"/>
              </Node>
            </Node>
            <Node pos="r" depth="1" NCoef="0" IVar="2" Cut="1.4368405151367188e+02" cType="0" res="-9.9000000000000000e+01" rms="0.0000000000000000e+00" purity="4.8889303207397461e-01" nType="0">
              <Node pos="l" depth="2" NCoef="0" IVar="-1" Cut="0.0000000000000000e+00" cType="1" res="-9.9000000000000000e+01" rms="0.0000000000000000e+00" purity="5.0350731611251831e-01" nType="1"/>
              <Node pos="r" depth="2" NCoef="0" IVar="-1" Cut="0.0000000000000000e+00" cType="1" res="-9.9000000000000000e+01" rms="0.0000000000000000e+00" purity="4.6100953221321106e-01" nType="-1"/>
            </Node>
          </Node>
        </BinaryTree>
        <BinaryTree type="DecisionTree" boostWeight="5.0408542705824635e-03" itree="141">
          <Node pos="s" depth="0" NCoef="0" IVar="5" Cut="9.1408920288085938e-01" cType="0" res="-9.9000000000000000e+01" rms="0.0000000000000000e+00" purity="5.0003230571746826e-01" nType="0">
            <Node pos="l" depth="1" NCoef="0" IVar="3" Cut="4.4253338623046875e+02" cType="1" res="-9.9000000000000000e+01" rms="0.0000000000000000e+00" purity="5.0233715772628784e-01" nType="0">
              <Node pos="l" depth="2" NCoef="0" IVar="6" Cut="8.4392732381820679e-01" cType="0" res="-9.9000000000000000e+01" rms="0.0000000000000000e+00" purity="5.0396317243576050e-01" nType="0">
                <Node pos="l" depth="3" NCoef="0" IVar="-1" Cut="1.7277027368545532e+00" cType="0" res="-9.9000000000000000e+01" rms="0.0000000000000000e+00" purity="5.0551056861877441e-01" nType="1"/>
                <Node pos="r" depth="3" NCoef="0" IVar="-1" Cut="0.0000000000000000e+00" cType="1" res="-9.9000000000000000e+01" rms="0.0000000000000000e+00" purity="4.8173621296882629e-01" nType="-1"/>
              </Node>
              <Node pos="r" depth="2" NCoef="0" IVar="-1" Cut="0.0000000000000000e+00" cType="1" res="-9.9000000000000000e+01" rms="0.0000000000000000e+00" purity="4.8167106509208679e-01" nType="-1"/>
            </Node>
            <Node pos="r" depth="1" NCoef="0" IVar="2" Cut="1.4368405151367188e+02" cType="0" res="-9.9000000000000000e+01" rms="0.0000000000000000e+00" purity="4.8846665024757385e-01" nType="0">
              <Node pos="l" depth="2" NCoef="0" IVar="-1" Cut="0.0000000000000000e+00" cType="1" res="-9.9000000000000000e+01" rms="0.0000000000000000e+00" purity="5.0214582681655884e-01" nType="1"/>
              <Node pos="r" depth="2" NCoef="0" IVar="-1" Cut="0.0000000000000000e+00" cType="1" res="-9.9000000000000000e+01" rms="0.0000000000000000e+00" purity="4.6236190199851990e-01" nType="-1"/>
            </Node>
          </Node>
        </BinaryTree>
        <BinaryTree type="DecisionTree" boostWeight="4.9491072923821258e-03" itree="142">
          <Node pos="s" depth="0" NCoef="0" IVar="5" Cut="9.1408920288085938e-01" cType="0" res="-9.9000000000000000e+01" rms="0.0000000000000000e+00" purity="4.9920424818992615e-01" nType="0">
            <Node pos="l" depth="1" NCoef="0" IVar="3" Cut="4.4253338623046875e+02" cType="1" res="-9.9000000000000000e+01" rms="0.0000000000000000e+00" purity="5.0142288208007812e-01" nType="0">
              <Node pos="l" depth="2" NCoef="0" IVar="3" Cut="1.4015582275390625e+02" cType="1" res="-9.9000000000000000e+01" rms="0.0000000000000000e+00" purity="5.0287067890167236e-01" nType="0">
                <Node pos="l" depth="3" NCoef="0" IVar="4" Cut="1.8403447866439819e+00" cType="0" res="-9.9000000000000000e+01" rms="0.0000000000000000e+00" purity="5.1648265123367310e-01" nType="0">
                  <Node pos="l" depth="4" NCoef="0" IVar="-1" Cut="0.0000000000000000e+00" cType="1" res="-9.9000000000000000e+01" rms="0.0000000000000000e+00" purity="5.3296667337417603e-01" nType="1"/>
                  <Node pos="r" depth="4" NCoef="0" IVar="-1" Cut="0.0000000000000000e+00" cType="1" res="-9.9000000000000000e+01" rms="0.0000000000000000e+00" purity="4.9949219822883606e-01" nType="-1"/>
                </Node>
                <Node pos="r" depth="3" NCoef="0" IVar="2" Cut="1.4427552795410156e+02" cType="0" res="-9.9000000000000000e+01" rms="0.0000000000000000e+00" purity="5.0040042400360107e-01" nType="0">
                  <Node pos="l" depth="4" NCoef="0" IVar="-1" Cut="0.0000000000000000e+00" cType="1" res="-9.9000000000000000e+01" rms="0.0000000000000000e+00" purity="5.0276952981948853e-01" nType="1"/>
                  <Node pos="r" depth="4" NCoef="0" IVar="-1" Cut="0.0000000000000000e+00" cType="1" res="-9.9000000000000000e+01" rms="0.0000000000000000e+00" purity="4.7737804055213928e-01" nType="-1"/>
                </Node>
              </Node>
              <Node pos="r" depth="2" NCoef="0" IVar="-1" Cut="0.0000000000000000e+00" cType="1" res="-9.9000000000000000e+01" rms="0.0000000000000000e+00" purity="4.8302304744720459e-01" nType="-1"/>
            </Node>
            <Node pos="r" depth="1" NCoef="0" IVar="2" Cut="1.4368405151367188e+02" cType="0" res="-9.9000000000000000e+01" rms="0.0000000000000000e+00" purity="4.8807090520858765e-01" nType="0">
              <Node pos="l" depth="2" NCoef="0" IVar="-1" Cut="0.0000000000000000e+00" cType="1" res="-9.9000000000000000e+01" rms="0.0000000000000000e+00" purity="5.0088280439376831e-01" nType="1"/>
              <Node pos="r" depth="2" NCoef="0" IVar="-1" Cut="0.0000000000000000e+00" cType="1" res="-9.9000000000000000e+01" rms="0.0000000000000000e+00" purity="4.6361705660820007e-01" nType="-1"/>
            </Node>
          </Node>
        </BinaryTree>
        <BinaryTree type="DecisionTree" boostWeight="6.1592463170611796e-03" itree="143">
          <Node pos="s" depth="0" NCoef="0" IVar="5" Cut="9.1408920288085938e-01" cType="0" res="-9.9000000000000000e+01" rms="0.0000000000000000e+00" purity="4.9855980277061462e-01" nType="0">
            <Node pos="l" depth="1" NCoef="0" IVar="3" Cut="1.3280763244628906e+02" cType="1" res="-9.9000000000000000e+01" rms="0.0000000000000000e+00" purity="5.0072735548019409e-01" nType="0">
              <Node pos="l" depth="2" NCoef="0" IVar="-1" Cut="0.0000000000000000e+00" cType="1" res="-9.9000000000000000e+01" rms="0.0000000000000000e+00" purity="5.1681542396545410e-01" nType="1"/>
              <Node pos="r" depth="2" NCoef="0" IVar="6" Cut="1.5320438146591187e+00" cType="1" res="-9.9000000000000000e+01" rms="0.0000000000000000e+00" purity="4.9898451566696167e-01" nType="0">
                <Node pos="l" depth="3" NCoef="0" IVar="1" Cut="9.2675254821777344e+01" cType="1" res="-9.9000000000000000e+01" rms="0.0000000000000000e+00" purity="5.0786298513412476e-01" nType="0">
                  <Node pos="l" depth="4" NCoef="0" IVar="-1" Cut="0.0000000000000000e+00" cType="1" res="-9.9000000000000000e+01" rms="0.0000000000000000e+00" purity="5.2270275354385376e-01" nType="1"/>
                  <Node pos="r" depth="4" NCoef="0" IVar="-1" Cut="0.0000000000000000e+00" cType="1" res="-9.9000000000000000e+01" rms="0.0000000000000000e+00" purity="4.9348104000091553e-01" nType="-1"/>
                </Node>
                <Node pos="r" depth="3" NCoef="0" IVar="-1" Cut="2.1040231323242188e+02" cType="1" res="-9.9000000000000000e+01" rms="0.0000000000000000e+00" purity="4.9475035071372986e-01" nType="-1"/>
              </Node>
            </Node>
            <Node pos="r" depth="1" NCoef="0" IVar="1" Cut="9.1967178344726562e+01" cType="1" res="-9.9000000000000000e+01" rms="0.0000000000000000e+00" purity="4.8768240213394165e-01" nType="0">
              <Node pos="l" depth="2" NCoef="0" IVar="-1" Cut="0.0000000000000000e+00" cType="1" res="-9.9000000000000000e+01" rms="0.0000000000000000e+00" purity="5.0365275144577026e-01" nType="1"/>
              <Node pos="r" depth="2" NCoef="0" IVar="-1" Cut="0.0000000000000000e+00" cType="1" res="-9.9000000000000000e+01" rms="0.0000000000000000e+00" purity="4.6903219819068909e-01" nType="-1"/>
            </Node>
          </Node>
        </BinaryTree>
        <BinaryTree type="DecisionTree" boostWeight="5.5740460370479394e-03" itree="144">
          <Node pos="s" depth="0" NCoef="0" IVar="5" Cut="9.1408920288085938e-01" cType="0" res="-9.9000000000000000e+01" rms="0.0000000000000000e+00" purity="4.9922123551368713e-01" nType="0">
            <Node pos="l" depth="1" NCoef="0" IVar="3" Cut="4.4253338623046875e+02" cType="1" res="-9.9000000000000000e+01" rms="0.0000000000000000e+00" purity="5.0154507160186768e-01" nType="0">
              <Node pos="l" depth="2" NCoef="0" IVar="3" Cut="1.4015582275390625e+02" cType="1" res="-9.9000000000000000e+01" rms="0.0000000000000000e+00" purity="5.0287860631942749e-01" nType="0">
                <Node pos="l" depth="3" NCoef="0" IVar="1" Cut="8.5436058044433594e+01" cType="1" res="-9.9000000000000000e+01" rms="0.0000000000000000e+00" purity="5.1583886146545410e-01" nType="0">
                  <Node pos="l" depth="4" NCoef="0" IVar="-1" Cut="0.0000000000000000e+00" cType="1" res="-9.9000000000000000e+01" rms="0.0000000000000000e+00" purity="5.3003227710723877e-01" nType="1"/>
                  <Node pos="r" depth="4" NCoef="0" IVar="-1" Cut="0.0000000000000000e+00" cType="1" res="-9.9000000000000000e+01" rms="0.0000000000000000e+00" purity="4.9877342581748962e-01" nType="-1"/>
                </Node>
                <Node pos="r" depth="3" NCoef="0" IVar="3" Cut="2.2097268676757812e+02" cType="0" res="-9.9000000000000000e+01" rms="0.0000000000000000e+00" purity="5.0052678585052490e-01" nType="0">
                  <Node pos="l" depth="4" NCoef="0" IVar="-1" Cut="0.0000000000000000e+00" cType="1" res="-9.9000000000000000e+01" rms="0.0000000000000000e+00" purity="5.0922095775604248e-01" nType="1"/>
                  <Node pos="r" depth="4" NCoef="0" IVar="-1" Cut="0.0000000000000000e+00" cType="1" res="-9.9000000000000000e+01" rms="0.0000000000000000e+00" purity="4.9513861536979675e-01" nType="-1"/>
                </Node>
              </Node>
              <Node pos="r" depth="2" NCoef="0" IVar="-1" Cut="0.0000000000000000e+00" cType="1" res="-9.9000000000000000e+01" rms="0.0000000000000000e+00" purity="4.8459848761558533e-01" nType="-1"/>
            </Node>
            <Node pos="r" depth="1" NCoef="0" IVar="-1" Cut="1.4368405151367188e+02" cType="0" res="-9.9000000000000000e+01" rms="0.0000000000000000e+00" purity="4.8755854368209839e-01" nType="-1"/>
          </Node>
        </BinaryTree>
        <BinaryTree type="DecisionTree" boostWeight="4.2778153410890979e-03" itree="145">
          <Node pos="s" depth="0" NCoef="0" IVar="5" Cut="9.1408920288085938e-01" cType="0" res="-9.9000000000000000e+01" rms="0.0000000000000000e+00" purity="4.9975124001502991e-01" nType="0">
            <Node pos="l" depth="1" NCoef="0" IVar="3" Cut="4.4253338623046875e+02" cType="1" res="-9.9000000000000000e+01" rms="0.0000000000000000e+00" purity="5.0190240144729614e-01" nType="0">
              <Node pos="l" depth="2" NCoef="0" IVar="6" Cut="8.4392732381820679e-01" cType="0" res="-9.9000000000000000e+01" rms="0.0000000000000000e+00" purity="5.0314676761627197e-01" nType="0">
                <Node pos="l" depth="3" NCoef="0" IVar="-1" Cut="1.7277027368545532e+00" cType="0" res="-9.9000000000000000e+01" rms="0.0000000000000000e+00" purity="5.0460261106491089e-01" nType="1"/>
                <Node pos="r" depth="3" NCoef="0" IVar="-1" Cut="0.0000000000000000e+00" cType="1" res="-9.9000000000000000e+01" rms="0.0000000000000000e+00" purity="4.8224282264709473e-01" nType="-1"/>
              </Node>
              <Node pos="r" depth="2" NCoef="0" IVar="-1" Cut="0.0000000000000000e+00" cType="1" res="-9.9000000000000000e+01" rms="0.0000000000000000e+00" purity="4.8609140515327454e-01" nType="-1"/>
            </Node>
            <Node pos="r" depth="1" NCoef="0" IVar="2" Cut="1.4368405151367188e+02" cType="0" res="-9.9000000000000000e+01" rms="0.0000000000000000e+00" purity="4.8895454406738281e-01" nType="0">
              <Node pos="l" depth="2" NCoef="0" IVar="-1" Cut="0.0000000000000000e+00" cType="1" res="-9.9000000000000000e+01" rms="0.0000000000000000e+00" purity="5.0104504823684692e-01" nType="1"/>
              <Node pos="r" depth="2" NCoef="0" IVar="-1" Cut="0.0000000000000000e+00" cType="1" res="-9.9000000000000000e+01" rms="0.0000000000000000e+00" purity="4.6587145328521729e-01" nType="-1"/>
            </Node>
          </Node>
        </BinaryTree>
        <BinaryTree type="DecisionTree" boostWeight="5.3561485965536622e-03" itree="146">
          <Node pos="s" depth="0" NCoef="0" IVar="5" Cut="9.1408920288085938e-01" cType="0" res="-9.9000000000000000e+01" rms="0.0000000000000000e+00" purity="4.9904838204383850e-01" nType="0">
            <Node pos="l" depth="1" NCoef="0" IVar="5" Cut="2.0959050655364990e+00" cType="0" res="-9.9000000000000000e+01" rms="0.0000000000000000e+00" purity="5.0112634897232056e-01" nType="0">
              <Node pos="l" depth="2" NCoef="0" IVar="-1" Cut="0.0000000000000000e+00" cType="1" res="-9.9000000000000000e+01" rms="0.0000000000000000e+00" purity="5.1798081398010254e-01" nType="1"/>
              <Node pos="r" depth="2" NCoef="0" IVar="0" Cut="1.7870513916015625e+02" cType="1" res="-9.9000000000000000e+01" rms="0.0000000000000000e+00" purity="4.9993404746055603e-01" nType="0">
                <Node pos="l" depth="3" NCoef="0" IVar="5" Cut="1.4170933961868286e+00" cType="1" res="-9.9000000000000000e+01" rms="0.0000000000000000e+00" purity="5.0215983390808105e-01" nType="0">
                  <Node pos="l" depth="4" NCoef="0" IVar="-1" Cut="0.0000000000000000e+00" cType="1" res="-9.9000000000000000e+01" rms="0.0000000000000000e+00" purity="5.0441241264343262e-01" nType="1"/>
                  <Node pos="r" depth="4" NCoef="0" IVar="-1" Cut="0.0000000000000000e+00" cType="1" res="-9.9000000000000000e+01" rms="0.0000000000000000e+00" purity="4.8562362790107727e-01" nType="-1"/>
                </Node>
                <Node pos="r" depth="3" NCoef="0" IVar="-1" Cut="0.0000000000000000e+00" cType="1" res="-9.9000000000000000e+01" rms="0.0000000000000000e+00" purity="4.8116561770439148e-01" nType="-1"/>
              </Node>
            </Node>
            <Node pos="r" depth="1" NCoef="0" IVar="1" Cut="9.1967178344726562e+01" cType="1" res="-9.9000000000000000e+01" rms="0.0000000000000000e+00" purity="4.8861867189407349e-01" nType="0">
              <Node pos="l" depth="2" NCoef="0" IVar="-1" Cut="0.0000000000000000e+00" cType="1" res="-9.9000000000000000e+01" rms="0.0000000000000000e+00" purity="5.0327241420745850e-01" nType="1"/>
              <Node pos="r" depth="2" NCoef="0" IVar="-1" Cut="0.0000000000000000e+00" cType="1" res="-9.9000000000000000e+01" rms="0.0000000000000000e+00" purity="4.7150149941444397e-01" nType="-1"/>
            </Node>
          </Node>
        </BinaryTree>
        <BinaryTree type="DecisionTree" boostWeight="3.8962711144015266e-03" itree="147">
          <Node pos="s" depth="0" NCoef="0" IVar="5" Cut="9.1408920288085938e-01" cType="0" res="-9.9000000000000000e+01" rms="0.0000000000000000e+00" purity="4.9836856126785278e-01" nType="0">
            <Node pos="l" depth="1" NCoef="0" IVar="5" Cut="2.0959050655364990e+00" cType="0" res="-9.9000000000000000e+01" rms="0.0000000000000000e+00" purity="5.0033235549926758e-01" nType="0">
              <Node pos="l" depth="2" NCoef="0" IVar="-1" Cut="0.0000000000000000e+00" cType="1" res="-9.9000000000000000e+01" rms="0.0000000000000000e+00" purity="5.1664334535598755e-01" nType="1"/>
              <Node pos="r" depth="2" NCoef="0" IVar="0" Cut="1.7870513916015625e+02" cType="1" res="-9.9000000000000000e+01" rms="0.0000000000000000e+00" purity="4.9917861819267273e-01" nType="0">
                <Node pos="l" depth="3" NCoef="0" IVar="3" Cut="1.4038832092285156e+02" cType="1" res="-9.9000000000000000e+01" rms="0.0000000000000000e+00" purity="5.0114506483078003e-01" nType="0">
                  <Node pos="l" depth="4" NCoef="0" IVar="-1" Cut="0.0000000000000000e+00" cType="1" res="-9.9000000000000000e+01" rms="0.0000000000000000e+00" purity="5.1263523101806641e-01" nType="1"/>
                  <Node pos="r" depth="4" NCoef="0" IVar="-1" Cut="0.0000000000000000e+00" cType="1" res="-9.9000000000000000e+01" rms="0.0000000000000000e+00" purity="4.9875614047050476e-01" nType="-1"/>
                </Node>
                <Node pos="r" depth="3" NCoef="0" IVar="-1" Cut="0.0000000000000000e+00" cType="1" res="-9.9000000000000000e+01" rms="0.0000000000000000e+00" purity="4.8259896039962769e-01" nType="-1"/>
              </Node>
            </Node>
            <Node pos="r" depth="1" NCoef="0" IVar="-1" Cut="1.4368405151367188e+02" cType="0" res="-9.9000000000000000e+01" rms="0.0000000000000000e+00" purity="4.8851099610328674e-01" nType="-1"/>
          </Node>
        </BinaryTree>
        <BinaryTree type="DecisionTree" boostWeight="5.2842040248665028e-03" itree="148">
          <Node pos="s" depth="0" NCoef="0" IVar="2" Cut="1.2793784332275391e+02" cType="0" res="-9.9000000000000000e+01" rms="0.0000000000000000e+00" purity="4.9901434779167175e-01" nType="0">
            <Node pos="l" depth="1" NCoef="0" IVar="4" Cut="5.7674378156661987e-01" cType="0" res="-9.9000000000000000e+01" rms="0.0000000000000000e+00" purity="5.0047415494918823e-01" nType="0">
              <Node pos="l" depth="2" NCoef="0" IVar="1" Cut="7.0518844604492188e+01" cType="0" res="-9.9000000000000000e+01" rms="0.0000000000000000e+00" purity="5.0203096866607666e-01" nType="0">
                <Node pos="l" depth="3" NCoef="0" IVar="-1" Cut="1.7186061143875122e+00" cType="0" res="-9.9000000000000000e+01" rms="0.0000000000000000e+00" purity="5.0612610578536987e-01" nType="1"/>
                <Node pos="r" depth="3" NCoef="0" IVar="-1" Cut="1.9253190612792969e+02" cType="1" res="-9.9000000000000000e+01" rms="0.0000000000000000e+00" purity="4.9059620499610901e-01" nType="-1"/>
              </Node>
              <Node pos="r" depth="2" NCoef="0" IVar="-1" Cut="0.0000000000000000e+00" cType="1" res="-9.9000000000000000e+01" rms="0.0000000000000000e+00" purity="4.7503221035003662e-01" nType="-1"/>
            </Node>
            <Node pos="r" depth="1" NCoef="0" IVar="4" Cut="1.9137448072433472e+00" cType="0" res="-9.9000000000000000e+01" rms="0.0000000000000000e+00" purity="4.8594036698341370e-01" nType="0">
              <Node pos="l" depth="2" NCoef="0" IVar="-1" Cut="0.0000000000000000e+00" cType="1" res="-9.9000000000000000e+01" rms="0.0000000000000000e+00" purity="5.0171899795532227e-01" nType="1"/>
              <Node pos="r" depth="2" NCoef="0" IVar="-1" Cut="0.0000000000000000e+00" cType="1" res="-9.9000000000000000e+01" rms="0.0000000000000000e+00" purity="4.7008007764816284e-01" nType="-1"/>
            </Node>
          </Node>
        </BinaryTree>
        <BinaryTree type="DecisionTree" boostWeight="5.5322361216629690e-03" itree="149">
          <Node pos="s" depth="0" NCoef="0" IVar="1" Cut="1.4270956420898438e+02" cType="1" res="-9.9000000000000000e+01" rms="0.0000000000000000e+00" purity="4.9856147170066833e-01" nType="0">
            <Node pos="l" depth="1" NCoef="0" IVar="2" Cut="2.7898513793945312e+02" cType="0" res="-9.9000000000000000e+01" rms="0.0000000000000000e+00" purity="4.9968799948692322e-01" nType="0">
              <Node pos="l" depth="2" NCoef="0" IVar="-1" Cut="0.0000000000000000e+00" cType="1" res="-9.9000000000000000e+01" rms="0.0000000000000000e+00" purity="5.2309554815292358e-01" nType="1"/>
              <Node pos="r" depth="2" NCoef="0" IVar="4" Cut="8.8340288400650024e-01" cType="0" res="-9.9000000000000000e+01" rms="0.0000000000000000e+00" purity="4.9825152754783630e-01" nType="0">
                <Node pos="l" depth="3" NCoef="0" IVar="5" Cut="1.3862738609313965e+00" cType="0" res="-9.9000000000000000e+01" rms="0.0000000000000000e+00" purity="5.0077295303344727e-01" nType="0">
                  <Node pos="l" depth="4" NCoef="0" IVar="-1" Cut="0.0000000000000000e+00" cType="1" res="-9.9000000000000000e+01" rms="0.0000000000000000e+00" purity="5.1939296722412109e-01" nType="1"/>
                  <Node pos="r" depth="4" NCoef="0" IVar="-1" Cut="0.0000000000000000e+00" cType="1" res="-9.9000000000000000e+01" rms="0.0000000000000000e+00" purity="4.9693080782890320e-01" nType="-1"/>
                </Node>
                <Node pos="r" depth="3" NCoef="0" IVar="5" Cut="1.3875547647476196e+00" cType="1" res="-9.9000000000000000e+01" rms="0.0000000000000000e+00" purity="4.8551702499389648e-01" nType="0">
                  <Node pos="l" depth="4" NCoef="0" IVar="-1" Cut="0.0000000000000000e+00" cType="1" res="-9.9000000000000000e+01" rms="0.0000000000000000e+00" purity="5.0189244747161865e-01" nType="1"/>
                  <Node pos="r" depth="4" NCoef="0" IVar="-1" Cut="0.0000000000000000e+00" cType="1" res="-9.9000000000000000e+01" rms="0.0000000000000000e+00" purity="4.5495617389678955e-01" nType="-1"/>
                </Node>
              </Node>
            </Node>
            <Node pos="r" depth="1" NCoef="0" IVar="-1" Cut="0.0000000000000000e+00" cType="1" res="-9.9000000000000000e+01" rms="0.0000000000000000e+00" purity="4.8071953654289246e-01" nType="-1"/>
          </Node>
        </BinaryTree>
        <BinaryTree type="DecisionTree" boostWeight="4.9987418789215919e-03" itree="150">
          <Node pos="s" depth="0" NCoef="0" IVar="1" Cut="1.4270956420898438e+02" cType="1" res="-9.9000000000000000e+01" rms="0.0000000000000000e+00" purity="4.9919071793556213e-01" nType="0">
            <Node pos="l" depth="1" NCoef="0" IVar="2" Cut="2.7898513793945312e+02" cType="0" res="-9.9000000000000000e+01" rms="0.0000000000000000e+00" purity="5.0026923418045044e-01" nType="0">
              <Node pos="l" depth="2" NCoef="0" IVar="-1" Cut="0.0000000000000000e+00" cType="1" res="-9.9000000000000000e+01" rms="0.0000000000000000e+00" purity="5.2171528339385986e-01" nType="1"/>
              <Node pos="r" depth="2" NCoef="0" IVar="4" Cut="8.8340288400650024e-01" cType="0" res="-9.9000000000000000e+01" rms="0.0000000000000000e+00" purity="4.9895328283309937e-01" nType="0">
                <Node pos="l" depth="3" NCoef="0" IVar="5" Cut="1.3211908340454102e+00" cType="0" res="-9.9000000000000000e+01" rms="0.0000000000000000e+00" purity="5.0169152021408081e-01" nType="0">
                  <Node pos="l" depth="4" NCoef="0" IVar="-1" Cut="0.0000000000000000e+00" cType="1" res="-9.9000000000000000e+01" rms="0.0000000000000000e+00" purity="5.1624715328216553e-01" nType="1"/>
                  <Node pos="r" depth="4" NCoef="0" IVar="-1" Cut="0.0000000000000000e+00" cType="1" res="-9.9000000000000000e+01" rms="0.0000000000000000e+00" purity="4.9780750274658203e-01" nType="-1"/>
                </Node>
                <Node pos="r" depth="3" NCoef="0" IVar="5" Cut="1.3875547647476196e+00" cType="1" res="-9.9000000000000000e+01" rms="0.0000000000000000e+00" purity="4.8512360453605652e-01" nType="0">
                  <Node pos="l" depth="4" NCoef="0" IVar="-1" Cut="0.0000000000000000e+00" cType="1" res="-9.9000000000000000e+01" rms="0.0000000000000000e+00" purity="5.0050443410873413e-01" nType="1"/>
                  <Node pos="r" depth="4" NCoef="0" IVar="-1" Cut="0.0000000000000000e+00" cType="1" res="-9.9000000000000000e+01" rms="0.0000000000000000e+00" purity="4.5641642808914185e-01" nType="-1"/>
                </Node>
              </Node>
            </Node>
            <Node pos="r" depth="1" NCoef="0" IVar="-1" Cut="0.0000000000000000e+00" cType="1" res="-9.9000000000000000e+01" rms="0.0000000000000000e+00" purity="4.8210802674293518e-01" nType="-1"/>
          </Node>
        </BinaryTree>
        <BinaryTree type="DecisionTree" boostWeight="9.4871726496126157e-03" itree="151">
          <Node pos="s" depth="0" NCoef="0" IVar="3" Cut="1.7410440063476562e+02" cType="1" res="-9.9000000000000000e+01" rms="0.0000000000000000e+00" purity="4.9968525767326355e-01" nType="0">
            <Node pos="l" depth="1" NCoef="0" IVar="4" Cut="2.0100686550140381e+00" cType="0" res="-9.9000000000000000e+01" rms="0.0000000000000000e+00" purity="5.0500351190567017e-01" nType="0">
              <Node pos="l" depth="2" NCoef="0" IVar="6" Cut="3.0207686424255371e+00" cType="1" res="-9.9000000000000000e+01" rms="0.0000000000000000e+00" purity="5.1625120639801025e-01" nType="0">
                <Node pos="l" depth="3" NCoef="0" IVar="-1" Cut="0.0000000000000000e+00" cType="1" res="-9.9000000000000000e+01" rms="0.0000000000000000e+00" purity="5.2951532602310181e-01" nType="1"/>
                <Node pos="r" depth="3" NCoef="0" IVar="-1" Cut="0.0000000000000000e+00" cType="1" res="-9.9000000000000000e+01" rms="0.0000000000000000e+00" purity="4.9677860736846924e-01" nType="-1"/>
              </Node>
              <Node pos="r" depth="2" NCoef="0" IVar="2" Cut="1.3560075378417969e+02" cType="0" res="-9.9000000000000000e+01" rms="0.0000000000000000e+00" purity="4.9836459755897522e-01" nType="0">
                <Node pos="l" depth="3" NCoef="0" IVar="0" Cut="5.5245548248291016e+01" cType="1" res="-9.9000000000000000e+01" rms="0.0000000000000000e+00" purity="5.0538295507431030e-01" nType="0">
                  <Node pos="l" depth="4" NCoef="0" IVar="-1" Cut="0.0000000000000000e+00" cType="1" res="-9.9000000000000000e+01" rms="0.0000000000000000e+00" purity="5.2403122186660767e-01" nType="1"/>
                  <Node pos="r" depth="4" NCoef="0" IVar="-1" Cut="0.0000000000000000e+00" cType="1" res="-9.9000000000000000e+01" rms="0.0000000000000000e+00" purity="4.9554079771041870e-01" nType="-1"/>
                </Node>
                <Node pos="r" depth="3" NCoef="0" IVar="-1" Cut="0.0000000000000000e+00" cType="1" res="-9.9000000000000000e+01" rms="0.0000000000000000e+00" purity="4.8167788982391357e-01" nType="-1"/>
              </Node>
            </Node>
            <Node pos="r" depth="1" NCoef="0" IVar="5" Cut="1.0126559734344482e+00" cType="0" res="-9.9000000000000000e+01" rms="0.0000000000000000e+00" purity="4.9578532576560974e-01" nType="0">
              <Node pos="l" depth="2" NCoef="0" IVar="1" Cut="7.3723136901855469e+01" cType="0" res="-9.9000000000000000e+01" rms="0.0000000000000000e+00" purity="5.0130534172058105e-01" nType="0">
                <Node pos="l" depth="3" NCoef="0" IVar="3" Cut="2.1376580810546875e+02" cType="0" res="-9.9000000000000000e+01" rms="0.0000000000000000e+00" purity="5.0784516334533691e-01" nType="0">
                  <Node pos="l" depth="4" NCoef="0" IVar="-1" Cut="0.0000000000000000e+00" cType="1" res="-9.9000000000000000e+01" rms="0.0000000000000000e+00" purity="5.1543301343917847e-01" nType="1"/>
                  <Node pos="r" depth="4" NCoef="0" IVar="-1" Cut="0.0000000000000000e+00" cType="1" res="-9.9000000000000000e+01" rms="0.0000000000000000e+00" purity="4.9269378185272217e-01" nType="-1"/>
                </Node>
                <Node pos="r" depth="3" NCoef="0" IVar="0" Cut="1.5836273193359375e+02" cType="1" res="-9.9000000000000000e+01" rms="0.0000000000000000e+00" purity="4.8545789718627930e-01" nType="0">
                  <Node pos="l" depth="4" NCoef="0" IVar="-1" Cut="0.0000000000000000e+00" cType="1" res="-9.9000000000000000e+01" rms="0.0000000000000000e+00" purity="5.0153672695159912e-01" nType="1"/>
                  <Node pos="r" depth="4" NCoef="0" IVar="-1" Cut="0.0000000000000000e+00" cType="1" res="-9.9000000000000000e+01" rms="0.0000000000000000e+00" purity="4.6414437890052795e-01" nType="-1"/>
                </Node>
              </Node>
              <Node pos="r" depth="2" NCoef="0" IVar="-1" Cut="2.1077182006835938e+02" cType="1" res="-9.9000000000000000e+01" rms="0.0000000000000000e+00" purity="4.7501665353775024e-01" nType="-1"/>
            </Node>
          </Node>
        </BinaryTree>
        <BinaryTree type="DecisionTree" boostWeight="8.2473706715128058e-03" itree="152">
          <Node pos="s" depth="0" NCoef="0" IVar="3" Cut="1.7410440063476562e+02" cType="1" res="-9.9000000000000000e+01" rms="0.0000000000000000e+00" purity="4.9994862079620361e-01" nType="0">
            <Node pos="l" depth="1" NCoef="0" IVar="4" Cut="2.2213184833526611e+00" cType="0" res="-9.9000000000000000e+01" rms="0.0000000000000000e+00" purity="5.0561195611953735e-01" nType="0">
              <Node pos="l" depth="2" NCoef="0" IVar="-1" Cut="0.0000000000000000e+00" cType="1" res="-9.9000000000000000e+01" rms="0.0000000000000000e+00" purity="5.1892900466918945e-01" nType="1"/>
              <Node pos="r" depth="2" NCoef="0" IVar="2" Cut="1.4197550964355469e+02" cType="0" res="-9.9000000000000000e+01" rms="0.0000000000000000e+00" purity="5.0085169076919556e-01" nType="0">
                <Node pos="l" depth="3" NCoef="0" IVar="0" Cut="5.5245548248291016e+01" cType="1" res="-9.9000000000000000e+01" rms="0.0000000000000000e+00" purity="5.0849074125289917e-01" nType="0">
                  <Node pos="l" depth="4" NCoef="0" IVar="-1" Cut="0.0000000000000000e+00" cType="1" res="-9.9000000000000000e+01" rms="0.0000000000000000e+00" purity="5.2801078557968140e-01" nType="1"/>
                  <Node pos="r" depth="4" NCoef="0" IVar="-1" Cut="0.0000000000000000e+00" cType="1" res="-9.9000000000000000e+01" rms="0.0000000000000000e+00" purity="4.9798059463500977e-01" nType="-1"/>
                </Node>
                <Node pos="r" depth="3" NCoef="0" IVar="-1" Cut="9.1416633605957031e+01" cType="1" res="-9.9000000000000000e+01" rms="0.0000000000000000e+00" purity="4.8986867070198059e-01" nType="-1"/>
              </Node>
            </Node>
            <Node pos="r" depth="1" NCoef="0" IVar="4" Cut="2.2274236679077148e+00" cType="1" res="-9.9000000000000000e+01" rms="0.0000000000000000e+00" purity="4.9579569697380066e-01" nType="0">
              <Node pos="l" depth="2" NCoef="0" IVar="0" Cut="5.7929935455322266e+01" cType="0" res="-9.9000000000000000e+01" rms="0.0000000000000000e+00" purity="4.9905797839164734e-01" nType="0">
                <Node pos="l" depth="3" NCoef="0" IVar="1" Cut="7.3349876403808594e+01" cType="0" res="-9.9000000000000000e+01" rms="0.0000000000000000e+00" purity="5.0384831428527832e-01" nType="0">
                  <Node pos="l" depth="4" NCoef="0" IVar="-1" Cut="0.0000000000000000e+00" cType="1" res="-9.9000000000000000e+01" rms="0.0000000000000000e+00" purity="5.0904583930969238e-01" nType="1"/>
                  <Node pos="r" depth="4" NCoef="0" IVar="-1" Cut="0.0000000000000000e+00" cType="1" res="-9.9000000000000000e+01" rms="0.0000000000000000e+00" purity="4.8913264274597168e-01" nType="-1"/>
                </Node>
                <Node pos="r" depth="3" NCoef="0" IVar="-1" Cut="0.0000000000000000e+00" cType="1" res="-9.9000000000000000e+01" rms="0.0000000000000000e+00" purity="4.7173026204109192e-01" nType="-1"/>
              </Node>
              <Node pos="r" depth="2" NCoef="0" IVar="-1" Cut="0.0000000000000000e+00" cType="1" res="-9.9000000000000000e+01" rms="0.0000000000000000e+00" purity="4.6819585561752319e-01" nType="-1"/>
            </Node>
          </Node>
        </BinaryTree>
        <BinaryTree type="DecisionTree" boostWeight="9.2151193957419972e-03" itree="153">
          <Node pos="s" depth="0" NCoef="0" IVar="3" Cut="1.7410440063476562e+02" cType="1" res="-9.9000000000000000e+01" rms="0.0000000000000000e+00" purity="4.9996215105056763e-01" nType="0">
            <Node pos="l" depth="1" NCoef="0" IVar="1" Cut="8.4846763610839844e+01" cType="1" res="-9.9000000000000000e+01" rms="0.0000000000000000e+00" purity="5.0596618652343750e-01" nType="0">
              <Node pos="l" depth="2" NCoef="0" IVar="1" Cut="5.3748512268066406e+01" cType="0" res="-9.9000000000000000e+01" rms="0.0000000000000000e+00" purity="5.1286602020263672e-01" nType="0">
                <Node pos="l" depth="3" NCoef="0" IVar="-1" Cut="2.7140703201293945e+00" cType="0" res="-9.9000000000000000e+01" rms="0.0000000000000000e+00" purity="5.1960694789886475e-01" nType="1"/>
                <Node pos="r" depth="3" NCoef="0" IVar="-1" Cut="0.0000000000000000e+00" cType="1" res="-9.9000000000000000e+01" rms="0.0000000000000000e+00" purity="4.9544164538383484e-01" nType="-1"/>
              </Node>
              <Node pos="r" depth="2" NCoef="0" IVar="4" Cut="1.9546979665756226e+00" cType="0" res="-9.9000000000000000e+01" rms="0.0000000000000000e+00" purity="4.9946111440658569e-01" nType="0">
                <Node pos="l" depth="3" NCoef="0" IVar="-1" Cut="0.0000000000000000e+00" cType="1" res="-9.9000000000000000e+01" rms="0.0000000000000000e+00" purity="5.1733756065368652e-01" nType="1"/>
                <Node pos="r" depth="3" NCoef="0" IVar="6" Cut="1.9873870611190796e+00" cType="1" res="-9.9000000000000000e+01" rms="0.0000000000000000e+00" purity="4.9277305603027344e-01" nType="0">
                  <Node pos="l" depth="4" NCoef="0" IVar="-1" Cut="0.0000000000000000e+00" cType="1" res="-9.9000000000000000e+01" rms="0.0000000000000000e+00" purity="5.0628203153610229e-01" nType="1"/>
                  <Node pos="r" depth="4" NCoef="0" IVar="-1" Cut="0.0000000000000000e+00" cType="1" res="-9.9000000000000000e+01" rms="0.0000000000000000e+00" purity="4.8483601212501526e-01" nType="-1"/>
                </Node>
              </Node>
            </Node>
            <Node pos="r" depth="1" NCoef="0" IVar="2" Cut="1.6511323547363281e+02" cType="0" res="-9.9000000000000000e+01" rms="0.0000000000000000e+00" purity="4.9555942416191101e-01" nType="0">
              <Node pos="l" depth="2" NCoef="0" IVar="6" Cut="2.6161043643951416e+00" cType="1" res="-9.9000000000000000e+01" rms="0.0000000000000000e+00" purity="4.9951234459877014e-01" nType="0">
                <Node pos="l" depth="3" NCoef="0" IVar="1" Cut="1.1585250854492188e+02" cType="1" res="-9.9000000000000000e+01" rms="0.0000000000000000e+00" purity="5.0450587272644043e-01" nType="0">
                  <Node pos="l" depth="4" NCoef="0" IVar="-1" Cut="0.0000000000000000e+00" cType="1" res="-9.9000000000000000e+01" rms="0.0000000000000000e+00" purity="5.1099783182144165e-01" nType="1"/>
                  <Node pos="r" depth="4" NCoef="0" IVar="-1" Cut="0.0000000000000000e+00" cType="1" res="-9.9000000000000000e+01" rms="0.0000000000000000e+00" purity="4.8299419879913330e-01" nType="-1"/>
                </Node>
                <Node pos="r" depth="3" NCoef="0" IVar="-1" Cut="0.0000000000000000e+00" cType="1" res="-9.9000000000000000e+01" rms="0.0000000000000000e+00" purity="4.7714382410049438e-01" nType="-1"/>
              </Node>
              <Node pos="r" depth="2" NCoef="0" IVar="-1" Cut="0.0000000000000000e+00" cType="1" res="-9.9000000000000000e+01" rms="0.0000000000000000e+00" purity="4.7433120012283325e-01" nType="-1"/>
            </Node>
          </Node>
        </BinaryTree>
        <BinaryTree type="DecisionTree" boostWeight="7.7345168169761277e-03" itree="154">
          <Node pos="s" depth="0" NCoef="0" IVar="3" Cut="1.7410440063476562e+02" cType="1" res="-9.9000000000000000e+01" rms="0.0000000000000000e+00" purity="4.9963945150375366e-01" nType="0">
            <Node pos="l" depth="1" NCoef="0" IVar="4" Cut="2.2213184833526611e+00" cType="0" res="-9.9000000000000000e+01" rms="0.0000000000000000e+00" purity="5.0537300109863281e-01" nType="0">
              <Node pos="l" depth="2" NCoef="0" IVar="-1" Cut="0.0000000000000000e+00" cType="1" res="-9.9000000000000000e+01" rms="0.0000000000000000e+00" purity="5.1601982116699219e-01" nType="1"/>
              <Node pos="r" depth="2" NCoef="0" IVar="2" Cut="1.4197550964355469e+02" cType="0" res="-9.9000000000000000e+01" rms="0.0000000000000000e+00" purity="5.0156736373901367e-01" nType="0">
                <Node pos="l" depth="3" NCoef="0" IVar="0" Cut="5.5245548248291016e+01" cType="1" res="-9.9000000000000000e+01" rms="0.0000000000000000e+00" purity="5.0869780778884888e-01" nType="0">
                  <Node pos="l" depth="4" NCoef="0" IVar="-1" Cut="0.0000000000000000e+00" cType="1" res="-9.9000000000000000e+01" rms="0.0000000000000000e+00" purity="5.2607595920562744e-01" nType="1"/>
                  <Node pos="r" depth="4" NCoef="0" IVar="-1" Cut="0.0000000000000000e+00" cType="1" res="-9.9000000000000000e+01" rms="0.0000000000000000e+00" purity="4.9934509396553040e-01" nType="-1"/>
                </Node>
                <Node pos="r" depth="3" NCoef="0" IVar="-1" Cut="9.1416633605957031e+01" cType="1" res="-9.9000000000000000e+01" rms="0.0000000000000000e+00" purity="4.9131676554679871e-01" nType="-1"/>
              </Node>
            </Node>
            <Node pos="r" depth="1" NCoef="0" IVar="5" Cut="1.0126559734344482e+00" cType="0" res="-9.9000000000000000e+01" rms="0.0000000000000000e+00" purity="4.9543505907058716e-01" nType="0">
              <Node pos="l" depth="2" NCoef="0" IVar="1" Cut="7.3723136901855469e+01" cType="0" res="-9.9000000000000000e+01" rms="0.0000000000000000e+00" purity="4.9983477592468262e-01" nType="0">
                <Node pos="l" depth="3" NCoef="0" IVar="4" Cut="7.3605406284332275e-01" cType="0" res="-9.9000000000000000e+01" rms="0.0000000000000000e+00" purity="5.0545257329940796e-01" nType="0">
                  <Node pos="l" depth="4" NCoef="0" IVar="-1" Cut="0.0000000000000000e+00" cType="1" res="-9.9000000000000000e+01" rms="0.0000000000000000e+00" purity="5.1012659072875977e-01" nType="1"/>
                  <Node pos="r" depth="4" NCoef="0" IVar="-1" Cut="0.0000000000000000e+00" cType="1" res="-9.9000000000000000e+01" rms="0.0000000000000000e+00" purity="4.8844596743583679e-01" nType="-1"/>
                </Node>
                <Node pos="r" depth="3" NCoef="0" IVar="0" Cut="1.5836273193359375e+02" cType="1" res="-9.9000000000000000e+01" rms="0.0000000000000000e+00" purity="4.8622679710388184e-01" nType="0">
                  <Node pos="l" depth="4" NCoef="0" IVar="-1" Cut="0.0000000000000000e+00" cType="1" res="-9.9000000000000000e+01" rms="0.0000000000000000e+00" purity="5.0057393312454224e-01" nType="1"/>
                  <Node pos="r" depth="4" NCoef="0" IVar="-1" Cut="0.0000000000000000e+00" cType="1" res="-9.9000000000000000e+01" rms="0.0000000000000000e+00" purity="4.6721816062927246e-01" nType="-1"/>
                </Node>
              </Node>
              <Node pos="r" depth="2" NCoef="0" IVar="3" Cut="2.1077182006835938e+02" cType="1" res="-9.9000000000000000e+01" rms="0.0000000000000000e+00" purity="4.7887176275253296e-01" nType="0">
                <Node pos="l" depth="3" NCoef="0" IVar="-1" Cut="0.0000000000000000e+00" cType="1" res="-9.9000000000000000e+01" rms="0.0000000000000000e+00" purity="5.0299394130706787e-01" nType="1"/>
                <Node pos="r" depth="3" NCoef="0" IVar="-1" Cut="0.0000000000000000e+00" cType="1" res="-9.9000000000000000e+01" rms="0.0000000000000000e+00" purity="4.5059600472450256e-01" nType="-1"/>
              </Node>
            </Node>
          </Node>
        </BinaryTree>
        <BinaryTree type="DecisionTree" boostWeight="7.5472117272455648e-03" itree="155">
          <Node pos="s" depth="0" NCoef="0" IVar="3" Cut="1.7410440063476562e+02" cType="1" res="-9.9000000000000000e+01" rms="0.0000000000000000e+00" purity="4.9938803911209106e-01" nType="0">
            <Node pos="l" depth="1" NCoef="0" IVar="1" Cut="8.4846763610839844e+01" cType="1" res="-9.9000000000000000e+01" rms="0.0000000000000000e+00" purity="5.0570523738861084e-01" nType="0">
              <Node pos="l" depth="2" NCoef="0" IVar="1" Cut="5.3748512268066406e+01" cType="0" res="-9.9000000000000000e+01" rms="0.0000000000000000e+00" purity="5.1198798418045044e-01" nType="0">
                <Node pos="l" depth="3" NCoef="0" IVar="-1" Cut="2.7140703201293945e+00" cType="0" res="-9.9000000000000000e+01" rms="0.0000000000000000e+00" purity="5.1773643493652344e-01" nType="1"/>
                <Node pos="r" depth="3" NCoef="0" IVar="-1" Cut="0.0000000000000000e+00" cType="1" res="-9.9000000000000000e+01" rms="0.0000000000000000e+00" purity="4.9713036417961121e-01" nType="-1"/>
              </Node>
              <Node pos="r" depth="2" NCoef="0" IVar="2" Cut="1.5856271362304688e+02" cType="0" res="-9.9000000000000000e+01" rms="0.0000000000000000e+00" purity="4.9978157877922058e-01" nType="0">
                <Node pos="l" depth="3" NCoef="0" IVar="-1" Cut="0.0000000000000000e+00" cType="1" res="-9.9000000000000000e+01" rms="0.0000000000000000e+00" purity="5.1688134670257568e-01" nType="1"/>
                <Node pos="r" depth="3" NCoef="0" IVar="0" Cut="6.4286697387695312e+01" cType="0" res="-9.9000000000000000e+01" rms="0.0000000000000000e+00" purity="4.9298790097236633e-01" nType="0">
                  <Node pos="l" depth="4" NCoef="0" IVar="-1" Cut="0.0000000000000000e+00" cType="1" res="-9.9000000000000000e+01" rms="0.0000000000000000e+00" purity="5.0286954641342163e-01" nType="1"/>
                  <Node pos="r" depth="4" NCoef="0" IVar="-1" Cut="0.0000000000000000e+00" cType="1" res="-9.9000000000000000e+01" rms="0.0000000000000000e+00" purity="4.8657083511352539e-01" nType="-1"/>
                </Node>
              </Node>
            </Node>
            <Node pos="r" depth="1" NCoef="0" IVar="4" Cut="2.2274236679077148e+00" cType="1" res="-9.9000000000000000e+01" rms="0.0000000000000000e+00" purity="4.9475571513175964e-01" nType="0">
              <Node pos="l" depth="2" NCoef="0" IVar="0" Cut="5.7929935455322266e+01" cType="0" res="-9.9000000000000000e+01" rms="0.0000000000000000e+00" purity="4.9759775400161743e-01" nType="0">
                <Node pos="l" depth="3" NCoef="0" IVar="0" Cut="1.2374327087402344e+02" cType="1" res="-9.9000000000000000e+01" rms="0.0000000000000000e+00" purity="5.0174635648727417e-01" nType="0">
                  <Node pos="l" depth="4" NCoef="0" IVar="-1" Cut="0.0000000000000000e+00" cType="1" res="-9.9000000000000000e+01" rms="0.0000000000000000e+00" purity="5.1164406538009644e-01" nType="1"/>
                  <Node pos="r" depth="4" NCoef="0" IVar="-1" Cut="0.0000000000000000e+00" cType="1" res="-9.9000000000000000e+01" rms="0.0000000000000000e+00" purity="4.9464768171310425e-01" nType="-1"/>
                </Node>
                <Node pos="r" depth="3" NCoef="0" IVar="-1" Cut="0.0000000000000000e+00" cType="1" res="-9.9000000000000000e+01" rms="0.0000000000000000e+00" purity="4.7391626238822937e-01" nType="-1"/>
              </Node>
              <Node pos="r" depth="2" NCoef="0" IVar="-1" Cut="0.0000000000000000e+00" cType="1" res="-9.9000000000000000e+01" rms="0.0000000000000000e+00" purity="4.7070690989494324e-01" nType="-1"/>
            </Node>
          </Node>
        </BinaryTree>
        <BinaryTree type="DecisionTree" boostWeight="8.3954224906440944e-03" itree="156">
          <Node pos="s" depth="0" NCoef="0" IVar="3" Cut="1.7410440063476562e+02" cType="1" res="-9.9000000000000000e+01" rms="0.0000000000000000e+00" purity="4.9959588050842285e-01" nType="0">
            <Node pos="l" depth="1" NCoef="0" IVar="1" Cut="1.1102051544189453e+02" cType="1" res="-9.9000000000000000e+01" rms="0.0000000000000000e+00" purity="5.0517219305038452e-01" nType="0">
              <Node pos="l" depth="2" NCoef="0" IVar="0" Cut="4.0300243377685547e+01" cType="1" res="-9.9000000000000000e+01" rms="0.0000000000000000e+00" purity="5.0825786590576172e-01" nType="0">
                <Node pos="l" depth="3" NCoef="0" IVar="-1" Cut="0.0000000000000000e+00" cType="1" res="-9.9000000000000000e+01" rms="0.0000000000000000e+00" purity="5.2072685956954956e-01" nType="1"/>
                <Node pos="r" depth="3" NCoef="0" IVar="6" Cut="2.6765866279602051e+00" cType="0" res="-9.9000000000000000e+01" rms="0.0000000000000000e+00" purity="5.0350672006607056e-01" nType="0">
                  <Node pos="l" depth="4" NCoef="0" IVar="-1" Cut="0.0000000000000000e+00" cType="1" res="-9.9000000000000000e+01" rms="0.0000000000000000e+00" purity="5.2165621519088745e-01" nType="1"/>
                  <Node pos="r" depth="4" NCoef="0" IVar="-1" Cut="0.0000000000000000e+00" cType="1" res="-9.9000000000000000e+01" rms="0.0000000000000000e+00" purity="4.9253985285758972e-01" nType="-1"/>
                </Node>
              </Node>
              <Node pos="r" depth="2" NCoef="0" IVar="-1" Cut="0.0000000000000000e+00" cType="1" res="-9.9000000000000000e+01" rms="0.0000000000000000e+00" purity="4.9387550354003906e-01" nType="-1"/>
            </Node>
            <Node pos="r" depth="1" NCoef="0" IVar="5" Cut="1.0126559734344482e+00" cType="0" res="-9.9000000000000000e+01" rms="0.0000000000000000e+00" purity="4.9550735950469971e-01" nType="0">
              <Node pos="l" depth="2" NCoef="0" IVar="6" Cut="1.5320438146591187e+00" cType="1" res="-9.9000000000000000e+01" rms="0.0000000000000000e+00" purity="4.9982649087905884e-01" nType="0">
                <Node pos="l" depth="3" NCoef="0" IVar="1" Cut="9.2675254821777344e+01" cType="1" res="-9.9000000000000000e+01" rms="0.0000000000000000e+00" purity="5.1071673631668091e-01" nType="0">
                  <Node pos="l" depth="4" NCoef="0" IVar="-1" Cut="0.0000000000000000e+00" cType="1" res="-9.9000000000000000e+01" rms="0.0000000000000000e+00" purity="5.2752947807312012e-01" nType="1"/>
                  <Node pos="r" depth="4" NCoef="0" IVar="-1" Cut="0.0000000000000000e+00" cType="1" res="-9.9000000000000000e+01" rms="0.0000000000000000e+00" purity="4.9315968155860901e-01" nType="-1"/>
                </Node>
                <Node pos="r" depth="3" NCoef="0" IVar="-1" Cut="2.1040231323242188e+02" cType="1" res="-9.9000000000000000e+01" rms="0.0000000000000000e+00" purity="4.9129781126976013e-01" nType="-1"/>
              </Node>
              <Node pos="r" depth="2" NCoef="0" IVar="3" Cut="2.1077182006835938e+02" cType="1" res="-9.9000000000000000e+01" rms="0.0000000000000000e+00" purity="4.7923853993415833e-01" nType="0">
                <Node pos="l" depth="3" NCoef="0" IVar="-1" Cut="0.0000000000000000e+00" cType="1" res="-9.9000000000000000e+01" rms="0.0000000000000000e+00" purity="5.0173968076705933e-01" nType="1"/>
                <Node pos="r" depth="3" NCoef="0" IVar="-1" Cut="0.0000000000000000e+00" cType="1" res="-9.9000000000000000e+01" rms="0.0000000000000000e+00" purity="4.5284512639045715e-01" nType="-1"/>
              </Node>
            </Node>
          </Node>
        </BinaryTree>
        <BinaryTree type="DecisionTree" boostWeight="8.4460663576308680e-03" itree="157">
          <Node pos="s" depth="0" NCoef="0" IVar="3" Cut="1.7410440063476562e+02" cType="1" res="-9.9000000000000000e+01" rms="0.0000000000000000e+00" purity="5.0024598836898804e-01" nType="0">
            <Node pos="l" depth="1" NCoef="0" IVar="6" Cut="3.2690269947052002e+00" cType="1" res="-9.9000000000000000e+01" rms="0.0000000000000000e+00" purity="5.0546658039093018e-01" nType="0">
              <Node pos="l" depth="2" NCoef="0" IVar="0" Cut="4.0426349639892578e+01" cType="1" res="-9.9000000000000000e+01" rms="0.0000000000000000e+00" purity="5.0775593519210815e-01" nType="0">
                <Node pos="l" depth="3" NCoef="0" IVar="-1" Cut="0.0000000000000000e+00" cType="1" res="-9.9000000000000000e+01" rms="0.0000000000000000e+00" purity="5.2798759937286377e-01" nType="1"/>
                <Node pos="r" depth="3" NCoef="0" IVar="6" Cut="2.6874108314514160e+00" cType="0" res="-9.9000000000000000e+01" rms="0.0000000000000000e+00" purity="5.0061243772506714e-01" nType="0">
                  <Node pos="l" depth="4" NCoef="0" IVar="-1" Cut="0.0000000000000000e+00" cType="1" res="-9.9000000000000000e+01" rms="0.0000000000000000e+00" purity="5.2174425125122070e-01" nType="1"/>
                  <Node pos="r" depth="4" NCoef="0" IVar="-1" Cut="0.0000000000000000e+00" cType="1" res="-9.9000000000000000e+01" rms="0.0000000000000000e+00" purity="4.9195414781570435e-01" nType="-1"/>
                </Node>
              </Node>
              <Node pos="r" depth="2" NCoef="0" IVar="-1" Cut="0.0000000000000000e+00" cType="1" res="-9.9000000000000000e+01" rms="0.0000000000000000e+00" purity="4.8894342780113220e-01" nType="-1"/>
            </Node>
            <Node pos="r" depth="1" NCoef="0" IVar="5" Cut="1.0126559734344482e+00" cType="0" res="-9.9000000000000000e+01" rms="0.0000000000000000e+00" purity="4.9641844630241394e-01" nType="0">
              <Node pos="l" depth="2" NCoef="0" IVar="1" Cut="7.3723136901855469e+01" cType="0" res="-9.9000000000000000e+01" rms="0.0000000000000000e+00" purity="5.0102412700653076e-01" nType="0">
                <Node pos="l" depth="3" NCoef="0" IVar="3" Cut="2.1376580810546875e+02" cType="0" res="-9.9000000000000000e+01" rms="0.0000000000000000e+00" purity="5.0654584169387817e-01" nType="0">
                  <Node pos="l" depth="4" NCoef="0" IVar="-1" Cut="0.0000000000000000e+00" cType="1" res="-9.9000000000000000e+01" rms="0.0000000000000000e+00" purity="5.1253002882003784e-01" nType="1"/>
                  <Node pos="r" depth="4" NCoef="0" IVar="-1" Cut="0.0000000000000000e+00" cType="1" res="-9.9000000000000000e+01" rms="0.0000000000000000e+00" purity="4.9459934234619141e-01" nType="-1"/>
                </Node>
                <Node pos="r" depth="3" NCoef="0" IVar="0" Cut="1.5836273193359375e+02" cType="1" res="-9.9000000000000000e+01" rms="0.0000000000000000e+00" purity="4.8764821887016296e-01" nType="0">
                  <Node pos="l" depth="4" NCoef="0" IVar="-1" Cut="0.0000000000000000e+00" cType="1" res="-9.9000000000000000e+01" rms="0.0000000000000000e+00" purity="5.0021708011627197e-01" nType="1"/>
                  <Node pos="r" depth="4" NCoef="0" IVar="-1" Cut="0.0000000000000000e+00" cType="1" res="-9.9000000000000000e+01" rms="0.0000000000000000e+00" purity="4.7099724411964417e-01" nType="-1"/>
                </Node>
              </Node>
              <Node pos="r" depth="2" NCoef="0" IVar="-1" Cut="2.1077182006835938e+02" cType="1" res="-9.9000000000000000e+01" rms="0.0000000000000000e+00" purity="4.7906732559204102e-01" nType="-1"/>
            </Node>
          </Node>
        </BinaryTree>
        <BinaryTree type="DecisionTree" boostWeight="7.0240628069936986e-03" itree="158">
          <Node pos="s" depth="0" NCoef="0" IVar="3" Cut="1.7410440063476562e+02" cType="1" res="-9.9000000000000000e+01" rms="0.0000000000000000e+00" purity="5.0039917230606079e-01" nType="0">
            <Node pos="l" depth="1" NCoef="0" IVar="2" Cut="1.2176612854003906e+02" cType="0" res="-9.9000000000000000e+01" rms="0.0000000000000000e+00" purity="5.0581848621368408e-01" nType="0">
              <Node pos="l" depth="2" NCoef="0" IVar="0" Cut="3.8217098236083984e+01" cType="1" res="-9.9000000000000000e+01" rms="0.0000000000000000e+00" purity="5.0805437564849854e-01" nType="0">
                <Node pos="l" depth="3" NCoef="0" IVar="-1" Cut="0.0000000000000000e+00" cType="1" res="-9.9000000000000000e+01" rms="0.0000000000000000e+00" purity="5.2283275127410889e-01" nType="1"/>
                <Node pos="r" depth="3" NCoef="0" IVar="6" Cut="2.7787449359893799e+00" cType="0" res="-9.9000000000000000e+01" rms="0.0000000000000000e+00" purity="5.0330382585525513e-01" nType="0">
                  <Node pos="l" depth="4" NCoef="0" IVar="-1" Cut="0.0000000000000000e+00" cType="1" res="-9.9000000000000000e+01" rms="0.0000000000000000e+00" purity="5.1788246631622314e-01" nType="1"/>
                  <Node pos="r" depth="4" NCoef="0" IVar="-1" Cut="0.0000000000000000e+00" cType="1" res="-9.9000000000000000e+01" rms="0.0000000000000000e+00" purity="4.9707534909248352e-01" nType="-1"/>
                </Node>
              </Node>
              <Node pos="r" depth="2" NCoef="0" IVar="-1" Cut="0.0000000000000000e+00" cType="1" res="-9.9000000000000000e+01" rms="0.0000000000000000e+00" purity="4.9105605483055115e-01" nType="-1"/>
            </Node>
            <Node pos="r" depth="1" NCoef="0" IVar="2" Cut="1.6511323547363281e+02" cType="0" res="-9.9000000000000000e+01" rms="0.0000000000000000e+00" purity="4.9642598628997803e-01" nType="0">
              <Node pos="l" depth="2" NCoef="0" IVar="6" Cut="2.6161043643951416e+00" cType="1" res="-9.9000000000000000e+01" rms="0.0000000000000000e+00" purity="4.9988374114036560e-01" nType="0">
                <Node pos="l" depth="3" NCoef="0" IVar="0" Cut="1.0558509063720703e+02" cType="1" res="-9.9000000000000000e+01" rms="0.0000000000000000e+00" purity="5.0420230627059937e-01" nType="0">
                  <Node pos="l" depth="4" NCoef="0" IVar="-1" Cut="0.0000000000000000e+00" cType="1" res="-9.9000000000000000e+01" rms="0.0000000000000000e+00" purity="5.1876890659332275e-01" nType="1"/>
                  <Node pos="r" depth="4" NCoef="0" IVar="-1" Cut="0.0000000000000000e+00" cType="1" res="-9.9000000000000000e+01" rms="0.0000000000000000e+00" purity="4.9676313996315002e-01" nType="-1"/>
                </Node>
                <Node pos="r" depth="3" NCoef="0" IVar="-1" Cut="0.0000000000000000e+00" cType="1" res="-9.9000000000000000e+01" rms="0.0000000000000000e+00" purity="4.8053494095802307e-01" nType="-1"/>
              </Node>
              <Node pos="r" depth="2" NCoef="0" IVar="-1" Cut="0.0000000000000000e+00" cType="1" res="-9.9000000000000000e+01" rms="0.0000000000000000e+00" purity="4.7784924507141113e-01" nType="-1"/>
            </Node>
          </Node>
        </BinaryTree>
        <BinaryTree type="DecisionTree" boostWeight="4.0255750004096185e-03" itree="159">
          <Node pos="s" depth="0" NCoef="0" IVar="0" Cut="2.3316755294799805e+01" cType="0" res="-9.9000000000000000e+01" rms="0.0000000000000000e+00" purity="5.0111329555511475e-01" nType="0">
            <Node pos="l" depth="1" NCoef="0" IVar="4" Cut="5.9471720457077026e-01" cType="0" res="-9.9000000000000000e+01" rms="0.0000000000000000e+00" purity="5.0231593847274780e-01" nType="0">
              <Node pos="l" depth="2" NCoef="0" IVar="3" Cut="4.0226574707031250e+02" cType="1" res="-9.9000000000000000e+01" rms="0.0000000000000000e+00" purity="5.0335270166397095e-01" nType="0">
                <Node pos="l" depth="3" NCoef="0" IVar="-1" Cut="1.7145887613296509e+00" cType="0" res="-9.9000000000000000e+01" rms="0.0000000000000000e+00" purity="5.0484961271286011e-01" nType="1"/>
                <Node pos="r" depth="3" NCoef="0" IVar="-1" Cut="0.0000000000000000e+00" cType="1" res="-9.9000000000000000e+01" rms="0.0000000000000000e+00" purity="4.8587322235107422e-01" nType="-1"/>
              </Node>
              <Node pos="r" depth="2" NCoef="0" IVar="-1" Cut="0.0000000000000000e+00" cType="1" res="-9.9000000000000000e+01" rms="0.0000000000000000e+00" purity="4.8725482821464539e-01" nType="-1"/>
            </Node>
            <Node pos="r" depth="1" NCoef="0" IVar="-1" Cut="0.0000000000000000e+00" cType="1" res="-9.9000000000000000e+01" rms="0.0000000000000000e+00" purity="4.8357889056205750e-01" nType="-1"/>
          </Node>
        </BinaryTree>
        <BinaryTree type="DecisionTree" boostWeight="4.2473446537214807e-03" itree="160">
          <Node pos="s" depth="0" NCoef="0" IVar="4" Cut="2.6763665676116943e+00" cType="1" res="-9.9000000000000000e+01" rms="0.0000000000000000e+00" purity="5.0050216913223267e-01" nType="0">
            <Node pos="l" depth="1" NCoef="0" IVar="4" Cut="5.8737874031066895e-01" cType="0" res="-9.9000000000000000e+01" rms="0.0000000000000000e+00" purity="5.0157082080841064e-01" nType="0">
              <Node pos="l" depth="2" NCoef="0" IVar="5" Cut="1.7177577018737793e+00" cType="0" res="-9.9000000000000000e+01" rms="0.0000000000000000e+00" purity="5.0298511981964111e-01" nType="0">
                <Node pos="l" depth="3" NCoef="0" IVar="-1" Cut="0.0000000000000000e+00" cType="1" res="-9.9000000000000000e+01" rms="0.0000000000000000e+00" purity="5.1769936084747314e-01" nType="1"/>
                <Node pos="r" depth="3" NCoef="0" IVar="0" Cut="1.6407537841796875e+02" cType="1" res="-9.9000000000000000e+01" rms="0.0000000000000000e+00" purity="5.0123178958892822e-01" nType="0">
                  <Node pos="l" depth="4" NCoef="0" IVar="-1" Cut="0.0000000000000000e+00" cType="1" res="-9.9000000000000000e+01" rms="0.0000000000000000e+00" purity="5.0287145376205444e-01" nType="1"/>
                  <Node pos="r" depth="4" NCoef="0" IVar="-1" Cut="0.0000000000000000e+00" cType="1" res="-9.9000000000000000e+01" rms="0.0000000000000000e+00" purity="4.7716766595840454e-01" nType="-1"/>
                </Node>
              </Node>
              <Node pos="r" depth="2" NCoef="0" IVar="-1" Cut="0.0000000000000000e+00" cType="1" res="-9.9000000000000000e+01" rms="0.0000000000000000e+00" purity="4.8030373454093933e-01" nType="-1"/>
            </Node>
            <Node pos="r" depth="1" NCoef="0" IVar="-1" Cut="0.0000000000000000e+00" cType="1" res="-9.9000000000000000e+01" rms="0.0000000000000000e+00" purity="4.8281398415565491e-01" nType="-1"/>
          </Node>
        </BinaryTree>
        <BinaryTree type="DecisionTree" boostWeight="3.6240877410153921e-03" itree="161">
          <Node pos="s" depth="0" NCoef="0" IVar="0" Cut="2.3316755294799805e+01" cType="0" res="-9.9000000000000000e+01" rms="0.0000000000000000e+00" purity="4.9979680776596069e-01" nType="0">
            <Node pos="l" depth="1" NCoef="0" IVar="0" Cut="2.4950323486328125e+02" cType="0" res="-9.9000000000000000e+01" rms="0.0000000000000000e+00" purity="5.0089168548583984e-01" nType="0">
              <Node pos="l" depth="2" NCoef="0" IVar="-1" Cut="0.0000000000000000e+00" cType="1" res="-9.9000000000000000e+01" rms="0.0000000000000000e+00" purity="5.1821857690811157e-01" nType="1"/>
              <Node pos="r" depth="2" NCoef="0" IVar="6" Cut="8.3303087949752808e-01" cType="0" res="-9.9000000000000000e+01" rms="0.0000000000000000e+00" purity="4.9987265467643738e-01" nType="0">
                <Node pos="l" depth="3" NCoef="0" IVar="3" Cut="3.8097708129882812e+02" cType="1" res="-9.9000000000000000e+01" rms="0.0000000000000000e+00" purity="5.0139635801315308e-01" nType="0">
                  <Node pos="l" depth="4" NCoef="0" IVar="-1" Cut="0.0000000000000000e+00" cType="1" res="-9.9000000000000000e+01" rms="0.0000000000000000e+00" purity="5.0254136323928833e-01" nType="1"/>
                  <Node pos="r" depth="4" NCoef="0" IVar="-1" Cut="0.0000000000000000e+00" cType="1" res="-9.9000000000000000e+01" rms="0.0000000000000000e+00" purity="4.8516872525215149e-01" nType="-1"/>
                </Node>
                <Node pos="r" depth="3" NCoef="0" IVar="-1" Cut="0.0000000000000000e+00" cType="1" res="-9.9000000000000000e+01" rms="0.0000000000000000e+00" purity="4.7618353366851807e-01" nType="-1"/>
              </Node>
            </Node>
            <Node pos="r" depth="1" NCoef="0" IVar="-1" Cut="0.0000000000000000e+00" cType="1" res="-9.9000000000000000e+01" rms="0.0000000000000000e+00" purity="4.8383268713951111e-01" nType="-1"/>
          </Node>
        </BinaryTree>
        <BinaryTree type="DecisionTree" boostWeight="8.1847763384985586e-03" itree="162">
          <Node pos="s" depth="0" NCoef="0" IVar="3" Cut="1.7410440063476562e+02" cType="1" res="-9.9000000000000000e+01" rms="0.0000000000000000e+00" purity="4.9920395016670227e-01" nType="0">
            <Node pos="l" depth="1" NCoef="0" IVar="0" Cut="9.1762306213378906e+01" cType="0" res="-9.9000000000000000e+01" rms="0.0000000000000000e+00" purity="5.0395268201828003e-01" nType="0">
              <Node pos="l" depth="2" NCoef="0" IVar="-1" Cut="0.0000000000000000e+00" cType="1" res="-9.9000000000000000e+01" rms="0.0000000000000000e+00" purity="5.1551312208175659e-01" nType="1"/>
              <Node pos="r" depth="2" NCoef="0" IVar="6" Cut="3.2184596061706543e+00" cType="1" res="-9.9000000000000000e+01" rms="0.0000000000000000e+00" purity="5.0085818767547607e-01" nType="0">
                <Node pos="l" depth="3" NCoef="0" IVar="0" Cut="4.0205425262451172e+01" cType="1" res="-9.9000000000000000e+01" rms="0.0000000000000000e+00" purity="5.0591480731964111e-01" nType="0">
                  <Node pos="l" depth="4" NCoef="0" IVar="-1" Cut="0.0000000000000000e+00" cType="1" res="-9.9000000000000000e+01" rms="0.0000000000000000e+00" purity="5.2499252557754517e-01" nType="1"/>
                  <Node pos="r" depth="4" NCoef="0" IVar="-1" Cut="0.0000000000000000e+00" cType="1" res="-9.9000000000000000e+01" rms="0.0000000000000000e+00" purity="4.9648523330688477e-01" nType="-1"/>
                </Node>
                <Node pos="r" depth="3" NCoef="0" IVar="-1" Cut="0.0000000000000000e+00" cType="1" res="-9.9000000000000000e+01" rms="0.0000000000000000e+00" purity="4.7538119554519653e-01" nType="-1"/>
              </Node>
            </Node>
            <Node pos="r" depth="1" NCoef="0" IVar="5" Cut="1.0126559734344482e+00" cType="0" res="-9.9000000000000000e+01" rms="0.0000000000000000e+00" purity="4.9572262167930603e-01" nType="0">
              <Node pos="l" depth="2" NCoef="0" IVar="6" Cut="1.5320438146591187e+00" cType="1" res="-9.9000000000000000e+01" rms="0.0000000000000000e+00" purity="4.9999803304672241e-01" nType="0">
                <Node pos="l" depth="3" NCoef="0" IVar="1" Cut="9.2675254821777344e+01" cType="1" res="-9.9000000000000000e+01" rms="0.0000000000000000e+00" purity="5.1043355464935303e-01" nType="0">
                  <Node pos="l" depth="4" NCoef="0" IVar="-1" Cut="0.0000000000000000e+00" cType="1" res="-9.9000000000000000e+01" rms="0.0000000000000000e+00" purity="5.2574014663696289e-01" nType="1"/>
                  <Node pos="r" depth="4" NCoef="0" IVar="-1" Cut="0.0000000000000000e+00" cType="1" res="-9.9000000000000000e+01" rms="0.0000000000000000e+00" purity="4.9444773793220520e-01" nType="-1"/>
                </Node>
                <Node pos="r" depth="3" NCoef="0" IVar="2" Cut="2.1040231323242188e+02" cType="1" res="-9.9000000000000000e+01" rms="0.0000000000000000e+00" purity="4.9182567000389099e-01" nType="0">
                  <Node pos="l" depth="4" NCoef="0" IVar="-1" Cut="0.0000000000000000e+00" cType="1" res="-9.9000000000000000e+01" rms="0.0000000000000000e+00" purity="5.0041419267654419e-01" nType="1"/>
                  <Node pos="r" depth="4" NCoef="0" IVar="-1" Cut="0.0000000000000000e+00" cType="1" res="-9.9000000000000000e+01" rms="0.0000000000000000e+00" purity="4.5886981487274170e-01" nType="-1"/>
                </Node>
              </Node>
              <Node pos="r" depth="2" NCoef="0" IVar="3" Cut="2.1077182006835938e+02" cType="1" res="-9.9000000000000000e+01" rms="0.0000000000000000e+00" purity="4.7961029410362244e-01" nType="0">
                <Node pos="l" depth="3" NCoef="0" IVar="-1" Cut="0.0000000000000000e+00" cType="1" res="-9.9000000000000000e+01" rms="0.0000000000000000e+00" purity="5.0024735927581787e-01" nType="1"/>
                <Node pos="r" depth="3" NCoef="0" IVar="-1" Cut="0.0000000000000000e+00" cType="1" res="-9.9000000000000000e+01" rms="0.0000000000000000e+00" purity="4.5539203286170959e-01" nType="-1"/>
              </Node>
            </Node>
          </Node>
        </BinaryTree>
        <BinaryTree type="DecisionTree" boostWeight="7.4137753604774275e-03" itree="163">
          <Node pos="s" depth="0" NCoef="0" IVar="3" Cut="1.7410440063476562e+02" cType="1" res="-9.9000000000000000e+01" rms="0.0000000000000000e+00" purity="4.9900186061859131e-01" nType="0">
            <Node pos="l" depth="1" NCoef="0" IVar="1" Cut="8.4846763610839844e+01" cType="1" res="-9.9000000000000000e+01" rms="0.0000000000000000e+00" purity="5.0424569845199585e-01" nType="0">
              <Node pos="l" depth="2" NCoef="0" IVar="1" Cut="5.3748512268066406e+01" cType="0" res="-9.9000000000000000e+01" rms="0.0000000000000000e+00" purity="5.0966447591781616e-01" nType="0">
                <Node pos="l" depth="3" NCoef="0" IVar="-1" Cut="7.4608283996582031e+01" cType="0" res="-9.9000000000000000e+01" rms="0.0000000000000000e+00" purity="5.1447838544845581e-01" nType="1"/>
                <Node pos="r" depth="3" NCoef="0" IVar="-1" Cut="0.0000000000000000e+00" cType="1" res="-9.9000000000000000e+01" rms="0.0000000000000000e+00" purity="4.9722293019294739e-01" nType="-1"/>
              </Node>
              <Node pos="r" depth="2" NCoef="0" IVar="2" Cut="1.5856271362304688e+02" cType="0" res="-9.9000000000000000e+01" rms="0.0000000000000000e+00" purity="4.9913725256919861e-01" nType="0">
                <Node pos="l" depth="3" NCoef="0" IVar="-1" Cut="0.0000000000000000e+00" cType="1" res="-9.9000000000000000e+01" rms="0.0000000000000000e+00" purity="5.1466989517211914e-01" nType="1"/>
                <Node pos="r" depth="3" NCoef="0" IVar="-1" Cut="2.7923979759216309e+00" cType="1" res="-9.9000000000000000e+01" rms="0.0000000000000000e+00" purity="4.9296799302101135e-01" nType="-1"/>
              </Node>
            </Node>
            <Node pos="r" depth="1" NCoef="0" IVar="5" Cut="1.0126559734344482e+00" cType="0" res="-9.9000000000000000e+01" rms="0.0000000000000000e+00" purity="4.9515768885612488e-01" nType="0">
              <Node pos="l" depth="2" NCoef="0" IVar="6" Cut="1.5320438146591187e+00" cType="1" res="-9.9000000000000000e+01" rms="0.0000000000000000e+00" purity="4.9932709336280823e-01" nType="0">
                <Node pos="l" depth="3" NCoef="0" IVar="-1" Cut="1.0328780412673950e+00" cType="0" res="-9.9000000000000000e+01" rms="0.0000000000000000e+00" purity="5.1042413711547852e-01" nType="1"/>
                <Node pos="r" depth="3" NCoef="0" IVar="1" Cut="7.9059280395507812e+01" cType="0" res="-9.9000000000000000e+01" rms="0.0000000000000000e+00" purity="4.9063676595687866e-01" nType="0">
                  <Node pos="l" depth="4" NCoef="0" IVar="-1" Cut="0.0000000000000000e+00" cType="1" res="-9.9000000000000000e+01" rms="0.0000000000000000e+00" purity="5.0330299139022827e-01" nType="1"/>
                  <Node pos="r" depth="4" NCoef="0" IVar="-1" Cut="0.0000000000000000e+00" cType="1" res="-9.9000000000000000e+01" rms="0.0000000000000000e+00" purity="4.7124186158180237e-01" nType="-1"/>
                </Node>
              </Node>
              <Node pos="r" depth="2" NCoef="0" IVar="2" Cut="1.8457661437988281e+02" cType="0" res="-9.9000000000000000e+01" rms="0.0000000000000000e+00" purity="4.7944331169128418e-01" nType="0">
                <Node pos="l" depth="3" NCoef="0" IVar="-1" Cut="0.0000000000000000e+00" cType="1" res="-9.9000000000000000e+01" rms="0.0000000000000000e+00" purity="5.0045877695083618e-01" nType="1"/>
                <Node pos="r" depth="3" NCoef="0" IVar="-1" Cut="0.0000000000000000e+00" cType="1" res="-9.9000000000000000e+01" rms="0.0000000000000000e+00" purity="4.5750096440315247e-01" nType="-1"/>
              </Node>
            </Node>
          </Node>
        </BinaryTree>
        <BinaryTree type="DecisionTree" boostWeight="7.4144599470373738e-03" itree="164">
          <Node pos="s" depth="0" NCoef="0" IVar="3" Cut="1.7410440063476562e+02" cType="1" res="-9.9000000000000000e+01" rms="0.0000000000000000e+00" purity="4.9853664636611938e-01" nType="0">
            <Node pos="l" depth="1" NCoef="0" IVar="6" Cut="3.2690269947052002e+00" cType="1" res="-9.9000000000000000e+01" rms="0.0000000000000000e+00" purity="5.0426137447357178e-01" nType="0">
              <Node pos="l" depth="2" NCoef="0" IVar="0" Cut="4.0426349639892578e+01" cType="1" res="-9.9000000000000000e+01" rms="0.0000000000000000e+00" purity="5.0617247819900513e-01" nType="0">
                <Node pos="l" depth="3" NCoef="0" IVar="-1" Cut="0.0000000000000000e+00" cType="1" res="-9.9000000000000000e+01" rms="0.0000000000000000e+00" purity="5.2184414863586426e-01" nType="1"/>
                <Node pos="r" depth="3" NCoef="0" IVar="6" Cut="2.6874108314514160e+00" cType="0" res="-9.9000000000000000e+01" rms="0.0000000000000000e+00" purity="5.0064253807067871e-01" nType="0">
                  <Node pos="l" depth="4" NCoef="0" IVar="-1" Cut="0.0000000000000000e+00" cType="1" res="-9.9000000000000000e+01" rms="0.0000000000000000e+00" purity="5.1781195402145386e-01" nType="1"/>
                  <Node pos="r" depth="4" NCoef="0" IVar="-1" Cut="0.0000000000000000e+00" cType="1" res="-9.9000000000000000e+01" rms="0.0000000000000000e+00" purity="4.9361097812652588e-01" nType="-1"/>
                </Node>
              </Node>
              <Node pos="r" depth="2" NCoef="0" IVar="-1" Cut="0.0000000000000000e+00" cType="1" res="-9.9000000000000000e+01" rms="0.0000000000000000e+00" purity="4.9046477675437927e-01" nType="-1"/>
            </Node>
            <Node pos="r" depth="1" NCoef="0" IVar="5" Cut="1.0126559734344482e+00" cType="0" res="-9.9000000000000000e+01" rms="0.0000000000000000e+00" purity="4.9433991312980652e-01" nType="0">
              <Node pos="l" depth="2" NCoef="0" IVar="6" Cut="1.5320438146591187e+00" cType="1" res="-9.9000000000000000e+01" rms="0.0000000000000000e+00" purity="4.9830311536788940e-01" nType="0">
                <Node pos="l" depth="3" NCoef="0" IVar="4" Cut="1.0328780412673950e+00" cType="0" res="-9.9000000000000000e+01" rms="0.0000000000000000e+00" purity="5.0857120752334595e-01" nType="0">
                  <Node pos="l" depth="4" NCoef="0" IVar="-1" Cut="0.0000000000000000e+00" cType="1" res="-9.9000000000000000e+01" rms="0.0000000000000000e+00" purity="5.2940601110458374e-01" nType="1"/>
                  <Node pos="r" depth="4" NCoef="0" IVar="-1" Cut="0.0000000000000000e+00" cType="1" res="-9.9000000000000000e+01" rms="0.0000000000000000e+00" purity="4.9879342317581177e-01" nType="-1"/>
                </Node>
                <Node pos="r" depth="3" NCoef="0" IVar="4" Cut="1.2611414194107056e+00" cType="0" res="-9.9000000000000000e+01" rms="0.0000000000000000e+00" purity="4.9026206135749817e-01" nType="0">
                  <Node pos="l" depth="4" NCoef="0" IVar="-1" Cut="0.0000000000000000e+00" cType="1" res="-9.9000000000000000e+01" rms="0.0000000000000000e+00" purity="5.0014692544937134e-01" nType="1"/>
                  <Node pos="r" depth="4" NCoef="0" IVar="-1" Cut="0.0000000000000000e+00" cType="1" res="-9.9000000000000000e+01" rms="0.0000000000000000e+00" purity="4.6620431542396545e-01" nType="-1"/>
                </Node>
              </Node>
              <Node pos="r" depth="2" NCoef="0" IVar="-1" Cut="2.1077182006835938e+02" cType="1" res="-9.9000000000000000e+01" rms="0.0000000000000000e+00" purity="4.7940129041671753e-01" nType="-1"/>
            </Node>
          </Node>
        </BinaryTree>
        <BinaryTree type="DecisionTree" boostWeight="8.2794805920618098e-03" itree="165">
          <Node pos="s" depth="0" NCoef="0" IVar="3" Cut="1.7410440063476562e+02" cType="1" res="-9.9000000000000000e+01" rms="0.0000000000000000e+00" purity="4.9885088205337524e-01" nType="0">
            <Node pos="l" depth="1" NCoef="0" IVar="0" Cut="9.1762306213378906e+01" cType="0" res="-9.9000000000000000e+01" rms="0.0000000000000000e+00" purity="5.0457036495208740e-01" nType="0">
              <Node pos="l" depth="2" NCoef="0" IVar="-1" Cut="0.0000000000000000e+00" cType="1" res="-9.9000000000000000e+01" rms="0.0000000000000000e+00" purity="5.1468312740325928e-01" nType="1"/>
              <Node pos="r" depth="2" NCoef="0" IVar="2" Cut="1.3321214294433594e+02" cType="0" res="-9.9000000000000000e+01" rms="0.0000000000000000e+00" purity="5.0186306238174438e-01" nType="0">
                <Node pos="l" depth="3" NCoef="0" IVar="5" Cut="1.0427615642547607e+00" cType="1" res="-9.9000000000000000e+01" rms="0.0000000000000000e+00" purity="5.0915950536727905e-01" nType="0">
                  <Node pos="l" depth="4" NCoef="0" IVar="-1" Cut="0.0000000000000000e+00" cType="1" res="-9.9000000000000000e+01" rms="0.0000000000000000e+00" purity="5.1789724826812744e-01" nType="1"/>
                  <Node pos="r" depth="4" NCoef="0" IVar="-1" Cut="0.0000000000000000e+00" cType="1" res="-9.9000000000000000e+01" rms="0.0000000000000000e+00" purity="4.9213668704032898e-01" nType="-1"/>
                </Node>
                <Node pos="r" depth="3" NCoef="0" IVar="-1" Cut="8.3700805664062500e+01" cType="1" res="-9.9000000000000000e+01" rms="0.0000000000000000e+00" purity="4.8583853244781494e-01" nType="-1"/>
              </Node>
            </Node>
            <Node pos="r" depth="1" NCoef="0" IVar="2" Cut="1.6511323547363281e+02" cType="0" res="-9.9000000000000000e+01" rms="0.0000000000000000e+00" purity="4.9465817213058472e-01" nType="0">
              <Node pos="l" depth="2" NCoef="0" IVar="6" Cut="2.6161043643951416e+00" cType="1" res="-9.9000000000000000e+01" rms="0.0000000000000000e+00" purity="4.9806594848632812e-01" nType="0">
                <Node pos="l" depth="3" NCoef="0" IVar="1" Cut="1.1585250854492188e+02" cType="1" res="-9.9000000000000000e+01" rms="0.0000000000000000e+00" purity="5.0237417221069336e-01" nType="0">
                  <Node pos="l" depth="4" NCoef="0" IVar="-1" Cut="0.0000000000000000e+00" cType="1" res="-9.9000000000000000e+01" rms="0.0000000000000000e+00" purity="5.0752782821655273e-01" nType="1"/>
                  <Node pos="r" depth="4" NCoef="0" IVar="-1" Cut="0.0000000000000000e+00" cType="1" res="-9.9000000000000000e+01" rms="0.0000000000000000e+00" purity="4.8528939485549927e-01" nType="-1"/>
                </Node>
                <Node pos="r" depth="3" NCoef="0" IVar="-1" Cut="0.0000000000000000e+00" cType="1" res="-9.9000000000000000e+01" rms="0.0000000000000000e+00" purity="4.7876036167144775e-01" nType="-1"/>
              </Node>
              <Node pos="r" depth="2" NCoef="0" IVar="-1" Cut="0.0000000000000000e+00" cType="1" res="-9.9000000000000000e+01" rms="0.0000000000000000e+00" purity="4.7634410858154297e-01" nType="-1"/>
            </Node>
          </Node>
        </BinaryTree>
        <BinaryTree type="DecisionTree" boostWeight="8.7681160776376214e-03" itree="166">
          <Node pos="s" depth="0" NCoef="0" IVar="3" Cut="1.7410440063476562e+02" cType="1" res="-9.9000000000000000e+01" rms="0.0000000000000000e+00" purity="4.9866503477096558e-01" nType="0">
            <Node pos="l" depth="1" NCoef="0" IVar="6" Cut="3.0026431083679199e+00" cType="1" res="-9.9000000000000000e+01" rms="0.0000000000000000e+00" purity="5.0428563356399536e-01" nType="0">
              <Node pos="l" depth="2" NCoef="0" IVar="0" Cut="4.1134277343750000e+01" cType="1" res="-9.9000000000000000e+01" rms="0.0000000000000000e+00" purity="5.0714612007141113e-01" nType="0">
                <Node pos="l" depth="3" NCoef="0" IVar="-1" Cut="0.0000000000000000e+00" cType="1" res="-9.9000000000000000e+01" rms="0.0000000000000000e+00" purity="5.3804415464401245e-01" nType="1"/>
                <Node pos="r" depth="3" NCoef="0" IVar="3" Cut="1.3945431518554688e+02" cType="1" res="-9.9000000000000000e+01" rms="0.0000000000000000e+00" purity="4.9800050258636475e-01" nType="0">
                  <Node pos="l" depth="4" NCoef="0" IVar="-1" Cut="0.0000000000000000e+00" cType="1" res="-9.9000000000000000e+01" rms="0.0000000000000000e+00" purity="5.1149791479110718e-01" nType="1"/>
                  <Node pos="r" depth="4" NCoef="0" IVar="-1" Cut="0.0000000000000000e+00" cType="1" res="-9.9000000000000000e+01" rms="0.0000000000000000e+00" purity="4.9167311191558838e-01" nType="-1"/>
                </Node>
              </Node>
              <Node pos="r" depth="2" NCoef="0" IVar="0" Cut="4.0300243377685547e+01" cType="0" res="-9.9000000000000000e+01" rms="0.0000000000000000e+00" purity="4.9625411629676819e-01" nType="0">
                <Node pos="l" depth="3" NCoef="0" IVar="-1" Cut="0.0000000000000000e+00" cType="1" res="-9.9000000000000000e+01" rms="0.0000000000000000e+00" purity="5.2276784181594849e-01" nType="1"/>
                <Node pos="r" depth="3" NCoef="0" IVar="-1" Cut="0.0000000000000000e+00" cType="1" res="-9.9000000000000000e+01" rms="0.0000000000000000e+00" purity="4.6470689773559570e-01" nType="-1"/>
              </Node>
            </Node>
            <Node pos="r" depth="1" NCoef="0" IVar="4" Cut="2.2274236679077148e+00" cType="1" res="-9.9000000000000000e+01" rms="0.0000000000000000e+00" purity="4.9454495310783386e-01" nType="0">
              <Node pos="l" depth="2" NCoef="0" IVar="0" Cut="5.7929935455322266e+01" cType="0" res="-9.9000000000000000e+01" rms="0.0000000000000000e+00" purity="4.9699670076370239e-01" nType="0">
                <Node pos="l" depth="3" NCoef="0" IVar="1" Cut="7.3349876403808594e+01" cType="0" res="-9.9000000000000000e+01" rms="0.0000000000000000e+00" purity="5.0052750110626221e-01" nType="0">
                  <Node pos="l" depth="4" NCoef="0" IVar="-1" Cut="0.0000000000000000e+00" cType="1" res="-9.9000000000000000e+01" rms="0.0000000000000000e+00" purity="5.0514537096023560e-01" nType="1"/>
                  <Node pos="r" depth="4" NCoef="0" IVar="-1" Cut="0.0000000000000000e+00" cType="1" res="-9.9000000000000000e+01" rms="0.0000000000000000e+00" purity="4.8746171593666077e-01" nType="-1"/>
                </Node>
                <Node pos="r" depth="3" NCoef="0" IVar="-1" Cut="0.0000000000000000e+00" cType="1" res="-9.9000000000000000e+01" rms="0.0000000000000000e+00" purity="4.7681385278701782e-01" nType="-1"/>
              </Node>
              <Node pos="r" depth="2" NCoef="0" IVar="-1" Cut="0.0000000000000000e+00" cType="1" res="-9.9000000000000000e+01" rms="0.0000000000000000e+00" purity="4.7379028797149658e-01" nType="-1"/>
            </Node>
          </Node>
        </BinaryTree>
        <BinaryTree type="DecisionTree" boostWeight="7.8763962971931233e-03" itree="167">
          <Node pos="s" depth="0" NCoef="0" IVar="3" Cut="1.7410440063476562e+02" cType="1" res="-9.9000000000000000e+01" rms="0.0000000000000000e+00" purity="4.9853438138961792e-01" nType="0">
            <Node pos="l" depth="1" NCoef="0" IVar="6" Cut="3.0026431083679199e+00" cType="1" res="-9.9000000000000000e+01" rms="0.0000000000000000e+00" purity="5.0432330369949341e-01" nType="0">
              <Node pos="l" depth="2" NCoef="0" IVar="0" Cut="4.1134277343750000e+01" cType="1" res="-9.9000000000000000e+01" rms="0.0000000000000000e+00" purity="5.0726473331451416e-01" nType="0">
                <Node pos="l" depth="3" NCoef="0" IVar="-1" Cut="0.0000000000000000e+00" cType="1" res="-9.9000000000000000e+01" rms="0.0000000000000000e+00" purity="5.3585022687911987e-01" nType="1"/>
                <Node pos="r" depth="3" NCoef="0" IVar="1" Cut="1.0055101776123047e+02" cType="1" res="-9.9000000000000000e+01" rms="0.0000000000000000e+00" purity="4.9880573153495789e-01" nType="0">
                  <Node pos="l" depth="4" NCoef="0" IVar="-1" Cut="0.0000000000000000e+00" cType="1" res="-9.9000000000000000e+01" rms="0.0000000000000000e+00" purity="5.0392085313796997e-01" nType="1"/>
                  <Node pos="r" depth="4" NCoef="0" IVar="-1" Cut="0.0000000000000000e+00" cType="1" res="-9.9000000000000000e+01" rms="0.0000000000000000e+00" purity="4.8741328716278076e-01" nType="-1"/>
                </Node>
              </Node>
              <Node pos="r" depth="2" NCoef="0" IVar="0" Cut="4.0300243377685547e+01" cType="0" res="-9.9000000000000000e+01" rms="0.0000000000000000e+00" purity="4.9606347084045410e-01" nType="0">
                <Node pos="l" depth="3" NCoef="0" IVar="-1" Cut="0.0000000000000000e+00" cType="1" res="-9.9000000000000000e+01" rms="0.0000000000000000e+00" purity="5.2057588100433350e-01" nType="1"/>
                <Node pos="r" depth="3" NCoef="0" IVar="-1" Cut="0.0000000000000000e+00" cType="1" res="-9.9000000000000000e+01" rms="0.0000000000000000e+00" purity="4.6689429879188538e-01" nType="-1"/>
              </Node>
            </Node>
            <Node pos="r" depth="1" NCoef="0" IVar="2" Cut="1.6511323547363281e+02" cType="0" res="-9.9000000000000000e+01" rms="0.0000000000000000e+00" purity="4.9429127573966980e-01" nType="0">
              <Node pos="l" depth="2" NCoef="0" IVar="0" Cut="9.2543121337890625e+01" cType="1" res="-9.9000000000000000e+01" rms="0.0000000000000000e+00" purity="4.9724662303924561e-01" nType="0">
                <Node pos="l" depth="3" NCoef="0" IVar="-1" Cut="1.0458842515945435e+00" cType="0" res="-9.9000000000000000e+01" rms="0.0000000000000000e+00" purity="5.0824898481369019e-01" nType="1"/>
                <Node pos="r" depth="3" NCoef="0" IVar="-1" Cut="2.1289949417114258e+00" cType="1" res="-9.9000000000000000e+01" rms="0.0000000000000000e+00" purity="4.9146112799644470e-01" nType="-1"/>
              </Node>
              <Node pos="r" depth="2" NCoef="0" IVar="-1" Cut="0.0000000000000000e+00" cType="1" res="-9.9000000000000000e+01" rms="0.0000000000000000e+00" purity="4.7840499877929688e-01" nType="-1"/>
            </Node>
          </Node>
        </BinaryTree>
        <BinaryTree type="DecisionTree" boostWeight="3.7444192252935947e-03" itree="168">
          <Node pos="s" depth="0" NCoef="0" IVar="5" Cut="2.1574385166168213e+00" cType="0" res="-9.9000000000000000e+01" rms="0.0000000000000000e+00" purity="4.9870738387107849e-01" nType="0">
            <Node pos="l" depth="1" NCoef="0" IVar="-1" Cut="0.0000000000000000e+00" cType="1" res="-9.9000000000000000e+01" rms="0.0000000000000000e+00" purity="5.1732838153839111e-01" nType="1"/>
            <Node pos="r" depth="1" NCoef="0" IVar="2" Cut="2.4387231445312500e+02" cType="1" res="-9.9000000000000000e+01" rms="0.0000000000000000e+00" purity="4.9772679805755615e-01" nType="0">
              <Node pos="l" depth="2" NCoef="0" IVar="6" Cut="1.1087671518325806e+00" cType="0" res="-9.9000000000000000e+01" rms="0.0000000000000000e+00" purity="4.9919629096984863e-01" nType="0">
                <Node pos="l" depth="3" NCoef="0" IVar="2" Cut="2.0464527893066406e+02" cType="0" res="-9.9000000000000000e+01" rms="0.0000000000000000e+00" purity="5.0078219175338745e-01" nType="0">
                  <Node pos="l" depth="4" NCoef="0" IVar="-1" Cut="0.0000000000000000e+00" cType="1" res="-9.9000000000000000e+01" rms="0.0000000000000000e+00" purity="5.1649177074432373e-01" nType="1"/>
                  <Node pos="r" depth="4" NCoef="0" IVar="-1" Cut="0.0000000000000000e+00" cType="1" res="-9.9000000000000000e+01" rms="0.0000000000000000e+00" purity="4.9862539768218994e-01" nType="-1"/>
                </Node>
                <Node pos="r" depth="3" NCoef="0" IVar="-1" Cut="0.0000000000000000e+00" cType="1" res="-9.9000000000000000e+01" rms="0.0000000000000000e+00" purity="4.8107457160949707e-01" nType="-1"/>
              </Node>
              <Node pos="r" depth="2" NCoef="0" IVar="-1" Cut="0.0000000000000000e+00" cType="1" res="-9.9000000000000000e+01" rms="0.0000000000000000e+00" purity="4.7984540462493896e-01" nType="-1"/>
            </Node>
          </Node>
        </BinaryTree>
        <BinaryTree type="DecisionTree" boostWeight="8.6249642993053294e-03" itree="169">
          <Node pos="s" depth="0" NCoef="0" IVar="3" Cut="1.7410440063476562e+02" cType="1" res="-9.9000000000000000e+01" rms="0.0000000000000000e+00" purity="4.9937695264816284e-01" nType="0">
            <Node pos="l" depth="1" NCoef="0" IVar="2" Cut="1.2176612854003906e+02" cType="0" res="-9.9000000000000000e+01" rms="0.0000000000000000e+00" purity="5.0445973873138428e-01" nType="0">
              <Node pos="l" depth="2" NCoef="0" IVar="4" Cut="1.0025285482406616e+00" cType="1" res="-9.9000000000000000e+01" rms="0.0000000000000000e+00" purity="5.0628221035003662e-01" nType="0">
                <Node pos="l" depth="3" NCoef="0" IVar="-1" Cut="0.0000000000000000e+00" cType="1" res="-9.9000000000000000e+01" rms="0.0000000000000000e+00" purity="5.2279603481292725e-01" nType="1"/>
                <Node pos="r" depth="3" NCoef="0" IVar="6" Cut="3.0308289527893066e+00" cType="1" res="-9.9000000000000000e+01" rms="0.0000000000000000e+00" purity="5.0331538915634155e-01" nType="0">
                  <Node pos="l" depth="4" NCoef="0" IVar="-1" Cut="0.0000000000000000e+00" cType="1" res="-9.9000000000000000e+01" rms="0.0000000000000000e+00" purity="5.0772166252136230e-01" nType="1"/>
                  <Node pos="r" depth="4" NCoef="0" IVar="-1" Cut="0.0000000000000000e+00" cType="1" res="-9.9000000000000000e+01" rms="0.0000000000000000e+00" purity="4.8994114995002747e-01" nType="-1"/>
                </Node>
              </Node>
              <Node pos="r" depth="2" NCoef="0" IVar="-1" Cut="0.0000000000000000e+00" cType="1" res="-9.9000000000000000e+01" rms="0.0000000000000000e+00" purity="4.9242612719535828e-01" nType="-1"/>
            </Node>
            <Node pos="r" depth="1" NCoef="0" IVar="0" Cut="6.9467666625976562e+01" cType="0" res="-9.9000000000000000e+01" rms="0.0000000000000000e+00" purity="4.9565187096595764e-01" nType="0">
              <Node pos="l" depth="2" NCoef="0" IVar="6" Cut="2.1486873626708984e+00" cType="1" res="-9.9000000000000000e+01" rms="0.0000000000000000e+00" purity="4.9928006529808044e-01" nType="0">
                <Node pos="l" depth="3" NCoef="0" IVar="1" Cut="1.1270767211914062e+02" cType="1" res="-9.9000000000000000e+01" rms="0.0000000000000000e+00" purity="5.0567334890365601e-01" nType="0">
                  <Node pos="l" depth="4" NCoef="0" IVar="-1" Cut="0.0000000000000000e+00" cType="1" res="-9.9000000000000000e+01" rms="0.0000000000000000e+00" purity="5.1192706823348999e-01" nType="1"/>
                  <Node pos="r" depth="4" NCoef="0" IVar="-1" Cut="0.0000000000000000e+00" cType="1" res="-9.9000000000000000e+01" rms="0.0000000000000000e+00" purity="4.8748362064361572e-01" nType="-1"/>
                </Node>
                <Node pos="r" depth="3" NCoef="0" IVar="2" Cut="1.8303530883789062e+02" cType="1" res="-9.9000000000000000e+01" rms="0.0000000000000000e+00" purity="4.8305553197860718e-01" nType="0">
                  <Node pos="l" depth="4" NCoef="0" IVar="-1" Cut="0.0000000000000000e+00" cType="1" res="-9.9000000000000000e+01" rms="0.0000000000000000e+00" purity="5.1026004552841187e-01" nType="1"/>
                  <Node pos="r" depth="4" NCoef="0" IVar="-1" Cut="0.0000000000000000e+00" cType="1" res="-9.9000000000000000e+01" rms="0.0000000000000000e+00" purity="4.5275616645812988e-01" nType="-1"/>
                </Node>
              </Node>
              <Node pos="r" depth="2" NCoef="0" IVar="2" Cut="1.8103472900390625e+02" cType="0" res="-9.9000000000000000e+01" rms="0.0000000000000000e+00" purity="4.8316454887390137e-01" nType="0">
                <Node pos="l" depth="3" NCoef="0" IVar="-1" Cut="0.0000000000000000e+00" cType="1" res="-9.9000000000000000e+01" rms="0.0000000000000000e+00" purity="5.0344645977020264e-01" nType="1"/>
                <Node pos="r" depth="3" NCoef="0" IVar="-1" Cut="0.0000000000000000e+00" cType="1" res="-9.9000000000000000e+01" rms="0.0000000000000000e+00" purity="4.5504328608512878e-01" nType="-1"/>
              </Node>
            </Node>
          </Node>
        </BinaryTree>
        <BinaryTree type="DecisionTree" boostWeight="7.8341780780116048e-03" itree="170">
          <Node pos="s" depth="0" NCoef="0" IVar="3" Cut="1.7410440063476562e+02" cType="1" res="-9.9000000000000000e+01" rms="0.0000000000000000e+00" purity="4.9864438176155090e-01" nType="0">
            <Node pos="l" depth="1" NCoef="0" IVar="5" Cut="9.2884892225265503e-01" cType="0" res="-9.9000000000000000e+01" rms="0.0000000000000000e+00" purity="5.0365751981735229e-01" nType="0">
              <Node pos="l" depth="2" NCoef="0" IVar="3" Cut="1.3975749206542969e+02" cType="1" res="-9.9000000000000000e+01" rms="0.0000000000000000e+00" purity="5.0635010004043579e-01" nType="0">
                <Node pos="l" depth="3" NCoef="0" IVar="-1" Cut="1.2685593414306641e+02" cType="1" res="-9.9000000000000000e+01" rms="0.0000000000000000e+00" purity="5.1719772815704346e-01" nType="1"/>
                <Node pos="r" depth="3" NCoef="0" IVar="4" Cut="1.2862399816513062e+00" cType="1" res="-9.9000000000000000e+01" rms="0.0000000000000000e+00" purity="5.0009328126907349e-01" nType="0">
                  <Node pos="l" depth="4" NCoef="0" IVar="-1" Cut="0.0000000000000000e+00" cType="1" res="-9.9000000000000000e+01" rms="0.0000000000000000e+00" purity="5.1921206712722778e-01" nType="1"/>
                  <Node pos="r" depth="4" NCoef="0" IVar="-1" Cut="0.0000000000000000e+00" cType="1" res="-9.9000000000000000e+01" rms="0.0000000000000000e+00" purity="4.9218302965164185e-01" nType="-1"/>
                </Node>
              </Node>
              <Node pos="r" depth="2" NCoef="0" IVar="2" Cut="1.4105764770507812e+02" cType="0" res="-9.9000000000000000e+01" rms="0.0000000000000000e+00" purity="4.9627277255058289e-01" nType="0">
                <Node pos="l" depth="3" NCoef="0" IVar="-1" Cut="0.0000000000000000e+00" cType="1" res="-9.9000000000000000e+01" rms="0.0000000000000000e+00" purity="5.1522541046142578e-01" nType="1"/>
                <Node pos="r" depth="3" NCoef="0" IVar="-1" Cut="0.0000000000000000e+00" cType="1" res="-9.9000000000000000e+01" rms="0.0000000000000000e+00" purity="4.7339570522308350e-01" nType="-1"/>
              </Node>
            </Node>
            <Node pos="r" depth="1" NCoef="0" IVar="5" Cut="1.0126559734344482e+00" cType="0" res="-9.9000000000000000e+01" rms="0.0000000000000000e+00" purity="4.9497011303901672e-01" nType="0">
              <Node pos="l" depth="2" NCoef="0" IVar="6" Cut="1.5320438146591187e+00" cType="1" res="-9.9000000000000000e+01" rms="0.0000000000000000e+00" purity="4.9834495782852173e-01" nType="0">
                <Node pos="l" depth="3" NCoef="0" IVar="-1" Cut="1.0519914627075195e+00" cType="0" res="-9.9000000000000000e+01" rms="0.0000000000000000e+00" purity="5.0870436429977417e-01" nType="1"/>
                <Node pos="r" depth="3" NCoef="0" IVar="-1" Cut="2.1040231323242188e+02" cType="1" res="-9.9000000000000000e+01" rms="0.0000000000000000e+00" purity="4.9022811651229858e-01" nType="-1"/>
              </Node>
              <Node pos="r" depth="2" NCoef="0" IVar="3" Cut="2.1077182006835938e+02" cType="1" res="-9.9000000000000000e+01" rms="0.0000000000000000e+00" purity="4.8223707079887390e-01" nType="0">
                <Node pos="l" depth="3" NCoef="0" IVar="-1" Cut="0.0000000000000000e+00" cType="1" res="-9.9000000000000000e+01" rms="0.0000000000000000e+00" purity="5.0166791677474976e-01" nType="1"/>
                <Node pos="r" depth="3" NCoef="0" IVar="-1" Cut="0.0000000000000000e+00" cType="1" res="-9.9000000000000000e+01" rms="0.0000000000000000e+00" purity="4.5940917730331421e-01" nType="-1"/>
              </Node>
            </Node>
          </Node>
        </BinaryTree>
        <BinaryTree type="DecisionTree" boostWeight="7.6991789709294073e-03" itree="171">
          <Node pos="s" depth="0" NCoef="0" IVar="3" Cut="1.7410440063476562e+02" cType="1" res="-9.9000000000000000e+01" rms="0.0000000000000000e+00" purity="4.9866113066673279e-01" nType="0">
            <Node pos="l" depth="1" NCoef="0" IVar="5" Cut="9.2884892225265503e-01" cType="0" res="-9.9000000000000000e+01" rms="0.0000000000000000e+00" purity="5.0346404314041138e-01" nType="0">
              <Node pos="l" depth="2" NCoef="0" IVar="0" Cut="4.0307895660400391e+01" cType="1" res="-9.9000000000000000e+01" rms="0.0000000000000000e+00" purity="5.0615352392196655e-01" nType="0">
                <Node pos="l" depth="3" NCoef="0" IVar="-1" Cut="0.0000000000000000e+00" cType="1" res="-9.9000000000000000e+01" rms="0.0000000000000000e+00" purity="5.2209985256195068e-01" nType="1"/>
                <Node pos="r" depth="3" NCoef="0" IVar="6" Cut="2.8814687728881836e+00" cType="0" res="-9.9000000000000000e+01" rms="0.0000000000000000e+00" purity="5.0211733579635620e-01" nType="0">
                  <Node pos="l" depth="4" NCoef="0" IVar="-1" Cut="0.0000000000000000e+00" cType="1" res="-9.9000000000000000e+01" rms="0.0000000000000000e+00" purity="5.2205049991607666e-01" nType="1"/>
                  <Node pos="r" depth="4" NCoef="0" IVar="-1" Cut="0.0000000000000000e+00" cType="1" res="-9.9000000000000000e+01" rms="0.0000000000000000e+00" purity="4.9563348293304443e-01" nType="-1"/>
                </Node>
              </Node>
              <Node pos="r" depth="2" NCoef="0" IVar="2" Cut="1.4105764770507812e+02" cType="0" res="-9.9000000000000000e+01" rms="0.0000000000000000e+00" purity="4.9608713388442993e-01" nType="0">
                <Node pos="l" depth="3" NCoef="0" IVar="-1" Cut="0.0000000000000000e+00" cType="1" res="-9.9000000000000000e+01" rms="0.0000000000000000e+00" purity="5.1326435804367065e-01" nType="1"/>
                <Node pos="r" depth="3" NCoef="0" IVar="-1" Cut="0.0000000000000000e+00" cType="1" res="-9.9000000000000000e+01" rms="0.0000000000000000e+00" purity="4.7535106539726257e-01" nType="-1"/>
              </Node>
            </Node>
            <Node pos="r" depth="1" NCoef="0" IVar="5" Cut="1.0126559734344482e+00" cType="0" res="-9.9000000000000000e+01" rms="0.0000000000000000e+00" purity="4.9514111876487732e-01" nType="0">
              <Node pos="l" depth="2" NCoef="0" IVar="3" Cut="4.5173327636718750e+02" cType="1" res="-9.9000000000000000e+01" rms="0.0000000000000000e+00" purity="4.9860337376594543e-01" nType="0">
                <Node pos="l" depth="3" NCoef="0" IVar="3" Cut="2.2083361816406250e+02" cType="0" res="-9.9000000000000000e+01" rms="0.0000000000000000e+00" purity="5.0124669075012207e-01" nType="0">
                  <Node pos="l" depth="4" NCoef="0" IVar="-1" Cut="0.0000000000000000e+00" cType="1" res="-9.9000000000000000e+01" rms="0.0000000000000000e+00" purity="5.0939548015594482e-01" nType="1"/>
                  <Node pos="r" depth="4" NCoef="0" IVar="-1" Cut="0.0000000000000000e+00" cType="1" res="-9.9000000000000000e+01" rms="0.0000000000000000e+00" purity="4.8987883329391479e-01" nType="-1"/>
                </Node>
                <Node pos="r" depth="3" NCoef="0" IVar="-1" Cut="0.0000000000000000e+00" cType="1" res="-9.9000000000000000e+01" rms="0.0000000000000000e+00" purity="4.7873842716217041e-01" nType="-1"/>
              </Node>
              <Node pos="r" depth="2" NCoef="0" IVar="-1" Cut="2.1077182006835938e+02" cType="1" res="-9.9000000000000000e+01" rms="0.0000000000000000e+00" purity="4.8207676410675049e-01" nType="-1"/>
            </Node>
          </Node>
        </BinaryTree>
        <BinaryTree type="DecisionTree" boostWeight="6.4961422067239954e-03" itree="172">
          <Node pos="s" depth="0" NCoef="0" IVar="3" Cut="1.7410440063476562e+02" cType="1" res="-9.9000000000000000e+01" rms="0.0000000000000000e+00" purity="4.9898567795753479e-01" nType="0">
            <Node pos="l" depth="1" NCoef="0" IVar="0" Cut="9.1762306213378906e+01" cType="0" res="-9.9000000000000000e+01" rms="0.0000000000000000e+00" purity="5.0370824337005615e-01" nType="0">
              <Node pos="l" depth="2" NCoef="0" IVar="-1" Cut="0.0000000000000000e+00" cType="1" res="-9.9000000000000000e+01" rms="0.0000000000000000e+00" purity="5.1307940483093262e-01" nType="1"/>
              <Node pos="r" depth="2" NCoef="0" IVar="2" Cut="1.3321214294433594e+02" cType="0" res="-9.9000000000000000e+01" rms="0.0000000000000000e+00" purity="5.0119829177856445e-01" nType="0">
                <Node pos="l" depth="3" NCoef="0" IVar="-1" Cut="2.2933287620544434e+00" cType="1" res="-9.9000000000000000e+01" rms="0.0000000000000000e+00" purity="5.0763231515884399e-01" nType="1"/>
                <Node pos="r" depth="3" NCoef="0" IVar="-1" Cut="8.3700805664062500e+01" cType="1" res="-9.9000000000000000e+01" rms="0.0000000000000000e+00" purity="4.8706915974617004e-01" nType="-1"/>
              </Node>
            </Node>
            <Node pos="r" depth="1" NCoef="0" IVar="5" Cut="1.0126559734344482e+00" cType="0" res="-9.9000000000000000e+01" rms="0.0000000000000000e+00" purity="4.9552473425865173e-01" nType="0">
              <Node pos="l" depth="2" NCoef="0" IVar="1" Cut="7.7386558532714844e+01" cType="0" res="-9.9000000000000000e+01" rms="0.0000000000000000e+00" purity="4.9857750535011292e-01" nType="0">
                <Node pos="l" depth="3" NCoef="0" IVar="5" Cut="1.2629888057708740e+00" cType="1" res="-9.9000000000000000e+01" rms="0.0000000000000000e+00" purity="5.0378203392028809e-01" nType="0">
                  <Node pos="l" depth="4" NCoef="0" IVar="-1" Cut="0.0000000000000000e+00" cType="1" res="-9.9000000000000000e+01" rms="0.0000000000000000e+00" purity="5.1376855373382568e-01" nType="1"/>
                  <Node pos="r" depth="4" NCoef="0" IVar="-1" Cut="0.0000000000000000e+00" cType="1" res="-9.9000000000000000e+01" rms="0.0000000000000000e+00" purity="4.9699690937995911e-01" nType="-1"/>
                </Node>
                <Node pos="r" depth="3" NCoef="0" IVar="6" Cut="1.6841983795166016e+00" cType="1" res="-9.9000000000000000e+01" rms="0.0000000000000000e+00" purity="4.8841550946235657e-01" nType="0">
                  <Node pos="l" depth="4" NCoef="0" IVar="-1" Cut="0.0000000000000000e+00" cType="1" res="-9.9000000000000000e+01" rms="0.0000000000000000e+00" purity="5.0278556346893311e-01" nType="1"/>
                  <Node pos="r" depth="4" NCoef="0" IVar="-1" Cut="0.0000000000000000e+00" cType="1" res="-9.9000000000000000e+01" rms="0.0000000000000000e+00" purity="4.7592404484748840e-01" nType="-1"/>
                </Node>
              </Node>
              <Node pos="r" depth="2" NCoef="0" IVar="3" Cut="2.1077182006835938e+02" cType="1" res="-9.9000000000000000e+01" rms="0.0000000000000000e+00" purity="4.8400416970252991e-01" nType="0">
                <Node pos="l" depth="3" NCoef="0" IVar="-1" Cut="0.0000000000000000e+00" cType="1" res="-9.9000000000000000e+01" rms="0.0000000000000000e+00" purity="5.0163704156875610e-01" nType="1"/>
                <Node pos="r" depth="3" NCoef="0" IVar="-1" Cut="0.0000000000000000e+00" cType="1" res="-9.9000000000000000e+01" rms="0.0000000000000000e+00" purity="4.6327590942382812e-01" nType="-1"/>
              </Node>
            </Node>
          </Node>
        </BinaryTree>
        <BinaryTree type="DecisionTree" boostWeight="4.0009361449343328e-03" itree="173">
          <Node pos="s" depth="0" NCoef="0" IVar="0" Cut="2.3316755294799805e+01" cType="0" res="-9.9000000000000000e+01" rms="0.0000000000000000e+00" purity="4.9875280261039734e-01" nType="0">
            <Node pos="l" depth="1" NCoef="0" IVar="3" Cut="1.3399234008789062e+02" cType="1" res="-9.9000000000000000e+01" rms="0.0000000000000000e+00" purity="4.9977540969848633e-01" nType="0">
              <Node pos="l" depth="2" NCoef="0" IVar="-1" Cut="0.0000000000000000e+00" cType="1" res="-9.9000000000000000e+01" rms="0.0000000000000000e+00" purity="5.1121443510055542e-01" nType="1"/>
              <Node pos="r" depth="2" NCoef="0" IVar="4" Cut="5.8252364397048950e-01" cType="0" res="-9.9000000000000000e+01" rms="0.0000000000000000e+00" purity="4.9835288524627686e-01" nType="0">
                <Node pos="l" depth="3" NCoef="0" IVar="6" Cut="1.1087671518325806e+00" cType="1" res="-9.9000000000000000e+01" rms="0.0000000000000000e+00" purity="4.9953645467758179e-01" nType="0">
                  <Node pos="l" depth="4" NCoef="0" IVar="-1" Cut="0.0000000000000000e+00" cType="1" res="-9.9000000000000000e+01" rms="0.0000000000000000e+00" purity="5.1488018035888672e-01" nType="1"/>
                  <Node pos="r" depth="4" NCoef="0" IVar="-1" Cut="0.0000000000000000e+00" cType="1" res="-9.9000000000000000e+01" rms="0.0000000000000000e+00" purity="4.9717143177986145e-01" nType="-1"/>
                </Node>
                <Node pos="r" depth="3" NCoef="0" IVar="-1" Cut="0.0000000000000000e+00" cType="1" res="-9.9000000000000000e+01" rms="0.0000000000000000e+00" purity="4.8085409402847290e-01" nType="-1"/>
              </Node>
            </Node>
            <Node pos="r" depth="1" NCoef="0" IVar="-1" Cut="0.0000000000000000e+00" cType="1" res="-9.9000000000000000e+01" rms="0.0000000000000000e+00" purity="4.8381346464157104e-01" nType="-1"/>
          </Node>
        </BinaryTree>
        <BinaryTree type="DecisionTree" boostWeight="3.1683580722953937e-03" itree="174">
          <Node pos="s" depth="0" NCoef="0" IVar="0" Cut="2.3316755294799805e+01" cType="0" res="-9.9000000000000000e+01" rms="0.0000000000000000e+00" purity="4.9935135245323181e-01" nType="0">
            <Node pos="l" depth="1" NCoef="0" IVar="0" Cut="2.4950323486328125e+02" cType="0" res="-9.9000000000000000e+01" rms="0.0000000000000000e+00" purity="5.0034630298614502e-01" nType="0">
              <Node pos="l" depth="2" NCoef="0" IVar="-1" Cut="0.0000000000000000e+00" cType="1" res="-9.9000000000000000e+01" rms="0.0000000000000000e+00" purity="5.1506799459457397e-01" nType="1"/>
              <Node pos="r" depth="2" NCoef="0" IVar="6" Cut="8.3303087949752808e-01" cType="0" res="-9.9000000000000000e+01" rms="0.0000000000000000e+00" purity="4.9947938323020935e-01" nType="0">
                <Node pos="l" depth="3" NCoef="0" IVar="6" Cut="2.9591307640075684e+00" cType="0" res="-9.9000000000000000e+01" rms="0.0000000000000000e+00" purity="5.0095498561859131e-01" nType="0">
                  <Node pos="l" depth="4" NCoef="0" IVar="-1" Cut="0.0000000000000000e+00" cType="1" res="-9.9000000000000000e+01" rms="0.0000000000000000e+00" purity="5.0997942686080933e-01" nType="1"/>
                  <Node pos="r" depth="4" NCoef="0" IVar="-1" Cut="0.0000000000000000e+00" cType="1" res="-9.9000000000000000e+01" rms="0.0000000000000000e+00" purity="4.9890905618667603e-01" nType="-1"/>
                </Node>
                <Node pos="r" depth="3" NCoef="0" IVar="-1" Cut="0.0000000000000000e+00" cType="1" res="-9.9000000000000000e+01" rms="0.0000000000000000e+00" purity="4.7655698657035828e-01" nType="-1"/>
              </Node>
            </Node>
            <Node pos="r" depth="1" NCoef="0" IVar="-1" Cut="0.0000000000000000e+00" cType="1" res="-9.9000000000000000e+01" rms="0.0000000000000000e+00" purity="4.8481449484825134e-01" nType="-1"/>
          </Node>
        </BinaryTree>
        <BinaryTree type="DecisionTree" boostWeight="3.2025971238116291e-03" itree="175">
          <Node pos="s" depth="0" NCoef="0" IVar="0" Cut="2.3316755294799805e+01" cType="0" res="-9.9000000000000000e+01" rms="0.0000000000000000e+00" purity="4.9982663989067078e-01" nType="0">
            <Node pos="l" depth="1" NCoef="0" IVar="3" Cut="1.3399234008789062e+02" cType="1" res="-9.9000000000000000e+01" rms="0.0000000000000000e+00" purity="5.0079983472824097e-01" nType="0">
              <Node pos="l" depth="2" NCoef="0" IVar="-1" Cut="0.0000000000000000e+00" cType="1" res="-9.9000000000000000e+01" rms="0.0000000000000000e+00" purity="5.1048368215560913e-01" nType="1"/>
              <Node pos="r" depth="2" NCoef="0" IVar="4" Cut="5.8252364397048950e-01" cType="0" res="-9.9000000000000000e+01" rms="0.0000000000000000e+00" purity="4.9959564208984375e-01" nType="0">
                <Node pos="l" depth="3" NCoef="0" IVar="6" Cut="1.1087671518325806e+00" cType="1" res="-9.9000000000000000e+01" rms="0.0000000000000000e+00" purity="5.0076591968536377e-01" nType="0">
                  <Node pos="l" depth="4" NCoef="0" IVar="-1" Cut="0.0000000000000000e+00" cType="1" res="-9.9000000000000000e+01" rms="0.0000000000000000e+00" purity="5.1437610387802124e-01" nType="1"/>
                  <Node pos="r" depth="4" NCoef="0" IVar="-1" Cut="0.0000000000000000e+00" cType="1" res="-9.9000000000000000e+01" rms="0.0000000000000000e+00" purity="4.9866825342178345e-01" nType="-1"/>
                </Node>
                <Node pos="r" depth="3" NCoef="0" IVar="-1" Cut="0.0000000000000000e+00" cType="1" res="-9.9000000000000000e+01" rms="0.0000000000000000e+00" purity="4.8229277133941650e-01" nType="-1"/>
              </Node>
            </Node>
            <Node pos="r" depth="1" NCoef="0" IVar="-1" Cut="0.0000000000000000e+00" cType="1" res="-9.9000000000000000e+01" rms="0.0000000000000000e+00" purity="4.8560732603073120e-01" nType="-1"/>
          </Node>
        </BinaryTree>
        <BinaryTree type="DecisionTree" boostWeight="4.7344568714894142e-03" itree="176">
          <Node pos="s" depth="0" NCoef="0" IVar="0" Cut="2.3316755294799805e+01" cType="0" res="-9.9000000000000000e+01" rms="0.0000000000000000e+00" purity="5.0030571222305298e-01" nType="0">
            <Node pos="l" depth="1" NCoef="0" IVar="4" Cut="8.4169250726699829e-01" cType="0" res="-9.9000000000000000e+01" rms="0.0000000000000000e+00" purity="5.0125676393508911e-01" nType="0">
              <Node pos="l" depth="2" NCoef="0" IVar="3" Cut="3.8576882934570312e+02" cType="1" res="-9.9000000000000000e+01" rms="0.0000000000000000e+00" purity="5.0293236970901489e-01" nType="0">
                <Node pos="l" depth="3" NCoef="0" IVar="-1" Cut="1.5280035734176636e+00" cType="0" res="-9.9000000000000000e+01" rms="0.0000000000000000e+00" purity="5.0452852249145508e-01" nType="1"/>
                <Node pos="r" depth="3" NCoef="0" IVar="-1" Cut="0.0000000000000000e+00" cType="1" res="-9.9000000000000000e+01" rms="0.0000000000000000e+00" purity="4.8136726021766663e-01" nType="-1"/>
              </Node>
              <Node pos="r" depth="2" NCoef="0" IVar="3" Cut="3.2175085449218750e+02" cType="0" res="-9.9000000000000000e+01" rms="0.0000000000000000e+00" purity="4.9404108524322510e-01" nType="0">
                <Node pos="l" depth="3" NCoef="0" IVar="-1" Cut="0.0000000000000000e+00" cType="1" res="-9.9000000000000000e+01" rms="0.0000000000000000e+00" purity="5.1372778415679932e-01" nType="1"/>
                <Node pos="r" depth="3" NCoef="0" IVar="6" Cut="1.3476594686508179e+00" cType="0" res="-9.9000000000000000e+01" rms="0.0000000000000000e+00" purity="4.8379912972450256e-01" nType="0">
                  <Node pos="l" depth="4" NCoef="0" IVar="-1" Cut="0.0000000000000000e+00" cType="1" res="-9.9000000000000000e+01" rms="0.0000000000000000e+00" purity="5.0102257728576660e-01" nType="1"/>
                  <Node pos="r" depth="4" NCoef="0" IVar="-1" Cut="0.0000000000000000e+00" cType="1" res="-9.9000000000000000e+01" rms="0.0000000000000000e+00" purity="4.6174782514572144e-01" nType="-1"/>
                </Node>
              </Node>
            </Node>
            <Node pos="r" depth="1" NCoef="0" IVar="-1" Cut="0.0000000000000000e+00" cType="1" res="-9.9000000000000000e+01" rms="0.0000000000000000e+00" purity="4.8640879988670349e-01" nType="-1"/>
          </Node>
        </BinaryTree>
        <BinaryTree type="DecisionTree" boostWeight="3.8778353394865826e-03" itree="177">
          <Node pos="s" depth="0" NCoef="0" IVar="5" Cut="9.1408920288085938e-01" cType="0" res="-9.9000000000000000e+01" rms="0.0000000000000000e+00" purity="4.9952137470245361e-01" nType="0">
            <Node pos="l" depth="1" NCoef="0" IVar="3" Cut="4.4253338623046875e+02" cType="1" res="-9.9000000000000000e+01" rms="0.0000000000000000e+00" purity="5.0109702348709106e-01" nType="0">
              <Node pos="l" depth="2" NCoef="0" IVar="6" Cut="8.4392732381820679e-01" cType="0" res="-9.9000000000000000e+01" rms="0.0000000000000000e+00" purity="5.0224041938781738e-01" nType="0">
                <Node pos="l" depth="3" NCoef="0" IVar="-1" Cut="1.7277027368545532e+00" cType="0" res="-9.9000000000000000e+01" rms="0.0000000000000000e+00" purity="5.0362402200698853e-01" nType="1"/>
                <Node pos="r" depth="3" NCoef="0" IVar="-1" Cut="0.0000000000000000e+00" cType="1" res="-9.9000000000000000e+01" rms="0.0000000000000000e+00" purity="4.8240271210670471e-01" nType="-1"/>
              </Node>
              <Node pos="r" depth="2" NCoef="0" IVar="-1" Cut="0.0000000000000000e+00" cType="1" res="-9.9000000000000000e+01" rms="0.0000000000000000e+00" purity="4.8657295107841492e-01" nType="-1"/>
            </Node>
            <Node pos="r" depth="1" NCoef="0" IVar="1" Cut="9.1967178344726562e+01" cType="1" res="-9.9000000000000000e+01" rms="0.0000000000000000e+00" purity="4.9159169197082520e-01" nType="0">
              <Node pos="l" depth="2" NCoef="0" IVar="-1" Cut="0.0000000000000000e+00" cType="1" res="-9.9000000000000000e+01" rms="0.0000000000000000e+00" purity="5.0416427850723267e-01" nType="1"/>
              <Node pos="r" depth="2" NCoef="0" IVar="-1" Cut="0.0000000000000000e+00" cType="1" res="-9.9000000000000000e+01" rms="0.0000000000000000e+00" purity="4.7688892483711243e-01" nType="-1"/>
            </Node>
          </Node>
        </BinaryTree>
        <BinaryTree type="DecisionTree" boostWeight="5.1157730900020576e-03" itree="178">
          <Node pos="s" depth="0" NCoef="0" IVar="5" Cut="2.1574385166168213e+00" cType="0" res="-9.9000000000000000e+01" rms="0.0000000000000000e+00" purity="4.9892076849937439e-01" nType="0">
            <Node pos="l" depth="1" NCoef="0" IVar="-1" Cut="0.0000000000000000e+00" cType="1" res="-9.9000000000000000e+01" rms="0.0000000000000000e+00" purity="5.1454758644104004e-01" nType="1"/>
            <Node pos="r" depth="1" NCoef="0" IVar="2" Cut="2.4387231445312500e+02" cType="1" res="-9.9000000000000000e+01" rms="0.0000000000000000e+00" purity="4.9809768795967102e-01" nType="0">
              <Node pos="l" depth="2" NCoef="0" IVar="6" Cut="1.1087671518325806e+00" cType="0" res="-9.9000000000000000e+01" rms="0.0000000000000000e+00" purity="4.9964118003845215e-01" nType="0">
                <Node pos="l" depth="3" NCoef="0" IVar="0" Cut="6.8242195129394531e+01" cType="0" res="-9.9000000000000000e+01" rms="0.0000000000000000e+00" purity="5.0138247013092041e-01" nType="0">
                  <Node pos="l" depth="4" NCoef="0" IVar="-1" Cut="0.0000000000000000e+00" cType="1" res="-9.9000000000000000e+01" rms="0.0000000000000000e+00" purity="5.0670486688613892e-01" nType="1"/>
                  <Node pos="r" depth="4" NCoef="0" IVar="-1" Cut="0.0000000000000000e+00" cType="1" res="-9.9000000000000000e+01" rms="0.0000000000000000e+00" purity="4.9478638172149658e-01" nType="-1"/>
                </Node>
                <Node pos="r" depth="3" NCoef="0" IVar="-1" Cut="0.0000000000000000e+00" cType="1" res="-9.9000000000000000e+01" rms="0.0000000000000000e+00" purity="4.7974550724029541e-01" nType="-1"/>
              </Node>
              <Node pos="r" depth="2" NCoef="0" IVar="-1" Cut="0.0000000000000000e+00" cType="1" res="-9.9000000000000000e+01" rms="0.0000000000000000e+00" purity="4.7931393980979919e-01" nType="-1"/>
            </Node>
          </Node>
        </BinaryTree>
        <BinaryTree type="DecisionTree" boostWeight="3.4827290021903616e-03" itree="179">
          <Node pos="s" depth="0" NCoef="0" IVar="4" Cut="2.6763665676116943e+00" cType="1" res="-9.9000000000000000e+01" rms="0.0000000000000000e+00" purity="4.9893519282341003e-01" nType="0">
            <Node pos="l" depth="1" NCoef="0" IVar="4" Cut="5.8737874031066895e-01" cType="0" res="-9.9000000000000000e+01" rms="0.0000000000000000e+00" purity="4.9977928400039673e-01" nType="0">
              <Node pos="l" depth="2" NCoef="0" IVar="6" Cut="1.0398330688476562e+00" cType="1" res="-9.9000000000000000e+01" rms="0.0000000000000000e+00" purity="5.0099873542785645e-01" nType="0">
                <Node pos="l" depth="3" NCoef="0" IVar="-1" Cut="0.0000000000000000e+00" cType="1" res="-9.9000000000000000e+01" rms="0.0000000000000000e+00" purity="5.1465165615081787e-01" nType="1"/>
                <Node pos="r" depth="3" NCoef="0" IVar="2" Cut="2.3600985717773438e+02" cType="1" res="-9.9000000000000000e+01" rms="0.0000000000000000e+00" purity="4.9940118193626404e-01" nType="0">
                  <Node pos="l" depth="4" NCoef="0" IVar="-1" Cut="0.0000000000000000e+00" cType="1" res="-9.9000000000000000e+01" rms="0.0000000000000000e+00" purity="5.0137442350387573e-01" nType="1"/>
                  <Node pos="r" depth="4" NCoef="0" IVar="-1" Cut="0.0000000000000000e+00" cType="1" res="-9.9000000000000000e+01" rms="0.0000000000000000e+00" purity="4.7297170758247375e-01" nType="-1"/>
                </Node>
              </Node>
              <Node pos="r" depth="2" NCoef="0" IVar="-1" Cut="0.0000000000000000e+00" cType="1" res="-9.9000000000000000e+01" rms="0.0000000000000000e+00" purity="4.8143735527992249e-01" nType="-1"/>
            </Node>
            <Node pos="r" depth="1" NCoef="0" IVar="-1" Cut="0.0000000000000000e+00" cType="1" res="-9.9000000000000000e+01" rms="0.0000000000000000e+00" purity="4.8494774103164673e-01" nType="-1"/>
          </Node>
        </BinaryTree>
        <BinaryTree type="DecisionTree" boostWeight="3.3053842882576996e-03" itree="180">
          <Node pos="s" depth="0" NCoef="0" IVar="5" Cut="2.1574385166168213e+00" cType="0" res="-9.9000000000000000e+01" rms="0.0000000000000000e+00" purity="4.9836638569831848e-01" nType="0">
            <Node pos="l" depth="1" NCoef="0" IVar="-1" Cut="0.0000000000000000e+00" cType="1" res="-9.9000000000000000e+01" rms="0.0000000000000000e+00" purity="5.1320976018905640e-01" nType="1"/>
            <Node pos="r" depth="1" NCoef="0" IVar="0" Cut="2.0100584411621094e+02" cType="1" res="-9.9000000000000000e+01" rms="0.0000000000000000e+00" purity="4.9758458137512207e-01" nType="0">
              <Node pos="l" depth="2" NCoef="0" IVar="5" Cut="7.6479750871658325e-01" cType="0" res="-9.9000000000000000e+01" rms="0.0000000000000000e+00" purity="4.9877101182937622e-01" nType="0">
                <Node pos="l" depth="3" NCoef="0" IVar="1" Cut="5.5710494995117188e+01" cType="1" res="-9.9000000000000000e+01" rms="0.0000000000000000e+00" purity="4.9999448657035828e-01" nType="0">
                  <Node pos="l" depth="4" NCoef="0" IVar="-1" Cut="0.0000000000000000e+00" cType="1" res="-9.9000000000000000e+01" rms="0.0000000000000000e+00" purity="5.1104044914245605e-01" nType="1"/>
                  <Node pos="r" depth="4" NCoef="0" IVar="-1" Cut="0.0000000000000000e+00" cType="1" res="-9.9000000000000000e+01" rms="0.0000000000000000e+00" purity="4.9824532866477966e-01" nType="-1"/>
                </Node>
                <Node pos="r" depth="3" NCoef="0" IVar="-1" Cut="0.0000000000000000e+00" cType="1" res="-9.9000000000000000e+01" rms="0.0000000000000000e+00" purity="4.7938430309295654e-01" nType="-1"/>
              </Node>
              <Node pos="r" depth="2" NCoef="0" IVar="-1" Cut="0.0000000000000000e+00" cType="1" res="-9.9000000000000000e+01" rms="0.0000000000000000e+00" purity="4.7655183076858521e-01" nType="-1"/>
            </Node>
          </Node>
        </BinaryTree>
        <BinaryTree type="DecisionTree" boostWeight="6.5666619915295760e-03" itree="181">
          <Node pos="s" depth="0" NCoef="0" IVar="3" Cut="1.7410440063476562e+02" cType="1" res="-9.9000000000000000e+01" rms="0.0000000000000000e+00" purity="4.9892807006835938e-01" nType="0">
            <Node pos="l" depth="1" NCoef="0" IVar="4" Cut="2.0100686550140381e+00" cType="0" res="-9.9000000000000000e+01" rms="0.0000000000000000e+00" purity="5.0280684232711792e-01" nType="0">
              <Node pos="l" depth="2" NCoef="0" IVar="6" Cut="3.0207686424255371e+00" cType="1" res="-9.9000000000000000e+01" rms="0.0000000000000000e+00" purity="5.0794351100921631e-01" nType="0">
                <Node pos="l" depth="3" NCoef="0" IVar="-1" Cut="0.0000000000000000e+00" cType="1" res="-9.9000000000000000e+01" rms="0.0000000000000000e+00" purity="5.1871073246002197e-01" nType="1"/>
                <Node pos="r" depth="3" NCoef="0" IVar="-1" Cut="0.0000000000000000e+00" cType="1" res="-9.9000000000000000e+01" rms="0.0000000000000000e+00" purity="4.9215650558471680e-01" nType="-1"/>
              </Node>
              <Node pos="r" depth="2" NCoef="0" IVar="2" Cut="1.3560075378417969e+02" cType="0" res="-9.9000000000000000e+01" rms="0.0000000000000000e+00" purity="4.9977856874465942e-01" nType="0">
                <Node pos="l" depth="3" NCoef="0" IVar="4" Cut="1.0959515571594238e+00" cType="1" res="-9.9000000000000000e+01" rms="0.0000000000000000e+00" purity="5.0532007217407227e-01" nType="0">
                  <Node pos="l" depth="4" NCoef="0" IVar="-1" Cut="0.0000000000000000e+00" cType="1" res="-9.9000000000000000e+01" rms="0.0000000000000000e+00" purity="5.2360820770263672e-01" nType="1"/>
                  <Node pos="r" depth="4" NCoef="0" IVar="-1" Cut="0.0000000000000000e+00" cType="1" res="-9.9000000000000000e+01" rms="0.0000000000000000e+00" purity="4.9765342473983765e-01" nType="-1"/>
                </Node>
                <Node pos="r" depth="3" NCoef="0" IVar="-1" Cut="0.0000000000000000e+00" cType="1" res="-9.9000000000000000e+01" rms="0.0000000000000000e+00" purity="4.8659169673919678e-01" nType="-1"/>
              </Node>
            </Node>
            <Node pos="r" depth="1" NCoef="0" IVar="2" Cut="1.6511323547363281e+02" cType="0" res="-9.9000000000000000e+01" rms="0.0000000000000000e+00" purity="4.9608549475669861e-01" nType="0">
              <Node pos="l" depth="2" NCoef="0" IVar="0" Cut="1.1561857604980469e+02" cType="1" res="-9.9000000000000000e+01" rms="0.0000000000000000e+00" purity="4.9866595864295959e-01" nType="0">
                <Node pos="l" depth="3" NCoef="0" IVar="1" Cut="1.0980165100097656e+02" cType="0" res="-9.9000000000000000e+01" rms="0.0000000000000000e+00" purity="5.0644278526306152e-01" nType="0">
                  <Node pos="l" depth="4" NCoef="0" IVar="-1" Cut="0.0000000000000000e+00" cType="1" res="-9.9000000000000000e+01" rms="0.0000000000000000e+00" purity="5.2045452594757080e-01" nType="1"/>
                  <Node pos="r" depth="4" NCoef="0" IVar="-1" Cut="0.0000000000000000e+00" cType="1" res="-9.9000000000000000e+01" rms="0.0000000000000000e+00" purity="4.9978524446487427e-01" nType="-1"/>
                </Node>
                <Node pos="r" depth="3" NCoef="0" IVar="6" Cut="1.5362026691436768e+00" cType="1" res="-9.9000000000000000e+01" rms="0.0000000000000000e+00" purity="4.9174207448959351e-01" nType="0">
                  <Node pos="l" depth="4" NCoef="0" IVar="-1" Cut="0.0000000000000000e+00" cType="1" res="-9.9000000000000000e+01" rms="0.0000000000000000e+00" purity="5.0237649679183960e-01" nType="1"/>
                  <Node pos="r" depth="4" NCoef="0" IVar="-1" Cut="0.0000000000000000e+00" cType="1" res="-9.9000000000000000e+01" rms="0.0000000000000000e+00" purity="4.7500634193420410e-01" nType="-1"/>
                </Node>
              </Node>
              <Node pos="r" depth="2" NCoef="0" IVar="-1" Cut="0.0000000000000000e+00" cType="1" res="-9.9000000000000000e+01" rms="0.0000000000000000e+00" purity="4.8220208287239075e-01" nType="-1"/>
            </Node>
          </Node>
        </BinaryTree>
        <BinaryTree type="DecisionTree" boostWeight="6.5310419687337144e-03" itree="182">
          <Node pos="s" depth="0" NCoef="0" IVar="3" Cut="1.7410440063476562e+02" cType="1" res="-9.9000000000000000e+01" rms="0.0000000000000000e+00" purity="4.9933290481567383e-01" nType="0">
            <Node pos="l" depth="1" NCoef="0" IVar="5" Cut="9.2884892225265503e-01" cType="0" res="-9.9000000000000000e+01" rms="0.0000000000000000e+00" purity="5.0330013036727905e-01" nType="0">
              <Node pos="l" depth="2" NCoef="0" IVar="0" Cut="4.0307895660400391e+01" cType="1" res="-9.9000000000000000e+01" rms="0.0000000000000000e+00" purity="5.0559157133102417e-01" nType="0">
                <Node pos="l" depth="3" NCoef="0" IVar="-1" Cut="0.0000000000000000e+00" cType="1" res="-9.9000000000000000e+01" rms="0.0000000000000000e+00" purity="5.2162075042724609e-01" nType="1"/>
                <Node pos="r" depth="3" NCoef="0" IVar="2" Cut="1.3233828735351562e+02" cType="1" res="-9.9000000000000000e+01" rms="0.0000000000000000e+00" purity="5.0153368711471558e-01" nType="0">
                  <Node pos="l" depth="4" NCoef="0" IVar="-1" Cut="0.0000000000000000e+00" cType="1" res="-9.9000000000000000e+01" rms="0.0000000000000000e+00" purity="5.1927644014358521e-01" nType="1"/>
                  <Node pos="r" depth="4" NCoef="0" IVar="-1" Cut="0.0000000000000000e+00" cType="1" res="-9.9000000000000000e+01" rms="0.0000000000000000e+00" purity="4.9573895335197449e-01" nType="-1"/>
                </Node>
              </Node>
              <Node pos="r" depth="2" NCoef="0" IVar="2" Cut="1.4105764770507812e+02" cType="0" res="-9.9000000000000000e+01" rms="0.0000000000000000e+00" purity="4.9701252579689026e-01" nType="0">
                <Node pos="l" depth="3" NCoef="0" IVar="-1" Cut="0.0000000000000000e+00" cType="1" res="-9.9000000000000000e+01" rms="0.0000000000000000e+00" purity="5.1208138465881348e-01" nType="1"/>
                <Node pos="r" depth="3" NCoef="0" IVar="-1" Cut="0.0000000000000000e+00" cType="1" res="-9.9000000000000000e+01" rms="0.0000000000000000e+00" purity="4.7880923748016357e-01" nType="-1"/>
              </Node>
            </Node>
            <Node pos="r" depth="1" NCoef="0" IVar="4" Cut="2.2274236679077148e+00" cType="1" res="-9.9000000000000000e+01" rms="0.0000000000000000e+00" purity="4.9642550945281982e-01" nType="0">
              <Node pos="l" depth="2" NCoef="0" IVar="0" Cut="6.9467666625976562e+01" cType="0" res="-9.9000000000000000e+01" rms="0.0000000000000000e+00" purity="4.9830213189125061e-01" nType="0">
                <Node pos="l" depth="3" NCoef="0" IVar="0" Cut="1.2373132324218750e+02" cType="1" res="-9.9000000000000000e+01" rms="0.0000000000000000e+00" purity="5.0182348489761353e-01" nType="0">
                  <Node pos="l" depth="4" NCoef="0" IVar="-1" Cut="0.0000000000000000e+00" cType="1" res="-9.9000000000000000e+01" rms="0.0000000000000000e+00" purity="5.1178461313247681e-01" nType="1"/>
                  <Node pos="r" depth="4" NCoef="0" IVar="-1" Cut="0.0000000000000000e+00" cType="1" res="-9.9000000000000000e+01" rms="0.0000000000000000e+00" purity="4.9576845765113831e-01" nType="-1"/>
                </Node>
                <Node pos="r" depth="3" NCoef="0" IVar="-1" Cut="0.0000000000000000e+00" cType="1" res="-9.9000000000000000e+01" rms="0.0000000000000000e+00" purity="4.8443597555160522e-01" nType="-1"/>
              </Node>
              <Node pos="r" depth="2" NCoef="0" IVar="-1" Cut="0.0000000000000000e+00" cType="1" res="-9.9000000000000000e+01" rms="0.0000000000000000e+00" purity="4.8052605986595154e-01" nType="-1"/>
            </Node>
          </Node>
        </BinaryTree>
        <BinaryTree type="DecisionTree" boostWeight="3.3309216560264894e-03" itree="183">
          <Node pos="s" depth="0" NCoef="0" IVar="4" Cut="2.6763665676116943e+00" cType="1" res="-9.9000000000000000e+01" rms="0.0000000000000000e+00" purity="4.9988162517547607e-01" nType="0">
            <Node pos="l" depth="1" NCoef="0" IVar="4" Cut="5.8737874031066895e-01" cType="0" res="-9.9000000000000000e+01" rms="0.0000000000000000e+00" purity="5.0064754486083984e-01" nType="0">
              <Node pos="l" depth="2" NCoef="0" IVar="5" Cut="1.7177577018737793e+00" cType="0" res="-9.9000000000000000e+01" rms="0.0000000000000000e+00" purity="5.0181841850280762e-01" nType="0">
                <Node pos="l" depth="3" NCoef="0" IVar="-1" Cut="0.0000000000000000e+00" cType="1" res="-9.9000000000000000e+01" rms="0.0000000000000000e+00" purity="5.1447522640228271e-01" nType="1"/>
                <Node pos="r" depth="3" NCoef="0" IVar="0" Cut="1.6407537841796875e+02" cType="1" res="-9.9000000000000000e+01" rms="0.0000000000000000e+00" purity="5.0030863285064697e-01" nType="0">
                  <Node pos="l" depth="4" NCoef="0" IVar="-1" Cut="0.0000000000000000e+00" cType="1" res="-9.9000000000000000e+01" rms="0.0000000000000000e+00" purity="5.0182831287384033e-01" nType="1"/>
                  <Node pos="r" depth="4" NCoef="0" IVar="-1" Cut="0.0000000000000000e+00" cType="1" res="-9.9000000000000000e+01" rms="0.0000000000000000e+00" purity="4.7803458571434021e-01" nType="-1"/>
                </Node>
              </Node>
              <Node pos="r" depth="2" NCoef="0" IVar="-1" Cut="0.0000000000000000e+00" cType="1" res="-9.9000000000000000e+01" rms="0.0000000000000000e+00" purity="4.8303425312042236e-01" nType="-1"/>
            </Node>
            <Node pos="r" depth="1" NCoef="0" IVar="-1" Cut="0.0000000000000000e+00" cType="1" res="-9.9000000000000000e+01" rms="0.0000000000000000e+00" purity="4.8718321323394775e-01" nType="-1"/>
          </Node>
        </BinaryTree>
        <BinaryTree type="DecisionTree" boostWeight="2.4246954011480112e-03" itree="184">
          <Node pos="s" depth="0" NCoef="0" IVar="5" Cut="2.1574385166168213e+00" cType="0" res="-9.9000000000000000e+01" rms="0.0000000000000000e+00" purity="4.9932801723480225e-01" nType="0">
            <Node pos="l" depth="1" NCoef="0" IVar="-1" Cut="0.0000000000000000e+00" cType="1" res="-9.9000000000000000e+01" rms="0.0000000000000000e+00" purity="5.1300019025802612e-01" nType="1"/>
            <Node pos="r" depth="1" NCoef="0" IVar="0" Cut="2.0100584411621094e+02" cType="1" res="-9.9000000000000000e+01" rms="0.0000000000000000e+00" purity="4.9860760569572449e-01" nType="0">
              <Node pos="l" depth="2" NCoef="0" IVar="5" Cut="7.6479750871658325e-01" cType="0" res="-9.9000000000000000e+01" rms="0.0000000000000000e+00" purity="4.9975270032882690e-01" nType="0">
                <Node pos="l" depth="3" NCoef="0" IVar="3" Cut="3.6848312377929688e+02" cType="0" res="-9.9000000000000000e+01" rms="0.0000000000000000e+00" purity="5.0097262859344482e-01" nType="0">
                  <Node pos="l" depth="4" NCoef="0" IVar="-1" Cut="0.0000000000000000e+00" cType="1" res="-9.9000000000000000e+01" rms="0.0000000000000000e+00" purity="5.1637554168701172e-01" nType="1"/>
                  <Node pos="r" depth="4" NCoef="0" IVar="-1" Cut="0.0000000000000000e+00" cType="1" res="-9.9000000000000000e+01" rms="0.0000000000000000e+00" purity="4.9973040819168091e-01" nType="-1"/>
                </Node>
                <Node pos="r" depth="3" NCoef="0" IVar="-1" Cut="0.0000000000000000e+00" cType="1" res="-9.9000000000000000e+01" rms="0.0000000000000000e+00" purity="4.8041424155235291e-01" nType="-1"/>
              </Node>
              <Node pos="r" depth="2" NCoef="0" IVar="-1" Cut="0.0000000000000000e+00" cType="1" res="-9.9000000000000000e+01" rms="0.0000000000000000e+00" purity="4.7830533981323242e-01" nType="-1"/>
            </Node>
          </Node>
        </BinaryTree>
        <BinaryTree type="DecisionTree" boostWeight="5.7336674737261126e-03" itree="185">
          <Node pos="s" depth="0" NCoef="0" IVar="3" Cut="1.7410440063476562e+02" cType="1" res="-9.9000000000000000e+01" rms="0.0000000000000000e+00" purity="4.9980384111404419e-01" nType="0">
            <Node pos="l" depth="1" NCoef="0" IVar="0" Cut="9.1762306213378906e+01" cType="0" res="-9.9000000000000000e+01" rms="0.0000000000000000e+00" purity="5.0349271297454834e-01" nType="0">
              <Node pos="l" depth="2" NCoef="0" IVar="-1" Cut="0.0000000000000000e+00" cType="1" res="-9.9000000000000000e+01" rms="0.0000000000000000e+00" purity="5.1128059625625610e-01" nType="1"/>
              <Node pos="r" depth="2" NCoef="0" IVar="2" Cut="1.3321214294433594e+02" cType="0" res="-9.9000000000000000e+01" rms="0.0000000000000000e+00" purity="5.0140684843063354e-01" nType="0">
                <Node pos="l" depth="3" NCoef="0" IVar="-1" Cut="2.2933287620544434e+00" cType="1" res="-9.9000000000000000e+01" rms="0.0000000000000000e+00" purity="5.0771081447601318e-01" nType="1"/>
                <Node pos="r" depth="3" NCoef="0" IVar="-1" Cut="8.3700805664062500e+01" cType="1" res="-9.9000000000000000e+01" rms="0.0000000000000000e+00" purity="4.8755961656570435e-01" nType="-1"/>
              </Node>
            </Node>
            <Node pos="r" depth="1" NCoef="0" IVar="2" Cut="1.6511323547363281e+02" cType="0" res="-9.9000000000000000e+01" rms="0.0000000000000000e+00" purity="4.9710059165954590e-01" nType="0">
              <Node pos="l" depth="2" NCoef="0" IVar="0" Cut="9.2543121337890625e+01" cType="1" res="-9.9000000000000000e+01" rms="0.0000000000000000e+00" purity="4.9944430589675903e-01" nType="0">
                <Node pos="l" depth="3" NCoef="0" IVar="-1" Cut="2.0505598449707031e+02" cType="1" res="-9.9000000000000000e+01" rms="0.0000000000000000e+00" purity="5.0962096452713013e-01" nType="1"/>
                <Node pos="r" depth="3" NCoef="0" IVar="6" Cut="2.1289949417114258e+00" cType="1" res="-9.9000000000000000e+01" rms="0.0000000000000000e+00" purity="4.9409562349319458e-01" nType="0">
                  <Node pos="l" depth="4" NCoef="0" IVar="-1" Cut="0.0000000000000000e+00" cType="1" res="-9.9000000000000000e+01" rms="0.0000000000000000e+00" purity="5.0112533569335938e-01" nType="1"/>
                  <Node pos="r" depth="4" NCoef="0" IVar="-1" Cut="0.0000000000000000e+00" cType="1" res="-9.9000000000000000e+01" rms="0.0000000000000000e+00" purity="4.6393275260925293e-01" nType="-1"/>
                </Node>
              </Node>
              <Node pos="r" depth="2" NCoef="0" IVar="-1" Cut="0.0000000000000000e+00" cType="1" res="-9.9000000000000000e+01" rms="0.0000000000000000e+00" purity="4.8448902368545532e-01" nType="-1"/>
            </Node>
          </Node>
        </BinaryTree>
        <BinaryTree type="DecisionTree" boostWeight="6.9975778750695694e-03" itree="186">
          <Node pos="s" depth="0" NCoef="0" IVar="3" Cut="1.7410440063476562e+02" cType="1" res="-9.9000000000000000e+01" rms="0.0000000000000000e+00" purity="4.9910333752632141e-01" nType="0">
            <Node pos="l" depth="1" NCoef="0" IVar="5" Cut="9.2884892225265503e-01" cType="0" res="-9.9000000000000000e+01" rms="0.0000000000000000e+00" purity="5.0276613235473633e-01" nType="0">
              <Node pos="l" depth="2" NCoef="0" IVar="3" Cut="1.2667366027832031e+02" cType="1" res="-9.9000000000000000e+01" rms="0.0000000000000000e+00" purity="5.0512874126434326e-01" nType="0">
                <Node pos="l" depth="3" NCoef="0" IVar="-1" Cut="0.0000000000000000e+00" cType="1" res="-9.9000000000000000e+01" rms="0.0000000000000000e+00" purity="5.2110946178436279e-01" nType="1"/>
                <Node pos="r" depth="3" NCoef="0" IVar="0" Cut="5.1899703979492188e+01" cType="1" res="-9.9000000000000000e+01" rms="0.0000000000000000e+00" purity="5.0178587436676025e-01" nType="0">
                  <Node pos="l" depth="4" NCoef="0" IVar="-1" Cut="0.0000000000000000e+00" cType="1" res="-9.9000000000000000e+01" rms="0.0000000000000000e+00" purity="5.2007645368576050e-01" nType="1"/>
                  <Node pos="r" depth="4" NCoef="0" IVar="-1" Cut="0.0000000000000000e+00" cType="1" res="-9.9000000000000000e+01" rms="0.0000000000000000e+00" purity="4.9388930201530457e-01" nType="-1"/>
                </Node>
              </Node>
              <Node pos="r" depth="2" NCoef="0" IVar="2" Cut="1.4105764770507812e+02" cType="0" res="-9.9000000000000000e+01" rms="0.0000000000000000e+00" purity="4.9628207087516785e-01" nType="0">
                <Node pos="l" depth="3" NCoef="0" IVar="-1" Cut="0.0000000000000000e+00" cType="1" res="-9.9000000000000000e+01" rms="0.0000000000000000e+00" purity="5.0898849964141846e-01" nType="1"/>
                <Node pos="r" depth="3" NCoef="0" IVar="-1" Cut="0.0000000000000000e+00" cType="1" res="-9.9000000000000000e+01" rms="0.0000000000000000e+00" purity="4.8093032836914062e-01" nType="-1"/>
              </Node>
            </Node>
            <Node pos="r" depth="1" NCoef="0" IVar="5" Cut="1.0126559734344482e+00" cType="0" res="-9.9000000000000000e+01" rms="0.0000000000000000e+00" purity="4.9641928076744080e-01" nType="0">
              <Node pos="l" depth="2" NCoef="0" IVar="1" Cut="7.7386558532714844e+01" cType="0" res="-9.9000000000000000e+01" rms="0.0000000000000000e+00" purity="4.9917104840278625e-01" nType="0">
                <Node pos="l" depth="3" NCoef="0" IVar="4" Cut="8.8582456111907959e-01" cType="0" res="-9.9000000000000000e+01" rms="0.0000000000000000e+00" purity="5.0434714555740356e-01" nType="0">
                  <Node pos="l" depth="4" NCoef="0" IVar="-1" Cut="0.0000000000000000e+00" cType="1" res="-9.9000000000000000e+01" rms="0.0000000000000000e+00" purity="5.1004225015640259e-01" nType="1"/>
                  <Node pos="r" depth="4" NCoef="0" IVar="-1" Cut="0.0000000000000000e+00" cType="1" res="-9.9000000000000000e+01" rms="0.0000000000000000e+00" purity="4.9320247769355774e-01" nType="-1"/>
                </Node>
                <Node pos="r" depth="3" NCoef="0" IVar="-1" Cut="2.2323089599609375e+02" cType="1" res="-9.9000000000000000e+01" rms="0.0000000000000000e+00" purity="4.8906365036964417e-01" nType="-1"/>
              </Node>
              <Node pos="r" depth="2" NCoef="0" IVar="3" Cut="2.1077182006835938e+02" cType="1" res="-9.9000000000000000e+01" rms="0.0000000000000000e+00" purity="4.8602584004402161e-01" nType="0">
                <Node pos="l" depth="3" NCoef="0" IVar="-1" Cut="0.0000000000000000e+00" cType="1" res="-9.9000000000000000e+01" rms="0.0000000000000000e+00" purity="5.0210177898406982e-01" nType="1"/>
                <Node pos="r" depth="3" NCoef="0" IVar="-1" Cut="0.0000000000000000e+00" cType="1" res="-9.9000000000000000e+01" rms="0.0000000000000000e+00" purity="4.6711435914039612e-01" nType="-1"/>
              </Node>
            </Node>
          </Node>
        </BinaryTree>
        <BinaryTree type="DecisionTree" boostWeight="5.6284059541162343e-03" itree="187">
          <Node pos="s" depth="0" NCoef="0" IVar="1" Cut="1.4270956420898438e+02" cType="1" res="-9.9000000000000000e+01" rms="0.0000000000000000e+00" purity="4.9927279353141785e-01" nType="0">
            <Node pos="l" depth="1" NCoef="0" IVar="6" Cut="1.0503623485565186e+00" cType="1" res="-9.9000000000000000e+01" rms="0.0000000000000000e+00" purity="5.0007152557373047e-01" nType="0">
              <Node pos="l" depth="2" NCoef="0" IVar="2" Cut="2.4559844970703125e+02" cType="0" res="-9.9000000000000000e+01" rms="0.0000000000000000e+00" purity="5.1339459419250488e-01" nType="0">
                <Node pos="l" depth="3" NCoef="0" IVar="-1" Cut="0.0000000000000000e+00" cType="1" res="-9.9000000000000000e+01" rms="0.0000000000000000e+00" purity="5.5260449647903442e-01" nType="1"/>
                <Node pos="r" depth="3" NCoef="0" IVar="-1" Cut="0.0000000000000000e+00" cType="1" res="-9.9000000000000000e+01" rms="0.0000000000000000e+00" purity="4.7786533832550049e-01" nType="-1"/>
              </Node>
              <Node pos="r" depth="2" NCoef="0" IVar="2" Cut="2.3658926391601562e+02" cType="1" res="-9.9000000000000000e+01" rms="0.0000000000000000e+00" purity="4.9834895133972168e-01" nType="0">
                <Node pos="l" depth="3" NCoef="0" IVar="5" Cut="1.3862738609313965e+00" cType="0" res="-9.9000000000000000e+01" rms="0.0000000000000000e+00" purity="5.0059485435485840e-01" nType="0">
                  <Node pos="l" depth="4" NCoef="0" IVar="-1" Cut="0.0000000000000000e+00" cType="1" res="-9.9000000000000000e+01" rms="0.0000000000000000e+00" purity="5.1381736993789673e-01" nType="1"/>
                  <Node pos="r" depth="4" NCoef="0" IVar="-1" Cut="0.0000000000000000e+00" cType="1" res="-9.9000000000000000e+01" rms="0.0000000000000000e+00" purity="4.9822315573692322e-01" nType="-1"/>
                </Node>
                <Node pos="r" depth="3" NCoef="0" IVar="-1" Cut="0.0000000000000000e+00" cType="1" res="-9.9000000000000000e+01" rms="0.0000000000000000e+00" purity="4.6712335944175720e-01" nType="-1"/>
              </Node>
            </Node>
            <Node pos="r" depth="1" NCoef="0" IVar="-1" Cut="0.0000000000000000e+00" cType="1" res="-9.9000000000000000e+01" rms="0.0000000000000000e+00" purity="4.8660999536514282e-01" nType="-1"/>
          </Node>
        </BinaryTree>
        <BinaryTree type="DecisionTree" boostWeight="5.4055133775548951e-03" itree="188">
          <Node pos="s" depth="0" NCoef="0" IVar="3" Cut="1.7410440063476562e+02" cType="1" res="-9.9000000000000000e+01" rms="0.0000000000000000e+00" purity="5.0021606683731079e-01" nType="0">
            <Node pos="l" depth="1" NCoef="0" IVar="0" Cut="9.1762306213378906e+01" cType="0" res="-9.9000000000000000e+01" rms="0.0000000000000000e+00" purity="5.0424700975418091e-01" nType="0">
              <Node pos="l" depth="2" NCoef="0" IVar="-1" Cut="0.0000000000000000e+00" cType="1" res="-9.9000000000000000e+01" rms="0.0000000000000000e+00" purity="5.1212728023529053e-01" nType="1"/>
              <Node pos="r" depth="2" NCoef="0" IVar="6" Cut="3.2184596061706543e+00" cType="1" res="-9.9000000000000000e+01" rms="0.0000000000000000e+00" purity="5.0213623046875000e-01" nType="0">
                <Node pos="l" depth="3" NCoef="0" IVar="4" Cut="2.1869587898254395e+00" cType="0" res="-9.9000000000000000e+01" rms="0.0000000000000000e+00" purity="5.0602984428405762e-01" nType="0">
                  <Node pos="l" depth="4" NCoef="0" IVar="-1" Cut="0.0000000000000000e+00" cType="1" res="-9.9000000000000000e+01" rms="0.0000000000000000e+00" purity="5.2096354961395264e-01" nType="1"/>
                  <Node pos="r" depth="4" NCoef="0" IVar="-1" Cut="0.0000000000000000e+00" cType="1" res="-9.9000000000000000e+01" rms="0.0000000000000000e+00" purity="4.9987021088600159e-01" nType="-1"/>
                </Node>
                <Node pos="r" depth="3" NCoef="0" IVar="-1" Cut="0.0000000000000000e+00" cType="1" res="-9.9000000000000000e+01" rms="0.0000000000000000e+00" purity="4.8250302672386169e-01" nType="-1"/>
              </Node>
            </Node>
            <Node pos="r" depth="1" NCoef="0" IVar="5" Cut="1.0126559734344482e+00" cType="0" res="-9.9000000000000000e+01" rms="0.0000000000000000e+00" purity="4.9726215004920959e-01" nType="0">
              <Node pos="l" depth="2" NCoef="0" IVar="1" Cut="7.3723136901855469e+01" cType="0" res="-9.9000000000000000e+01" rms="0.0000000000000000e+00" purity="4.9992066621780396e-01" nType="0">
                <Node pos="l" depth="3" NCoef="0" IVar="-1" Cut="2.5610021972656250e+02" cType="0" res="-9.9000000000000000e+01" rms="0.0000000000000000e+00" purity="5.0400376319885254e-01" nType="1"/>
                <Node pos="r" depth="3" NCoef="0" IVar="2" Cut="2.0839268493652344e+02" cType="1" res="-9.9000000000000000e+01" rms="0.0000000000000000e+00" purity="4.9003240466117859e-01" nType="0">
                  <Node pos="l" depth="4" NCoef="0" IVar="-1" Cut="0.0000000000000000e+00" cType="1" res="-9.9000000000000000e+01" rms="0.0000000000000000e+00" purity="5.0389182567596436e-01" nType="1"/>
                  <Node pos="r" depth="4" NCoef="0" IVar="-1" Cut="0.0000000000000000e+00" cType="1" res="-9.9000000000000000e+01" rms="0.0000000000000000e+00" purity="4.7139301896095276e-01" nType="-1"/>
                </Node>
              </Node>
              <Node pos="r" depth="2" NCoef="0" IVar="2" Cut="1.8457661437988281e+02" cType="0" res="-9.9000000000000000e+01" rms="0.0000000000000000e+00" purity="4.8721948266029358e-01" nType="0">
                <Node pos="l" depth="3" NCoef="0" IVar="-1" Cut="0.0000000000000000e+00" cType="1" res="-9.9000000000000000e+01" rms="0.0000000000000000e+00" purity="5.0378614664077759e-01" nType="1"/>
                <Node pos="r" depth="3" NCoef="0" IVar="-1" Cut="0.0000000000000000e+00" cType="1" res="-9.9000000000000000e+01" rms="0.0000000000000000e+00" purity="4.6987137198448181e-01" nType="-1"/>
              </Node>
            </Node>
          </Node>
        </BinaryTree>
        <BinaryTree type="DecisionTree" boostWeight="6.4069991144307878e-03" itree="189">
          <Node pos="s" depth="0" NCoef="0" IVar="3" Cut="1.7410440063476562e+02" cType="1" res="-9.9000000000000000e+01" rms="0.0000000000000000e+00" purity="4.9986463785171509e-01" nType="0">
            <Node pos="l" depth="1" NCoef="0" IVar="3" Cut="1.4057522583007812e+02" cType="1" res="-9.9000000000000000e+01" rms="0.0000000000000000e+00" purity="5.0450980663299561e-01" nType="0">
              <Node pos="l" depth="2" NCoef="0" IVar="4" Cut="2.1590805053710938e+00" cType="0" res="-9.9000000000000000e+01" rms="0.0000000000000000e+00" purity="5.0939041376113892e-01" nType="0">
                <Node pos="l" depth="3" NCoef="0" IVar="-1" Cut="0.0000000000000000e+00" cType="1" res="-9.9000000000000000e+01" rms="0.0000000000000000e+00" purity="5.2699714899063110e-01" nType="1"/>
                <Node pos="r" depth="3" NCoef="0" IVar="2" Cut="1.2738121795654297e+02" cType="0" res="-9.9000000000000000e+01" rms="0.0000000000000000e+00" purity="5.0008302927017212e-01" nType="0">
                  <Node pos="l" depth="4" NCoef="0" IVar="-1" Cut="0.0000000000000000e+00" cType="1" res="-9.9000000000000000e+01" rms="0.0000000000000000e+00" purity="5.0430607795715332e-01" nType="1"/>
                  <Node pos="r" depth="4" NCoef="0" IVar="-1" Cut="0.0000000000000000e+00" cType="1" res="-9.9000000000000000e+01" rms="0.0000000000000000e+00" purity="4.9514380097389221e-01" nType="-1"/>
                </Node>
              </Node>
              <Node pos="r" depth="2" NCoef="0" IVar="6" Cut="2.3268573284149170e+00" cType="1" res="-9.9000000000000000e+01" rms="0.0000000000000000e+00" purity="5.0134634971618652e-01" nType="0">
                <Node pos="l" depth="3" NCoef="0" IVar="-1" Cut="0.0000000000000000e+00" cType="1" res="-9.9000000000000000e+01" rms="0.0000000000000000e+00" purity="5.1322782039642334e-01" nType="1"/>
                <Node pos="r" depth="3" NCoef="0" IVar="6" Cut="2.8650593757629395e+00" cType="0" res="-9.9000000000000000e+01" rms="0.0000000000000000e+00" purity="4.9336963891983032e-01" nType="0">
                  <Node pos="l" depth="4" NCoef="0" IVar="-1" Cut="0.0000000000000000e+00" cType="1" res="-9.9000000000000000e+01" rms="0.0000000000000000e+00" purity="5.0066673755645752e-01" nType="1"/>
                  <Node pos="r" depth="4" NCoef="0" IVar="-1" Cut="0.0000000000000000e+00" cType="1" res="-9.9000000000000000e+01" rms="0.0000000000000000e+00" purity="4.8557418584823608e-01" nType="-1"/>
                </Node>
              </Node>
            </Node>
            <Node pos="r" depth="1" NCoef="0" IVar="5" Cut="1.0126559734344482e+00" cType="0" res="-9.9000000000000000e+01" rms="0.0000000000000000e+00" purity="4.9646067619323730e-01" nType="0">
              <Node pos="l" depth="2" NCoef="0" IVar="3" Cut="4.5173327636718750e+02" cType="1" res="-9.9000000000000000e+01" rms="0.0000000000000000e+00" purity="4.9891522526741028e-01" nType="0">
                <Node pos="l" depth="3" NCoef="0" IVar="3" Cut="2.1533609008789062e+02" cType="0" res="-9.9000000000000000e+01" rms="0.0000000000000000e+00" purity="5.0119078159332275e-01" nType="0">
                  <Node pos="l" depth="4" NCoef="0" IVar="-1" Cut="0.0000000000000000e+00" cType="1" res="-9.9000000000000000e+01" rms="0.0000000000000000e+00" purity="5.0775074958801270e-01" nType="1"/>
                  <Node pos="r" depth="4" NCoef="0" IVar="-1" Cut="0.0000000000000000e+00" cType="1" res="-9.9000000000000000e+01" rms="0.0000000000000000e+00" purity="4.9058660864830017e-01" nType="-1"/>
                </Node>
                <Node pos="r" depth="3" NCoef="0" IVar="-1" Cut="0.0000000000000000e+00" cType="1" res="-9.9000000000000000e+01" rms="0.0000000000000000e+00" purity="4.8181074857711792e-01" nType="-1"/>
              </Node>
              <Node pos="r" depth="2" NCoef="0" IVar="3" Cut="2.1077182006835938e+02" cType="1" res="-9.9000000000000000e+01" rms="0.0000000000000000e+00" purity="4.8718783259391785e-01" nType="0">
                <Node pos="l" depth="3" NCoef="0" IVar="-1" Cut="0.0000000000000000e+00" cType="1" res="-9.9000000000000000e+01" rms="0.0000000000000000e+00" purity="5.0184857845306396e-01" nType="1"/>
                <Node pos="r" depth="3" NCoef="0" IVar="-1" Cut="0.0000000000000000e+00" cType="1" res="-9.9000000000000000e+01" rms="0.0000000000000000e+00" purity="4.6993339061737061e-01" nType="-1"/>
              </Node>
            </Node>
          </Node>
        </BinaryTree>
        <BinaryTree type="DecisionTree" boostWeight="6.5057448220148034e-03" itree="190">
          <Node pos="s" depth="0" NCoef="0" IVar="3" Cut="1.7410440063476562e+02" cType="1" res="-9.9000000000000000e+01" rms="0.0000000000000000e+00" purity="4.9951240420341492e-01" nType="0">
            <Node pos="l" depth="1" NCoef="0" IVar="3" Cut="1.4057522583007812e+02" cType="1" res="-9.9000000000000000e+01" rms="0.0000000000000000e+00" purity="5.0384908914566040e-01" nType="0">
              <Node pos="l" depth="2" NCoef="0" IVar="4" Cut="2.1590805053710938e+00" cType="0" res="-9.9000000000000000e+01" rms="0.0000000000000000e+00" purity="5.0874990224838257e-01" nType="0">
                <Node pos="l" depth="3" NCoef="0" IVar="-1" Cut="0.0000000000000000e+00" cType="1" res="-9.9000000000000000e+01" rms="0.0000000000000000e+00" purity="5.2538591623306274e-01" nType="1"/>
                <Node pos="r" depth="3" NCoef="0" IVar="0" Cut="5.4709136962890625e+01" cType="0" res="-9.9000000000000000e+01" rms="0.0000000000000000e+00" purity="4.9995681643486023e-01" nType="0">
                  <Node pos="l" depth="4" NCoef="0" IVar="-1" Cut="0.0000000000000000e+00" cType="1" res="-9.9000000000000000e+01" rms="0.0000000000000000e+00" purity="5.0369107723236084e-01" nType="1"/>
                  <Node pos="r" depth="4" NCoef="0" IVar="-1" Cut="0.0000000000000000e+00" cType="1" res="-9.9000000000000000e+01" rms="0.0000000000000000e+00" purity="4.9583768844604492e-01" nType="-1"/>
                </Node>
              </Node>
              <Node pos="r" depth="2" NCoef="0" IVar="6" Cut="2.3268573284149170e+00" cType="1" res="-9.9000000000000000e+01" rms="0.0000000000000000e+00" purity="5.0067257881164551e-01" nType="0">
                <Node pos="l" depth="3" NCoef="0" IVar="-1" Cut="0.0000000000000000e+00" cType="1" res="-9.9000000000000000e+01" rms="0.0000000000000000e+00" purity="5.1162624359130859e-01" nType="1"/>
                <Node pos="r" depth="3" NCoef="0" IVar="-1" Cut="2.8650593757629395e+00" cType="0" res="-9.9000000000000000e+01" rms="0.0000000000000000e+00" purity="4.9331897497177124e-01" nType="-1"/>
              </Node>
            </Node>
            <Node pos="r" depth="1" NCoef="0" IVar="5" Cut="1.0126559734344482e+00" cType="0" res="-9.9000000000000000e+01" rms="0.0000000000000000e+00" purity="4.9633461236953735e-01" nType="0">
              <Node pos="l" depth="2" NCoef="0" IVar="6" Cut="1.5320438146591187e+00" cType="1" res="-9.9000000000000000e+01" rms="0.0000000000000000e+00" purity="4.9879044294357300e-01" nType="0">
                <Node pos="l" depth="3" NCoef="0" IVar="1" Cut="9.2675254821777344e+01" cType="1" res="-9.9000000000000000e+01" rms="0.0000000000000000e+00" purity="5.0557804107666016e-01" nType="0">
                  <Node pos="l" depth="4" NCoef="0" IVar="-1" Cut="0.0000000000000000e+00" cType="1" res="-9.9000000000000000e+01" rms="0.0000000000000000e+00" purity="5.1783317327499390e-01" nType="1"/>
                  <Node pos="r" depth="4" NCoef="0" IVar="-1" Cut="0.0000000000000000e+00" cType="1" res="-9.9000000000000000e+01" rms="0.0000000000000000e+00" purity="4.9277165532112122e-01" nType="-1"/>
                </Node>
                <Node pos="r" depth="3" NCoef="0" IVar="2" Cut="2.1040231323242188e+02" cType="1" res="-9.9000000000000000e+01" rms="0.0000000000000000e+00" purity="4.9347096681594849e-01" nType="0">
                  <Node pos="l" depth="4" NCoef="0" IVar="-1" Cut="0.0000000000000000e+00" cType="1" res="-9.9000000000000000e+01" rms="0.0000000000000000e+00" purity="5.0162357091903687e-01" nType="1"/>
                  <Node pos="r" depth="4" NCoef="0" IVar="-1" Cut="0.0000000000000000e+00" cType="1" res="-9.9000000000000000e+01" rms="0.0000000000000000e+00" purity="4.6213909983634949e-01" nType="-1"/>
                </Node>
              </Node>
              <Node pos="r" depth="2" NCoef="0" IVar="2" Cut="1.8457661437988281e+02" cType="0" res="-9.9000000000000000e+01" rms="0.0000000000000000e+00" purity="4.8705622553825378e-01" nType="0">
                <Node pos="l" depth="3" NCoef="0" IVar="-1" Cut="0.0000000000000000e+00" cType="1" res="-9.9000000000000000e+01" rms="0.0000000000000000e+00" purity="5.0245034694671631e-01" nType="1"/>
                <Node pos="r" depth="3" NCoef="0" IVar="-1" Cut="0.0000000000000000e+00" cType="1" res="-9.9000000000000000e+01" rms="0.0000000000000000e+00" purity="4.7093361616134644e-01" nType="-1"/>
              </Node>
            </Node>
          </Node>
        </BinaryTree>
        <BinaryTree type="DecisionTree" boostWeight="5.2944070177568057e-03" itree="191">
          <Node pos="s" depth="0" NCoef="0" IVar="3" Cut="1.7410440063476562e+02" cType="1" res="-9.9000000000000000e+01" rms="0.0000000000000000e+00" purity="4.9924340844154358e-01" nType="0">
            <Node pos="l" depth="1" NCoef="0" IVar="1" Cut="5.3438262939453125e+01" cType="0" res="-9.9000000000000000e+01" rms="0.0000000000000000e+00" purity="5.0380241870880127e-01" nType="0">
              <Node pos="l" depth="2" NCoef="0" IVar="1" Cut="7.8008216857910156e+01" cType="1" res="-9.9000000000000000e+01" rms="0.0000000000000000e+00" purity="5.0528979301452637e-01" nType="0">
                <Node pos="l" depth="3" NCoef="0" IVar="-1" Cut="0.0000000000000000e+00" cType="1" res="-9.9000000000000000e+01" rms="0.0000000000000000e+00" purity="5.1471811532974243e-01" nType="1"/>
                <Node pos="r" depth="3" NCoef="0" IVar="4" Cut="1.9546979665756226e+00" cType="0" res="-9.9000000000000000e+01" rms="0.0000000000000000e+00" purity="5.0150769948959351e-01" nType="0">
                  <Node pos="l" depth="4" NCoef="0" IVar="-1" Cut="0.0000000000000000e+00" cType="1" res="-9.9000000000000000e+01" rms="0.0000000000000000e+00" purity="5.1604485511779785e-01" nType="1"/>
                  <Node pos="r" depth="4" NCoef="0" IVar="-1" Cut="0.0000000000000000e+00" cType="1" res="-9.9000000000000000e+01" rms="0.0000000000000000e+00" purity="4.9568843841552734e-01" nType="-1"/>
                </Node>
              </Node>
              <Node pos="r" depth="2" NCoef="0" IVar="-1" Cut="0.0000000000000000e+00" cType="1" res="-9.9000000000000000e+01" rms="0.0000000000000000e+00" purity="4.9416899681091309e-01" nType="-1"/>
            </Node>
            <Node pos="r" depth="1" NCoef="0" IVar="4" Cut="2.2274236679077148e+00" cType="1" res="-9.9000000000000000e+01" rms="0.0000000000000000e+00" purity="4.9590271711349487e-01" nType="0">
              <Node pos="l" depth="2" NCoef="0" IVar="0" Cut="6.9467666625976562e+01" cType="0" res="-9.9000000000000000e+01" rms="0.0000000000000000e+00" purity="4.9753725528717041e-01" nType="0">
                <Node pos="l" depth="3" NCoef="0" IVar="3" Cut="4.1207205200195312e+02" cType="1" res="-9.9000000000000000e+01" rms="0.0000000000000000e+00" purity="5.0069028139114380e-01" nType="0">
                  <Node pos="l" depth="4" NCoef="0" IVar="-1" Cut="0.0000000000000000e+00" cType="1" res="-9.9000000000000000e+01" rms="0.0000000000000000e+00" purity="5.0375020503997803e-01" nType="1"/>
                  <Node pos="r" depth="4" NCoef="0" IVar="-1" Cut="0.0000000000000000e+00" cType="1" res="-9.9000000000000000e+01" rms="0.0000000000000000e+00" purity="4.8511800169944763e-01" nType="-1"/>
                </Node>
                <Node pos="r" depth="3" NCoef="0" IVar="-1" Cut="0.0000000000000000e+00" cType="1" res="-9.9000000000000000e+01" rms="0.0000000000000000e+00" purity="4.8511260747909546e-01" nType="-1"/>
              </Node>
              <Node pos="r" depth="2" NCoef="0" IVar="-1" Cut="0.0000000000000000e+00" cType="1" res="-9.9000000000000000e+01" rms="0.0000000000000000e+00" purity="4.8205271363258362e-01" nType="-1"/>
            </Node>
          </Node>
        </BinaryTree>
        <BinaryTree type="DecisionTree" boostWeight="5.9486309559174831e-03" itree="192">
          <Node pos="s" depth="0" NCoef="0" IVar="3" Cut="1.7410440063476562e+02" cType="1" res="-9.9000000000000000e+01" rms="0.0000000000000000e+00" purity="4.9918746948242188e-01" nType="0">
            <Node pos="l" depth="1" NCoef="0" IVar="5" Cut="9.2884892225265503e-01" cType="0" res="-9.9000000000000000e+01" rms="0.0000000000000000e+00" purity="5.0400328636169434e-01" nType="0">
              <Node pos="l" depth="2" NCoef="0" IVar="0" Cut="4.0307895660400391e+01" cType="1" res="-9.9000000000000000e+01" rms="0.0000000000000000e+00" purity="5.0621432065963745e-01" nType="0">
                <Node pos="l" depth="3" NCoef="0" IVar="-1" Cut="0.0000000000000000e+00" cType="1" res="-9.9000000000000000e+01" rms="0.0000000000000000e+00" purity="5.1994502544403076e-01" nType="1"/>
                <Node pos="r" depth="3" NCoef="0" IVar="6" Cut="2.8814687728881836e+00" cType="0" res="-9.9000000000000000e+01" rms="0.0000000000000000e+00" purity="5.0273871421813965e-01" nType="0">
                  <Node pos="l" depth="4" NCoef="0" IVar="-1" Cut="0.0000000000000000e+00" cType="1" res="-9.9000000000000000e+01" rms="0.0000000000000000e+00" purity="5.1972240209579468e-01" nType="1"/>
                  <Node pos="r" depth="4" NCoef="0" IVar="-1" Cut="0.0000000000000000e+00" cType="1" res="-9.9000000000000000e+01" rms="0.0000000000000000e+00" purity="4.9721863865852356e-01" nType="-1"/>
                </Node>
              </Node>
              <Node pos="r" depth="2" NCoef="0" IVar="2" Cut="1.4105764770507812e+02" cType="0" res="-9.9000000000000000e+01" rms="0.0000000000000000e+00" purity="4.9793386459350586e-01" nType="0">
                <Node pos="l" depth="3" NCoef="0" IVar="-1" Cut="0.0000000000000000e+00" cType="1" res="-9.9000000000000000e+01" rms="0.0000000000000000e+00" purity="5.0955575704574585e-01" nType="1"/>
                <Node pos="r" depth="3" NCoef="0" IVar="-1" Cut="0.0000000000000000e+00" cType="1" res="-9.9000000000000000e+01" rms="0.0000000000000000e+00" purity="4.8388746380805969e-01" nType="-1"/>
              </Node>
            </Node>
            <Node pos="r" depth="1" NCoef="0" IVar="2" Cut="1.6511323547363281e+02" cType="0" res="-9.9000000000000000e+01" rms="0.0000000000000000e+00" purity="4.9565860629081726e-01" nType="0">
              <Node pos="l" depth="2" NCoef="0" IVar="0" Cut="9.2543121337890625e+01" cType="1" res="-9.9000000000000000e+01" rms="0.0000000000000000e+00" purity="4.9762228131294250e-01" nType="0">
                <Node pos="l" depth="3" NCoef="0" IVar="6" Cut="2.6141793727874756e+00" cType="1" res="-9.9000000000000000e+01" rms="0.0000000000000000e+00" purity="5.0857234001159668e-01" nType="0">
                  <Node pos="l" depth="4" NCoef="0" IVar="-1" Cut="0.0000000000000000e+00" cType="1" res="-9.9000000000000000e+01" rms="0.0000000000000000e+00" purity="5.1443064212799072e-01" nType="1"/>
                  <Node pos="r" depth="4" NCoef="0" IVar="-1" Cut="0.0000000000000000e+00" cType="1" res="-9.9000000000000000e+01" rms="0.0000000000000000e+00" purity="4.9877336621284485e-01" nType="-1"/>
                </Node>
                <Node pos="r" depth="3" NCoef="0" IVar="-1" Cut="2.1289949417114258e+00" cType="1" res="-9.9000000000000000e+01" rms="0.0000000000000000e+00" purity="4.9186715483665466e-01" nType="-1"/>
              </Node>
              <Node pos="r" depth="2" NCoef="0" IVar="-1" Cut="0.0000000000000000e+00" cType="1" res="-9.9000000000000000e+01" rms="0.0000000000000000e+00" purity="4.8508623242378235e-01" nType="-1"/>
            </Node>
          </Node>
        </BinaryTree>
        <BinaryTree type="DecisionTree" boostWeight="7.6000856429397834e-03" itree="193">
          <Node pos="s" depth="0" NCoef="0" IVar="3" Cut="1.7410440063476562e+02" cType="1" res="-9.9000000000000000e+01" rms="0.0000000000000000e+00" purity="4.9983841180801392e-01" nType="0">
            <Node pos="l" depth="1" NCoef="0" IVar="6" Cut="3.0026431083679199e+00" cType="1" res="-9.9000000000000000e+01" rms="0.0000000000000000e+00" purity="5.0419175624847412e-01" nType="0">
              <Node pos="l" depth="2" NCoef="0" IVar="0" Cut="4.1134277343750000e+01" cType="1" res="-9.9000000000000000e+01" rms="0.0000000000000000e+00" purity="5.0672465562820435e-01" nType="0">
                <Node pos="l" depth="3" NCoef="0" IVar="-1" Cut="0.0000000000000000e+00" cType="1" res="-9.9000000000000000e+01" rms="0.0000000000000000e+00" purity="5.3315359354019165e-01" nType="1"/>
                <Node pos="r" depth="3" NCoef="0" IVar="3" Cut="1.3945431518554688e+02" cType="1" res="-9.9000000000000000e+01" rms="0.0000000000000000e+00" purity="4.9891379475593567e-01" nType="0">
                  <Node pos="l" depth="4" NCoef="0" IVar="-1" Cut="0.0000000000000000e+00" cType="1" res="-9.9000000000000000e+01" rms="0.0000000000000000e+00" purity="5.0906354188919067e-01" nType="1"/>
                  <Node pos="r" depth="4" NCoef="0" IVar="-1" Cut="0.0000000000000000e+00" cType="1" res="-9.9000000000000000e+01" rms="0.0000000000000000e+00" purity="4.9415740370750427e-01" nType="-1"/>
                </Node>
              </Node>
              <Node pos="r" depth="2" NCoef="0" IVar="0" Cut="4.0300243377685547e+01" cType="0" res="-9.9000000000000000e+01" rms="0.0000000000000000e+00" purity="4.9707373976707458e-01" nType="0">
                <Node pos="l" depth="3" NCoef="0" IVar="-1" Cut="0.0000000000000000e+00" cType="1" res="-9.9000000000000000e+01" rms="0.0000000000000000e+00" purity="5.1849353313446045e-01" nType="1"/>
                <Node pos="r" depth="3" NCoef="0" IVar="-1" Cut="0.0000000000000000e+00" cType="1" res="-9.9000000000000000e+01" rms="0.0000000000000000e+00" purity="4.7158235311508179e-01" nType="-1"/>
              </Node>
            </Node>
            <Node pos="r" depth="1" NCoef="0" IVar="5" Cut="1.0126559734344482e+00" cType="0" res="-9.9000000000000000e+01" rms="0.0000000000000000e+00" purity="4.9664872884750366e-01" nType="0">
              <Node pos="l" depth="2" NCoef="0" IVar="6" Cut="1.5320438146591187e+00" cType="1" res="-9.9000000000000000e+01" rms="0.0000000000000000e+00" purity="4.9894952774047852e-01" nType="0">
                <Node pos="l" depth="3" NCoef="0" IVar="4" Cut="1.0519914627075195e+00" cType="0" res="-9.9000000000000000e+01" rms="0.0000000000000000e+00" purity="5.0633645057678223e-01" nType="0">
                  <Node pos="l" depth="4" NCoef="0" IVar="-1" Cut="0.0000000000000000e+00" cType="1" res="-9.9000000000000000e+01" rms="0.0000000000000000e+00" purity="5.2401554584503174e-01" nType="1"/>
                  <Node pos="r" depth="4" NCoef="0" IVar="-1" Cut="0.0000000000000000e+00" cType="1" res="-9.9000000000000000e+01" rms="0.0000000000000000e+00" purity="4.9875023961067200e-01" nType="-1"/>
                </Node>
                <Node pos="r" depth="3" NCoef="0" IVar="4" Cut="1.2611414194107056e+00" cType="0" res="-9.9000000000000000e+01" rms="0.0000000000000000e+00" purity="4.9315896630287170e-01" nType="0">
                  <Node pos="l" depth="4" NCoef="0" IVar="-1" Cut="0.0000000000000000e+00" cType="1" res="-9.9000000000000000e+01" rms="0.0000000000000000e+00" purity="5.0293850898742676e-01" nType="1"/>
                  <Node pos="r" depth="4" NCoef="0" IVar="-1" Cut="0.0000000000000000e+00" cType="1" res="-9.9000000000000000e+01" rms="0.0000000000000000e+00" purity="4.6934735774993896e-01" nType="-1"/>
                </Node>
              </Node>
              <Node pos="r" depth="2" NCoef="0" IVar="3" Cut="2.1077182006835938e+02" cType="1" res="-9.9000000000000000e+01" rms="0.0000000000000000e+00" purity="4.8795354366302490e-01" nType="0">
                <Node pos="l" depth="3" NCoef="0" IVar="-1" Cut="0.0000000000000000e+00" cType="1" res="-9.9000000000000000e+01" rms="0.0000000000000000e+00" purity="5.0156080722808838e-01" nType="1"/>
                <Node pos="r" depth="3" NCoef="0" IVar="-1" Cut="0.0000000000000000e+00" cType="1" res="-9.9000000000000000e+01" rms="0.0000000000000000e+00" purity="4.7193416953086853e-01" nType="-1"/>
              </Node>
            </Node>
          </Node>
        </BinaryTree>
        <BinaryTree type="DecisionTree" boostWeight="6.6829750709005899e-03" itree="194">
          <Node pos="s" depth="0" NCoef="0" IVar="3" Cut="1.7410440063476562e+02" cType="1" res="-9.9000000000000000e+01" rms="0.0000000000000000e+00" purity="4.9980291724205017e-01" nType="0">
            <Node pos="l" depth="1" NCoef="0" IVar="6" Cut="3.0026431083679199e+00" cType="1" res="-9.9000000000000000e+01" rms="0.0000000000000000e+00" purity="5.0422424077987671e-01" nType="0">
              <Node pos="l" depth="2" NCoef="0" IVar="0" Cut="4.1134277343750000e+01" cType="1" res="-9.9000000000000000e+01" rms="0.0000000000000000e+00" purity="5.0682741403579712e-01" nType="0">
                <Node pos="l" depth="3" NCoef="0" IVar="-1" Cut="0.0000000000000000e+00" cType="1" res="-9.9000000000000000e+01" rms="0.0000000000000000e+00" purity="5.3125101327896118e-01" nType="1"/>
                <Node pos="r" depth="3" NCoef="0" IVar="2" Cut="1.5798469543457031e+02" cType="0" res="-9.9000000000000000e+01" rms="0.0000000000000000e+00" purity="4.9961057305335999e-01" nType="0">
                  <Node pos="l" depth="4" NCoef="0" IVar="-1" Cut="0.0000000000000000e+00" cType="1" res="-9.9000000000000000e+01" rms="0.0000000000000000e+00" purity="5.0956726074218750e-01" nType="1"/>
                  <Node pos="r" depth="4" NCoef="0" IVar="-1" Cut="0.0000000000000000e+00" cType="1" res="-9.9000000000000000e+01" rms="0.0000000000000000e+00" purity="4.9504721164703369e-01" nType="-1"/>
                </Node>
              </Node>
              <Node pos="r" depth="2" NCoef="0" IVar="0" Cut="4.0300243377685547e+01" cType="0" res="-9.9000000000000000e+01" rms="0.0000000000000000e+00" purity="4.9690854549407959e-01" nType="0">
                <Node pos="l" depth="3" NCoef="0" IVar="-1" Cut="0.0000000000000000e+00" cType="1" res="-9.9000000000000000e+01" rms="0.0000000000000000e+00" purity="5.1659286022186279e-01" nType="1"/>
                <Node pos="r" depth="3" NCoef="0" IVar="-1" Cut="0.0000000000000000e+00" cType="1" res="-9.9000000000000000e+01" rms="0.0000000000000000e+00" purity="4.7348076105117798e-01" nType="-1"/>
              </Node>
            </Node>
            <Node pos="r" depth="1" NCoef="0" IVar="4" Cut="2.2274236679077148e+00" cType="1" res="-9.9000000000000000e+01" rms="0.0000000000000000e+00" purity="4.9656364321708679e-01" nType="0">
              <Node pos="l" depth="2" NCoef="0" IVar="0" Cut="6.9467666625976562e+01" cType="0" res="-9.9000000000000000e+01" rms="0.0000000000000000e+00" purity="4.9813941121101379e-01" nType="0">
                <Node pos="l" depth="3" NCoef="0" IVar="6" Cut="1.1547760963439941e+00" cType="1" res="-9.9000000000000000e+01" rms="0.0000000000000000e+00" purity="5.0121450424194336e-01" nType="0">
                  <Node pos="l" depth="4" NCoef="0" IVar="-1" Cut="0.0000000000000000e+00" cType="1" res="-9.9000000000000000e+01" rms="0.0000000000000000e+00" purity="5.1293659210205078e-01" nType="1"/>
                  <Node pos="r" depth="4" NCoef="0" IVar="-1" Cut="0.0000000000000000e+00" cType="1" res="-9.9000000000000000e+01" rms="0.0000000000000000e+00" purity="4.9652495980262756e-01" nType="-1"/>
                </Node>
                <Node pos="r" depth="3" NCoef="0" IVar="-1" Cut="0.0000000000000000e+00" cType="1" res="-9.9000000000000000e+01" rms="0.0000000000000000e+00" purity="4.8601666092872620e-01" nType="-1"/>
              </Node>
              <Node pos="r" depth="2" NCoef="0" IVar="-1" Cut="0.0000000000000000e+00" cType="1" res="-9.9000000000000000e+01" rms="0.0000000000000000e+00" purity="4.8320999741554260e-01" nType="-1"/>
            </Node>
          </Node>
        </BinaryTree>
        <BinaryTree type="DecisionTree" boostWeight="6.2484091987004726e-03" itree="195">
          <Node pos="s" depth="0" NCoef="0" IVar="3" Cut="1.7410440063476562e+02" cType="1" res="-9.9000000000000000e+01" rms="0.0000000000000000e+00" purity="5.0040364265441895e-01" nType="0">
            <Node pos="l" depth="1" NCoef="0" IVar="6" Cut="3.0026431083679199e+00" cType="1" res="-9.9000000000000000e+01" rms="0.0000000000000000e+00" purity="5.0426036119461060e-01" nType="0">
              <Node pos="l" depth="2" NCoef="0" IVar="0" Cut="4.1134277343750000e+01" cType="1" res="-9.9000000000000000e+01" rms="0.0000000000000000e+00" purity="5.0692784786224365e-01" nType="0">
                <Node pos="l" depth="3" NCoef="0" IVar="-1" Cut="0.0000000000000000e+00" cType="1" res="-9.9000000000000000e+01" rms="0.0000000000000000e+00" purity="5.2957749366760254e-01" nType="1"/>
                <Node pos="r" depth="3" NCoef="0" IVar="6" Cut="2.5277502536773682e+00" cType="0" res="-9.9000000000000000e+01" rms="0.0000000000000000e+00" purity="5.0023627281188965e-01" nType="0">
                  <Node pos="l" depth="4" NCoef="0" IVar="-1" Cut="0.0000000000000000e+00" cType="1" res="-9.9000000000000000e+01" rms="0.0000000000000000e+00" purity="5.0971829891204834e-01" nType="1"/>
                  <Node pos="r" depth="4" NCoef="0" IVar="-1" Cut="0.0000000000000000e+00" cType="1" res="-9.9000000000000000e+01" rms="0.0000000000000000e+00" purity="4.9616006016731262e-01" nType="-1"/>
                </Node>
              </Node>
              <Node pos="r" depth="2" NCoef="0" IVar="0" Cut="4.0300243377685547e+01" cType="0" res="-9.9000000000000000e+01" rms="0.0000000000000000e+00" purity="4.9676316976547241e-01" nType="0">
                <Node pos="l" depth="3" NCoef="0" IVar="-1" Cut="0.0000000000000000e+00" cType="1" res="-9.9000000000000000e+01" rms="0.0000000000000000e+00" purity="5.1492118835449219e-01" nType="1"/>
                <Node pos="r" depth="3" NCoef="0" IVar="-1" Cut="0.0000000000000000e+00" cType="1" res="-9.9000000000000000e+01" rms="0.0000000000000000e+00" purity="4.7515067458152771e-01" nType="-1"/>
              </Node>
            </Node>
            <Node pos="r" depth="1" NCoef="0" IVar="4" Cut="2.2274236679077148e+00" cType="1" res="-9.9000000000000000e+01" rms="0.0000000000000000e+00" purity="4.9757835268974304e-01" nType="0">
              <Node pos="l" depth="2" NCoef="0" IVar="0" Cut="6.9467666625976562e+01" cType="0" res="-9.9000000000000000e+01" rms="0.0000000000000000e+00" purity="4.9907565116882324e-01" nType="0">
                <Node pos="l" depth="3" NCoef="0" IVar="1" Cut="7.3349876403808594e+01" cType="0" res="-9.9000000000000000e+01" rms="0.0000000000000000e+00" purity="5.0196331739425659e-01" nType="0">
                  <Node pos="l" depth="4" NCoef="0" IVar="-1" Cut="0.0000000000000000e+00" cType="1" res="-9.9000000000000000e+01" rms="0.0000000000000000e+00" purity="5.0562721490859985e-01" nType="1"/>
                  <Node pos="r" depth="4" NCoef="0" IVar="-1" Cut="0.0000000000000000e+00" cType="1" res="-9.9000000000000000e+01" rms="0.0000000000000000e+00" purity="4.9184492230415344e-01" nType="-1"/>
                </Node>
                <Node pos="r" depth="3" NCoef="0" IVar="-1" Cut="0.0000000000000000e+00" cType="1" res="-9.9000000000000000e+01" rms="0.0000000000000000e+00" purity="4.8769080638885498e-01" nType="-1"/>
              </Node>
              <Node pos="r" depth="2" NCoef="0" IVar="-1" Cut="0.0000000000000000e+00" cType="1" res="-9.9000000000000000e+01" rms="0.0000000000000000e+00" purity="4.8488780856132507e-01" nType="-1"/>
            </Node>
          </Node>
        </BinaryTree>
        <BinaryTree type="DecisionTree" boostWeight="6.2292357948858920e-03" itree="196">
          <Node pos="s" depth="0" NCoef="0" IVar="3" Cut="1.7410440063476562e+02" cType="1" res="-9.9000000000000000e+01" rms="0.0000000000000000e+00" purity="5.0039291381835938e-01" nType="0">
            <Node pos="l" depth="1" NCoef="0" IVar="6" Cut="3.0026431083679199e+00" cType="1" res="-9.9000000000000000e+01" rms="0.0000000000000000e+00" purity="5.0431966781616211e-01" nType="0">
              <Node pos="l" depth="2" NCoef="0" IVar="0" Cut="4.1134277343750000e+01" cType="1" res="-9.9000000000000000e+01" rms="0.0000000000000000e+00" purity="5.0705641508102417e-01" nType="0">
                <Node pos="l" depth="3" NCoef="0" IVar="-1" Cut="0.0000000000000000e+00" cType="1" res="-9.9000000000000000e+01" rms="0.0000000000000000e+00" purity="5.2801227569580078e-01" nType="1"/>
                <Node pos="r" depth="3" NCoef="0" IVar="5" Cut="9.9407082796096802e-01" cType="0" res="-9.9000000000000000e+01" rms="0.0000000000000000e+00" purity="5.0086623430252075e-01" nType="0">
                  <Node pos="l" depth="4" NCoef="0" IVar="-1" Cut="0.0000000000000000e+00" cType="1" res="-9.9000000000000000e+01" rms="0.0000000000000000e+00" purity="5.0471043586730957e-01" nType="1"/>
                  <Node pos="r" depth="4" NCoef="0" IVar="-1" Cut="0.0000000000000000e+00" cType="1" res="-9.9000000000000000e+01" rms="0.0000000000000000e+00" purity="4.9064663052558899e-01" nType="-1"/>
                </Node>
              </Node>
              <Node pos="r" depth="2" NCoef="0" IVar="0" Cut="4.0300243377685547e+01" cType="0" res="-9.9000000000000000e+01" rms="0.0000000000000000e+00" purity="4.9662727117538452e-01" nType="0">
                <Node pos="l" depth="3" NCoef="0" IVar="-1" Cut="0.0000000000000000e+00" cType="1" res="-9.9000000000000000e+01" rms="0.0000000000000000e+00" purity="5.1335793733596802e-01" nType="1"/>
                <Node pos="r" depth="3" NCoef="0" IVar="-1" Cut="0.0000000000000000e+00" cType="1" res="-9.9000000000000000e+01" rms="0.0000000000000000e+00" purity="4.7671243548393250e-01" nType="-1"/>
              </Node>
            </Node>
            <Node pos="r" depth="1" NCoef="0" IVar="2" Cut="1.6511323547363281e+02" cType="0" res="-9.9000000000000000e+01" rms="0.0000000000000000e+00" purity="4.9751642346382141e-01" nType="0">
              <Node pos="l" depth="2" NCoef="0" IVar="0" Cut="9.2543121337890625e+01" cType="1" res="-9.9000000000000000e+01" rms="0.0000000000000000e+00" purity="4.9935647845268250e-01" nType="0">
                <Node pos="l" depth="3" NCoef="0" IVar="-1" Cut="2.2053068542480469e+02" cType="1" res="-9.9000000000000000e+01" rms="0.0000000000000000e+00" purity="5.1003485918045044e-01" nType="1"/>
                <Node pos="r" depth="3" NCoef="0" IVar="6" Cut="2.1289949417114258e+00" cType="1" res="-9.9000000000000000e+01" rms="0.0000000000000000e+00" purity="4.9374511837959290e-01" nType="0">
                  <Node pos="l" depth="4" NCoef="0" IVar="-1" Cut="0.0000000000000000e+00" cType="1" res="-9.9000000000000000e+01" rms="0.0000000000000000e+00" purity="5.0031834840774536e-01" nType="1"/>
                  <Node pos="r" depth="4" NCoef="0" IVar="-1" Cut="0.0000000000000000e+00" cType="1" res="-9.9000000000000000e+01" rms="0.0000000000000000e+00" purity="4.6551743149757385e-01" nType="-1"/>
                </Node>
              </Node>
              <Node pos="r" depth="2" NCoef="0" IVar="-1" Cut="0.0000000000000000e+00" cType="1" res="-9.9000000000000000e+01" rms="0.0000000000000000e+00" purity="4.8760464787483215e-01" nType="-1"/>
            </Node>
          </Node>
        </BinaryTree>
        <BinaryTree type="DecisionTree" boostWeight="6.7528540852017198e-03" itree="197">
          <Node pos="s" depth="0" NCoef="0" IVar="3" Cut="1.7410440063476562e+02" cType="1" res="-9.9000000000000000e+01" rms="0.0000000000000000e+00" purity="4.9966913461685181e-01" nType="0">
            <Node pos="l" depth="1" NCoef="0" IVar="6" Cut="3.0026431083679199e+00" cType="1" res="-9.9000000000000000e+01" rms="0.0000000000000000e+00" purity="5.0361943244934082e-01" nType="0">
              <Node pos="l" depth="2" NCoef="0" IVar="0" Cut="4.1134277343750000e+01" cType="1" res="-9.9000000000000000e+01" rms="0.0000000000000000e+00" purity="5.0615513324737549e-01" nType="0">
                <Node pos="l" depth="3" NCoef="0" IVar="-1" Cut="0.0000000000000000e+00" cType="1" res="-9.9000000000000000e+01" rms="0.0000000000000000e+00" purity="5.2645134925842285e-01" nType="1"/>
                <Node pos="r" depth="3" NCoef="0" IVar="3" Cut="1.3945431518554688e+02" cType="1" res="-9.9000000000000000e+01" rms="0.0000000000000000e+00" purity="5.0016057491302490e-01" nType="0">
                  <Node pos="l" depth="4" NCoef="0" IVar="-1" Cut="0.0000000000000000e+00" cType="1" res="-9.9000000000000000e+01" rms="0.0000000000000000e+00" purity="5.0872594118118286e-01" nType="1"/>
                  <Node pos="r" depth="4" NCoef="0" IVar="-1" Cut="0.0000000000000000e+00" cType="1" res="-9.9000000000000000e+01" rms="0.0000000000000000e+00" purity="4.9614667892456055e-01" nType="-1"/>
                </Node>
              </Node>
              <Node pos="r" depth="2" NCoef="0" IVar="5" Cut="9.7605645656585693e-01" cType="0" res="-9.9000000000000000e+01" rms="0.0000000000000000e+00" purity="4.9649173021316528e-01" nType="0">
                <Node pos="l" depth="3" NCoef="0" IVar="-1" Cut="0.0000000000000000e+00" cType="1" res="-9.9000000000000000e+01" rms="0.0000000000000000e+00" purity="5.1250422000885010e-01" nType="1"/>
                <Node pos="r" depth="3" NCoef="0" IVar="-1" Cut="0.0000000000000000e+00" cType="1" res="-9.9000000000000000e+01" rms="0.0000000000000000e+00" purity="4.7729840874671936e-01" nType="-1"/>
              </Node>
            </Node>
            <Node pos="r" depth="1" NCoef="0" IVar="5" Cut="1.0126559734344482e+00" cType="0" res="-9.9000000000000000e+01" rms="0.0000000000000000e+00" purity="4.9677541851997375e-01" nType="0">
              <Node pos="l" depth="2" NCoef="0" IVar="6" Cut="1.5320438146591187e+00" cType="1" res="-9.9000000000000000e+01" rms="0.0000000000000000e+00" purity="4.9874579906463623e-01" nType="0">
                <Node pos="l" depth="3" NCoef="0" IVar="1" Cut="9.2675254821777344e+01" cType="1" res="-9.9000000000000000e+01" rms="0.0000000000000000e+00" purity="5.0500255823135376e-01" nType="0">
                  <Node pos="l" depth="4" NCoef="0" IVar="-1" Cut="0.0000000000000000e+00" cType="1" res="-9.9000000000000000e+01" rms="0.0000000000000000e+00" purity="5.1669245958328247e-01" nType="1"/>
                  <Node pos="r" depth="4" NCoef="0" IVar="-1" Cut="0.0000000000000000e+00" cType="1" res="-9.9000000000000000e+01" rms="0.0000000000000000e+00" purity="4.9278354644775391e-01" nType="-1"/>
                </Node>
                <Node pos="r" depth="3" NCoef="0" IVar="2" Cut="2.1040231323242188e+02" cType="1" res="-9.9000000000000000e+01" rms="0.0000000000000000e+00" purity="4.9384027719497681e-01" nType="0">
                  <Node pos="l" depth="4" NCoef="0" IVar="-1" Cut="0.0000000000000000e+00" cType="1" res="-9.9000000000000000e+01" rms="0.0000000000000000e+00" purity="5.0149625539779663e-01" nType="1"/>
                  <Node pos="r" depth="4" NCoef="0" IVar="-1" Cut="0.0000000000000000e+00" cType="1" res="-9.9000000000000000e+01" rms="0.0000000000000000e+00" purity="4.6440204977989197e-01" nType="-1"/>
                </Node>
              </Node>
              <Node pos="r" depth="2" NCoef="0" IVar="2" Cut="1.8457661437988281e+02" cType="0" res="-9.9000000000000000e+01" rms="0.0000000000000000e+00" purity="4.8932635784149170e-01" nType="0">
                <Node pos="l" depth="3" NCoef="0" IVar="-1" Cut="0.0000000000000000e+00" cType="1" res="-9.9000000000000000e+01" rms="0.0000000000000000e+00" purity="5.0223833322525024e-01" nType="1"/>
                <Node pos="r" depth="3" NCoef="0" IVar="-1" Cut="0.0000000000000000e+00" cType="1" res="-9.9000000000000000e+01" rms="0.0000000000000000e+00" purity="4.7578999400138855e-01" nType="-1"/>
              </Node>
            </Node>
          </Node>
        </BinaryTree>
        <BinaryTree type="DecisionTree" boostWeight="6.1772388695161776e-03" itree="198">
          <Node pos="s" depth="0" NCoef="0" IVar="3" Cut="1.7410440063476562e+02" cType="1" res="-9.9000000000000000e+01" rms="0.0000000000000000e+00" purity="4.9942111968994141e-01" nType="0">
            <Node pos="l" depth="1" NCoef="0" IVar="6" Cut="3.0026431083679199e+00" cType="1" res="-9.9000000000000000e+01" rms="0.0000000000000000e+00" purity="5.0364619493484497e-01" nType="0">
              <Node pos="l" depth="2" NCoef="0" IVar="0" Cut="4.1134277343750000e+01" cType="1" res="-9.9000000000000000e+01" rms="0.0000000000000000e+00" purity="5.0624644756317139e-01" nType="0">
                <Node pos="l" depth="3" NCoef="0" IVar="-1" Cut="0.0000000000000000e+00" cType="1" res="-9.9000000000000000e+01" rms="0.0000000000000000e+00" purity="5.2475881576538086e-01" nType="1"/>
                <Node pos="r" depth="3" NCoef="0" IVar="2" Cut="1.5798469543457031e+02" cType="0" res="-9.9000000000000000e+01" rms="0.0000000000000000e+00" purity="5.0077950954437256e-01" nType="0">
                  <Node pos="l" depth="4" NCoef="0" IVar="-1" Cut="0.0000000000000000e+00" cType="1" res="-9.9000000000000000e+01" rms="0.0000000000000000e+00" purity="5.0958085060119629e-01" nType="1"/>
                  <Node pos="r" depth="4" NCoef="0" IVar="-1" Cut="0.0000000000000000e+00" cType="1" res="-9.9000000000000000e+01" rms="0.0000000000000000e+00" purity="4.9674534797668457e-01" nType="-1"/>
                </Node>
              </Node>
              <Node pos="r" depth="2" NCoef="0" IVar="0" Cut="4.0300243377685547e+01" cType="0" res="-9.9000000000000000e+01" rms="0.0000000000000000e+00" purity="4.9633672833442688e-01" nType="0">
                <Node pos="l" depth="3" NCoef="0" IVar="-1" Cut="0.0000000000000000e+00" cType="1" res="-9.9000000000000000e+01" rms="0.0000000000000000e+00" purity="5.1115053892135620e-01" nType="1"/>
                <Node pos="r" depth="3" NCoef="0" IVar="-1" Cut="0.0000000000000000e+00" cType="1" res="-9.9000000000000000e+01" rms="0.0000000000000000e+00" purity="4.7869923710823059e-01" nType="-1"/>
              </Node>
            </Node>
            <Node pos="r" depth="1" NCoef="0" IVar="5" Cut="1.0126559734344482e+00" cType="0" res="-9.9000000000000000e+01" rms="0.0000000000000000e+00" purity="4.9632626771926880e-01" nType="0">
              <Node pos="l" depth="2" NCoef="0" IVar="6" Cut="1.5320438146591187e+00" cType="1" res="-9.9000000000000000e+01" rms="0.0000000000000000e+00" purity="4.9818834662437439e-01" nType="0">
                <Node pos="l" depth="3" NCoef="0" IVar="4" Cut="1.0519914627075195e+00" cType="0" res="-9.9000000000000000e+01" rms="0.0000000000000000e+00" purity="5.0498878955841064e-01" nType="0">
                  <Node pos="l" depth="4" NCoef="0" IVar="-1" Cut="0.0000000000000000e+00" cType="1" res="-9.9000000000000000e+01" rms="0.0000000000000000e+00" purity="5.2107268571853638e-01" nType="1"/>
                  <Node pos="r" depth="4" NCoef="0" IVar="-1" Cut="0.0000000000000000e+00" cType="1" res="-9.9000000000000000e+01" rms="0.0000000000000000e+00" purity="4.9808982014656067e-01" nType="-1"/>
                </Node>
                <Node pos="r" depth="3" NCoef="0" IVar="4" Cut="1.2611414194107056e+00" cType="0" res="-9.9000000000000000e+01" rms="0.0000000000000000e+00" purity="4.9285644292831421e-01" nType="0">
                  <Node pos="l" depth="4" NCoef="0" IVar="-1" Cut="0.0000000000000000e+00" cType="1" res="-9.9000000000000000e+01" rms="0.0000000000000000e+00" purity="5.0188863277435303e-01" nType="1"/>
                  <Node pos="r" depth="4" NCoef="0" IVar="-1" Cut="0.0000000000000000e+00" cType="1" res="-9.9000000000000000e+01" rms="0.0000000000000000e+00" purity="4.7086098790168762e-01" nType="-1"/>
                </Node>
              </Node>
              <Node pos="r" depth="2" NCoef="0" IVar="3" Cut="2.1077182006835938e+02" cType="1" res="-9.9000000000000000e+01" rms="0.0000000000000000e+00" purity="4.8928630352020264e-01" nType="0">
                <Node pos="l" depth="3" NCoef="0" IVar="-1" Cut="0.0000000000000000e+00" cType="1" res="-9.9000000000000000e+01" rms="0.0000000000000000e+00" purity="5.0135332345962524e-01" nType="1"/>
                <Node pos="r" depth="3" NCoef="0" IVar="-1" Cut="0.0000000000000000e+00" cType="1" res="-9.9000000000000000e+01" rms="0.0000000000000000e+00" purity="4.7507420182228088e-01" nType="-1"/>
              </Node>
            </Node>
          </Node>
        </BinaryTree>
        <BinaryTree type="DecisionTree" boostWeight="4.7415356768498729e-03" itree="199">
          <Node pos="s" depth="0" NCoef="0" IVar="3" Cut="1.7410440063476562e+02" cType="1" res="-9.9000000000000000e+01" rms="0.0000000000000000e+00" purity="4.9939471483230591e-01" nType="0">
            <Node pos="l" depth="1" NCoef="0" IVar="6" Cut="3.0026431083679199e+00" cType="1" res="-9.9000000000000000e+01" rms="0.0000000000000000e+00" purity="5.0367945432662964e-01" nType="0">
              <Node pos="l" depth="2" NCoef="0" IVar="0" Cut="4.1134277343750000e+01" cType="1" res="-9.9000000000000000e+01" rms="0.0000000000000000e+00" purity="5.0633925199508667e-01" nType="0">
                <Node pos="l" depth="3" NCoef="0" IVar="-1" Cut="0.0000000000000000e+00" cType="1" res="-9.9000000000000000e+01" rms="0.0000000000000000e+00" purity="5.2321016788482666e-01" nType="1"/>
                <Node pos="r" depth="3" NCoef="0" IVar="3" Cut="1.3945431518554688e+02" cType="1" res="-9.9000000000000000e+01" rms="0.0000000000000000e+00" purity="5.0135767459869385e-01" nType="0">
                  <Node pos="l" depth="4" NCoef="0" IVar="-1" Cut="0.0000000000000000e+00" cType="1" res="-9.9000000000000000e+01" rms="0.0000000000000000e+00" purity="5.0858390331268311e-01" nType="1"/>
                  <Node pos="r" depth="4" NCoef="0" IVar="-1" Cut="0.0000000000000000e+00" cType="1" res="-9.9000000000000000e+01" rms="0.0000000000000000e+00" purity="4.9797114729881287e-01" nType="-1"/>
                </Node>
              </Node>
              <Node pos="r" depth="2" NCoef="0" IVar="5" Cut="9.7605645656585693e-01" cType="0" res="-9.9000000000000000e+01" rms="0.0000000000000000e+00" purity="4.9620214104652405e-01" nType="0">
                <Node pos="l" depth="3" NCoef="0" IVar="-1" Cut="0.0000000000000000e+00" cType="1" res="-9.9000000000000000e+01" rms="0.0000000000000000e+00" purity="5.1022428274154663e-01" nType="1"/>
                <Node pos="r" depth="3" NCoef="0" IVar="-1" Cut="0.0000000000000000e+00" cType="1" res="-9.9000000000000000e+01" rms="0.0000000000000000e+00" purity="4.7939026355743408e-01" nType="-1"/>
              </Node>
            </Node>
            <Node pos="r" depth="1" NCoef="0" IVar="2" Cut="2.8339630126953125e+02" cType="0" res="-9.9000000000000000e+01" rms="0.0000000000000000e+00" purity="4.9625626206398010e-01" nType="0">
              <Node pos="l" depth="2" NCoef="0" IVar="-1" Cut="0.0000000000000000e+00" cType="1" res="-9.9000000000000000e+01" rms="0.0000000000000000e+00" purity="5.0858610868453979e-01" nType="1"/>
              <Node pos="r" depth="2" NCoef="0" IVar="6" Cut="9.8155063390731812e-01" cType="0" res="-9.9000000000000000e+01" rms="0.0000000000000000e+00" purity="4.9497333168983459e-01" nType="0">
                <Node pos="l" depth="3" NCoef="0" IVar="2" Cut="1.5474584960937500e+02" cType="0" res="-9.9000000000000000e+01" rms="0.0000000000000000e+00" purity="4.9817392230033875e-01" nType="0">
                  <Node pos="l" depth="4" NCoef="0" IVar="-1" Cut="0.0000000000000000e+00" cType="1" res="-9.9000000000000000e+01" rms="0.0000000000000000e+00" purity="5.0061976909637451e-01" nType="1"/>
                  <Node pos="r" depth="4" NCoef="0" IVar="-1" Cut="0.0000000000000000e+00" cType="1" res="-9.9000000000000000e+01" rms="0.0000000000000000e+00" purity="4.8127323389053345e-01" nType="-1"/>
                </Node>
                <Node pos="r" depth="3" NCoef="0" IVar="-1" Cut="0.0000000000000000e+00" cType="1" res="-9.9000000000000000e+01" rms="0.0000000000000000e+00" purity="4.6778029203414917e-01" nType="-1"/>
              </Node>
            </Node>
          </Node>
        </BinaryTree>
      </Weights>
    </SubMethod>
    <SubMethod Index="1" Method="BDT::BDTCat_2o2" Cut="(EventNumberMod2%2&gt;0.5)&amp;&amp;(EventNumberMod2%2&lt;1.5)" Variables="pTyy:mW:MefftopSM:HTjets:mindRbj:MefftopEx:dRbW">
      <GeneralInfo>
        <Info name="TMVA Release" value="4.2.1 [262657]"/>
        <Info name="ROOT Release" value="6.14/06 [396806]"/>
        <Info name="Creator" value="fournier"/>
        <Info name="Date" value="Mon Jun 24 20:49:22 2019"/>
        <Info name="Host" value="Darwin macitois21.cern.ch 18.0.0 Darwin Kernel Version 18.0.0: Wed Aug 22 20:13:40 PDT 2018; root:xnu-4903.201.2~1/RELEASE_X86_64 x86_64"/>
        <Info name="Dir" value="/Users/fournier/Analyse/bdt"/>
        <Info name="Training events" value="78225"/>
        <Info name="TrainingTime" value="5.59361792e+00"/>
        <Info name="AnalysisType" value="Classification"/>
      </GeneralInfo>
      <Options>
        <Option name="V" modified="Yes">False</Option>
        <Option name="VerbosityLevel" modified="No">Default</Option>
        <Option name="VarTransform" modified="No">None</Option>
        <Option name="H" modified="Yes">False</Option>
        <Option name="CreateMVAPdfs" modified="No">False</Option>
        <Option name="IgnoreNegWeightsInTraining" modified="No">False</Option>
        <Option name="NTrees" modified="Yes">200</Option>
        <Option name="MaxDepth" modified="Yes">4</Option>
        <Option name="MinNodeSize" modified="Yes">5</Option>
        <Option name="nCuts" modified="Yes">100</Option>
        <Option name="BoostType" modified="Yes">AdaBoost</Option>
        <Option name="AdaBoostR2Loss" modified="No">quadratic</Option>
        <Option name="UseBaggedBoost" modified="No">False</Option>
        <Option name="Shrinkage" modified="No">1.000000e+00</Option>
        <Option name="AdaBoostBeta" modified="Yes">1.500000e-01</Option>
        <Option name="UseRandomisedTrees" modified="No">False</Option>
        <Option name="UseNvars" modified="No">3</Option>
        <Option name="UsePoissonNvars" modified="No">True</Option>
        <Option name="BaggedSampleFraction" modified="No">6.000000e-01</Option>
        <Option name="UseYesNoLeaf" modified="No">True</Option>
        <Option name="NegWeightTreatment" modified="No">inverseboostnegweights</Option>
        <Option name="Css" modified="No">1.000000e+00</Option>
        <Option name="Cts_sb" modified="No">1.000000e+00</Option>
        <Option name="Ctb_ss" modified="No">1.000000e+00</Option>
        <Option name="Cbb" modified="No">1.000000e+00</Option>
        <Option name="NodePurityLimit" modified="No">5.000000e-01</Option>
        <Option name="SeparationType" modified="Yes">giniindex</Option>
        <Option name="RegressionLossFunctionBDTG" modified="No">huber</Option>
        <Option name="HuberQuantile" modified="No">7.000000e-01</Option>
        <Option name="DoBoostMonitor" modified="No">False</Option>
        <Option name="UseFisherCuts" modified="No">False</Option>
        <Option name="MinLinCorrForFisher" modified="No">8.000000e-01</Option>
        <Option name="UseExclusiveVars" modified="No">False</Option>
        <Option name="DoPreselection" modified="No">False</Option>
        <Option name="SigToBkgFraction" modified="No">1.000000e+00</Option>
        <Option name="PruneMethod" modified="Yes">nopruning</Option>
        <Option name="PruneStrength" modified="No">0.000000e+00</Option>
        <Option name="PruningValFraction" modified="No">5.000000e-01</Option>
        <Option name="SkipNormalization" modified="No">False</Option>
        <Option name="nEventsMin" modified="No">0</Option>
        <Option name="UseBaggedGrad" modified="No">False</Option>
        <Option name="GradBaggingFraction" modified="No">6.000000e-01</Option>
        <Option name="UseNTrainEvents" modified="No">0</Option>
        <Option name="NNodesMax" modified="No">0</Option>
      </Options>
      <Variables NVar="7">
        <Variable VarIndex="0" Expression="pTyy" Label="pTyy" Title="pTyy" Unit="" Internal="pTyy" Type="F" Min="2.91650862e-01" Max="1.15738721e+03"/>
        <Variable VarIndex="1" Expression="mW" Label="mW" Title="mW" Unit="" Internal="mW" Type="F" Min="1.51122885e+01" Max="1.99697235e+02"/>
        <Variable VarIndex="2" Expression="MefftopSM" Label="MefftopSM" Title="MefftopSM" Unit="" Internal="MefftopSM" Type="F" Min="9.11444702e+01" Max="1.01361609e+03"/>
        <Variable VarIndex="3" Expression="HTjets" Label="HTjets" Title="HTjets" Unit="" Internal="HTjets" Type="F" Min="9.11444702e+01" Max="2.54438818e+03"/>
        <Variable VarIndex="4" Expression="mindRbj" Label="mindRbj" Title="mindRbj" Unit="" Internal="mindRbj" Type="F" Min="3.86641324e-01" Max="3.92735815e+00"/>
        <Variable VarIndex="5" Expression="MefftopEx" Label="MefftopEx" Title="MefftopEx" Unit="" Internal="MefftopEx" Type="F" Min="4.44530874e-01" Max="9.30731583e+00"/>
        <Variable VarIndex="6" Expression="dRbW" Label="dRbW" Title="dRbW" Unit="" Internal="dRbW" Type="F" Min="5.57391718e-03" Max="8.16599083e+00"/>
      </Variables>
      <Classes NClass="2">
        <Class Name="Signal" Index="0"/>
        <Class Name="Background" Index="1"/>
      </Classes>
      <Transformations NTransformations="0"/>
      <MVAPdfs/>
      <Weights NTrees="200" AnalysisType="0">
        <BinaryTree type="DecisionTree" boostWeight="1.0581215990378286e-01" itree="0">
          <Node pos="s" depth="0" NCoef="0" IVar="5" Cut="1.3220343589782715e+00" cType="0" res="-9.9000000000000000e+01" rms="0.0000000000000000e+00" purity="5.0000000000000000e-01" nType="0">
            <Node pos="l" depth="1" NCoef="0" IVar="-1" Cut="1.5592254400253296e+00" cType="0" res="-9.9000000000000000e+01" rms="0.0000000000000000e+00" purity="7.3805481195449829e-01" nType="1"/>
            <Node pos="r" depth="1" NCoef="0" IVar="2" Cut="1.4075924682617188e+02" cType="0" res="-9.9000000000000000e+01" rms="0.0000000000000000e+00" purity="3.9888906478881836e-01" nType="0">
              <Node pos="l" depth="2" NCoef="0" IVar="5" Cut="9.5711255073547363e-01" cType="0" res="-9.9000000000000000e+01" rms="0.0000000000000000e+00" purity="4.5720961689949036e-01" nType="0">
                <Node pos="l" depth="3" NCoef="0" IVar="4" Cut="8.6786580085754395e-01" cType="0" res="-9.9000000000000000e+01" rms="0.0000000000000000e+00" purity="5.1087230443954468e-01" nType="0">
                  <Node pos="l" depth="4" NCoef="0" IVar="-1" Cut="0.0000000000000000e+00" cType="1" res="-9.9000000000000000e+01" rms="0.0000000000000000e+00" purity="5.4675453901290894e-01" nType="1"/>
                  <Node pos="r" depth="4" NCoef="0" IVar="-1" Cut="0.0000000000000000e+00" cType="1" res="-9.9000000000000000e+01" rms="0.0000000000000000e+00" purity="3.3583793044090271e-01" nType="-1"/>
                </Node>
                <Node pos="r" depth="3" NCoef="0" IVar="-1" Cut="8.1498634815216064e-01" cType="0" res="-9.9000000000000000e+01" rms="0.0000000000000000e+00" purity="3.2904657721519470e-01" nType="-1"/>
              </Node>
              <Node pos="r" depth="2" NCoef="0" IVar="-1" Cut="1.2405637359619141e+02" cType="0" res="-9.9000000000000000e+01" rms="0.0000000000000000e+00" purity="2.5256091356277466e-01" nType="-1"/>
            </Node>
          </Node>
        </BinaryTree>
        <BinaryTree type="DecisionTree" boostWeight="9.5056165230668441e-02" itree="1">
          <Node pos="s" depth="0" NCoef="0" IVar="5" Cut="1.4097846746444702e+00" cType="0" res="-9.9000000000000000e+01" rms="0.0000000000000000e+00" purity="4.9552336335182190e-01" nType="0">
            <Node pos="l" depth="1" NCoef="0" IVar="-1" Cut="9.9586463928222656e+01" cType="1" res="-9.9000000000000000e+01" rms="0.0000000000000000e+00" purity="7.4904352426528931e-01" nType="1"/>
            <Node pos="r" depth="1" NCoef="0" IVar="2" Cut="1.3367141723632812e+02" cType="0" res="-9.9000000000000000e+01" rms="0.0000000000000000e+00" purity="4.1289985179901123e-01" nType="0">
              <Node pos="l" depth="2" NCoef="0" IVar="5" Cut="8.9369875192642212e-01" cType="0" res="-9.9000000000000000e+01" rms="0.0000000000000000e+00" purity="4.5435607433319092e-01" nType="0">
                <Node pos="l" depth="3" NCoef="0" IVar="1" Cut="1.0264714813232422e+02" cType="1" res="-9.9000000000000000e+01" rms="0.0000000000000000e+00" purity="4.8850420117378235e-01" nType="0">
                  <Node pos="l" depth="4" NCoef="0" IVar="-1" Cut="0.0000000000000000e+00" cType="1" res="-9.9000000000000000e+01" rms="0.0000000000000000e+00" purity="5.4100018739700317e-01" nType="1"/>
                  <Node pos="r" depth="4" NCoef="0" IVar="-1" Cut="0.0000000000000000e+00" cType="1" res="-9.9000000000000000e+01" rms="0.0000000000000000e+00" purity="3.8775369524955750e-01" nType="-1"/>
                </Node>
                <Node pos="r" depth="3" NCoef="0" IVar="-1" Cut="7.9139381647109985e-01" cType="0" res="-9.9000000000000000e+01" rms="0.0000000000000000e+00" purity="3.0857700109481812e-01" nType="-1"/>
              </Node>
              <Node pos="r" depth="2" NCoef="0" IVar="-1" Cut="9.9975460767745972e-01" cType="0" res="-9.9000000000000000e+01" rms="0.0000000000000000e+00" purity="2.4484705924987793e-01" nType="-1"/>
            </Node>
          </Node>
        </BinaryTree>
        <BinaryTree type="DecisionTree" boostWeight="8.6716361713340032e-02" itree="2">
          <Node pos="s" depth="0" NCoef="0" IVar="5" Cut="1.4097846746444702e+00" cType="0" res="-9.9000000000000000e+01" rms="0.0000000000000000e+00" purity="4.9256131052970886e-01" nType="0">
            <Node pos="l" depth="1" NCoef="0" IVar="-1" Cut="9.9586463928222656e+01" cType="1" res="-9.9000000000000000e+01" rms="0.0000000000000000e+00" purity="7.3074543476104736e-01" nType="1"/>
            <Node pos="r" depth="1" NCoef="0" IVar="2" Cut="1.4784706115722656e+02" cType="0" res="-9.9000000000000000e+01" rms="0.0000000000000000e+00" purity="4.1598051786422729e-01" nType="0">
              <Node pos="l" depth="2" NCoef="0" IVar="4" Cut="7.7850681543350220e-01" cType="0" res="-9.9000000000000000e+01" rms="0.0000000000000000e+00" purity="4.7124803066253662e-01" nType="0">
                <Node pos="l" depth="3" NCoef="0" IVar="1" Cut="6.1218456268310547e+01" cType="0" res="-9.9000000000000000e+01" rms="0.0000000000000000e+00" purity="4.9595552682876587e-01" nType="0">
                  <Node pos="l" depth="4" NCoef="0" IVar="-1" Cut="0.0000000000000000e+00" cType="1" res="-9.9000000000000000e+01" rms="0.0000000000000000e+00" purity="5.3014361858367920e-01" nType="1"/>
                  <Node pos="r" depth="4" NCoef="0" IVar="-1" Cut="0.0000000000000000e+00" cType="1" res="-9.9000000000000000e+01" rms="0.0000000000000000e+00" purity="3.4846121072769165e-01" nType="-1"/>
                </Node>
                <Node pos="r" depth="3" NCoef="0" IVar="-1" Cut="0.0000000000000000e+00" cType="1" res="-9.9000000000000000e+01" rms="0.0000000000000000e+00" purity="3.1854084134101868e-01" nType="-1"/>
              </Node>
              <Node pos="r" depth="2" NCoef="0" IVar="-1" Cut="1.2482864379882812e+02" cType="0" res="-9.9000000000000000e+01" rms="0.0000000000000000e+00" purity="3.1053787469863892e-01" nType="-1"/>
            </Node>
          </Node>
        </BinaryTree>
        <BinaryTree type="DecisionTree" boostWeight="7.0361690681969027e-02" itree="3">
          <Node pos="s" depth="0" NCoef="0" IVar="5" Cut="1.4097846746444702e+00" cType="0" res="-9.9000000000000000e+01" rms="0.0000000000000000e+00" purity="4.8892953991889954e-01" nType="0">
            <Node pos="l" depth="1" NCoef="0" IVar="-1" Cut="9.9586463928222656e+01" cType="1" res="-9.9000000000000000e+01" rms="0.0000000000000000e+00" purity="7.1333795785903931e-01" nType="1"/>
            <Node pos="r" depth="1" NCoef="0" IVar="2" Cut="1.2658358764648438e+02" cType="0" res="-9.9000000000000000e+01" rms="0.0000000000000000e+00" purity="4.1762533783912659e-01" nType="0">
              <Node pos="l" depth="2" NCoef="0" IVar="5" Cut="8.1724464893341064e-01" cType="0" res="-9.9000000000000000e+01" rms="0.0000000000000000e+00" purity="4.4370874762535095e-01" nType="0">
                <Node pos="l" depth="3" NCoef="0" IVar="1" Cut="1.0811090850830078e+02" cType="1" res="-9.9000000000000000e+01" rms="0.0000000000000000e+00" purity="4.6600142121315002e-01" nType="0">
                  <Node pos="l" depth="4" NCoef="0" IVar="-1" Cut="0.0000000000000000e+00" cType="1" res="-9.9000000000000000e+01" rms="0.0000000000000000e+00" purity="5.0145643949508667e-01" nType="1"/>
                  <Node pos="r" depth="4" NCoef="0" IVar="-1" Cut="0.0000000000000000e+00" cType="1" res="-9.9000000000000000e+01" rms="0.0000000000000000e+00" purity="3.7828445434570312e-01" nType="-1"/>
                </Node>
                <Node pos="r" depth="3" NCoef="0" IVar="-1" Cut="0.0000000000000000e+00" cType="1" res="-9.9000000000000000e+01" rms="0.0000000000000000e+00" purity="2.7420359849929810e-01" nType="-1"/>
              </Node>
              <Node pos="r" depth="2" NCoef="0" IVar="-1" Cut="0.0000000000000000e+00" cType="1" res="-9.9000000000000000e+01" rms="0.0000000000000000e+00" purity="2.4119816720485687e-01" nType="-1"/>
            </Node>
          </Node>
        </BinaryTree>
        <BinaryTree type="DecisionTree" boostWeight="7.8040211354218292e-02" itree="4">
          <Node pos="s" depth="0" NCoef="0" IVar="5" Cut="1.4097846746444702e+00" cType="0" res="-9.9000000000000000e+01" rms="0.0000000000000000e+00" purity="4.8339140415191650e-01" nType="0">
            <Node pos="l" depth="1" NCoef="0" IVar="-1" Cut="9.9586463928222656e+01" cType="1" res="-9.9000000000000000e+01" rms="0.0000000000000000e+00" purity="6.9873082637786865e-01" nType="1"/>
            <Node pos="r" depth="1" NCoef="0" IVar="5" Cut="9.9882310628890991e-01" cType="0" res="-9.9000000000000000e+01" rms="0.0000000000000000e+00" purity="4.1563987731933594e-01" nType="0">
              <Node pos="l" depth="2" NCoef="0" IVar="2" Cut="1.5524958801269531e+02" cType="0" res="-9.9000000000000000e+01" rms="0.0000000000000000e+00" purity="4.6559143066406250e-01" nType="0">
                <Node pos="l" depth="3" NCoef="0" IVar="1" Cut="1.1903842163085938e+02" cType="1" res="-9.9000000000000000e+01" rms="0.0000000000000000e+00" purity="5.0683158636093140e-01" nType="0">
                  <Node pos="l" depth="4" NCoef="0" IVar="-1" Cut="0.0000000000000000e+00" cType="1" res="-9.9000000000000000e+01" rms="0.0000000000000000e+00" purity="5.3323155641555786e-01" nType="1"/>
                  <Node pos="r" depth="4" NCoef="0" IVar="-1" Cut="0.0000000000000000e+00" cType="1" res="-9.9000000000000000e+01" rms="0.0000000000000000e+00" purity="4.0425008535385132e-01" nType="-1"/>
                </Node>
                <Node pos="r" depth="3" NCoef="0" IVar="-1" Cut="9.0418937683105469e+01" cType="1" res="-9.9000000000000000e+01" rms="0.0000000000000000e+00" purity="3.9696931838989258e-01" nType="-1"/>
              </Node>
              <Node pos="r" depth="2" NCoef="0" IVar="-1" Cut="1.3628662109375000e+02" cType="0" res="-9.9000000000000000e+01" rms="0.0000000000000000e+00" purity="3.3541017770767212e-01" nType="-1"/>
            </Node>
          </Node>
        </BinaryTree>
        <BinaryTree type="DecisionTree" boostWeight="7.0690669495409864e-02" itree="5">
          <Node pos="s" depth="0" NCoef="0" IVar="5" Cut="1.4975349903106689e+00" cType="0" res="-9.9000000000000000e+01" rms="0.0000000000000000e+00" purity="4.8472559452056885e-01" nType="0">
            <Node pos="l" depth="1" NCoef="0" IVar="-1" Cut="9.8479965209960938e+01" cType="1" res="-9.9000000000000000e+01" rms="0.0000000000000000e+00" purity="7.0672303438186646e-01" nType="1"/>
            <Node pos="r" depth="1" NCoef="0" IVar="2" Cut="1.2658358764648438e+02" cType="0" res="-9.9000000000000000e+01" rms="0.0000000000000000e+00" purity="4.2995139956474304e-01" nType="0">
              <Node pos="l" depth="2" NCoef="0" IVar="5" Cut="1.1534600257873535e+00" cType="0" res="-9.9000000000000000e+01" rms="0.0000000000000000e+00" purity="4.5177161693572998e-01" nType="0">
                <Node pos="l" depth="3" NCoef="0" IVar="1" Cut="9.5512985229492188e+01" cType="1" res="-9.9000000000000000e+01" rms="0.0000000000000000e+00" purity="5.2496385574340820e-01" nType="0">
                  <Node pos="l" depth="4" NCoef="0" IVar="-1" Cut="0.0000000000000000e+00" cType="1" res="-9.9000000000000000e+01" rms="0.0000000000000000e+00" purity="5.6522113084793091e-01" nType="1"/>
                  <Node pos="r" depth="4" NCoef="0" IVar="-1" Cut="0.0000000000000000e+00" cType="1" res="-9.9000000000000000e+01" rms="0.0000000000000000e+00" purity="4.5957329869270325e-01" nType="-1"/>
                </Node>
                <Node pos="r" depth="3" NCoef="0" IVar="-1" Cut="2.1655842590332031e+02" cType="1" res="-9.9000000000000000e+01" rms="0.0000000000000000e+00" purity="4.1626456379890442e-01" nType="-1"/>
              </Node>
              <Node pos="r" depth="2" NCoef="0" IVar="-1" Cut="0.0000000000000000e+00" cType="1" res="-9.9000000000000000e+01" rms="0.0000000000000000e+00" purity="2.7189779281616211e-01" nType="-1"/>
            </Node>
          </Node>
        </BinaryTree>
        <BinaryTree type="DecisionTree" boostWeight="5.1221626290554559e-02" itree="6">
          <Node pos="s" depth="0" NCoef="0" IVar="5" Cut="1.4975349903106689e+00" cType="0" res="-9.9000000000000000e+01" rms="0.0000000000000000e+00" purity="4.9081715941429138e-01" nType="0">
            <Node pos="l" depth="1" NCoef="0" IVar="-1" Cut="9.8479965209960938e+01" cType="1" res="-9.9000000000000000e+01" rms="0.0000000000000000e+00" purity="6.9185447692871094e-01" nType="1"/>
            <Node pos="r" depth="1" NCoef="0" IVar="-1" Cut="1.2658358764648438e+02" cType="0" res="-9.9000000000000000e+01" rms="0.0000000000000000e+00" purity="4.4167864322662354e-01" nType="-1"/>
          </Node>
        </BinaryTree>
        <BinaryTree type="DecisionTree" boostWeight="6.2983202062909166e-02" itree="7">
          <Node pos="s" depth="0" NCoef="0" IVar="5" Cut="1.2342840433120728e+00" cType="0" res="-9.9000000000000000e+01" rms="0.0000000000000000e+00" purity="4.9920764565467834e-01" nType="0">
            <Node pos="l" depth="1" NCoef="0" IVar="5" Cut="1.7938019037246704e+00" cType="0" res="-9.9000000000000000e+01" rms="0.0000000000000000e+00" purity="6.2174606323242188e-01" nType="0">
              <Node pos="l" depth="2" NCoef="0" IVar="-1" Cut="1.1695495843887329e+00" cType="1" res="-9.9000000000000000e+01" rms="0.0000000000000000e+00" purity="7.3209679126739502e-01" nType="1"/>
              <Node pos="r" depth="2" NCoef="0" IVar="1" Cut="1.0278740692138672e+02" cType="1" res="-9.9000000000000000e+01" rms="0.0000000000000000e+00" purity="5.7099145650863647e-01" nType="0">
                <Node pos="l" depth="3" NCoef="0" IVar="1" Cut="6.6483200073242188e+01" cType="0" res="-9.9000000000000000e+01" rms="0.0000000000000000e+00" purity="6.0898911952972412e-01" nType="0">
                  <Node pos="l" depth="4" NCoef="0" IVar="-1" Cut="0.0000000000000000e+00" cType="1" res="-9.9000000000000000e+01" rms="0.0000000000000000e+00" purity="6.6222500801086426e-01" nType="1"/>
                  <Node pos="r" depth="4" NCoef="0" IVar="-1" Cut="0.0000000000000000e+00" cType="1" res="-9.9000000000000000e+01" rms="0.0000000000000000e+00" purity="4.8362249135971069e-01" nType="-1"/>
                </Node>
                <Node pos="r" depth="3" NCoef="0" IVar="-1" Cut="0.0000000000000000e+00" cType="1" res="-9.9000000000000000e+01" rms="0.0000000000000000e+00" purity="4.7894528508186340e-01" nType="-1"/>
              </Node>
            </Node>
            <Node pos="r" depth="1" NCoef="0" IVar="2" Cut="1.2658358764648438e+02" cType="0" res="-9.9000000000000000e+01" rms="0.0000000000000000e+00" purity="4.3142792582511902e-01" nType="0">
              <Node pos="l" depth="2" NCoef="0" IVar="3" Cut="2.1655842590332031e+02" cType="1" res="-9.9000000000000000e+01" rms="0.0000000000000000e+00" purity="4.5439249277114868e-01" nType="0">
                <Node pos="l" depth="3" NCoef="0" IVar="4" Cut="1.0948928594589233e+00" cType="0" res="-9.9000000000000000e+01" rms="0.0000000000000000e+00" purity="4.8779255151748657e-01" nType="0">
                  <Node pos="l" depth="4" NCoef="0" IVar="-1" Cut="0.0000000000000000e+00" cType="1" res="-9.9000000000000000e+01" rms="0.0000000000000000e+00" purity="5.1633191108703613e-01" nType="1"/>
                  <Node pos="r" depth="4" NCoef="0" IVar="-1" Cut="0.0000000000000000e+00" cType="1" res="-9.9000000000000000e+01" rms="0.0000000000000000e+00" purity="3.6917483806610107e-01" nType="-1"/>
                </Node>
                <Node pos="r" depth="3" NCoef="0" IVar="-1" Cut="1.0543503761291504e+00" cType="0" res="-9.9000000000000000e+01" rms="0.0000000000000000e+00" purity="3.4287944436073303e-01" nType="-1"/>
              </Node>
              <Node pos="r" depth="2" NCoef="0" IVar="-1" Cut="0.0000000000000000e+00" cType="1" res="-9.9000000000000000e+01" rms="0.0000000000000000e+00" purity="2.8658655285835266e-01" nType="-1"/>
            </Node>
          </Node>
        </BinaryTree>
        <BinaryTree type="DecisionTree" boostWeight="5.6666544272730712e-02" itree="8">
          <Node pos="s" depth="0" NCoef="0" IVar="5" Cut="1.2342840433120728e+00" cType="0" res="-9.9000000000000000e+01" rms="0.0000000000000000e+00" purity="4.9706891179084778e-01" nType="0">
            <Node pos="l" depth="1" NCoef="0" IVar="5" Cut="1.6339398622512817e+00" cType="0" res="-9.9000000000000000e+01" rms="0.0000000000000000e+00" purity="6.1840420961380005e-01" nType="0">
              <Node pos="l" depth="2" NCoef="0" IVar="-1" Cut="2.2331069946289062e+02" cType="0" res="-9.9000000000000000e+01" rms="0.0000000000000000e+00" purity="7.0003837347030640e-01" nType="1"/>
              <Node pos="r" depth="2" NCoef="0" IVar="4" Cut="9.3691211938858032e-01" cType="0" res="-9.9000000000000000e+01" rms="0.0000000000000000e+00" purity="5.5946487188339233e-01" nType="0">
                <Node pos="l" depth="3" NCoef="0" IVar="-1" Cut="7.3227722167968750e+01" cType="0" res="-9.9000000000000000e+01" rms="0.0000000000000000e+00" purity="5.8701765537261963e-01" nType="1"/>
                <Node pos="r" depth="3" NCoef="0" IVar="-1" Cut="0.0000000000000000e+00" cType="1" res="-9.9000000000000000e+01" rms="0.0000000000000000e+00" purity="4.8676654696464539e-01" nType="-1"/>
              </Node>
            </Node>
            <Node pos="r" depth="1" NCoef="0" IVar="5" Cut="8.1985765695571899e-01" cType="0" res="-9.9000000000000000e+01" rms="0.0000000000000000e+00" purity="4.3010589480400085e-01" nType="0">
              <Node pos="l" depth="2" NCoef="0" IVar="1" Cut="5.6182834625244141e+01" cType="0" res="-9.9000000000000000e+01" rms="0.0000000000000000e+00" purity="4.5193600654602051e-01" nType="0">
                <Node pos="l" depth="3" NCoef="0" IVar="4" Cut="1.1414265632629395e+00" cType="0" res="-9.9000000000000000e+01" rms="0.0000000000000000e+00" purity="4.7155106067657471e-01" nType="0">
                  <Node pos="l" depth="4" NCoef="0" IVar="-1" Cut="0.0000000000000000e+00" cType="1" res="-9.9000000000000000e+01" rms="0.0000000000000000e+00" purity="5.0691115856170654e-01" nType="1"/>
                  <Node pos="r" depth="4" NCoef="0" IVar="-1" Cut="0.0000000000000000e+00" cType="1" res="-9.9000000000000000e+01" rms="0.0000000000000000e+00" purity="3.8097238540649414e-01" nType="-1"/>
                </Node>
                <Node pos="r" depth="3" NCoef="0" IVar="-1" Cut="0.0000000000000000e+00" cType="1" res="-9.9000000000000000e+01" rms="0.0000000000000000e+00" purity="3.3602684736251831e-01" nType="-1"/>
              </Node>
              <Node pos="r" depth="2" NCoef="0" IVar="-1" Cut="0.0000000000000000e+00" cType="1" res="-9.9000000000000000e+01" rms="0.0000000000000000e+00" purity="3.0046582221984863e-01" nType="-1"/>
            </Node>
          </Node>
        </BinaryTree>
        <BinaryTree type="DecisionTree" boostWeight="6.0492849164497375e-02" itree="9">
          <Node pos="s" depth="0" NCoef="0" IVar="5" Cut="1.2342840433120728e+00" cType="0" res="-9.9000000000000000e+01" rms="0.0000000000000000e+00" purity="4.9324843287467957e-01" nType="0">
            <Node pos="l" depth="1" NCoef="0" IVar="2" Cut="1.7644882202148438e+02" cType="0" res="-9.9000000000000000e+01" rms="0.0000000000000000e+00" purity="6.0971987247467041e-01" nType="0">
              <Node pos="l" depth="2" NCoef="0" IVar="-1" Cut="2.0336170196533203e+00" cType="0" res="-9.9000000000000000e+01" rms="0.0000000000000000e+00" purity="6.5482258796691895e-01" nType="1"/>
              <Node pos="r" depth="2" NCoef="0" IVar="2" Cut="1.5455345153808594e+02" cType="0" res="-9.9000000000000000e+01" rms="0.0000000000000000e+00" purity="5.0029349327087402e-01" nType="0">
                <Node pos="l" depth="3" NCoef="0" IVar="-1" Cut="0.0000000000000000e+00" cType="1" res="-9.9000000000000000e+01" rms="0.0000000000000000e+00" purity="5.4594010114669800e-01" nType="1"/>
                <Node pos="r" depth="3" NCoef="0" IVar="-1" Cut="0.0000000000000000e+00" cType="1" res="-9.9000000000000000e+01" rms="0.0000000000000000e+00" purity="4.5400309562683105e-01" nType="-1"/>
              </Node>
            </Node>
            <Node pos="r" depth="1" NCoef="0" IVar="2" Cut="1.2658358764648438e+02" cType="0" res="-9.9000000000000000e+01" rms="0.0000000000000000e+00" purity="4.2913830280303955e-01" nType="0">
              <Node pos="l" depth="2" NCoef="0" IVar="3" Cut="2.3905191040039062e+02" cType="1" res="-9.9000000000000000e+01" rms="0.0000000000000000e+00" purity="4.4975778460502625e-01" nType="0">
                <Node pos="l" depth="3" NCoef="0" IVar="2" Cut="1.6444215393066406e+02" cType="0" res="-9.9000000000000000e+01" rms="0.0000000000000000e+00" purity="4.7250241041183472e-01" nType="0">
                  <Node pos="l" depth="4" NCoef="0" IVar="-1" Cut="0.0000000000000000e+00" cType="1" res="-9.9000000000000000e+01" rms="0.0000000000000000e+00" purity="5.2516543865203857e-01" nType="1"/>
                  <Node pos="r" depth="4" NCoef="0" IVar="-1" Cut="0.0000000000000000e+00" cType="1" res="-9.9000000000000000e+01" rms="0.0000000000000000e+00" purity="4.3152493238449097e-01" nType="-1"/>
                </Node>
                <Node pos="r" depth="3" NCoef="0" IVar="-1" Cut="0.0000000000000000e+00" cType="1" res="-9.9000000000000000e+01" rms="0.0000000000000000e+00" purity="3.4490326046943665e-01" nType="-1"/>
              </Node>
              <Node pos="r" depth="2" NCoef="0" IVar="-1" Cut="0.0000000000000000e+00" cType="1" res="-9.9000000000000000e+01" rms="0.0000000000000000e+00" purity="2.9805696010589600e-01" nType="-1"/>
            </Node>
          </Node>
        </BinaryTree>
        <BinaryTree type="DecisionTree" boostWeight="5.4079645960566795e-02" itree="10">
          <Node pos="s" depth="0" NCoef="0" IVar="0" Cut="1.4922474670410156e+02" cType="0" res="-9.9000000000000000e+01" rms="0.0000000000000000e+00" purity="4.9337077140808105e-01" nType="0">
            <Node pos="l" depth="1" NCoef="0" IVar="-1" Cut="9.8479965209960938e+01" cType="1" res="-9.9000000000000000e+01" rms="0.0000000000000000e+00" purity="6.4423060417175293e-01" nType="1"/>
            <Node pos="r" depth="1" NCoef="0" IVar="5" Cut="8.9251816272735596e-01" cType="0" res="-9.9000000000000000e+01" rms="0.0000000000000000e+00" purity="4.5159354805946350e-01" nType="0">
              <Node pos="l" depth="2" NCoef="0" IVar="4" Cut="2.5438561439514160e+00" cType="1" res="-9.9000000000000000e+01" rms="0.0000000000000000e+00" purity="4.7592893242835999e-01" nType="0">
                <Node pos="l" depth="3" NCoef="0" IVar="1" Cut="9.3540885925292969e+01" cType="1" res="-9.9000000000000000e+01" rms="0.0000000000000000e+00" purity="4.8988240957260132e-01" nType="0">
                  <Node pos="l" depth="4" NCoef="0" IVar="-1" Cut="0.0000000000000000e+00" cType="1" res="-9.9000000000000000e+01" rms="0.0000000000000000e+00" purity="5.3190189599990845e-01" nType="1"/>
                  <Node pos="r" depth="4" NCoef="0" IVar="-1" Cut="0.0000000000000000e+00" cType="1" res="-9.9000000000000000e+01" rms="0.0000000000000000e+00" purity="4.3946340680122375e-01" nType="-1"/>
                </Node>
                <Node pos="r" depth="3" NCoef="0" IVar="-1" Cut="0.0000000000000000e+00" cType="1" res="-9.9000000000000000e+01" rms="0.0000000000000000e+00" purity="3.3938547968864441e-01" nType="-1"/>
              </Node>
              <Node pos="r" depth="2" NCoef="0" IVar="-1" Cut="1.4236497497558594e+02" cType="0" res="-9.9000000000000000e+01" rms="0.0000000000000000e+00" purity="3.4912914037704468e-01" nType="-1"/>
            </Node>
          </Node>
        </BinaryTree>
        <BinaryTree type="DecisionTree" boostWeight="5.3485444508455382e-02" itree="11">
          <Node pos="s" depth="0" NCoef="0" IVar="5" Cut="1.3220343589782715e+00" cType="0" res="-9.9000000000000000e+01" rms="0.0000000000000000e+00" purity="4.9267655611038208e-01" nType="0">
            <Node pos="l" depth="1" NCoef="0" IVar="-1" Cut="9.9586463928222656e+01" cType="1" res="-9.9000000000000000e+01" rms="0.0000000000000000e+00" purity="6.0942965745925903e-01" nType="1"/>
            <Node pos="r" depth="1" NCoef="0" IVar="2" Cut="1.2658358764648438e+02" cType="0" res="-9.9000000000000000e+01" rms="0.0000000000000000e+00" purity="4.4645732641220093e-01" nType="0">
              <Node pos="l" depth="2" NCoef="0" IVar="1" Cut="5.8824420928955078e+01" cType="0" res="-9.9000000000000000e+01" rms="0.0000000000000000e+00" purity="4.6500280499458313e-01" nType="0">
                <Node pos="l" depth="3" NCoef="0" IVar="1" Cut="9.3448539733886719e+01" cType="1" res="-9.9000000000000000e+01" rms="0.0000000000000000e+00" purity="4.8516133427619934e-01" nType="0">
                  <Node pos="l" depth="4" NCoef="0" IVar="-1" Cut="0.0000000000000000e+00" cType="1" res="-9.9000000000000000e+01" rms="0.0000000000000000e+00" purity="5.3793811798095703e-01" nType="1"/>
                  <Node pos="r" depth="4" NCoef="0" IVar="-1" Cut="0.0000000000000000e+00" cType="1" res="-9.9000000000000000e+01" rms="0.0000000000000000e+00" purity="4.3821185827255249e-01" nType="-1"/>
                </Node>
                <Node pos="r" depth="3" NCoef="0" IVar="-1" Cut="0.0000000000000000e+00" cType="1" res="-9.9000000000000000e+01" rms="0.0000000000000000e+00" purity="3.5713815689086914e-01" nType="-1"/>
              </Node>
              <Node pos="r" depth="2" NCoef="0" IVar="-1" Cut="0.0000000000000000e+00" cType="1" res="-9.9000000000000000e+01" rms="0.0000000000000000e+00" purity="3.1926384568214417e-01" nType="-1"/>
            </Node>
          </Node>
        </BinaryTree>
        <BinaryTree type="DecisionTree" boostWeight="4.7514601981040613e-02" itree="12">
          <Node pos="s" depth="0" NCoef="0" IVar="5" Cut="1.5852854251861572e+00" cType="0" res="-9.9000000000000000e+01" rms="0.0000000000000000e+00" purity="4.9191519618034363e-01" nType="0">
            <Node pos="l" depth="1" NCoef="0" IVar="-1" Cut="9.6672515869140625e+01" cType="1" res="-9.9000000000000000e+01" rms="0.0000000000000000e+00" purity="6.4662361145019531e-01" nType="1"/>
            <Node pos="r" depth="1" NCoef="0" IVar="2" Cut="1.3367141723632812e+02" cType="0" res="-9.9000000000000000e+01" rms="0.0000000000000000e+00" purity="4.6243226528167725e-01" nType="0">
              <Node pos="l" depth="2" NCoef="0" IVar="1" Cut="6.0758342742919922e+01" cType="0" res="-9.9000000000000000e+01" rms="0.0000000000000000e+00" purity="4.8359274864196777e-01" nType="0">
                <Node pos="l" depth="3" NCoef="0" IVar="4" Cut="7.3597383499145508e-01" cType="0" res="-9.9000000000000000e+01" rms="0.0000000000000000e+00" purity="5.0403153896331787e-01" nType="0">
                  <Node pos="l" depth="4" NCoef="0" IVar="-1" Cut="0.0000000000000000e+00" cType="1" res="-9.9000000000000000e+01" rms="0.0000000000000000e+00" purity="5.2340918779373169e-01" nType="1"/>
                  <Node pos="r" depth="4" NCoef="0" IVar="-1" Cut="0.0000000000000000e+00" cType="1" res="-9.9000000000000000e+01" rms="0.0000000000000000e+00" purity="3.7647068500518799e-01" nType="-1"/>
                </Node>
                <Node pos="r" depth="3" NCoef="0" IVar="-1" Cut="2.0935237407684326e+00" cType="1" res="-9.9000000000000000e+01" rms="0.0000000000000000e+00" purity="3.8160714507102966e-01" nType="-1"/>
              </Node>
              <Node pos="r" depth="2" NCoef="0" IVar="-1" Cut="9.9888050556182861e-01" cType="0" res="-9.9000000000000000e+01" rms="0.0000000000000000e+00" purity="3.6146625876426697e-01" nType="-1"/>
            </Node>
          </Node>
        </BinaryTree>
        <BinaryTree type="DecisionTree" boostWeight="4.5332281840256630e-02" itree="13">
          <Node pos="s" depth="0" NCoef="0" IVar="5" Cut="1.2342840433120728e+00" cType="0" res="-9.9000000000000000e+01" rms="0.0000000000000000e+00" purity="4.8811727762222290e-01" nType="0">
            <Node pos="l" depth="1" NCoef="0" IVar="5" Cut="1.9536638259887695e+00" cType="0" res="-9.9000000000000000e+01" rms="0.0000000000000000e+00" purity="5.7554250955581665e-01" nType="0">
              <Node pos="l" depth="2" NCoef="0" IVar="-1" Cut="0.0000000000000000e+00" cType="1" res="-9.9000000000000000e+01" rms="0.0000000000000000e+00" purity="6.9031345844268799e-01" nType="1"/>
              <Node pos="r" depth="2" NCoef="0" IVar="4" Cut="7.6793330907821655e-01" cType="0" res="-9.9000000000000000e+01" rms="0.0000000000000000e+00" purity="5.4229211807250977e-01" nType="0">
                <Node pos="l" depth="3" NCoef="0" IVar="4" Cut="1.7316372394561768e+00" cType="1" res="-9.9000000000000000e+01" rms="0.0000000000000000e+00" purity="5.6489491462707520e-01" nType="0">
                  <Node pos="l" depth="4" NCoef="0" IVar="-1" Cut="0.0000000000000000e+00" cType="1" res="-9.9000000000000000e+01" rms="0.0000000000000000e+00" purity="5.9967780113220215e-01" nType="1"/>
                  <Node pos="r" depth="4" NCoef="0" IVar="-1" Cut="0.0000000000000000e+00" cType="1" res="-9.9000000000000000e+01" rms="0.0000000000000000e+00" purity="4.6370074152946472e-01" nType="-1"/>
                </Node>
                <Node pos="r" depth="3" NCoef="0" IVar="-1" Cut="0.0000000000000000e+00" cType="1" res="-9.9000000000000000e+01" rms="0.0000000000000000e+00" purity="4.4621616601943970e-01" nType="-1"/>
              </Node>
            </Node>
            <Node pos="r" depth="1" NCoef="0" IVar="-1" Cut="1.1949576568603516e+02" cType="0" res="-9.9000000000000000e+01" rms="0.0000000000000000e+00" purity="4.4036459922790527e-01" nType="-1"/>
          </Node>
        </BinaryTree>
        <BinaryTree type="DecisionTree" boostWeight="3.9171230531409786e-02" itree="14">
          <Node pos="s" depth="0" NCoef="0" IVar="5" Cut="1.5852854251861572e+00" cType="0" res="-9.9000000000000000e+01" rms="0.0000000000000000e+00" purity="4.9425202608108521e-01" nType="0">
            <Node pos="l" depth="1" NCoef="0" IVar="-1" Cut="9.6672515869140625e+01" cType="1" res="-9.9000000000000000e+01" rms="0.0000000000000000e+00" purity="6.2979173660278320e-01" nType="1"/>
            <Node pos="r" depth="1" NCoef="0" IVar="5" Cut="8.6242038011550903e-01" cType="0" res="-9.9000000000000000e+01" rms="0.0000000000000000e+00" purity="4.6863546967506409e-01" nType="0">
              <Node pos="l" depth="2" NCoef="0" IVar="1" Cut="5.3382446289062500e+01" cType="0" res="-9.9000000000000000e+01" rms="0.0000000000000000e+00" purity="4.8665079474449158e-01" nType="0">
                <Node pos="l" depth="3" NCoef="0" IVar="1" Cut="1.2555703735351562e+02" cType="1" res="-9.9000000000000000e+01" rms="0.0000000000000000e+00" purity="5.0085908174514771e-01" nType="0">
                  <Node pos="l" depth="4" NCoef="0" IVar="-1" Cut="0.0000000000000000e+00" cType="1" res="-9.9000000000000000e+01" rms="0.0000000000000000e+00" purity="5.1691067218780518e-01" nType="1"/>
                  <Node pos="r" depth="4" NCoef="0" IVar="-1" Cut="0.0000000000000000e+00" cType="1" res="-9.9000000000000000e+01" rms="0.0000000000000000e+00" purity="4.1648390889167786e-01" nType="-1"/>
                </Node>
                <Node pos="r" depth="3" NCoef="0" IVar="-1" Cut="0.0000000000000000e+00" cType="1" res="-9.9000000000000000e+01" rms="0.0000000000000000e+00" purity="3.8621881604194641e-01" nType="-1"/>
              </Node>
              <Node pos="r" depth="2" NCoef="0" IVar="-1" Cut="1.4800302124023438e+02" cType="0" res="-9.9000000000000000e+01" rms="0.0000000000000000e+00" purity="3.6216294765472412e-01" nType="-1"/>
            </Node>
          </Node>
        </BinaryTree>
        <BinaryTree type="DecisionTree" boostWeight="2.9263669784739800e-02" itree="15">
          <Node pos="s" depth="0" NCoef="0" IVar="5" Cut="1.5852854251861572e+00" cType="0" res="-9.9000000000000000e+01" rms="0.0000000000000000e+00" purity="4.9057102203369141e-01" nType="0">
            <Node pos="l" depth="1" NCoef="0" IVar="1" Cut="9.6672515869140625e+01" cType="1" res="-9.9000000000000000e+01" rms="0.0000000000000000e+00" purity="6.2061327695846558e-01" nType="0">
              <Node pos="l" depth="2" NCoef="0" IVar="-1" Cut="1.2729229927062988e+00" cType="1" res="-9.9000000000000000e+01" rms="0.0000000000000000e+00" purity="6.7900699377059937e-01" nType="1"/>
              <Node pos="r" depth="2" NCoef="0" IVar="-1" Cut="0.0000000000000000e+00" cType="1" res="-9.9000000000000000e+01" rms="0.0000000000000000e+00" purity="4.9564534425735474e-01" nType="-1"/>
            </Node>
            <Node pos="r" depth="1" NCoef="0" IVar="2" Cut="1.1949576568603516e+02" cType="0" res="-9.9000000000000000e+01" rms="0.0000000000000000e+00" purity="4.6607410907745361e-01" nType="0">
              <Node pos="l" depth="2" NCoef="0" IVar="5" Cut="8.0594885349273682e-01" cType="0" res="-9.9000000000000000e+01" rms="0.0000000000000000e+00" purity="4.7704783082008362e-01" nType="0">
                <Node pos="l" depth="3" NCoef="0" IVar="4" Cut="2.4435877799987793e+00" cType="1" res="-9.9000000000000000e+01" rms="0.0000000000000000e+00" purity="4.8884829878807068e-01" nType="0">
                  <Node pos="l" depth="4" NCoef="0" IVar="-1" Cut="0.0000000000000000e+00" cType="1" res="-9.9000000000000000e+01" rms="0.0000000000000000e+00" purity="5.0040209293365479e-01" nType="1"/>
                  <Node pos="r" depth="4" NCoef="0" IVar="-1" Cut="0.0000000000000000e+00" cType="1" res="-9.9000000000000000e+01" rms="0.0000000000000000e+00" purity="3.9297980070114136e-01" nType="-1"/>
                </Node>
                <Node pos="r" depth="3" NCoef="0" IVar="-1" Cut="0.0000000000000000e+00" cType="1" res="-9.9000000000000000e+01" rms="0.0000000000000000e+00" purity="3.6281529068946838e-01" nType="-1"/>
              </Node>
              <Node pos="r" depth="2" NCoef="0" IVar="-1" Cut="0.0000000000000000e+00" cType="1" res="-9.9000000000000000e+01" rms="0.0000000000000000e+00" purity="3.0833202600479126e-01" nType="-1"/>
            </Node>
          </Node>
        </BinaryTree>
        <BinaryTree type="DecisionTree" boostWeight="4.1740080816139113e-02" itree="16">
          <Node pos="s" depth="0" NCoef="0" IVar="5" Cut="1.5852854251861572e+00" cType="0" res="-9.9000000000000000e+01" rms="0.0000000000000000e+00" purity="4.8708656430244446e-01" nType="0">
            <Node pos="l" depth="1" NCoef="0" IVar="-1" Cut="9.6672515869140625e+01" cType="1" res="-9.9000000000000000e+01" rms="0.0000000000000000e+00" purity="6.1889106035232544e-01" nType="1"/>
            <Node pos="r" depth="1" NCoef="0" IVar="2" Cut="1.1949576568603516e+02" cType="0" res="-9.9000000000000000e+01" rms="0.0000000000000000e+00" purity="4.6229198575019836e-01" nType="0">
              <Node pos="l" depth="2" NCoef="0" IVar="3" Cut="2.5488439941406250e+02" cType="1" res="-9.9000000000000000e+01" rms="0.0000000000000000e+00" purity="4.7250989079475403e-01" nType="0">
                <Node pos="l" depth="3" NCoef="0" IVar="2" Cut="1.7039320373535156e+02" cType="0" res="-9.9000000000000000e+01" rms="0.0000000000000000e+00" purity="4.8936104774475098e-01" nType="0">
                  <Node pos="l" depth="4" NCoef="0" IVar="-1" Cut="0.0000000000000000e+00" cType="1" res="-9.9000000000000000e+01" rms="0.0000000000000000e+00" purity="5.3694099187850952e-01" nType="1"/>
                  <Node pos="r" depth="4" NCoef="0" IVar="-1" Cut="0.0000000000000000e+00" cType="1" res="-9.9000000000000000e+01" rms="0.0000000000000000e+00" purity="4.5863589644432068e-01" nType="-1"/>
                </Node>
                <Node pos="r" depth="3" NCoef="0" IVar="-1" Cut="1.1107590198516846e+00" cType="0" res="-9.9000000000000000e+01" rms="0.0000000000000000e+00" purity="3.9910119771957397e-01" nType="-1"/>
              </Node>
              <Node pos="r" depth="2" NCoef="0" IVar="-1" Cut="0.0000000000000000e+00" cType="1" res="-9.9000000000000000e+01" rms="0.0000000000000000e+00" purity="3.1469056010246277e-01" nType="-1"/>
            </Node>
          </Node>
        </BinaryTree>
        <BinaryTree type="DecisionTree" boostWeight="3.5252745223295363e-02" itree="17">
          <Node pos="s" depth="0" NCoef="0" IVar="0" Cut="1.4922474670410156e+02" cType="0" res="-9.9000000000000000e+01" rms="0.0000000000000000e+00" purity="4.8916640877723694e-01" nType="0">
            <Node pos="l" depth="1" NCoef="0" IVar="1" Cut="9.8479965209960938e+01" cType="1" res="-9.9000000000000000e+01" rms="0.0000000000000000e+00" purity="5.8902209997177124e-01" nType="0">
              <Node pos="l" depth="2" NCoef="0" IVar="-1" Cut="7.0293273925781250e+01" cType="0" res="-9.9000000000000000e+01" rms="0.0000000000000000e+00" purity="6.3945341110229492e-01" nType="1"/>
              <Node pos="r" depth="2" NCoef="0" IVar="-1" Cut="0.0000000000000000e+00" cType="1" res="-9.9000000000000000e+01" rms="0.0000000000000000e+00" purity="4.7558662295341492e-01" nType="-1"/>
            </Node>
            <Node pos="r" depth="1" NCoef="0" IVar="2" Cut="1.1949576568603516e+02" cType="0" res="-9.9000000000000000e+01" rms="0.0000000000000000e+00" purity="4.6211373805999756e-01" nType="0">
              <Node pos="l" depth="2" NCoef="0" IVar="3" Cut="2.3232080078125000e+02" cType="1" res="-9.9000000000000000e+01" rms="0.0000000000000000e+00" purity="4.7229394316673279e-01" nType="0">
                <Node pos="l" depth="3" NCoef="0" IVar="4" Cut="8.8954603672027588e-01" cType="0" res="-9.9000000000000000e+01" rms="0.0000000000000000e+00" purity="4.9074286222457886e-01" nType="0">
                  <Node pos="l" depth="4" NCoef="0" IVar="-1" Cut="0.0000000000000000e+00" cType="1" res="-9.9000000000000000e+01" rms="0.0000000000000000e+00" purity="5.0643956661224365e-01" nType="1"/>
                  <Node pos="r" depth="4" NCoef="0" IVar="-1" Cut="0.0000000000000000e+00" cType="1" res="-9.9000000000000000e+01" rms="0.0000000000000000e+00" purity="3.8743990659713745e-01" nType="-1"/>
                </Node>
                <Node pos="r" depth="3" NCoef="0" IVar="-1" Cut="1.0769834518432617e+00" cType="0" res="-9.9000000000000000e+01" rms="0.0000000000000000e+00" purity="4.0195587277412415e-01" nType="-1"/>
              </Node>
              <Node pos="r" depth="2" NCoef="0" IVar="-1" Cut="0.0000000000000000e+00" cType="1" res="-9.9000000000000000e+01" rms="0.0000000000000000e+00" purity="3.2244780659675598e-01" nType="-1"/>
            </Node>
          </Node>
        </BinaryTree>
        <BinaryTree type="DecisionTree" boostWeight="4.2129880247927083e-02" itree="18">
          <Node pos="s" depth="0" NCoef="0" IVar="0" Cut="1.8359391784667969e+02" cType="0" res="-9.9000000000000000e+01" rms="0.0000000000000000e+00" purity="4.8663550615310669e-01" nType="0">
            <Node pos="l" depth="1" NCoef="0" IVar="-1" Cut="1.2632517814636230e+00" cType="1" res="-9.9000000000000000e+01" rms="0.0000000000000000e+00" purity="6.1857777833938599e-01" nType="1"/>
            <Node pos="r" depth="1" NCoef="0" IVar="5" Cut="9.9297612905502319e-01" cType="0" res="-9.9000000000000000e+01" rms="0.0000000000000000e+00" purity="4.6618950366973877e-01" nType="0">
              <Node pos="l" depth="2" NCoef="0" IVar="1" Cut="6.2494388580322266e+01" cType="0" res="-9.9000000000000000e+01" rms="0.0000000000000000e+00" purity="4.9241676926612854e-01" nType="0">
                <Node pos="l" depth="3" NCoef="0" IVar="1" Cut="9.4974555969238281e+01" cType="1" res="-9.9000000000000000e+01" rms="0.0000000000000000e+00" purity="5.0859504938125610e-01" nType="0">
                  <Node pos="l" depth="4" NCoef="0" IVar="-1" Cut="0.0000000000000000e+00" cType="1" res="-9.9000000000000000e+01" rms="0.0000000000000000e+00" purity="5.5000627040863037e-01" nType="1"/>
                  <Node pos="r" depth="4" NCoef="0" IVar="-1" Cut="0.0000000000000000e+00" cType="1" res="-9.9000000000000000e+01" rms="0.0000000000000000e+00" purity="4.6553504467010498e-01" nType="-1"/>
                </Node>
                <Node pos="r" depth="3" NCoef="0" IVar="-1" Cut="0.0000000000000000e+00" cType="1" res="-9.9000000000000000e+01" rms="0.0000000000000000e+00" purity="4.2030009627342224e-01" nType="-1"/>
              </Node>
              <Node pos="r" depth="2" NCoef="0" IVar="-1" Cut="1.3628662109375000e+02" cType="0" res="-9.9000000000000000e+01" rms="0.0000000000000000e+00" purity="4.1004160046577454e-01" nType="-1"/>
            </Node>
          </Node>
        </BinaryTree>
        <BinaryTree type="DecisionTree" boostWeight="3.6539961769333669e-02" itree="19">
          <Node pos="s" depth="0" NCoef="0" IVar="0" Cut="1.2631195831298828e+02" cType="0" res="-9.9000000000000000e+01" rms="0.0000000000000000e+00" purity="4.8931500315666199e-01" nType="0">
            <Node pos="l" depth="1" NCoef="0" IVar="6" Cut="2.0564184188842773e+00" cType="1" res="-9.9000000000000000e+01" rms="0.0000000000000000e+00" purity="5.6326967477798462e-01" nType="0">
              <Node pos="l" depth="2" NCoef="0" IVar="1" Cut="1.0751721954345703e+02" cType="1" res="-9.9000000000000000e+01" rms="0.0000000000000000e+00" purity="5.9251087903976440e-01" nType="0">
                <Node pos="l" depth="3" NCoef="0" IVar="-1" Cut="1.9818075895309448e+00" cType="0" res="-9.9000000000000000e+01" rms="0.0000000000000000e+00" purity="6.3469010591506958e-01" nType="1"/>
                <Node pos="r" depth="3" NCoef="0" IVar="-1" Cut="0.0000000000000000e+00" cType="1" res="-9.9000000000000000e+01" rms="0.0000000000000000e+00" purity="4.6795287728309631e-01" nType="-1"/>
              </Node>
              <Node pos="r" depth="2" NCoef="0" IVar="-1" Cut="0.0000000000000000e+00" cType="1" res="-9.9000000000000000e+01" rms="0.0000000000000000e+00" purity="4.4599953293800354e-01" nType="-1"/>
            </Node>
            <Node pos="r" depth="1" NCoef="0" IVar="2" Cut="1.1949576568603516e+02" cType="0" res="-9.9000000000000000e+01" rms="0.0000000000000000e+00" purity="4.5869031548500061e-01" nType="0">
              <Node pos="l" depth="2" NCoef="0" IVar="3" Cut="2.0975720214843750e+02" cType="1" res="-9.9000000000000000e+01" rms="0.0000000000000000e+00" purity="4.6870273351669312e-01" nType="0">
                <Node pos="l" depth="3" NCoef="0" IVar="4" Cut="9.6224564313888550e-01" cType="0" res="-9.9000000000000000e+01" rms="0.0000000000000000e+00" purity="4.8870983719825745e-01" nType="0">
                  <Node pos="l" depth="4" NCoef="0" IVar="-1" Cut="0.0000000000000000e+00" cType="1" res="-9.9000000000000000e+01" rms="0.0000000000000000e+00" purity="5.0322812795639038e-01" nType="1"/>
                  <Node pos="r" depth="4" NCoef="0" IVar="-1" Cut="0.0000000000000000e+00" cType="1" res="-9.9000000000000000e+01" rms="0.0000000000000000e+00" purity="4.0170648694038391e-01" nType="-1"/>
                </Node>
                <Node pos="r" depth="3" NCoef="0" IVar="-1" Cut="1.0841323137283325e+00" cType="0" res="-9.9000000000000000e+01" rms="0.0000000000000000e+00" purity="4.0630632638931274e-01" nType="-1"/>
              </Node>
              <Node pos="r" depth="2" NCoef="0" IVar="-1" Cut="0.0000000000000000e+00" cType="1" res="-9.9000000000000000e+01" rms="0.0000000000000000e+00" purity="3.3079606294631958e-01" nType="-1"/>
            </Node>
          </Node>
        </BinaryTree>
        <BinaryTree type="DecisionTree" boostWeight="4.0566838155566574e-02" itree="20">
          <Node pos="s" depth="0" NCoef="0" IVar="2" Cut="1.7334490966796875e+02" cType="0" res="-9.9000000000000000e+01" rms="0.0000000000000000e+00" purity="4.8763227462768555e-01" nType="0">
            <Node pos="l" depth="1" NCoef="0" IVar="5" Cut="2.0240371227264404e+00" cType="0" res="-9.9000000000000000e+01" rms="0.0000000000000000e+00" purity="5.3849405050277710e-01" nType="0">
              <Node pos="l" depth="2" NCoef="0" IVar="-1" Cut="0.0000000000000000e+00" cType="1" res="-9.9000000000000000e+01" rms="0.0000000000000000e+00" purity="6.9092476367950439e-01" nType="1"/>
              <Node pos="r" depth="2" NCoef="0" IVar="1" Cut="6.8852111816406250e+01" cType="0" res="-9.9000000000000000e+01" rms="0.0000000000000000e+00" purity="5.1609075069427490e-01" nType="0">
                <Node pos="l" depth="3" NCoef="0" IVar="1" Cut="9.9820007324218750e+01" cType="1" res="-9.9000000000000000e+01" rms="0.0000000000000000e+00" purity="5.4204326868057251e-01" nType="0">
                  <Node pos="l" depth="4" NCoef="0" IVar="-1" Cut="0.0000000000000000e+00" cType="1" res="-9.9000000000000000e+01" rms="0.0000000000000000e+00" purity="5.9312576055526733e-01" nType="1"/>
                  <Node pos="r" depth="4" NCoef="0" IVar="-1" Cut="0.0000000000000000e+00" cType="1" res="-9.9000000000000000e+01" rms="0.0000000000000000e+00" purity="4.8913890123367310e-01" nType="-1"/>
                </Node>
                <Node pos="r" depth="3" NCoef="0" IVar="-1" Cut="0.0000000000000000e+00" cType="1" res="-9.9000000000000000e+01" rms="0.0000000000000000e+00" purity="4.2519944906234741e-01" nType="-1"/>
              </Node>
            </Node>
            <Node pos="r" depth="1" NCoef="0" IVar="3" Cut="1.7411770629882812e+02" cType="1" res="-9.9000000000000000e+01" rms="0.0000000000000000e+00" purity="4.4198605418205261e-01" nType="0">
              <Node pos="l" depth="2" NCoef="0" IVar="2" Cut="1.2207049560546875e+02" cType="0" res="-9.9000000000000000e+01" rms="0.0000000000000000e+00" purity="4.6625506877899170e-01" nType="0">
                <Node pos="l" depth="3" NCoef="0" IVar="4" Cut="1.1404767036437988e+00" cType="0" res="-9.9000000000000000e+01" rms="0.0000000000000000e+00" purity="4.8408478498458862e-01" nType="0">
                  <Node pos="l" depth="4" NCoef="0" IVar="-1" Cut="0.0000000000000000e+00" cType="1" res="-9.9000000000000000e+01" rms="0.0000000000000000e+00" purity="5.0231409072875977e-01" nType="1"/>
                  <Node pos="r" depth="4" NCoef="0" IVar="-1" Cut="0.0000000000000000e+00" cType="1" res="-9.9000000000000000e+01" rms="0.0000000000000000e+00" purity="4.1277703642845154e-01" nType="-1"/>
                </Node>
                <Node pos="r" depth="3" NCoef="0" IVar="-1" Cut="0.0000000000000000e+00" cType="1" res="-9.9000000000000000e+01" rms="0.0000000000000000e+00" purity="3.6401003599166870e-01" nType="-1"/>
              </Node>
              <Node pos="r" depth="2" NCoef="0" IVar="-1" Cut="1.1602730751037598e+00" cType="0" res="-9.9000000000000000e+01" rms="0.0000000000000000e+00" purity="3.5430854558944702e-01" nType="-1"/>
            </Node>
          </Node>
        </BinaryTree>
        <BinaryTree type="DecisionTree" boostWeight="4.4138772175547701e-02" itree="21">
          <Node pos="s" depth="0" NCoef="0" IVar="2" Cut="1.7334490966796875e+02" cType="0" res="-9.9000000000000000e+01" rms="0.0000000000000000e+00" purity="4.8774152994155884e-01" nType="0">
            <Node pos="l" depth="1" NCoef="0" IVar="5" Cut="2.0240371227264404e+00" cType="0" res="-9.9000000000000000e+01" rms="0.0000000000000000e+00" purity="5.3941869735717773e-01" nType="0">
              <Node pos="l" depth="2" NCoef="0" IVar="-1" Cut="0.0000000000000000e+00" cType="1" res="-9.9000000000000000e+01" rms="0.0000000000000000e+00" purity="6.8219536542892456e-01" nType="1"/>
              <Node pos="r" depth="2" NCoef="0" IVar="1" Cut="7.0662132263183594e+01" cType="0" res="-9.9000000000000000e+01" rms="0.0000000000000000e+00" purity="5.1856201887130737e-01" nType="0">
                <Node pos="l" depth="3" NCoef="0" IVar="4" Cut="7.0377647876739502e-01" cType="0" res="-9.9000000000000000e+01" rms="0.0000000000000000e+00" purity="5.4343074560165405e-01" nType="0">
                  <Node pos="l" depth="4" NCoef="0" IVar="-1" Cut="0.0000000000000000e+00" cType="1" res="-9.9000000000000000e+01" rms="0.0000000000000000e+00" purity="5.6656461954116821e-01" nType="1"/>
                  <Node pos="r" depth="4" NCoef="0" IVar="-1" Cut="0.0000000000000000e+00" cType="1" res="-9.9000000000000000e+01" rms="0.0000000000000000e+00" purity="4.2890018224716187e-01" nType="-1"/>
                </Node>
                <Node pos="r" depth="3" NCoef="0" IVar="-1" Cut="0.0000000000000000e+00" cType="1" res="-9.9000000000000000e+01" rms="0.0000000000000000e+00" purity="4.3917101621627808e-01" nType="-1"/>
              </Node>
            </Node>
            <Node pos="r" depth="1" NCoef="0" IVar="3" Cut="1.7411770629882812e+02" cType="1" res="-9.9000000000000000e+01" rms="0.0000000000000000e+00" purity="4.4138479232788086e-01" nType="0">
              <Node pos="l" depth="2" NCoef="0" IVar="6" Cut="3.1770515441894531e+00" cType="1" res="-9.9000000000000000e+01" rms="0.0000000000000000e+00" purity="4.6260058879852295e-01" nType="0">
                <Node pos="l" depth="3" NCoef="0" IVar="1" Cut="9.9177703857421875e+01" cType="1" res="-9.9000000000000000e+01" rms="0.0000000000000000e+00" purity="4.8057115077972412e-01" nType="0">
                  <Node pos="l" depth="4" NCoef="0" IVar="-1" Cut="0.0000000000000000e+00" cType="1" res="-9.9000000000000000e+01" rms="0.0000000000000000e+00" purity="5.0871503353118896e-01" nType="1"/>
                  <Node pos="r" depth="4" NCoef="0" IVar="-1" Cut="0.0000000000000000e+00" cType="1" res="-9.9000000000000000e+01" rms="0.0000000000000000e+00" purity="4.2330229282379150e-01" nType="-1"/>
                </Node>
                <Node pos="r" depth="3" NCoef="0" IVar="-1" Cut="0.0000000000000000e+00" cType="1" res="-9.9000000000000000e+01" rms="0.0000000000000000e+00" purity="3.7324893474578857e-01" nType="-1"/>
              </Node>
              <Node pos="r" depth="2" NCoef="0" IVar="-1" Cut="1.1602730751037598e+00" cType="0" res="-9.9000000000000000e+01" rms="0.0000000000000000e+00" purity="3.6448118090629578e-01" nType="-1"/>
            </Node>
          </Node>
        </BinaryTree>
        <BinaryTree type="DecisionTree" boostWeight="3.4141991586277891e-02" itree="22">
          <Node pos="s" depth="0" NCoef="0" IVar="0" Cut="1.2631195831298828e+02" cType="0" res="-9.9000000000000000e+01" rms="0.0000000000000000e+00" purity="4.8674035072326660e-01" nType="0">
            <Node pos="l" depth="1" NCoef="0" IVar="6" Cut="2.0564184188842773e+00" cType="1" res="-9.9000000000000000e+01" rms="0.0000000000000000e+00" purity="5.6114143133163452e-01" nType="0">
              <Node pos="l" depth="2" NCoef="0" IVar="-1" Cut="9.8479965209960938e+01" cType="1" res="-9.9000000000000000e+01" rms="0.0000000000000000e+00" purity="5.8587414026260376e-01" nType="1"/>
              <Node pos="r" depth="2" NCoef="0" IVar="-1" Cut="0.0000000000000000e+00" cType="1" res="-9.9000000000000000e+01" rms="0.0000000000000000e+00" purity="4.6256971359252930e-01" nType="-1"/>
            </Node>
            <Node pos="r" depth="1" NCoef="0" IVar="5" Cut="8.2299143075942993e-01" cType="0" res="-9.9000000000000000e+01" rms="0.0000000000000000e+00" purity="4.5601341128349304e-01" nType="0">
              <Node pos="l" depth="2" NCoef="0" IVar="4" Cut="2.5786499977111816e+00" cType="1" res="-9.9000000000000000e+01" rms="0.0000000000000000e+00" purity="4.6931171417236328e-01" nType="0">
                <Node pos="l" depth="3" NCoef="0" IVar="2" Cut="1.6233399963378906e+02" cType="0" res="-9.9000000000000000e+01" rms="0.0000000000000000e+00" purity="4.7968080639839172e-01" nType="0">
                  <Node pos="l" depth="4" NCoef="0" IVar="-1" Cut="0.0000000000000000e+00" cType="1" res="-9.9000000000000000e+01" rms="0.0000000000000000e+00" purity="5.0585079193115234e-01" nType="1"/>
                  <Node pos="r" depth="4" NCoef="0" IVar="-1" Cut="0.0000000000000000e+00" cType="1" res="-9.9000000000000000e+01" rms="0.0000000000000000e+00" purity="4.5346057415008545e-01" nType="-1"/>
                </Node>
                <Node pos="r" depth="3" NCoef="0" IVar="-1" Cut="0.0000000000000000e+00" cType="1" res="-9.9000000000000000e+01" rms="0.0000000000000000e+00" purity="3.6928689479827881e-01" nType="-1"/>
              </Node>
              <Node pos="r" depth="2" NCoef="0" IVar="-1" Cut="0.0000000000000000e+00" cType="1" res="-9.9000000000000000e+01" rms="0.0000000000000000e+00" purity="3.6653581261634827e-01" nType="-1"/>
            </Node>
          </Node>
        </BinaryTree>
        <BinaryTree type="DecisionTree" boostWeight="3.2091498366887877e-02" itree="23">
          <Node pos="s" depth="0" NCoef="0" IVar="0" Cut="1.2631195831298828e+02" cType="0" res="-9.9000000000000000e+01" rms="0.0000000000000000e+00" purity="4.8660737276077271e-01" nType="0">
            <Node pos="l" depth="1" NCoef="0" IVar="5" Cut="2.1502101421356201e+00" cType="0" res="-9.9000000000000000e+01" rms="0.0000000000000000e+00" purity="5.5633032321929932e-01" nType="0">
              <Node pos="l" depth="2" NCoef="0" IVar="-1" Cut="0.0000000000000000e+00" cType="1" res="-9.9000000000000000e+01" rms="0.0000000000000000e+00" purity="6.5317225456237793e-01" nType="1"/>
              <Node pos="r" depth="2" NCoef="0" IVar="3" Cut="3.4798919677734375e+02" cType="1" res="-9.9000000000000000e+01" rms="0.0000000000000000e+00" purity="5.3435158729553223e-01" nType="0">
                <Node pos="l" depth="3" NCoef="0" IVar="4" Cut="8.9960408210754395e-01" cType="0" res="-9.9000000000000000e+01" rms="0.0000000000000000e+00" purity="5.6158953905105591e-01" nType="0">
                  <Node pos="l" depth="4" NCoef="0" IVar="-1" Cut="0.0000000000000000e+00" cType="1" res="-9.9000000000000000e+01" rms="0.0000000000000000e+00" purity="5.8629745244979858e-01" nType="1"/>
                  <Node pos="r" depth="4" NCoef="0" IVar="-1" Cut="0.0000000000000000e+00" cType="1" res="-9.9000000000000000e+01" rms="0.0000000000000000e+00" purity="4.9625030159950256e-01" nType="-1"/>
                </Node>
                <Node pos="r" depth="3" NCoef="0" IVar="-1" Cut="0.0000000000000000e+00" cType="1" res="-9.9000000000000000e+01" rms="0.0000000000000000e+00" purity="4.3625655770301819e-01" nType="-1"/>
              </Node>
            </Node>
            <Node pos="r" depth="1" NCoef="0" IVar="-1" Cut="8.2299143075942993e-01" cType="0" res="-9.9000000000000000e+01" rms="0.0000000000000000e+00" purity="4.5783501863479614e-01" nType="-1"/>
          </Node>
        </BinaryTree>
        <BinaryTree type="DecisionTree" boostWeight="3.7569997595934428e-02" itree="24">
          <Node pos="s" depth="0" NCoef="0" IVar="5" Cut="1.1465336084365845e+00" cType="0" res="-9.9000000000000000e+01" rms="0.0000000000000000e+00" purity="4.9182540178298950e-01" nType="0">
            <Node pos="l" depth="1" NCoef="0" IVar="2" Cut="2.0338354492187500e+02" cType="0" res="-9.9000000000000000e+01" rms="0.0000000000000000e+00" purity="5.3776741027832031e-01" nType="0">
              <Node pos="l" depth="2" NCoef="0" IVar="5" Cut="2.0354006290435791e+00" cType="0" res="-9.9000000000000000e+01" rms="0.0000000000000000e+00" purity="5.8903223276138306e-01" nType="0">
                <Node pos="l" depth="3" NCoef="0" IVar="-1" Cut="0.0000000000000000e+00" cType="1" res="-9.9000000000000000e+01" rms="0.0000000000000000e+00" purity="6.8006920814514160e-01" nType="1"/>
                <Node pos="r" depth="3" NCoef="0" IVar="3" Cut="3.1350201416015625e+02" cType="1" res="-9.9000000000000000e+01" rms="0.0000000000000000e+00" purity="5.5442005395889282e-01" nType="0">
                  <Node pos="l" depth="4" NCoef="0" IVar="-1" Cut="0.0000000000000000e+00" cType="1" res="-9.9000000000000000e+01" rms="0.0000000000000000e+00" purity="5.9049481153488159e-01" nType="1"/>
                  <Node pos="r" depth="4" NCoef="0" IVar="-1" Cut="0.0000000000000000e+00" cType="1" res="-9.9000000000000000e+01" rms="0.0000000000000000e+00" purity="4.9326044321060181e-01" nType="-1"/>
                </Node>
              </Node>
              <Node pos="r" depth="2" NCoef="0" IVar="3" Cut="2.7290383911132812e+02" cType="1" res="-9.9000000000000000e+01" rms="0.0000000000000000e+00" purity="5.0029617547988892e-01" nType="0">
                <Node pos="l" depth="3" NCoef="0" IVar="4" Cut="1.0693961381912231e+00" cType="0" res="-9.9000000000000000e+01" rms="0.0000000000000000e+00" purity="5.1868450641632080e-01" nType="0">
                  <Node pos="l" depth="4" NCoef="0" IVar="-1" Cut="0.0000000000000000e+00" cType="1" res="-9.9000000000000000e+01" rms="0.0000000000000000e+00" purity="5.4017287492752075e-01" nType="1"/>
                  <Node pos="r" depth="4" NCoef="0" IVar="-1" Cut="0.0000000000000000e+00" cType="1" res="-9.9000000000000000e+01" rms="0.0000000000000000e+00" purity="4.5999187231063843e-01" nType="-1"/>
                </Node>
                <Node pos="r" depth="3" NCoef="0" IVar="-1" Cut="0.0000000000000000e+00" cType="1" res="-9.9000000000000000e+01" rms="0.0000000000000000e+00" purity="4.3277239799499512e-01" nType="-1"/>
              </Node>
            </Node>
            <Node pos="r" depth="1" NCoef="0" IVar="3" Cut="2.2821070861816406e+02" cType="1" res="-9.9000000000000000e+01" rms="0.0000000000000000e+00" purity="4.5436608791351318e-01" nType="0">
              <Node pos="l" depth="2" NCoef="0" IVar="2" Cut="1.3727128601074219e+02" cType="0" res="-9.9000000000000000e+01" rms="0.0000000000000000e+00" purity="4.6958920359611511e-01" nType="0">
                <Node pos="l" depth="3" NCoef="0" IVar="4" Cut="2.3354263305664062e+00" cType="1" res="-9.9000000000000000e+01" rms="0.0000000000000000e+00" purity="4.9971270561218262e-01" nType="0">
                  <Node pos="l" depth="4" NCoef="0" IVar="-1" Cut="0.0000000000000000e+00" cType="1" res="-9.9000000000000000e+01" rms="0.0000000000000000e+00" purity="5.1440221071243286e-01" nType="1"/>
                  <Node pos="r" depth="4" NCoef="0" IVar="-1" Cut="0.0000000000000000e+00" cType="1" res="-9.9000000000000000e+01" rms="0.0000000000000000e+00" purity="4.3711444735527039e-01" nType="-1"/>
                </Node>
                <Node pos="r" depth="3" NCoef="0" IVar="-1" Cut="9.0418937683105469e+01" cType="1" res="-9.9000000000000000e+01" rms="0.0000000000000000e+00" purity="3.9628645777702332e-01" nType="-1"/>
              </Node>
              <Node pos="r" depth="2" NCoef="0" IVar="-1" Cut="0.0000000000000000e+00" cType="1" res="-9.9000000000000000e+01" rms="0.0000000000000000e+00" purity="3.7367838621139526e-01" nType="-1"/>
            </Node>
          </Node>
        </BinaryTree>
        <BinaryTree type="DecisionTree" boostWeight="2.8337190915689377e-02" itree="25">
          <Node pos="s" depth="0" NCoef="0" IVar="5" Cut="1.2342840433120728e+00" cType="0" res="-9.9000000000000000e+01" rms="0.0000000000000000e+00" purity="4.9094253778457642e-01" nType="0">
            <Node pos="l" depth="1" NCoef="0" IVar="2" Cut="2.0374775695800781e+02" cType="0" res="-9.9000000000000000e+01" rms="0.0000000000000000e+00" purity="5.4600673913955688e-01" nType="0">
              <Node pos="l" depth="2" NCoef="0" IVar="-1" Cut="2.0337421894073486e+00" cType="0" res="-9.9000000000000000e+01" rms="0.0000000000000000e+00" purity="5.9062951803207397e-01" nType="1"/>
              <Node pos="r" depth="2" NCoef="0" IVar="3" Cut="2.5841455078125000e+02" cType="1" res="-9.9000000000000000e+01" rms="0.0000000000000000e+00" purity="5.0392234325408936e-01" nType="0">
                <Node pos="l" depth="3" NCoef="0" IVar="-1" Cut="1.3649145507812500e+02" cType="0" res="-9.9000000000000000e+01" rms="0.0000000000000000e+00" purity="5.2794659137725830e-01" nType="1"/>
                <Node pos="r" depth="3" NCoef="0" IVar="-1" Cut="0.0000000000000000e+00" cType="1" res="-9.9000000000000000e+01" rms="0.0000000000000000e+00" purity="4.4700410962104797e-01" nType="-1"/>
              </Node>
            </Node>
            <Node pos="r" depth="1" NCoef="0" IVar="-1" Cut="8.1203836202621460e-01" cType="0" res="-9.9000000000000000e+01" rms="0.0000000000000000e+00" purity="4.6109941601753235e-01" nType="-1"/>
          </Node>
        </BinaryTree>
        <BinaryTree type="DecisionTree" boostWeight="2.4048616800158022e-02" itree="26">
          <Node pos="s" depth="0" NCoef="0" IVar="5" Cut="1.5852854251861572e+00" cType="0" res="-9.9000000000000000e+01" rms="0.0000000000000000e+00" purity="4.9392861127853394e-01" nType="0">
            <Node pos="l" depth="1" NCoef="0" IVar="1" Cut="9.6672515869140625e+01" cType="1" res="-9.9000000000000000e+01" rms="0.0000000000000000e+00" purity="5.8005321025848389e-01" nType="0">
              <Node pos="l" depth="2" NCoef="0" IVar="-1" Cut="1.2729229927062988e+00" cType="1" res="-9.9000000000000000e+01" rms="0.0000000000000000e+00" purity="6.2357258796691895e-01" nType="1"/>
              <Node pos="r" depth="2" NCoef="0" IVar="-1" Cut="0.0000000000000000e+00" cType="1" res="-9.9000000000000000e+01" rms="0.0000000000000000e+00" purity="4.9184164404869080e-01" nType="-1"/>
            </Node>
            <Node pos="r" depth="1" NCoef="0" IVar="5" Cut="8.1724315881729126e-01" cType="0" res="-9.9000000000000000e+01" rms="0.0000000000000000e+00" purity="4.7806301712989807e-01" nType="0">
              <Node pos="l" depth="2" NCoef="0" IVar="1" Cut="5.1560058593750000e+01" cType="0" res="-9.9000000000000000e+01" rms="0.0000000000000000e+00" purity="4.8844799399375916e-01" nType="0">
                <Node pos="l" depth="3" NCoef="0" IVar="1" Cut="1.3779327392578125e+02" cType="1" res="-9.9000000000000000e+01" rms="0.0000000000000000e+00" purity="4.9828711152076721e-01" nType="0">
                  <Node pos="l" depth="4" NCoef="0" IVar="-1" Cut="0.0000000000000000e+00" cType="1" res="-9.9000000000000000e+01" rms="0.0000000000000000e+00" purity="5.0668656826019287e-01" nType="1"/>
                  <Node pos="r" depth="4" NCoef="0" IVar="-1" Cut="0.0000000000000000e+00" cType="1" res="-9.9000000000000000e+01" rms="0.0000000000000000e+00" purity="4.1185274720191956e-01" nType="-1"/>
                </Node>
                <Node pos="r" depth="3" NCoef="0" IVar="-1" Cut="0.0000000000000000e+00" cType="1" res="-9.9000000000000000e+01" rms="0.0000000000000000e+00" purity="4.1205653548240662e-01" nType="-1"/>
              </Node>
              <Node pos="r" depth="2" NCoef="0" IVar="-1" Cut="0.0000000000000000e+00" cType="1" res="-9.9000000000000000e+01" rms="0.0000000000000000e+00" purity="3.8759398460388184e-01" nType="-1"/>
            </Node>
          </Node>
        </BinaryTree>
        <BinaryTree type="DecisionTree" boostWeight="2.0848085948844377e-02" itree="27">
          <Node pos="s" depth="0" NCoef="0" IVar="5" Cut="1.5852854251861572e+00" cType="0" res="-9.9000000000000000e+01" rms="0.0000000000000000e+00" purity="4.9138799309730530e-01" nType="0">
            <Node pos="l" depth="1" NCoef="0" IVar="6" Cut="1.4644802808761597e+00" cType="1" res="-9.9000000000000000e+01" rms="0.0000000000000000e+00" purity="5.7851642370223999e-01" nType="0">
              <Node pos="l" depth="2" NCoef="0" IVar="-1" Cut="8.1732153892517090e-01" cType="0" res="-9.9000000000000000e+01" rms="0.0000000000000000e+00" purity="6.2264138460159302e-01" nType="1"/>
              <Node pos="r" depth="2" NCoef="0" IVar="-1" Cut="0.0000000000000000e+00" cType="1" res="-9.9000000000000000e+01" rms="0.0000000000000000e+00" purity="4.9581736326217651e-01" nType="-1"/>
            </Node>
            <Node pos="r" depth="1" NCoef="0" IVar="4" Cut="2.6302638053894043e+00" cType="1" res="-9.9000000000000000e+01" rms="0.0000000000000000e+00" purity="4.7534692287445068e-01" nType="0">
              <Node pos="l" depth="2" NCoef="0" IVar="5" Cut="8.5112607479095459e-01" cType="0" res="-9.9000000000000000e+01" rms="0.0000000000000000e+00" purity="4.8334041237831116e-01" nType="0">
                <Node pos="l" depth="3" NCoef="0" IVar="4" Cut="6.7541790008544922e-01" cType="0" res="-9.9000000000000000e+01" rms="0.0000000000000000e+00" purity="4.9367684125900269e-01" nType="0">
                  <Node pos="l" depth="4" NCoef="0" IVar="-1" Cut="0.0000000000000000e+00" cType="1" res="-9.9000000000000000e+01" rms="0.0000000000000000e+00" purity="5.0097095966339111e-01" nType="1"/>
                  <Node pos="r" depth="4" NCoef="0" IVar="-1" Cut="0.0000000000000000e+00" cType="1" res="-9.9000000000000000e+01" rms="0.0000000000000000e+00" purity="4.1678082942962646e-01" nType="-1"/>
                </Node>
                <Node pos="r" depth="3" NCoef="0" IVar="-1" Cut="0.0000000000000000e+00" cType="1" res="-9.9000000000000000e+01" rms="0.0000000000000000e+00" purity="4.1246357560157776e-01" nType="-1"/>
              </Node>
              <Node pos="r" depth="2" NCoef="0" IVar="-1" Cut="0.0000000000000000e+00" cType="1" res="-9.9000000000000000e+01" rms="0.0000000000000000e+00" purity="3.7529727816581726e-01" nType="-1"/>
            </Node>
          </Node>
        </BinaryTree>
        <BinaryTree type="DecisionTree" boostWeight="2.3534988052981574e-02" itree="28">
          <Node pos="s" depth="0" NCoef="0" IVar="5" Cut="1.5852854251861572e+00" cType="0" res="-9.9000000000000000e+01" rms="0.0000000000000000e+00" purity="4.8909270763397217e-01" nType="0">
            <Node pos="l" depth="1" NCoef="0" IVar="1" Cut="9.6672515869140625e+01" cType="1" res="-9.9000000000000000e+01" rms="0.0000000000000000e+00" purity="5.7736241817474365e-01" nType="0">
              <Node pos="l" depth="2" NCoef="0" IVar="-1" Cut="1.2729229927062988e+00" cType="1" res="-9.9000000000000000e+01" rms="0.0000000000000000e+00" purity="6.1726641654968262e-01" nType="1"/>
              <Node pos="r" depth="2" NCoef="0" IVar="-1" Cut="0.0000000000000000e+00" cType="1" res="-9.9000000000000000e+01" rms="0.0000000000000000e+00" purity="4.9703964591026306e-01" nType="-1"/>
            </Node>
            <Node pos="r" depth="1" NCoef="0" IVar="4" Cut="2.6302638053894043e+00" cType="1" res="-9.9000000000000000e+01" rms="0.0000000000000000e+00" purity="4.7284990549087524e-01" nType="0">
              <Node pos="l" depth="2" NCoef="0" IVar="1" Cut="1.3907218933105469e+02" cType="1" res="-9.9000000000000000e+01" rms="0.0000000000000000e+00" purity="4.8023027181625366e-01" nType="0">
                <Node pos="l" depth="3" NCoef="0" IVar="5" Cut="9.9795216321945190e-01" cType="0" res="-9.9000000000000000e+01" rms="0.0000000000000000e+00" purity="4.8737797141075134e-01" nType="0">
                  <Node pos="l" depth="4" NCoef="0" IVar="-1" Cut="0.0000000000000000e+00" cType="1" res="-9.9000000000000000e+01" rms="0.0000000000000000e+00" purity="5.0397652387619019e-01" nType="1"/>
                  <Node pos="r" depth="4" NCoef="0" IVar="-1" Cut="0.0000000000000000e+00" cType="1" res="-9.9000000000000000e+01" rms="0.0000000000000000e+00" purity="4.5239648222923279e-01" nType="-1"/>
                </Node>
                <Node pos="r" depth="3" NCoef="0" IVar="-1" Cut="0.0000000000000000e+00" cType="1" res="-9.9000000000000000e+01" rms="0.0000000000000000e+00" purity="3.9699295163154602e-01" nType="-1"/>
              </Node>
              <Node pos="r" depth="2" NCoef="0" IVar="-1" Cut="0.0000000000000000e+00" cType="1" res="-9.9000000000000000e+01" rms="0.0000000000000000e+00" purity="3.8027426600456238e-01" nType="-1"/>
            </Node>
          </Node>
        </BinaryTree>
        <BinaryTree type="DecisionTree" boostWeight="2.4453755019378066e-02" itree="29">
          <Node pos="s" depth="0" NCoef="0" IVar="5" Cut="1.5852854251861572e+00" cType="0" res="-9.9000000000000000e+01" rms="0.0000000000000000e+00" purity="4.8806962370872498e-01" nType="0">
            <Node pos="l" depth="1" NCoef="0" IVar="6" Cut="1.5147874355316162e+00" cType="1" res="-9.9000000000000000e+01" rms="0.0000000000000000e+00" purity="5.7584637403488159e-01" nType="0">
              <Node pos="l" depth="2" NCoef="0" IVar="-1" Cut="8.7635253906250000e+01" cType="1" res="-9.9000000000000000e+01" rms="0.0000000000000000e+00" purity="6.1460340023040771e-01" nType="1"/>
              <Node pos="r" depth="2" NCoef="0" IVar="-1" Cut="0.0000000000000000e+00" cType="1" res="-9.9000000000000000e+01" rms="0.0000000000000000e+00" purity="4.9448695778846741e-01" nType="-1"/>
            </Node>
            <Node pos="r" depth="1" NCoef="0" IVar="4" Cut="2.6302638053894043e+00" cType="1" res="-9.9000000000000000e+01" rms="0.0000000000000000e+00" purity="4.7192454338073730e-01" nType="0">
              <Node pos="l" depth="2" NCoef="0" IVar="4" Cut="9.8640805482864380e-01" cType="0" res="-9.9000000000000000e+01" rms="0.0000000000000000e+00" purity="4.7876620292663574e-01" nType="0">
                <Node pos="l" depth="3" NCoef="0" IVar="3" Cut="2.2866050720214844e+02" cType="1" res="-9.9000000000000000e+01" rms="0.0000000000000000e+00" purity="4.9123236536979675e-01" nType="0">
                  <Node pos="l" depth="4" NCoef="0" IVar="-1" Cut="0.0000000000000000e+00" cType="1" res="-9.9000000000000000e+01" rms="0.0000000000000000e+00" purity="5.0459736585617065e-01" nType="1"/>
                  <Node pos="r" depth="4" NCoef="0" IVar="-1" Cut="0.0000000000000000e+00" cType="1" res="-9.9000000000000000e+01" rms="0.0000000000000000e+00" purity="4.3625199794769287e-01" nType="-1"/>
                </Node>
                <Node pos="r" depth="3" NCoef="0" IVar="1" Cut="8.8123535156250000e+01" cType="1" res="-9.9000000000000000e+01" rms="0.0000000000000000e+00" purity="4.3539586663246155e-01" nType="0">
                  <Node pos="l" depth="4" NCoef="0" IVar="-1" Cut="0.0000000000000000e+00" cType="1" res="-9.9000000000000000e+01" rms="0.0000000000000000e+00" purity="5.0106388330459595e-01" nType="1"/>
                  <Node pos="r" depth="4" NCoef="0" IVar="-1" Cut="0.0000000000000000e+00" cType="1" res="-9.9000000000000000e+01" rms="0.0000000000000000e+00" purity="4.0356707572937012e-01" nType="-1"/>
                </Node>
              </Node>
              <Node pos="r" depth="2" NCoef="0" IVar="-1" Cut="0.0000000000000000e+00" cType="1" res="-9.9000000000000000e+01" rms="0.0000000000000000e+00" purity="3.8591924309730530e-01" nType="-1"/>
            </Node>
          </Node>
        </BinaryTree>
        <BinaryTree type="DecisionTree" boostWeight="3.0437441611080241e-02" itree="30">
          <Node pos="s" depth="0" NCoef="0" IVar="5" Cut="1.5852854251861572e+00" cType="0" res="-9.9000000000000000e+01" rms="0.0000000000000000e+00" purity="4.8629355430603027e-01" nType="0">
            <Node pos="l" depth="1" NCoef="0" IVar="-1" Cut="2.1422673034667969e+02" cType="0" res="-9.9000000000000000e+01" rms="0.0000000000000000e+00" purity="5.7412451505661011e-01" nType="1"/>
            <Node pos="r" depth="1" NCoef="0" IVar="2" Cut="1.1949576568603516e+02" cType="0" res="-9.9000000000000000e+01" rms="0.0000000000000000e+00" purity="4.7014796733856201e-01" nType="0">
              <Node pos="l" depth="2" NCoef="0" IVar="1" Cut="6.6222099304199219e+01" cType="0" res="-9.9000000000000000e+01" rms="0.0000000000000000e+00" purity="4.7646850347518921e-01" nType="0">
                <Node pos="l" depth="3" NCoef="0" IVar="1" Cut="8.9922660827636719e+01" cType="1" res="-9.9000000000000000e+01" rms="0.0000000000000000e+00" purity="4.8922675848007202e-01" nType="0">
                  <Node pos="l" depth="4" NCoef="0" IVar="-1" Cut="0.0000000000000000e+00" cType="1" res="-9.9000000000000000e+01" rms="0.0000000000000000e+00" purity="5.2822661399841309e-01" nType="1"/>
                  <Node pos="r" depth="4" NCoef="0" IVar="-1" Cut="0.0000000000000000e+00" cType="1" res="-9.9000000000000000e+01" rms="0.0000000000000000e+00" purity="4.6406164765357971e-01" nType="-1"/>
                </Node>
                <Node pos="r" depth="3" NCoef="0" IVar="-1" Cut="2.2231130599975586e+00" cType="1" res="-9.9000000000000000e+01" rms="0.0000000000000000e+00" purity="4.2886427044868469e-01" nType="-1"/>
              </Node>
              <Node pos="r" depth="2" NCoef="0" IVar="-1" Cut="0.0000000000000000e+00" cType="1" res="-9.9000000000000000e+01" rms="0.0000000000000000e+00" purity="3.7519773840904236e-01" nType="-1"/>
            </Node>
          </Node>
        </BinaryTree>
        <BinaryTree type="DecisionTree" boostWeight="3.3792281490191617e-02" itree="31">
          <Node pos="s" depth="0" NCoef="0" IVar="2" Cut="1.7334490966796875e+02" cType="0" res="-9.9000000000000000e+01" rms="0.0000000000000000e+00" purity="4.8788234591484070e-01" nType="0">
            <Node pos="l" depth="1" NCoef="0" IVar="5" Cut="2.0240371227264404e+00" cType="0" res="-9.9000000000000000e+01" rms="0.0000000000000000e+00" purity="5.2438199520111084e-01" nType="0">
              <Node pos="l" depth="2" NCoef="0" IVar="-1" Cut="0.0000000000000000e+00" cType="1" res="-9.9000000000000000e+01" rms="0.0000000000000000e+00" purity="6.3342165946960449e-01" nType="1"/>
              <Node pos="r" depth="2" NCoef="0" IVar="1" Cut="7.0662132263183594e+01" cType="0" res="-9.9000000000000000e+01" rms="0.0000000000000000e+00" purity="5.0893759727478027e-01" nType="0">
                <Node pos="l" depth="3" NCoef="0" IVar="4" Cut="7.5970309972763062e-01" cType="0" res="-9.9000000000000000e+01" rms="0.0000000000000000e+00" purity="5.2855676412582397e-01" nType="0">
                  <Node pos="l" depth="4" NCoef="0" IVar="-1" Cut="0.0000000000000000e+00" cType="1" res="-9.9000000000000000e+01" rms="0.0000000000000000e+00" purity="5.4885548353195190e-01" nType="1"/>
                  <Node pos="r" depth="4" NCoef="0" IVar="-1" Cut="0.0000000000000000e+00" cType="1" res="-9.9000000000000000e+01" rms="0.0000000000000000e+00" purity="4.5419523119926453e-01" nType="-1"/>
                </Node>
                <Node pos="r" depth="3" NCoef="0" IVar="-1" Cut="0.0000000000000000e+00" cType="1" res="-9.9000000000000000e+01" rms="0.0000000000000000e+00" purity="4.4647619128227234e-01" nType="-1"/>
              </Node>
            </Node>
            <Node pos="r" depth="1" NCoef="0" IVar="3" Cut="1.7411770629882812e+02" cType="1" res="-9.9000000000000000e+01" rms="0.0000000000000000e+00" purity="4.5524257421493530e-01" nType="0">
              <Node pos="l" depth="2" NCoef="0" IVar="6" Cut="3.2575182914733887e+00" cType="1" res="-9.9000000000000000e+01" rms="0.0000000000000000e+00" purity="4.7386538982391357e-01" nType="0">
                <Node pos="l" depth="3" NCoef="0" IVar="4" Cut="1.3443479537963867e+00" cType="0" res="-9.9000000000000000e+01" rms="0.0000000000000000e+00" purity="4.8613274097442627e-01" nType="0">
                  <Node pos="l" depth="4" NCoef="0" IVar="-1" Cut="0.0000000000000000e+00" cType="1" res="-9.9000000000000000e+01" rms="0.0000000000000000e+00" purity="5.0831472873687744e-01" nType="1"/>
                  <Node pos="r" depth="4" NCoef="0" IVar="-1" Cut="0.0000000000000000e+00" cType="1" res="-9.9000000000000000e+01" rms="0.0000000000000000e+00" purity="4.3425416946411133e-01" nType="-1"/>
                </Node>
                <Node pos="r" depth="3" NCoef="0" IVar="-1" Cut="0.0000000000000000e+00" cType="1" res="-9.9000000000000000e+01" rms="0.0000000000000000e+00" purity="3.9428946375846863e-01" nType="-1"/>
              </Node>
              <Node pos="r" depth="2" NCoef="0" IVar="-1" Cut="1.1602730751037598e+00" cType="0" res="-9.9000000000000000e+01" rms="0.0000000000000000e+00" purity="3.8723298907279968e-01" nType="-1"/>
            </Node>
          </Node>
        </BinaryTree>
        <BinaryTree type="DecisionTree" boostWeight="2.7418864470302135e-02" itree="32">
          <Node pos="s" depth="0" NCoef="0" IVar="5" Cut="1.5852854251861572e+00" cType="0" res="-9.9000000000000000e+01" rms="0.0000000000000000e+00" purity="4.8702028393745422e-01" nType="0">
            <Node pos="l" depth="1" NCoef="0" IVar="1" Cut="9.6672515869140625e+01" cType="1" res="-9.9000000000000000e+01" rms="0.0000000000000000e+00" purity="5.6501358747482300e-01" nType="0">
              <Node pos="l" depth="2" NCoef="0" IVar="-1" Cut="7.5405723571777344e+01" cType="0" res="-9.9000000000000000e+01" rms="0.0000000000000000e+00" purity="6.0208094120025635e-01" nType="1"/>
              <Node pos="r" depth="2" NCoef="0" IVar="-1" Cut="0.0000000000000000e+00" cType="1" res="-9.9000000000000000e+01" rms="0.0000000000000000e+00" purity="4.9126282334327698e-01" nType="-1"/>
            </Node>
            <Node pos="r" depth="1" NCoef="0" IVar="2" Cut="1.4075924682617188e+02" cType="0" res="-9.9000000000000000e+01" rms="0.0000000000000000e+00" purity="4.7271093726158142e-01" nType="0">
              <Node pos="l" depth="2" NCoef="0" IVar="1" Cut="6.6222099304199219e+01" cType="0" res="-9.9000000000000000e+01" rms="0.0000000000000000e+00" purity="4.8608413338661194e-01" nType="0">
                <Node pos="l" depth="3" NCoef="0" IVar="4" Cut="1.0270843505859375e+00" cType="0" res="-9.9000000000000000e+01" rms="0.0000000000000000e+00" purity="4.9841564893722534e-01" nType="0">
                  <Node pos="l" depth="4" NCoef="0" IVar="-1" Cut="0.0000000000000000e+00" cType="1" res="-9.9000000000000000e+01" rms="0.0000000000000000e+00" purity="5.1587730646133423e-01" nType="1"/>
                  <Node pos="r" depth="4" NCoef="0" IVar="-1" Cut="0.0000000000000000e+00" cType="1" res="-9.9000000000000000e+01" rms="0.0000000000000000e+00" purity="4.5616900920867920e-01" nType="-1"/>
                </Node>
                <Node pos="r" depth="3" NCoef="0" IVar="-1" Cut="1.9064083099365234e+00" cType="1" res="-9.9000000000000000e+01" rms="0.0000000000000000e+00" purity="4.3774226307868958e-01" nType="-1"/>
              </Node>
              <Node pos="r" depth="2" NCoef="0" IVar="-1" Cut="9.0904021263122559e-01" cType="0" res="-9.9000000000000000e+01" rms="0.0000000000000000e+00" purity="4.2986971139907837e-01" nType="-1"/>
            </Node>
          </Node>
        </BinaryTree>
        <BinaryTree type="DecisionTree" boostWeight="2.2209005395212006e-02" itree="33">
          <Node pos="s" depth="0" NCoef="0" IVar="0" Cut="1.4922474670410156e+02" cType="0" res="-9.9000000000000000e+01" rms="0.0000000000000000e+00" purity="4.8759663105010986e-01" nType="0">
            <Node pos="l" depth="1" NCoef="0" IVar="1" Cut="1.0751721954345703e+02" cType="1" res="-9.9000000000000000e+01" rms="0.0000000000000000e+00" purity="5.5042177438735962e-01" nType="0">
              <Node pos="l" depth="2" NCoef="0" IVar="1" Cut="7.3512069702148438e+01" cType="0" res="-9.9000000000000000e+01" rms="0.0000000000000000e+00" purity="5.7622206211090088e-01" nType="0">
                <Node pos="l" depth="3" NCoef="0" IVar="-1" Cut="0.0000000000000000e+00" cType="1" res="-9.9000000000000000e+01" rms="0.0000000000000000e+00" purity="6.2813907861709595e-01" nType="1"/>
                <Node pos="r" depth="3" NCoef="0" IVar="-1" Cut="0.0000000000000000e+00" cType="1" res="-9.9000000000000000e+01" rms="0.0000000000000000e+00" purity="4.9921151995658875e-01" nType="-1"/>
              </Node>
              <Node pos="r" depth="2" NCoef="0" IVar="-1" Cut="0.0000000000000000e+00" cType="1" res="-9.9000000000000000e+01" rms="0.0000000000000000e+00" purity="4.6811851859092712e-01" nType="-1"/>
            </Node>
            <Node pos="r" depth="1" NCoef="0" IVar="-1" Cut="7.6075720787048340e-01" cType="0" res="-9.9000000000000000e+01" rms="0.0000000000000000e+00" purity="4.7083595395088196e-01" nType="-1"/>
          </Node>
        </BinaryTree>
        <BinaryTree type="DecisionTree" boostWeight="3.0064332004124179e-02" itree="34">
          <Node pos="s" depth="0" NCoef="0" IVar="2" Cut="1.7334490966796875e+02" cType="0" res="-9.9000000000000000e+01" rms="0.0000000000000000e+00" purity="4.9230137467384338e-01" nType="0">
            <Node pos="l" depth="1" NCoef="0" IVar="4" Cut="1.8753242492675781e+00" cType="1" res="-9.9000000000000000e+01" rms="0.0000000000000000e+00" purity="5.2550494670867920e-01" nType="0">
              <Node pos="l" depth="2" NCoef="0" IVar="1" Cut="1.3071945190429688e+02" cType="1" res="-9.9000000000000000e+01" rms="0.0000000000000000e+00" purity="5.4245257377624512e-01" nType="0">
                <Node pos="l" depth="3" NCoef="0" IVar="-1" Cut="1.7798280715942383e+00" cType="0" res="-9.9000000000000000e+01" rms="0.0000000000000000e+00" purity="5.5891329050064087e-01" nType="1"/>
                <Node pos="r" depth="3" NCoef="0" IVar="-1" Cut="0.0000000000000000e+00" cType="1" res="-9.9000000000000000e+01" rms="0.0000000000000000e+00" purity="4.4553104043006897e-01" nType="-1"/>
              </Node>
              <Node pos="r" depth="2" NCoef="0" IVar="-1" Cut="0.0000000000000000e+00" cType="1" res="-9.9000000000000000e+01" rms="0.0000000000000000e+00" purity="4.4048818945884705e-01" nType="-1"/>
            </Node>
            <Node pos="r" depth="1" NCoef="0" IVar="3" Cut="1.7411770629882812e+02" cType="1" res="-9.9000000000000000e+01" rms="0.0000000000000000e+00" purity="4.6259492635726929e-01" nType="0">
              <Node pos="l" depth="2" NCoef="0" IVar="2" Cut="1.2207049560546875e+02" cType="0" res="-9.9000000000000000e+01" rms="0.0000000000000000e+00" purity="4.7947350144386292e-01" nType="0">
                <Node pos="l" depth="3" NCoef="0" IVar="4" Cut="1.3334901332855225e+00" cType="0" res="-9.9000000000000000e+01" rms="0.0000000000000000e+00" purity="4.9098461866378784e-01" nType="0">
                  <Node pos="l" depth="4" NCoef="0" IVar="-1" Cut="0.0000000000000000e+00" cType="1" res="-9.9000000000000000e+01" rms="0.0000000000000000e+00" purity="5.0511753559112549e-01" nType="1"/>
                  <Node pos="r" depth="4" NCoef="0" IVar="-1" Cut="0.0000000000000000e+00" cType="1" res="-9.9000000000000000e+01" rms="0.0000000000000000e+00" purity="4.5587560534477234e-01" nType="-1"/>
                </Node>
                <Node pos="r" depth="3" NCoef="0" IVar="-1" Cut="0.0000000000000000e+00" cType="1" res="-9.9000000000000000e+01" rms="0.0000000000000000e+00" purity="4.1181841492652893e-01" nType="-1"/>
              </Node>
              <Node pos="r" depth="2" NCoef="0" IVar="-1" Cut="1.1602730751037598e+00" cType="0" res="-9.9000000000000000e+01" rms="0.0000000000000000e+00" purity="4.0074938535690308e-01" nType="-1"/>
            </Node>
          </Node>
        </BinaryTree>
        <BinaryTree type="DecisionTree" boostWeight="1.6776539580487276e-02" itree="35">
          <Node pos="s" depth="0" NCoef="0" IVar="5" Cut="1.5852854251861572e+00" cType="0" res="-9.9000000000000000e+01" rms="0.0000000000000000e+00" purity="4.9102699756622314e-01" nType="0">
            <Node pos="l" depth="1" NCoef="0" IVar="-1" Cut="1.2129447460174561e+00" cType="1" res="-9.9000000000000000e+01" rms="0.0000000000000000e+00" purity="5.6124335527420044e-01" nType="1"/>
            <Node pos="r" depth="1" NCoef="0" IVar="-1" Cut="7.8336024284362793e-01" cType="0" res="-9.9000000000000000e+01" rms="0.0000000000000000e+00" purity="4.7816845774650574e-01" nType="-1"/>
          </Node>
        </BinaryTree>
        <BinaryTree type="DecisionTree" boostWeight="2.7903281320657797e-02" itree="36">
          <Node pos="s" depth="0" NCoef="0" IVar="2" Cut="1.7334490966796875e+02" cType="0" res="-9.9000000000000000e+01" rms="0.0000000000000000e+00" purity="4.9401485919952393e-01" nType="0">
            <Node pos="l" depth="1" NCoef="0" IVar="5" Cut="2.0240371227264404e+00" cType="0" res="-9.9000000000000000e+01" rms="0.0000000000000000e+00" purity="5.2441155910491943e-01" nType="0">
              <Node pos="l" depth="2" NCoef="0" IVar="-1" Cut="0.0000000000000000e+00" cType="1" res="-9.9000000000000000e+01" rms="0.0000000000000000e+00" purity="6.1605590581893921e-01" nType="1"/>
              <Node pos="r" depth="2" NCoef="0" IVar="4" Cut="1.9361612796783447e+00" cType="1" res="-9.9000000000000000e+01" rms="0.0000000000000000e+00" purity="5.1154536008834839e-01" nType="0">
                <Node pos="l" depth="3" NCoef="0" IVar="3" Cut="2.8349822998046875e+02" cType="1" res="-9.9000000000000000e+01" rms="0.0000000000000000e+00" purity="5.2434772253036499e-01" nType="0">
                  <Node pos="l" depth="4" NCoef="0" IVar="-1" Cut="0.0000000000000000e+00" cType="1" res="-9.9000000000000000e+01" rms="0.0000000000000000e+00" purity="5.4844522476196289e-01" nType="1"/>
                  <Node pos="r" depth="4" NCoef="0" IVar="-1" Cut="0.0000000000000000e+00" cType="1" res="-9.9000000000000000e+01" rms="0.0000000000000000e+00" purity="4.7645846009254456e-01" nType="-1"/>
                </Node>
                <Node pos="r" depth="3" NCoef="0" IVar="-1" Cut="0.0000000000000000e+00" cType="1" res="-9.9000000000000000e+01" rms="0.0000000000000000e+00" purity="4.4793385267257690e-01" nType="-1"/>
              </Node>
            </Node>
            <Node pos="r" depth="1" NCoef="0" IVar="3" Cut="1.7411770629882812e+02" cType="1" res="-9.9000000000000000e+01" rms="0.0000000000000000e+00" purity="4.6682691574096680e-01" nType="0">
              <Node pos="l" depth="2" NCoef="0" IVar="6" Cut="3.2575182914733887e+00" cType="1" res="-9.9000000000000000e+01" rms="0.0000000000000000e+00" purity="4.8200270533561707e-01" nType="0">
                <Node pos="l" depth="3" NCoef="0" IVar="1" Cut="1.0268025970458984e+02" cType="1" res="-9.9000000000000000e+01" rms="0.0000000000000000e+00" purity="4.9258828163146973e-01" nType="0">
                  <Node pos="l" depth="4" NCoef="0" IVar="-1" Cut="0.0000000000000000e+00" cType="1" res="-9.9000000000000000e+01" rms="0.0000000000000000e+00" purity="5.0916057825088501e-01" nType="1"/>
                  <Node pos="r" depth="4" NCoef="0" IVar="-1" Cut="0.0000000000000000e+00" cType="1" res="-9.9000000000000000e+01" rms="0.0000000000000000e+00" purity="4.5202514529228210e-01" nType="-1"/>
                </Node>
                <Node pos="r" depth="3" NCoef="0" IVar="-1" Cut="0.0000000000000000e+00" cType="1" res="-9.9000000000000000e+01" rms="0.0000000000000000e+00" purity="4.1285040974617004e-01" nType="-1"/>
              </Node>
              <Node pos="r" depth="2" NCoef="0" IVar="-1" Cut="1.1602730751037598e+00" cType="0" res="-9.9000000000000000e+01" rms="0.0000000000000000e+00" purity="4.1107976436614990e-01" nType="-1"/>
            </Node>
          </Node>
        </BinaryTree>
        <BinaryTree type="DecisionTree" boostWeight="2.4336690513126164e-02" itree="37">
          <Node pos="s" depth="0" NCoef="0" IVar="2" Cut="1.7334490966796875e+02" cType="0" res="-9.9000000000000000e+01" rms="0.0000000000000000e+00" purity="4.9349272251129150e-01" nType="0">
            <Node pos="l" depth="1" NCoef="0" IVar="5" Cut="2.0240371227264404e+00" cType="0" res="-9.9000000000000000e+01" rms="0.0000000000000000e+00" purity="5.2304154634475708e-01" nType="0">
              <Node pos="l" depth="2" NCoef="0" IVar="-1" Cut="0.0000000000000000e+00" cType="1" res="-9.9000000000000000e+01" rms="0.0000000000000000e+00" purity="6.0943478345870972e-01" nType="1"/>
              <Node pos="r" depth="2" NCoef="0" IVar="4" Cut="6.8674248456954956e-01" cType="0" res="-9.9000000000000000e+01" rms="0.0000000000000000e+00" purity="5.1094114780426025e-01" nType="0">
                <Node pos="l" depth="3" NCoef="0" IVar="4" Cut="1.9434005022048950e+00" cType="1" res="-9.9000000000000000e+01" rms="0.0000000000000000e+00" purity="5.2089077234268188e-01" nType="0">
                  <Node pos="l" depth="4" NCoef="0" IVar="-1" Cut="0.0000000000000000e+00" cType="1" res="-9.9000000000000000e+01" rms="0.0000000000000000e+00" purity="5.3667587041854858e-01" nType="1"/>
                  <Node pos="r" depth="4" NCoef="0" IVar="-1" Cut="0.0000000000000000e+00" cType="1" res="-9.9000000000000000e+01" rms="0.0000000000000000e+00" purity="4.5387834310531616e-01" nType="-1"/>
                </Node>
                <Node pos="r" depth="3" NCoef="0" IVar="-1" Cut="0.0000000000000000e+00" cType="1" res="-9.9000000000000000e+01" rms="0.0000000000000000e+00" purity="4.4704753160476685e-01" nType="-1"/>
              </Node>
            </Node>
            <Node pos="r" depth="1" NCoef="0" IVar="-1" Cut="1.7411770629882812e+02" cType="1" res="-9.9000000000000000e+01" rms="0.0000000000000000e+00" purity="4.6706855297088623e-01" nType="-1"/>
          </Node>
        </BinaryTree>
        <BinaryTree type="DecisionTree" boostWeight="2.6277634167115045e-02" itree="38">
          <Node pos="s" depth="0" NCoef="0" IVar="5" Cut="1.0587832927703857e+00" cType="0" res="-9.9000000000000000e+01" rms="0.0000000000000000e+00" purity="4.9543395638465881e-01" nType="0">
            <Node pos="l" depth="1" NCoef="0" IVar="2" Cut="2.6495922851562500e+02" cType="0" res="-9.9000000000000000e+01" rms="0.0000000000000000e+00" purity="5.1719397306442261e-01" nType="0">
              <Node pos="l" depth="2" NCoef="0" IVar="-1" Cut="0.0000000000000000e+00" cType="1" res="-9.9000000000000000e+01" rms="0.0000000000000000e+00" purity="5.9235107898712158e-01" nType="1"/>
              <Node pos="r" depth="2" NCoef="0" IVar="1" Cut="5.1560058593750000e+01" cType="0" res="-9.9000000000000000e+01" rms="0.0000000000000000e+00" purity="5.0700676441192627e-01" nType="0">
                <Node pos="l" depth="3" NCoef="0" IVar="1" Cut="1.3048651123046875e+02" cType="1" res="-9.9000000000000000e+01" rms="0.0000000000000000e+00" purity="5.1513963937759399e-01" nType="0">
                  <Node pos="l" depth="4" NCoef="0" IVar="-1" Cut="0.0000000000000000e+00" cType="1" res="-9.9000000000000000e+01" rms="0.0000000000000000e+00" purity="5.2427339553833008e-01" nType="1"/>
                  <Node pos="r" depth="4" NCoef="0" IVar="-1" Cut="0.0000000000000000e+00" cType="1" res="-9.9000000000000000e+01" rms="0.0000000000000000e+00" purity="4.4852799177169800e-01" nType="-1"/>
                </Node>
                <Node pos="r" depth="3" NCoef="0" IVar="-1" Cut="0.0000000000000000e+00" cType="1" res="-9.9000000000000000e+01" rms="0.0000000000000000e+00" purity="4.4349482655525208e-01" nType="-1"/>
              </Node>
            </Node>
            <Node pos="r" depth="1" NCoef="0" IVar="3" Cut="2.1560430908203125e+02" cType="1" res="-9.9000000000000000e+01" rms="0.0000000000000000e+00" purity="4.6426495909690857e-01" nType="0">
              <Node pos="l" depth="2" NCoef="0" IVar="2" Cut="1.3057305908203125e+02" cType="0" res="-9.9000000000000000e+01" rms="0.0000000000000000e+00" purity="4.8069977760314941e-01" nType="0">
                <Node pos="l" depth="3" NCoef="0" IVar="4" Cut="1.2601547241210938e+00" cType="0" res="-9.9000000000000000e+01" rms="0.0000000000000000e+00" purity="5.0313907861709595e-01" nType="0">
                  <Node pos="l" depth="4" NCoef="0" IVar="-1" Cut="0.0000000000000000e+00" cType="1" res="-9.9000000000000000e+01" rms="0.0000000000000000e+00" purity="5.1609575748443604e-01" nType="1"/>
                  <Node pos="r" depth="4" NCoef="0" IVar="-1" Cut="0.0000000000000000e+00" cType="1" res="-9.9000000000000000e+01" rms="0.0000000000000000e+00" purity="4.6257477998733521e-01" nType="-1"/>
                </Node>
                <Node pos="r" depth="3" NCoef="0" IVar="-1" Cut="0.0000000000000000e+00" cType="1" res="-9.9000000000000000e+01" rms="0.0000000000000000e+00" purity="4.0115365386009216e-01" nType="-1"/>
              </Node>
              <Node pos="r" depth="2" NCoef="0" IVar="-1" Cut="0.0000000000000000e+00" cType="1" res="-9.9000000000000000e+01" rms="0.0000000000000000e+00" purity="3.8294100761413574e-01" nType="-1"/>
            </Node>
          </Node>
        </BinaryTree>
        <BinaryTree type="DecisionTree" boostWeight="1.4471187882172918e-02" itree="39">
          <Node pos="s" depth="0" NCoef="0" IVar="2" Cut="2.4641197204589844e+02" cType="0" res="-9.9000000000000000e+01" rms="0.0000000000000000e+00" purity="4.9313625693321228e-01" nType="0">
            <Node pos="l" depth="1" NCoef="0" IVar="-1" Cut="1.8509396314620972e+00" cType="0" res="-9.9000000000000000e+01" rms="0.0000000000000000e+00" purity="5.6605213880538940e-01" nType="1"/>
            <Node pos="r" depth="1" NCoef="0" IVar="5" Cut="7.9553228616714478e-01" cType="0" res="-9.9000000000000000e+01" rms="0.0000000000000000e+00" purity="4.8469081521034241e-01" nType="0">
              <Node pos="l" depth="2" NCoef="0" IVar="4" Cut="2.6134436130523682e+00" cType="1" res="-9.9000000000000000e+01" rms="0.0000000000000000e+00" purity="4.9101442098617554e-01" nType="0">
                <Node pos="l" depth="3" NCoef="0" IVar="3" Cut="3.6869046020507812e+02" cType="1" res="-9.9000000000000000e+01" rms="0.0000000000000000e+00" purity="4.9665442109107971e-01" nType="0">
                  <Node pos="l" depth="4" NCoef="0" IVar="-1" Cut="0.0000000000000000e+00" cType="1" res="-9.9000000000000000e+01" rms="0.0000000000000000e+00" purity="5.0246995687484741e-01" nType="1"/>
                  <Node pos="r" depth="4" NCoef="0" IVar="-1" Cut="0.0000000000000000e+00" cType="1" res="-9.9000000000000000e+01" rms="0.0000000000000000e+00" purity="4.1771572828292847e-01" nType="-1"/>
                </Node>
                <Node pos="r" depth="3" NCoef="0" IVar="-1" Cut="0.0000000000000000e+00" cType="1" res="-9.9000000000000000e+01" rms="0.0000000000000000e+00" purity="4.1807430982589722e-01" nType="-1"/>
              </Node>
              <Node pos="r" depth="2" NCoef="0" IVar="-1" Cut="0.0000000000000000e+00" cType="1" res="-9.9000000000000000e+01" rms="0.0000000000000000e+00" purity="4.1136288642883301e-01" nType="-1"/>
            </Node>
          </Node>
        </BinaryTree>
        <BinaryTree type="DecisionTree" boostWeight="1.8962533326800684e-02" itree="40">
          <Node pos="s" depth="0" NCoef="0" IVar="2" Cut="2.4641197204589844e+02" cType="0" res="-9.9000000000000000e+01" rms="0.0000000000000000e+00" purity="4.9084323644638062e-01" nType="0">
            <Node pos="l" depth="1" NCoef="0" IVar="-1" Cut="1.8509396314620972e+00" cType="0" res="-9.9000000000000000e+01" rms="0.0000000000000000e+00" purity="5.6249409914016724e-01" nType="1"/>
            <Node pos="r" depth="1" NCoef="0" IVar="2" Cut="1.3726300048828125e+02" cType="0" res="-9.9000000000000000e+01" rms="0.0000000000000000e+00" purity="4.8255035281181335e-01" nType="0">
              <Node pos="l" depth="2" NCoef="0" IVar="3" Cut="3.6041693115234375e+02" cType="1" res="-9.9000000000000000e+01" rms="0.0000000000000000e+00" purity="4.9254581332206726e-01" nType="0">
                <Node pos="l" depth="3" NCoef="0" IVar="0" Cut="1.5185124206542969e+02" cType="0" res="-9.9000000000000000e+01" rms="0.0000000000000000e+00" purity="4.9866604804992676e-01" nType="0">
                  <Node pos="l" depth="4" NCoef="0" IVar="-1" Cut="0.0000000000000000e+00" cType="1" res="-9.9000000000000000e+01" rms="0.0000000000000000e+00" purity="5.5075991153717041e-01" nType="1"/>
                  <Node pos="r" depth="4" NCoef="0" IVar="-1" Cut="0.0000000000000000e+00" cType="1" res="-9.9000000000000000e+01" rms="0.0000000000000000e+00" purity="4.9015516042709351e-01" nType="-1"/>
                </Node>
                <Node pos="r" depth="3" NCoef="0" IVar="-1" Cut="0.0000000000000000e+00" cType="1" res="-9.9000000000000000e+01" rms="0.0000000000000000e+00" purity="4.2288345098495483e-01" nType="-1"/>
              </Node>
              <Node pos="r" depth="2" NCoef="0" IVar="-1" Cut="8.3413665771484375e+01" cType="1" res="-9.9000000000000000e+01" rms="0.0000000000000000e+00" purity="4.4163018465042114e-01" nType="-1"/>
            </Node>
          </Node>
        </BinaryTree>
        <BinaryTree type="DecisionTree" boostWeight="1.4248811129057447e-02" itree="41">
          <Node pos="s" depth="0" NCoef="0" IVar="0" Cut="2.0650669860839844e+02" cType="0" res="-9.9000000000000000e+01" rms="0.0000000000000000e+00" purity="4.9380978941917419e-01" nType="0">
            <Node pos="l" depth="1" NCoef="0" IVar="-1" Cut="0.0000000000000000e+00" cType="1" res="-9.9000000000000000e+01" rms="0.0000000000000000e+00" purity="5.6200224161148071e-01" nType="1"/>
            <Node pos="r" depth="1" NCoef="0" IVar="5" Cut="7.8506743907928467e-01" cType="0" res="-9.9000000000000000e+01" rms="0.0000000000000000e+00" purity="4.8655685782432556e-01" nType="0">
              <Node pos="l" depth="2" NCoef="0" IVar="1" Cut="5.1560058593750000e+01" cType="0" res="-9.9000000000000000e+01" rms="0.0000000000000000e+00" purity="4.9236822128295898e-01" nType="0">
                <Node pos="l" depth="3" NCoef="0" IVar="4" Cut="6.3999342918395996e-01" cType="0" res="-9.9000000000000000e+01" rms="0.0000000000000000e+00" purity="4.9875265359878540e-01" nType="0">
                  <Node pos="l" depth="4" NCoef="0" IVar="-1" Cut="0.0000000000000000e+00" cType="1" res="-9.9000000000000000e+01" rms="0.0000000000000000e+00" purity="5.0410056114196777e-01" nType="1"/>
                  <Node pos="r" depth="4" NCoef="0" IVar="-1" Cut="0.0000000000000000e+00" cType="1" res="-9.9000000000000000e+01" rms="0.0000000000000000e+00" purity="4.3493729829788208e-01" nType="-1"/>
                </Node>
                <Node pos="r" depth="3" NCoef="0" IVar="-1" Cut="0.0000000000000000e+00" cType="1" res="-9.9000000000000000e+01" rms="0.0000000000000000e+00" purity="4.4241958856582642e-01" nType="-1"/>
              </Node>
              <Node pos="r" depth="2" NCoef="0" IVar="-1" Cut="0.0000000000000000e+00" cType="1" res="-9.9000000000000000e+01" rms="0.0000000000000000e+00" purity="4.1327795386314392e-01" nType="-1"/>
            </Node>
          </Node>
        </BinaryTree>
        <BinaryTree type="DecisionTree" boostWeight="1.7108364658633073e-02" itree="42">
          <Node pos="s" depth="0" NCoef="0" IVar="2" Cut="2.6467874145507812e+02" cType="0" res="-9.9000000000000000e+01" rms="0.0000000000000000e+00" purity="4.9180495738983154e-01" nType="0">
            <Node pos="l" depth="1" NCoef="0" IVar="-1" Cut="0.0000000000000000e+00" cType="1" res="-9.9000000000000000e+01" rms="0.0000000000000000e+00" purity="5.6816691160202026e-01" nType="1"/>
            <Node pos="r" depth="1" NCoef="0" IVar="2" Cut="1.3753480529785156e+02" cType="0" res="-9.9000000000000000e+01" rms="0.0000000000000000e+00" purity="4.8551419377326965e-01" nType="0">
              <Node pos="l" depth="2" NCoef="0" IVar="3" Cut="3.8094284057617188e+02" cType="1" res="-9.9000000000000000e+01" rms="0.0000000000000000e+00" purity="4.9508473277091980e-01" nType="0">
                <Node pos="l" depth="3" NCoef="0" IVar="1" Cut="5.1652084350585938e+01" cType="0" res="-9.9000000000000000e+01" rms="0.0000000000000000e+00" purity="5.0114107131958008e-01" nType="0">
                  <Node pos="l" depth="4" NCoef="0" IVar="-1" Cut="0.0000000000000000e+00" cType="1" res="-9.9000000000000000e+01" rms="0.0000000000000000e+00" purity="5.0809007883071899e-01" nType="1"/>
                  <Node pos="r" depth="4" NCoef="0" IVar="-1" Cut="0.0000000000000000e+00" cType="1" res="-9.9000000000000000e+01" rms="0.0000000000000000e+00" purity="4.4650766253471375e-01" nType="-1"/>
                </Node>
                <Node pos="r" depth="3" NCoef="0" IVar="-1" Cut="0.0000000000000000e+00" cType="1" res="-9.9000000000000000e+01" rms="0.0000000000000000e+00" purity="4.1942167282104492e-01" nType="-1"/>
              </Node>
              <Node pos="r" depth="2" NCoef="0" IVar="-1" Cut="8.3413665771484375e+01" cType="1" res="-9.9000000000000000e+01" rms="0.0000000000000000e+00" purity="4.4544732570648193e-01" nType="-1"/>
            </Node>
          </Node>
        </BinaryTree>
        <BinaryTree type="DecisionTree" boostWeight="1.2390421938294647e-02" itree="43">
          <Node pos="s" depth="0" NCoef="0" IVar="0" Cut="2.0650669860839844e+02" cType="0" res="-9.9000000000000000e+01" rms="0.0000000000000000e+00" purity="4.9021387100219727e-01" nType="0">
            <Node pos="l" depth="1" NCoef="0" IVar="-1" Cut="0.0000000000000000e+00" cType="1" res="-9.9000000000000000e+01" rms="0.0000000000000000e+00" purity="5.5652505159378052e-01" nType="1"/>
            <Node pos="r" depth="1" NCoef="0" IVar="-1" Cut="7.8506743907928467e-01" cType="0" res="-9.9000000000000000e+01" rms="0.0000000000000000e+00" purity="4.8317191004753113e-01" nType="-1"/>
          </Node>
        </BinaryTree>
        <BinaryTree type="DecisionTree" boostWeight="1.9761568880381063e-02" itree="44">
          <Node pos="s" depth="0" NCoef="0" IVar="1" Cut="1.4304244995117188e+02" cType="1" res="-9.9000000000000000e+01" rms="0.0000000000000000e+00" purity="4.9279972910881042e-01" nType="0">
            <Node pos="l" depth="1" NCoef="0" IVar="4" Cut="2.2446413040161133e+00" cType="1" res="-9.9000000000000000e+01" rms="0.0000000000000000e+00" purity="4.9810987710952759e-01" nType="0">
              <Node pos="l" depth="2" NCoef="0" IVar="0" Cut="2.0650669860839844e+02" cType="0" res="-9.9000000000000000e+01" rms="0.0000000000000000e+00" purity="5.0829380750656128e-01" nType="0">
                <Node pos="l" depth="3" NCoef="0" IVar="-1" Cut="0.0000000000000000e+00" cType="1" res="-9.9000000000000000e+01" rms="0.0000000000000000e+00" purity="5.7447254657745361e-01" nType="1"/>
                <Node pos="r" depth="3" NCoef="0" IVar="5" Cut="1.0865238904953003e+00" cType="0" res="-9.9000000000000000e+01" rms="0.0000000000000000e+00" purity="4.9992847442626953e-01" nType="0">
                  <Node pos="l" depth="4" NCoef="0" IVar="-1" Cut="0.0000000000000000e+00" cType="1" res="-9.9000000000000000e+01" rms="0.0000000000000000e+00" purity="5.1706379652023315e-01" nType="1"/>
                  <Node pos="r" depth="4" NCoef="0" IVar="-1" Cut="0.0000000000000000e+00" cType="1" res="-9.9000000000000000e+01" rms="0.0000000000000000e+00" purity="4.8035171627998352e-01" nType="-1"/>
                </Node>
              </Node>
              <Node pos="r" depth="2" NCoef="0" IVar="-1" Cut="6.8306472778320312e+01" cType="0" res="-9.9000000000000000e+01" rms="0.0000000000000000e+00" purity="4.4814425706863403e-01" nType="-1"/>
            </Node>
            <Node pos="r" depth="1" NCoef="0" IVar="-1" Cut="0.0000000000000000e+00" cType="1" res="-9.9000000000000000e+01" rms="0.0000000000000000e+00" purity="4.0846189856529236e-01" nType="-1"/>
          </Node>
        </BinaryTree>
        <BinaryTree type="DecisionTree" boostWeight="1.3930941570798851e-02" itree="45">
          <Node pos="s" depth="0" NCoef="0" IVar="1" Cut="1.4304244995117188e+02" cType="1" res="-9.9000000000000000e+01" rms="0.0000000000000000e+00" purity="4.9324560165405273e-01" nType="0">
            <Node pos="l" depth="1" NCoef="0" IVar="5" Cut="2.0240371227264404e+00" cType="0" res="-9.9000000000000000e+01" rms="0.0000000000000000e+00" purity="4.9827036261558533e-01" nType="0">
              <Node pos="l" depth="2" NCoef="0" IVar="-1" Cut="0.0000000000000000e+00" cType="1" res="-9.9000000000000000e+01" rms="0.0000000000000000e+00" purity="5.7771313190460205e-01" nType="1"/>
              <Node pos="r" depth="2" NCoef="0" IVar="4" Cut="2.6653203964233398e+00" cType="1" res="-9.9000000000000000e+01" rms="0.0000000000000000e+00" purity="4.9273192882537842e-01" nType="0">
                <Node pos="l" depth="3" NCoef="0" IVar="3" Cut="2.9717941284179688e+02" cType="1" res="-9.9000000000000000e+01" rms="0.0000000000000000e+00" purity="4.9771010875701904e-01" nType="0">
                  <Node pos="l" depth="4" NCoef="0" IVar="-1" Cut="0.0000000000000000e+00" cType="1" res="-9.9000000000000000e+01" rms="0.0000000000000000e+00" purity="5.0498658418655396e-01" nType="1"/>
                  <Node pos="r" depth="4" NCoef="0" IVar="-1" Cut="0.0000000000000000e+00" cType="1" res="-9.9000000000000000e+01" rms="0.0000000000000000e+00" purity="4.5889356732368469e-01" nType="-1"/>
                </Node>
                <Node pos="r" depth="3" NCoef="0" IVar="-1" Cut="0.0000000000000000e+00" cType="1" res="-9.9000000000000000e+01" rms="0.0000000000000000e+00" purity="4.1943851113319397e-01" nType="-1"/>
              </Node>
            </Node>
            <Node pos="r" depth="1" NCoef="0" IVar="-1" Cut="0.0000000000000000e+00" cType="1" res="-9.9000000000000000e+01" rms="0.0000000000000000e+00" purity="4.1335088014602661e-01" nType="-1"/>
          </Node>
        </BinaryTree>
        <BinaryTree type="DecisionTree" boostWeight="1.3675025947670925e-02" itree="46">
          <Node pos="s" depth="0" NCoef="0" IVar="2" Cut="2.6467874145507812e+02" cType="0" res="-9.9000000000000000e+01" rms="0.0000000000000000e+00" purity="4.9148011207580566e-01" nType="0">
            <Node pos="l" depth="1" NCoef="0" IVar="-1" Cut="0.0000000000000000e+00" cType="1" res="-9.9000000000000000e+01" rms="0.0000000000000000e+00" purity="5.6024223566055298e-01" nType="1"/>
            <Node pos="r" depth="1" NCoef="0" IVar="6" Cut="3.2408025264739990e+00" cType="1" res="-9.9000000000000000e+01" rms="0.0000000000000000e+00" purity="4.8583245277404785e-01" nType="0">
              <Node pos="l" depth="2" NCoef="0" IVar="3" Cut="3.8196267700195312e+02" cType="1" res="-9.9000000000000000e+01" rms="0.0000000000000000e+00" purity="4.9115645885467529e-01" nType="0">
                <Node pos="l" depth="3" NCoef="0" IVar="1" Cut="1.2445728302001953e+02" cType="1" res="-9.9000000000000000e+01" rms="0.0000000000000000e+00" purity="4.9607235193252563e-01" nType="0">
                  <Node pos="l" depth="4" NCoef="0" IVar="-1" Cut="0.0000000000000000e+00" cType="1" res="-9.9000000000000000e+01" rms="0.0000000000000000e+00" purity="5.0379461050033569e-01" nType="1"/>
                  <Node pos="r" depth="4" NCoef="0" IVar="-1" Cut="0.0000000000000000e+00" cType="1" res="-9.9000000000000000e+01" rms="0.0000000000000000e+00" purity="4.5153123140335083e-01" nType="-1"/>
                </Node>
                <Node pos="r" depth="3" NCoef="0" IVar="-1" Cut="0.0000000000000000e+00" cType="1" res="-9.9000000000000000e+01" rms="0.0000000000000000e+00" purity="4.2073971033096313e-01" nType="-1"/>
              </Node>
              <Node pos="r" depth="2" NCoef="0" IVar="-1" Cut="0.0000000000000000e+00" cType="1" res="-9.9000000000000000e+01" rms="0.0000000000000000e+00" purity="4.2861500382423401e-01" nType="-1"/>
            </Node>
          </Node>
        </BinaryTree>
        <BinaryTree type="DecisionTree" boostWeight="1.6195281510851547e-02" itree="47">
          <Node pos="s" depth="0" NCoef="0" IVar="2" Cut="2.6467874145507812e+02" cType="0" res="-9.9000000000000000e+01" rms="0.0000000000000000e+00" purity="4.8978284001350403e-01" nType="0">
            <Node pos="l" depth="1" NCoef="0" IVar="-1" Cut="0.0000000000000000e+00" cType="1" res="-9.9000000000000000e+01" rms="0.0000000000000000e+00" purity="5.5687040090560913e-01" nType="1"/>
            <Node pos="r" depth="1" NCoef="0" IVar="5" Cut="7.9553228616714478e-01" cType="0" res="-9.9000000000000000e+01" rms="0.0000000000000000e+00" purity="4.8427617549896240e-01" nType="0">
              <Node pos="l" depth="2" NCoef="0" IVar="3" Cut="3.8420288085937500e+02" cType="1" res="-9.9000000000000000e+01" rms="0.0000000000000000e+00" purity="4.8911124467849731e-01" nType="0">
                <Node pos="l" depth="3" NCoef="0" IVar="2" Cut="2.0454306030273438e+02" cType="0" res="-9.9000000000000000e+01" rms="0.0000000000000000e+00" purity="4.9335253238677979e-01" nType="0">
                  <Node pos="l" depth="4" NCoef="0" IVar="-1" Cut="0.0000000000000000e+00" cType="1" res="-9.9000000000000000e+01" rms="0.0000000000000000e+00" purity="5.3200709819793701e-01" nType="1"/>
                  <Node pos="r" depth="4" NCoef="0" IVar="-1" Cut="0.0000000000000000e+00" cType="1" res="-9.9000000000000000e+01" rms="0.0000000000000000e+00" purity="4.8605921864509583e-01" nType="-1"/>
                </Node>
                <Node pos="r" depth="3" NCoef="0" IVar="-1" Cut="0.0000000000000000e+00" cType="1" res="-9.9000000000000000e+01" rms="0.0000000000000000e+00" purity="4.2590269446372986e-01" nType="-1"/>
              </Node>
              <Node pos="r" depth="2" NCoef="0" IVar="-1" Cut="0.0000000000000000e+00" cType="1" res="-9.9000000000000000e+01" rms="0.0000000000000000e+00" purity="4.2643374204635620e-01" nType="-1"/>
            </Node>
          </Node>
        </BinaryTree>
        <BinaryTree type="DecisionTree" boostWeight="1.2005452537790492e-02" itree="48">
          <Node pos="s" depth="0" NCoef="0" IVar="1" Cut="1.4304244995117188e+02" cType="1" res="-9.9000000000000000e+01" rms="0.0000000000000000e+00" purity="4.9227818846702576e-01" nType="0">
            <Node pos="l" depth="1" NCoef="0" IVar="1" Cut="4.6778121948242188e+01" cType="0" res="-9.9000000000000000e+01" rms="0.0000000000000000e+00" purity="4.9670433998107910e-01" nType="0">
              <Node pos="l" depth="2" NCoef="0" IVar="0" Cut="2.0650669860839844e+02" cType="0" res="-9.9000000000000000e+01" rms="0.0000000000000000e+00" purity="5.0314450263977051e-01" nType="0">
                <Node pos="l" depth="3" NCoef="0" IVar="-1" Cut="0.0000000000000000e+00" cType="1" res="-9.9000000000000000e+01" rms="0.0000000000000000e+00" purity="5.7136899232864380e-01" nType="1"/>
                <Node pos="r" depth="3" NCoef="0" IVar="4" Cut="6.4243149757385254e-01" cType="0" res="-9.9000000000000000e+01" rms="0.0000000000000000e+00" purity="4.9581146240234375e-01" nType="0">
                  <Node pos="l" depth="4" NCoef="0" IVar="-1" Cut="0.0000000000000000e+00" cType="1" res="-9.9000000000000000e+01" rms="0.0000000000000000e+00" purity="5.0031298398971558e-01" nType="1"/>
                  <Node pos="r" depth="4" NCoef="0" IVar="-1" Cut="0.0000000000000000e+00" cType="1" res="-9.9000000000000000e+01" rms="0.0000000000000000e+00" purity="4.3805760145187378e-01" nType="-1"/>
                </Node>
              </Node>
              <Node pos="r" depth="2" NCoef="0" IVar="-1" Cut="0.0000000000000000e+00" cType="1" res="-9.9000000000000000e+01" rms="0.0000000000000000e+00" purity="4.3354222178459167e-01" nType="-1"/>
            </Node>
            <Node pos="r" depth="1" NCoef="0" IVar="-1" Cut="0.0000000000000000e+00" cType="1" res="-9.9000000000000000e+01" rms="0.0000000000000000e+00" purity="4.2175424098968506e-01" nType="-1"/>
          </Node>
        </BinaryTree>
        <BinaryTree type="DecisionTree" boostWeight="2.6504891475947978e-02" itree="49">
          <Node pos="s" depth="0" NCoef="0" IVar="2" Cut="1.5507814025878906e+02" cType="0" res="-9.9000000000000000e+01" rms="0.0000000000000000e+00" purity="4.9049240350723267e-01" nType="0">
            <Node pos="l" depth="1" NCoef="0" IVar="1" Cut="7.0020164489746094e+01" cType="0" res="-9.9000000000000000e+01" rms="0.0000000000000000e+00" purity="5.0335133075714111e-01" nType="0">
              <Node pos="l" depth="2" NCoef="0" IVar="1" Cut="9.1849685668945312e+01" cType="1" res="-9.9000000000000000e+01" rms="0.0000000000000000e+00" purity="5.1605373620986938e-01" nType="0">
                <Node pos="l" depth="3" NCoef="0" IVar="-1" Cut="1.3586552143096924e+00" cType="0" res="-9.9000000000000000e+01" rms="0.0000000000000000e+00" purity="5.5859333276748657e-01" nType="1"/>
                <Node pos="r" depth="3" NCoef="0" IVar="4" Cut="1.0847260951995850e+00" cType="0" res="-9.9000000000000000e+01" rms="0.0000000000000000e+00" purity="4.8873716592788696e-01" nType="0">
                  <Node pos="l" depth="4" NCoef="0" IVar="-1" Cut="0.0000000000000000e+00" cType="1" res="-9.9000000000000000e+01" rms="0.0000000000000000e+00" purity="5.1198649406433105e-01" nType="1"/>
                  <Node pos="r" depth="4" NCoef="0" IVar="-1" Cut="0.0000000000000000e+00" cType="1" res="-9.9000000000000000e+01" rms="0.0000000000000000e+00" purity="4.5924288034439087e-01" nType="-1"/>
                </Node>
              </Node>
              <Node pos="r" depth="2" NCoef="0" IVar="-1" Cut="1.6570391654968262e+00" cType="1" res="-9.9000000000000000e+01" rms="0.0000000000000000e+00" purity="4.6298357844352722e-01" nType="-1"/>
            </Node>
            <Node pos="r" depth="1" NCoef="0" IVar="3" Cut="1.5337438964843750e+02" cType="1" res="-9.9000000000000000e+01" rms="0.0000000000000000e+00" purity="4.6613138914108276e-01" nType="0">
              <Node pos="l" depth="2" NCoef="0" IVar="1" Cut="8.3413665771484375e+01" cType="1" res="-9.9000000000000000e+01" rms="0.0000000000000000e+00" purity="4.8397719860076904e-01" nType="0">
                <Node pos="l" depth="3" NCoef="0" IVar="1" Cut="6.3799263000488281e+01" cType="0" res="-9.9000000000000000e+01" rms="0.0000000000000000e+00" purity="5.1534563302993774e-01" nType="0">
                  <Node pos="l" depth="4" NCoef="0" IVar="-1" Cut="0.0000000000000000e+00" cType="1" res="-9.9000000000000000e+01" rms="0.0000000000000000e+00" purity="5.5357509851455688e-01" nType="1"/>
                  <Node pos="r" depth="4" NCoef="0" IVar="-1" Cut="0.0000000000000000e+00" cType="1" res="-9.9000000000000000e+01" rms="0.0000000000000000e+00" purity="4.6694132685661316e-01" nType="-1"/>
                </Node>
                <Node pos="r" depth="3" NCoef="0" IVar="-1" Cut="1.4231458902359009e+00" cType="0" res="-9.9000000000000000e+01" rms="0.0000000000000000e+00" purity="4.5381334424018860e-01" nType="-1"/>
              </Node>
              <Node pos="r" depth="2" NCoef="0" IVar="-1" Cut="0.0000000000000000e+00" cType="1" res="-9.9000000000000000e+01" rms="0.0000000000000000e+00" purity="4.1057053208351135e-01" nType="-1"/>
            </Node>
          </Node>
        </BinaryTree>
        <BinaryTree type="DecisionTree" boostWeight="9.7159166653699620e-03" itree="50">
          <Node pos="s" depth="0" NCoef="0" IVar="5" Cut="2.0240371227264404e+00" cType="0" res="-9.9000000000000000e+01" rms="0.0000000000000000e+00" purity="4.9147760868072510e-01" nType="0">
            <Node pos="l" depth="1" NCoef="0" IVar="-1" Cut="0.0000000000000000e+00" cType="1" res="-9.9000000000000000e+01" rms="0.0000000000000000e+00" purity="5.5914050340652466e-01" nType="1"/>
            <Node pos="r" depth="1" NCoef="0" IVar="-1" Cut="7.5730323791503906e-01" cType="0" res="-9.9000000000000000e+01" rms="0.0000000000000000e+00" purity="4.8678889870643616e-01" nType="-1"/>
          </Node>
        </BinaryTree>
        <BinaryTree type="DecisionTree" boostWeight="1.4571713554026328e-02" itree="51">
          <Node pos="s" depth="0" NCoef="0" IVar="5" Cut="7.9553228616714478e-01" cType="0" res="-9.9000000000000000e+01" rms="0.0000000000000000e+00" purity="4.9366366863250732e-01" nType="0">
            <Node pos="l" depth="1" NCoef="0" IVar="5" Cut="2.1439433097839355e+00" cType="0" res="-9.9000000000000000e+01" rms="0.0000000000000000e+00" purity="4.9844923615455627e-01" nType="0">
              <Node pos="l" depth="2" NCoef="0" IVar="-1" Cut="0.0000000000000000e+00" cType="1" res="-9.9000000000000000e+01" rms="0.0000000000000000e+00" purity="5.6808227300643921e-01" nType="1"/>
              <Node pos="r" depth="2" NCoef="0" IVar="3" Cut="3.8812133789062500e+02" cType="1" res="-9.9000000000000000e+01" rms="0.0000000000000000e+00" purity="4.9427273869514465e-01" nType="0">
                <Node pos="l" depth="3" NCoef="0" IVar="0" Cut="1.2054384613037109e+02" cType="0" res="-9.9000000000000000e+01" rms="0.0000000000000000e+00" purity="4.9864453077316284e-01" nType="0">
                  <Node pos="l" depth="4" NCoef="0" IVar="-1" Cut="0.0000000000000000e+00" cType="1" res="-9.9000000000000000e+01" rms="0.0000000000000000e+00" purity="5.2418398857116699e-01" nType="1"/>
                  <Node pos="r" depth="4" NCoef="0" IVar="-1" Cut="0.0000000000000000e+00" cType="1" res="-9.9000000000000000e+01" rms="0.0000000000000000e+00" purity="4.8889675736427307e-01" nType="-1"/>
                </Node>
                <Node pos="r" depth="3" NCoef="0" IVar="-1" Cut="0.0000000000000000e+00" cType="1" res="-9.9000000000000000e+01" rms="0.0000000000000000e+00" purity="4.4276896119117737e-01" nType="-1"/>
              </Node>
            </Node>
            <Node pos="r" depth="1" NCoef="0" IVar="-1" Cut="0.0000000000000000e+00" cType="1" res="-9.9000000000000000e+01" rms="0.0000000000000000e+00" purity="4.3206235766410828e-01" nType="-1"/>
          </Node>
        </BinaryTree>
        <BinaryTree type="DecisionTree" boostWeight="1.0985421086686908e-02" itree="52">
          <Node pos="s" depth="0" NCoef="0" IVar="5" Cut="7.9553228616714478e-01" cType="0" res="-9.9000000000000000e+01" rms="0.0000000000000000e+00" purity="4.9533870816230774e-01" nType="0">
            <Node pos="l" depth="1" NCoef="0" IVar="2" Cut="2.6467874145507812e+02" cType="0" res="-9.9000000000000000e+01" rms="0.0000000000000000e+00" purity="4.9997189640998840e-01" nType="0">
              <Node pos="l" depth="2" NCoef="0" IVar="-1" Cut="0.0000000000000000e+00" cType="1" res="-9.9000000000000000e+01" rms="0.0000000000000000e+00" purity="5.5373269319534302e-01" nType="1"/>
              <Node pos="r" depth="2" NCoef="0" IVar="3" Cut="3.8420288085937500e+02" cType="1" res="-9.9000000000000000e+01" rms="0.0000000000000000e+00" purity="4.9526223540306091e-01" nType="0">
                <Node pos="l" depth="3" NCoef="0" IVar="6" Cut="3.2408025264739990e+00" cType="1" res="-9.9000000000000000e+01" rms="0.0000000000000000e+00" purity="4.9944031238555908e-01" nType="0">
                  <Node pos="l" depth="4" NCoef="0" IVar="-1" Cut="0.0000000000000000e+00" cType="1" res="-9.9000000000000000e+01" rms="0.0000000000000000e+00" purity="5.0382727384567261e-01" nType="1"/>
                  <Node pos="r" depth="4" NCoef="0" IVar="-1" Cut="0.0000000000000000e+00" cType="1" res="-9.9000000000000000e+01" rms="0.0000000000000000e+00" purity="4.5157325267791748e-01" nType="-1"/>
                </Node>
                <Node pos="r" depth="3" NCoef="0" IVar="-1" Cut="0.0000000000000000e+00" cType="1" res="-9.9000000000000000e+01" rms="0.0000000000000000e+00" purity="4.3291854858398438e-01" nType="-1"/>
              </Node>
            </Node>
            <Node pos="r" depth="1" NCoef="0" IVar="-1" Cut="0.0000000000000000e+00" cType="1" res="-9.9000000000000000e+01" rms="0.0000000000000000e+00" purity="4.3565371632575989e-01" nType="-1"/>
          </Node>
        </BinaryTree>
        <BinaryTree type="DecisionTree" boostWeight="1.9731655343298970e-02" itree="53">
          <Node pos="s" depth="0" NCoef="0" IVar="1" Cut="1.2293914031982422e+02" cType="1" res="-9.9000000000000000e+01" rms="0.0000000000000000e+00" purity="4.9365389347076416e-01" nType="0">
            <Node pos="l" depth="1" NCoef="0" IVar="1" Cut="6.6356491088867188e+01" cType="0" res="-9.9000000000000000e+01" rms="0.0000000000000000e+00" purity="5.0064659118652344e-01" nType="0">
              <Node pos="l" depth="2" NCoef="0" IVar="2" Cut="2.3727859497070312e+02" cType="0" res="-9.9000000000000000e+01" rms="0.0000000000000000e+00" purity="5.1214319467544556e-01" nType="0">
                <Node pos="l" depth="3" NCoef="0" IVar="-1" Cut="0.0000000000000000e+00" cType="1" res="-9.9000000000000000e+01" rms="0.0000000000000000e+00" purity="5.8777987957000732e-01" nType="1"/>
                <Node pos="r" depth="3" NCoef="0" IVar="3" Cut="2.3767367553710938e+02" cType="1" res="-9.9000000000000000e+01" rms="0.0000000000000000e+00" purity="5.0104856491088867e-01" nType="0">
                  <Node pos="l" depth="4" NCoef="0" IVar="-1" Cut="0.0000000000000000e+00" cType="1" res="-9.9000000000000000e+01" rms="0.0000000000000000e+00" purity="5.1244795322418213e-01" nType="1"/>
                  <Node pos="r" depth="4" NCoef="0" IVar="-1" Cut="0.0000000000000000e+00" cType="1" res="-9.9000000000000000e+01" rms="0.0000000000000000e+00" purity="4.5491772890090942e-01" nType="-1"/>
                </Node>
              </Node>
              <Node pos="r" depth="2" NCoef="0" IVar="4" Cut="2.4580924510955811e+00" cType="1" res="-9.9000000000000000e+01" rms="0.0000000000000000e+00" purity="4.6721115708351135e-01" nType="0">
                <Node pos="l" depth="3" NCoef="0" IVar="3" Cut="2.1513957214355469e+02" cType="1" res="-9.9000000000000000e+01" rms="0.0000000000000000e+00" purity="4.8260742425918579e-01" nType="0">
                  <Node pos="l" depth="4" NCoef="0" IVar="-1" Cut="0.0000000000000000e+00" cType="1" res="-9.9000000000000000e+01" rms="0.0000000000000000e+00" purity="5.0737053155899048e-01" nType="1"/>
                  <Node pos="r" depth="4" NCoef="0" IVar="-1" Cut="0.0000000000000000e+00" cType="1" res="-9.9000000000000000e+01" rms="0.0000000000000000e+00" purity="4.4833174347877502e-01" nType="-1"/>
                </Node>
                <Node pos="r" depth="3" NCoef="0" IVar="-1" Cut="0.0000000000000000e+00" cType="1" res="-9.9000000000000000e+01" rms="0.0000000000000000e+00" purity="4.2249503731727600e-01" nType="-1"/>
              </Node>
            </Node>
            <Node pos="r" depth="1" NCoef="0" IVar="-1" Cut="1.1317127943038940e+00" cType="0" res="-9.9000000000000000e+01" rms="0.0000000000000000e+00" purity="4.5507875084877014e-01" nType="-1"/>
          </Node>
        </BinaryTree>
        <BinaryTree type="DecisionTree" boostWeight="1.1594522778486521e-02" itree="54">
          <Node pos="s" depth="0" NCoef="0" IVar="2" Cut="2.6467874145507812e+02" cType="0" res="-9.9000000000000000e+01" rms="0.0000000000000000e+00" purity="4.9258926510810852e-01" nType="0">
            <Node pos="l" depth="1" NCoef="0" IVar="-1" Cut="0.0000000000000000e+00" cType="1" res="-9.9000000000000000e+01" rms="0.0000000000000000e+00" purity="5.4829639196395874e-01" nType="1"/>
            <Node pos="r" depth="1" NCoef="0" IVar="2" Cut="1.2035319519042969e+02" cType="0" res="-9.9000000000000000e+01" rms="0.0000000000000000e+00" purity="4.8803240060806274e-01" nType="0">
              <Node pos="l" depth="2" NCoef="0" IVar="3" Cut="3.8625894165039062e+02" cType="1" res="-9.9000000000000000e+01" rms="0.0000000000000000e+00" purity="4.9204897880554199e-01" nType="0">
                <Node pos="l" depth="3" NCoef="0" IVar="4" Cut="9.8381930589675903e-01" cType="0" res="-9.9000000000000000e+01" rms="0.0000000000000000e+00" purity="4.9604713916778564e-01" nType="0">
                  <Node pos="l" depth="4" NCoef="0" IVar="-1" Cut="0.0000000000000000e+00" cType="1" res="-9.9000000000000000e+01" rms="0.0000000000000000e+00" purity="5.0357228517532349e-01" nType="1"/>
                  <Node pos="r" depth="4" NCoef="0" IVar="-1" Cut="0.0000000000000000e+00" cType="1" res="-9.9000000000000000e+01" rms="0.0000000000000000e+00" purity="4.6725323796272278e-01" nType="-1"/>
                </Node>
                <Node pos="r" depth="3" NCoef="0" IVar="-1" Cut="0.0000000000000000e+00" cType="1" res="-9.9000000000000000e+01" rms="0.0000000000000000e+00" purity="4.3204420804977417e-01" nType="-1"/>
              </Node>
              <Node pos="r" depth="2" NCoef="0" IVar="-1" Cut="0.0000000000000000e+00" cType="1" res="-9.9000000000000000e+01" rms="0.0000000000000000e+00" purity="4.2821037769317627e-01" nType="-1"/>
            </Node>
          </Node>
        </BinaryTree>
        <BinaryTree type="DecisionTree" boostWeight="1.0749507782439291e-02" itree="55">
          <Node pos="s" depth="0" NCoef="0" IVar="5" Cut="2.0240371227264404e+00" cType="0" res="-9.9000000000000000e+01" rms="0.0000000000000000e+00" purity="4.9134194850921631e-01" nType="0">
            <Node pos="l" depth="1" NCoef="0" IVar="-1" Cut="0.0000000000000000e+00" cType="1" res="-9.9000000000000000e+01" rms="0.0000000000000000e+00" purity="5.5221480131149292e-01" nType="1"/>
            <Node pos="r" depth="1" NCoef="0" IVar="5" Cut="7.5730323791503906e-01" cType="0" res="-9.9000000000000000e+01" rms="0.0000000000000000e+00" purity="4.8713436722755432e-01" nType="0">
              <Node pos="l" depth="2" NCoef="0" IVar="4" Cut="6.3203752040863037e-01" cType="0" res="-9.9000000000000000e+01" rms="0.0000000000000000e+00" purity="4.9123021960258484e-01" nType="0">
                <Node pos="l" depth="3" NCoef="0" IVar="4" Cut="2.2633869647979736e+00" cType="1" res="-9.9000000000000000e+01" rms="0.0000000000000000e+00" purity="4.9484142661094666e-01" nType="0">
                  <Node pos="l" depth="4" NCoef="0" IVar="-1" Cut="0.0000000000000000e+00" cType="1" res="-9.9000000000000000e+01" rms="0.0000000000000000e+00" purity="5.0183284282684326e-01" nType="1"/>
                  <Node pos="r" depth="4" NCoef="0" IVar="-1" Cut="0.0000000000000000e+00" cType="1" res="-9.9000000000000000e+01" rms="0.0000000000000000e+00" purity="4.6113595366477966e-01" nType="-1"/>
                </Node>
                <Node pos="r" depth="3" NCoef="0" IVar="-1" Cut="0.0000000000000000e+00" cType="1" res="-9.9000000000000000e+01" rms="0.0000000000000000e+00" purity="4.4203624129295349e-01" nType="-1"/>
              </Node>
              <Node pos="r" depth="2" NCoef="0" IVar="-1" Cut="0.0000000000000000e+00" cType="1" res="-9.9000000000000000e+01" rms="0.0000000000000000e+00" purity="4.1747257113456726e-01" nType="-1"/>
            </Node>
          </Node>
        </BinaryTree>
        <BinaryTree type="DecisionTree" boostWeight="1.2884506071220650e-02" itree="56">
          <Node pos="s" depth="0" NCoef="0" IVar="0" Cut="2.5233226013183594e+02" cType="0" res="-9.9000000000000000e+01" rms="0.0000000000000000e+00" purity="4.9002024531364441e-01" nType="0">
            <Node pos="l" depth="1" NCoef="0" IVar="-1" Cut="0.0000000000000000e+00" cType="1" res="-9.9000000000000000e+01" rms="0.0000000000000000e+00" purity="5.5738317966461182e-01" nType="1"/>
            <Node pos="r" depth="1" NCoef="0" IVar="5" Cut="8.1352460384368896e-01" cType="0" res="-9.9000000000000000e+01" rms="0.0000000000000000e+00" purity="4.8636075854301453e-01" nType="0">
              <Node pos="l" depth="2" NCoef="0" IVar="4" Cut="6.3019782304763794e-01" cType="0" res="-9.9000000000000000e+01" rms="0.0000000000000000e+00" purity="4.9109023809432983e-01" nType="0">
                <Node pos="l" depth="3" NCoef="0" IVar="6" Cut="2.4333946704864502e+00" cType="1" res="-9.9000000000000000e+01" rms="0.0000000000000000e+00" purity="4.9436840415000916e-01" nType="0">
                  <Node pos="l" depth="4" NCoef="0" IVar="-1" Cut="0.0000000000000000e+00" cType="1" res="-9.9000000000000000e+01" rms="0.0000000000000000e+00" purity="5.0594049692153931e-01" nType="1"/>
                  <Node pos="r" depth="4" NCoef="0" IVar="-1" Cut="0.0000000000000000e+00" cType="1" res="-9.9000000000000000e+01" rms="0.0000000000000000e+00" purity="4.7827824950218201e-01" nType="-1"/>
                </Node>
                <Node pos="r" depth="3" NCoef="0" IVar="-1" Cut="0.0000000000000000e+00" cType="1" res="-9.9000000000000000e+01" rms="0.0000000000000000e+00" purity="4.4726830720901489e-01" nType="-1"/>
              </Node>
              <Node pos="r" depth="2" NCoef="0" IVar="-1" Cut="0.0000000000000000e+00" cType="1" res="-9.9000000000000000e+01" rms="0.0000000000000000e+00" purity="4.3674036860466003e-01" nType="-1"/>
            </Node>
          </Node>
        </BinaryTree>
        <BinaryTree type="DecisionTree" boostWeight="1.7091826036336112e-02" itree="57">
          <Node pos="s" depth="0" NCoef="0" IVar="0" Cut="2.5233226013183594e+02" cType="0" res="-9.9000000000000000e+01" rms="0.0000000000000000e+00" purity="4.8990753293037415e-01" nType="0">
            <Node pos="l" depth="1" NCoef="0" IVar="-1" Cut="0.0000000000000000e+00" cType="1" res="-9.9000000000000000e+01" rms="0.0000000000000000e+00" purity="5.5420219898223877e-01" nType="1"/>
            <Node pos="r" depth="1" NCoef="0" IVar="5" Cut="8.1352460384368896e-01" cType="0" res="-9.9000000000000000e+01" rms="0.0000000000000000e+00" purity="4.8641654849052429e-01" nType="0">
              <Node pos="l" depth="2" NCoef="0" IVar="1" Cut="8.8007827758789062e+01" cType="1" res="-9.9000000000000000e+01" rms="0.0000000000000000e+00" purity="4.9084505438804626e-01" nType="0">
                <Node pos="l" depth="3" NCoef="0" IVar="1" Cut="7.3572830200195312e+01" cType="0" res="-9.9000000000000000e+01" rms="0.0000000000000000e+00" purity="5.0184875726699829e-01" nType="0">
                  <Node pos="l" depth="4" NCoef="0" IVar="-1" Cut="0.0000000000000000e+00" cType="1" res="-9.9000000000000000e+01" rms="0.0000000000000000e+00" purity="5.3525227308273315e-01" nType="1"/>
                  <Node pos="r" depth="4" NCoef="0" IVar="-1" Cut="0.0000000000000000e+00" cType="1" res="-9.9000000000000000e+01" rms="0.0000000000000000e+00" purity="4.7836965322494507e-01" nType="-1"/>
                </Node>
                <Node pos="r" depth="3" NCoef="0" IVar="-1" Cut="1.3713977050781250e+02" cType="0" res="-9.9000000000000000e+01" rms="0.0000000000000000e+00" purity="4.7952416539192200e-01" nType="-1"/>
              </Node>
              <Node pos="r" depth="2" NCoef="0" IVar="-1" Cut="0.0000000000000000e+00" cType="1" res="-9.9000000000000000e+01" rms="0.0000000000000000e+00" purity="4.3992382287979126e-01" nType="-1"/>
            </Node>
          </Node>
        </BinaryTree>
        <BinaryTree type="DecisionTree" boostWeight="1.1855401522891435e-02" itree="58">
          <Node pos="s" depth="0" NCoef="0" IVar="1" Cut="1.4304244995117188e+02" cType="1" res="-9.9000000000000000e+01" rms="0.0000000000000000e+00" purity="4.9226814508438110e-01" nType="0">
            <Node pos="l" depth="1" NCoef="0" IVar="0" Cut="2.0650669860839844e+02" cType="0" res="-9.9000000000000000e+01" rms="0.0000000000000000e+00" purity="4.9588158726692200e-01" nType="0">
              <Node pos="l" depth="2" NCoef="0" IVar="-1" Cut="0.0000000000000000e+00" cType="1" res="-9.9000000000000000e+01" rms="0.0000000000000000e+00" purity="5.4462021589279175e-01" nType="1"/>
              <Node pos="r" depth="2" NCoef="0" IVar="6" Cut="3.2408025264739990e+00" cType="1" res="-9.9000000000000000e+01" rms="0.0000000000000000e+00" purity="4.9072763323783875e-01" nType="0">
                <Node pos="l" depth="3" NCoef="0" IVar="3" Cut="2.2866050720214844e+02" cType="1" res="-9.9000000000000000e+01" rms="0.0000000000000000e+00" purity="4.9488782882690430e-01" nType="0">
                  <Node pos="l" depth="4" NCoef="0" IVar="-1" Cut="0.0000000000000000e+00" cType="1" res="-9.9000000000000000e+01" rms="0.0000000000000000e+00" purity="5.0351428985595703e-01" nType="1"/>
                  <Node pos="r" depth="4" NCoef="0" IVar="-1" Cut="0.0000000000000000e+00" cType="1" res="-9.9000000000000000e+01" rms="0.0000000000000000e+00" purity="4.7162637114524841e-01" nType="-1"/>
                </Node>
                <Node pos="r" depth="3" NCoef="0" IVar="-1" Cut="0.0000000000000000e+00" cType="1" res="-9.9000000000000000e+01" rms="0.0000000000000000e+00" purity="4.4694527983665466e-01" nType="-1"/>
              </Node>
            </Node>
            <Node pos="r" depth="1" NCoef="0" IVar="-1" Cut="0.0000000000000000e+00" cType="1" res="-9.9000000000000000e+01" rms="0.0000000000000000e+00" purity="4.3452313542366028e-01" nType="-1"/>
          </Node>
        </BinaryTree>
        <BinaryTree type="DecisionTree" boostWeight="2.1758542108642680e-02" itree="59">
          <Node pos="s" depth="0" NCoef="0" IVar="2" Cut="1.7334490966796875e+02" cType="0" res="-9.9000000000000000e+01" rms="0.0000000000000000e+00" purity="4.9135735630989075e-01" nType="0">
            <Node pos="l" depth="1" NCoef="0" IVar="1" Cut="7.0817687988281250e+01" cType="0" res="-9.9000000000000000e+01" rms="0.0000000000000000e+00" purity="5.0666725635528564e-01" nType="0">
              <Node pos="l" depth="2" NCoef="0" IVar="1" Cut="9.3787986755371094e+01" cType="1" res="-9.9000000000000000e+01" rms="0.0000000000000000e+00" purity="5.1822936534881592e-01" nType="0">
                <Node pos="l" depth="3" NCoef="0" IVar="6" Cut="1.9666848182678223e+00" cType="1" res="-9.9000000000000000e+01" rms="0.0000000000000000e+00" purity="5.5617183446884155e-01" nType="0">
                  <Node pos="l" depth="4" NCoef="0" IVar="-1" Cut="0.0000000000000000e+00" cType="1" res="-9.9000000000000000e+01" rms="0.0000000000000000e+00" purity="5.9186011552810669e-01" nType="1"/>
                  <Node pos="r" depth="4" NCoef="0" IVar="-1" Cut="0.0000000000000000e+00" cType="1" res="-9.9000000000000000e+01" rms="0.0000000000000000e+00" purity="4.8747301101684570e-01" nType="-1"/>
                </Node>
                <Node pos="r" depth="3" NCoef="0" IVar="4" Cut="1.0851216316223145e+00" cType="0" res="-9.9000000000000000e+01" rms="0.0000000000000000e+00" purity="4.9098008871078491e-01" nType="0">
                  <Node pos="l" depth="4" NCoef="0" IVar="-1" Cut="0.0000000000000000e+00" cType="1" res="-9.9000000000000000e+01" rms="0.0000000000000000e+00" purity="5.1260691881179810e-01" nType="1"/>
                  <Node pos="r" depth="4" NCoef="0" IVar="-1" Cut="0.0000000000000000e+00" cType="1" res="-9.9000000000000000e+01" rms="0.0000000000000000e+00" purity="4.6933892369270325e-01" nType="-1"/>
                </Node>
              </Node>
              <Node pos="r" depth="2" NCoef="0" IVar="-1" Cut="2.0532025146484375e+02" cType="1" res="-9.9000000000000000e+01" rms="0.0000000000000000e+00" purity="4.7090855240821838e-01" nType="-1"/>
            </Node>
            <Node pos="r" depth="1" NCoef="0" IVar="3" Cut="1.7411770629882812e+02" cType="1" res="-9.9000000000000000e+01" rms="0.0000000000000000e+00" purity="4.7770911455154419e-01" nType="0">
              <Node pos="l" depth="2" NCoef="0" IVar="4" Cut="1.4132281541824341e+00" cType="0" res="-9.9000000000000000e+01" rms="0.0000000000000000e+00" purity="4.9042961001396179e-01" nType="0">
                <Node pos="l" depth="3" NCoef="0" IVar="1" Cut="5.8704898834228516e+01" cType="0" res="-9.9000000000000000e+01" rms="0.0000000000000000e+00" purity="5.0311642885208130e-01" nType="0">
                  <Node pos="l" depth="4" NCoef="0" IVar="-1" Cut="0.0000000000000000e+00" cType="1" res="-9.9000000000000000e+01" rms="0.0000000000000000e+00" purity="5.1581722497940063e-01" nType="1"/>
                  <Node pos="r" depth="4" NCoef="0" IVar="-1" Cut="0.0000000000000000e+00" cType="1" res="-9.9000000000000000e+01" rms="0.0000000000000000e+00" purity="4.6002286672592163e-01" nType="-1"/>
                </Node>
                <Node pos="r" depth="3" NCoef="0" IVar="-1" Cut="1.4213792419433594e+02" cType="0" res="-9.9000000000000000e+01" rms="0.0000000000000000e+00" purity="4.6307718753814697e-01" nType="-1"/>
              </Node>
              <Node pos="r" depth="2" NCoef="0" IVar="-1" Cut="1.1602730751037598e+00" cType="0" res="-9.9000000000000000e+01" rms="0.0000000000000000e+00" purity="4.3071776628494263e-01" nType="-1"/>
            </Node>
          </Node>
        </BinaryTree>
        <BinaryTree type="DecisionTree" boostWeight="1.2630138428417327e-02" itree="60">
          <Node pos="s" depth="0" NCoef="0" IVar="2" Cut="1.3681138610839844e+02" cType="0" res="-9.9000000000000000e+01" rms="0.0000000000000000e+00" purity="4.9232721328735352e-01" nType="0">
            <Node pos="l" depth="1" NCoef="0" IVar="5" Cut="2.0240371227264404e+00" cType="0" res="-9.9000000000000000e+01" rms="0.0000000000000000e+00" purity="4.9903172254562378e-01" nType="0">
              <Node pos="l" depth="2" NCoef="0" IVar="-1" Cut="0.0000000000000000e+00" cType="1" res="-9.9000000000000000e+01" rms="0.0000000000000000e+00" purity="5.5194109678268433e-01" nType="1"/>
              <Node pos="r" depth="2" NCoef="0" IVar="3" Cut="2.9355950927734375e+02" cType="1" res="-9.9000000000000000e+01" rms="0.0000000000000000e+00" purity="4.9471709132194519e-01" nType="0">
                <Node pos="l" depth="3" NCoef="0" IVar="4" Cut="7.0009261369705200e-01" cType="0" res="-9.9000000000000000e+01" rms="0.0000000000000000e+00" purity="5.0100022554397583e-01" nType="0">
                  <Node pos="l" depth="4" NCoef="0" IVar="-1" Cut="0.0000000000000000e+00" cType="1" res="-9.9000000000000000e+01" rms="0.0000000000000000e+00" purity="5.0542145967483521e-01" nType="1"/>
                  <Node pos="r" depth="4" NCoef="0" IVar="-1" Cut="0.0000000000000000e+00" cType="1" res="-9.9000000000000000e+01" rms="0.0000000000000000e+00" purity="4.5452585816383362e-01" nType="-1"/>
                </Node>
                <Node pos="r" depth="3" NCoef="0" IVar="6" Cut="1.2255196571350098e+00" cType="1" res="-9.9000000000000000e+01" rms="0.0000000000000000e+00" purity="4.6671950817108154e-01" nType="0">
                  <Node pos="l" depth="4" NCoef="0" IVar="-1" Cut="0.0000000000000000e+00" cType="1" res="-9.9000000000000000e+01" rms="0.0000000000000000e+00" purity="5.0637978315353394e-01" nType="1"/>
                  <Node pos="r" depth="4" NCoef="0" IVar="-1" Cut="0.0000000000000000e+00" cType="1" res="-9.9000000000000000e+01" rms="0.0000000000000000e+00" purity="4.4219982624053955e-01" nType="-1"/>
                </Node>
              </Node>
            </Node>
            <Node pos="r" depth="1" NCoef="0" IVar="-1" Cut="8.3413665771484375e+01" cType="1" res="-9.9000000000000000e+01" rms="0.0000000000000000e+00" purity="4.5998254418373108e-01" nType="-1"/>
          </Node>
        </BinaryTree>
        <BinaryTree type="DecisionTree" boostWeight="2.0964437839079895e-02" itree="61">
          <Node pos="s" depth="0" NCoef="0" IVar="2" Cut="1.7334490966796875e+02" cType="0" res="-9.9000000000000000e+01" rms="0.0000000000000000e+00" purity="4.9115574359893799e-01" nType="0">
            <Node pos="l" depth="1" NCoef="0" IVar="6" Cut="2.3721892833709717e+00" cType="1" res="-9.9000000000000000e+01" rms="0.0000000000000000e+00" purity="5.0584280490875244e-01" nType="0">
              <Node pos="l" depth="2" NCoef="0" IVar="1" Cut="9.2600143432617188e+01" cType="1" res="-9.9000000000000000e+01" rms="0.0000000000000000e+00" purity="5.1711875200271606e-01" nType="0">
                <Node pos="l" depth="3" NCoef="0" IVar="1" Cut="7.3728706359863281e+01" cType="0" res="-9.9000000000000000e+01" rms="0.0000000000000000e+00" purity="5.4224812984466553e-01" nType="0">
                  <Node pos="l" depth="4" NCoef="0" IVar="-1" Cut="0.0000000000000000e+00" cType="1" res="-9.9000000000000000e+01" rms="0.0000000000000000e+00" purity="5.8933460712432861e-01" nType="1"/>
                  <Node pos="r" depth="4" NCoef="0" IVar="-1" Cut="0.0000000000000000e+00" cType="1" res="-9.9000000000000000e+01" rms="0.0000000000000000e+00" purity="4.9477338790893555e-01" nType="-1"/>
                </Node>
                <Node pos="r" depth="3" NCoef="0" IVar="6" Cut="1.4816468954086304e+00" cType="0" res="-9.9000000000000000e+01" rms="0.0000000000000000e+00" purity="4.8626196384429932e-01" nType="0">
                  <Node pos="l" depth="4" NCoef="0" IVar="-1" Cut="0.0000000000000000e+00" cType="1" res="-9.9000000000000000e+01" rms="0.0000000000000000e+00" purity="5.1257789134979248e-01" nType="1"/>
                  <Node pos="r" depth="4" NCoef="0" IVar="-1" Cut="0.0000000000000000e+00" cType="1" res="-9.9000000000000000e+01" rms="0.0000000000000000e+00" purity="4.6812745928764343e-01" nType="-1"/>
                </Node>
              </Node>
              <Node pos="r" depth="2" NCoef="0" IVar="-1" Cut="0.0000000000000000e+00" cType="1" res="-9.9000000000000000e+01" rms="0.0000000000000000e+00" purity="4.7126328945159912e-01" nType="-1"/>
            </Node>
            <Node pos="r" depth="1" NCoef="0" IVar="3" Cut="1.7411770629882812e+02" cType="1" res="-9.9000000000000000e+01" rms="0.0000000000000000e+00" purity="4.7806257009506226e-01" nType="0">
              <Node pos="l" depth="2" NCoef="0" IVar="1" Cut="8.1662353515625000e+01" cType="1" res="-9.9000000000000000e+01" rms="0.0000000000000000e+00" purity="4.8947662115097046e-01" nType="0">
                <Node pos="l" depth="3" NCoef="0" IVar="1" Cut="6.9142776489257812e+01" cType="0" res="-9.9000000000000000e+01" rms="0.0000000000000000e+00" purity="5.0773382186889648e-01" nType="0">
                  <Node pos="l" depth="4" NCoef="0" IVar="-1" Cut="0.0000000000000000e+00" cType="1" res="-9.9000000000000000e+01" rms="0.0000000000000000e+00" purity="5.4709398746490479e-01" nType="1"/>
                  <Node pos="r" depth="4" NCoef="0" IVar="-1" Cut="0.0000000000000000e+00" cType="1" res="-9.9000000000000000e+01" rms="0.0000000000000000e+00" purity="4.8160147666931152e-01" nType="-1"/>
                </Node>
                <Node pos="r" depth="3" NCoef="0" IVar="-1" Cut="1.3671966552734375e+02" cType="0" res="-9.9000000000000000e+01" rms="0.0000000000000000e+00" purity="4.7531720995903015e-01" nType="-1"/>
              </Node>
              <Node pos="r" depth="2" NCoef="0" IVar="-1" Cut="1.1602730751037598e+00" cType="0" res="-9.9000000000000000e+01" rms="0.0000000000000000e+00" purity="4.3586373329162598e-01" nType="-1"/>
            </Node>
          </Node>
        </BinaryTree>
        <BinaryTree type="DecisionTree" boostWeight="1.0073157207337773e-02" itree="62">
          <Node pos="s" depth="0" NCoef="0" IVar="2" Cut="2.6467874145507812e+02" cType="0" res="-9.9000000000000000e+01" rms="0.0000000000000000e+00" purity="4.9405324459075928e-01" nType="0">
            <Node pos="l" depth="1" NCoef="0" IVar="-1" Cut="0.0000000000000000e+00" cType="1" res="-9.9000000000000000e+01" rms="0.0000000000000000e+00" purity="5.4170280694961548e-01" nType="1"/>
            <Node pos="r" depth="1" NCoef="0" IVar="2" Cut="1.2035319519042969e+02" cType="0" res="-9.9000000000000000e+01" rms="0.0000000000000000e+00" purity="4.9016663432121277e-01" nType="0">
              <Node pos="l" depth="2" NCoef="0" IVar="3" Cut="3.8625894165039062e+02" cType="1" res="-9.9000000000000000e+01" rms="0.0000000000000000e+00" purity="4.9355155229568481e-01" nType="0">
                <Node pos="l" depth="3" NCoef="0" IVar="0" Cut="1.8516169738769531e+02" cType="0" res="-9.9000000000000000e+01" rms="0.0000000000000000e+00" purity="4.9715521931648254e-01" nType="0">
                  <Node pos="l" depth="4" NCoef="0" IVar="-1" Cut="0.0000000000000000e+00" cType="1" res="-9.9000000000000000e+01" rms="0.0000000000000000e+00" purity="5.3991937637329102e-01" nType="1"/>
                  <Node pos="r" depth="4" NCoef="0" IVar="-1" Cut="0.0000000000000000e+00" cType="1" res="-9.9000000000000000e+01" rms="0.0000000000000000e+00" purity="4.9393305182456970e-01" nType="-1"/>
                </Node>
                <Node pos="r" depth="3" NCoef="0" IVar="-1" Cut="0.0000000000000000e+00" cType="1" res="-9.9000000000000000e+01" rms="0.0000000000000000e+00" purity="4.3937158584594727e-01" nType="-1"/>
              </Node>
              <Node pos="r" depth="2" NCoef="0" IVar="-1" Cut="0.0000000000000000e+00" cType="1" res="-9.9000000000000000e+01" rms="0.0000000000000000e+00" purity="4.3958291411399841e-01" nType="-1"/>
            </Node>
          </Node>
        </BinaryTree>
        <BinaryTree type="DecisionTree" boostWeight="8.6284225162649338e-03" itree="63">
          <Node pos="s" depth="0" NCoef="0" IVar="1" Cut="1.4304244995117188e+02" cType="1" res="-9.9000000000000000e+01" rms="0.0000000000000000e+00" purity="4.9595269560813904e-01" nType="0">
            <Node pos="l" depth="1" NCoef="0" IVar="5" Cut="2.0240371227264404e+00" cType="0" res="-9.9000000000000000e+01" rms="0.0000000000000000e+00" purity="4.9931010603904724e-01" nType="0">
              <Node pos="l" depth="2" NCoef="0" IVar="-1" Cut="0.0000000000000000e+00" cType="1" res="-9.9000000000000000e+01" rms="0.0000000000000000e+00" purity="5.5392909049987793e-01" nType="1"/>
              <Node pos="r" depth="2" NCoef="0" IVar="5" Cut="7.7294182777404785e-01" cType="0" res="-9.9000000000000000e+01" rms="0.0000000000000000e+00" purity="4.9553123116493225e-01" nType="0">
                <Node pos="l" depth="3" NCoef="0" IVar="6" Cut="3.1600618362426758e+00" cType="1" res="-9.9000000000000000e+01" rms="0.0000000000000000e+00" purity="4.9888426065444946e-01" nType="0">
                  <Node pos="l" depth="4" NCoef="0" IVar="-1" Cut="0.0000000000000000e+00" cType="1" res="-9.9000000000000000e+01" rms="0.0000000000000000e+00" purity="5.0254547595977783e-01" nType="1"/>
                  <Node pos="r" depth="4" NCoef="0" IVar="-1" Cut="0.0000000000000000e+00" cType="1" res="-9.9000000000000000e+01" rms="0.0000000000000000e+00" purity="4.6742466092109680e-01" nType="-1"/>
                </Node>
                <Node pos="r" depth="3" NCoef="0" IVar="-1" Cut="0.0000000000000000e+00" cType="1" res="-9.9000000000000000e+01" rms="0.0000000000000000e+00" purity="4.4594842195510864e-01" nType="-1"/>
              </Node>
            </Node>
            <Node pos="r" depth="1" NCoef="0" IVar="-1" Cut="0.0000000000000000e+00" cType="1" res="-9.9000000000000000e+01" rms="0.0000000000000000e+00" purity="4.4218957424163818e-01" nType="-1"/>
          </Node>
        </BinaryTree>
        <BinaryTree type="DecisionTree" boostWeight="7.3747651949840794e-03" itree="64">
          <Node pos="s" depth="0" NCoef="0" IVar="1" Cut="1.4304244995117188e+02" cType="1" res="-9.9000000000000000e+01" rms="0.0000000000000000e+00" purity="4.9465993046760559e-01" nType="0">
            <Node pos="l" depth="1" NCoef="0" IVar="5" Cut="2.0240371227264404e+00" cType="0" res="-9.9000000000000000e+01" rms="0.0000000000000000e+00" purity="4.9780058860778809e-01" nType="0">
              <Node pos="l" depth="2" NCoef="0" IVar="-1" Cut="0.0000000000000000e+00" cType="1" res="-9.9000000000000000e+01" rms="0.0000000000000000e+00" purity="5.5179607868194580e-01" nType="1"/>
              <Node pos="r" depth="2" NCoef="0" IVar="4" Cut="2.6653203964233398e+00" cType="1" res="-9.9000000000000000e+01" rms="0.0000000000000000e+00" purity="4.9406626820564270e-01" nType="0">
                <Node pos="l" depth="3" NCoef="0" IVar="3" Cut="3.8853799438476562e+02" cType="1" res="-9.9000000000000000e+01" rms="0.0000000000000000e+00" purity="4.9719589948654175e-01" nType="0">
                  <Node pos="l" depth="4" NCoef="0" IVar="-1" Cut="0.0000000000000000e+00" cType="1" res="-9.9000000000000000e+01" rms="0.0000000000000000e+00" purity="5.0042068958282471e-01" nType="1"/>
                  <Node pos="r" depth="4" NCoef="0" IVar="-1" Cut="0.0000000000000000e+00" cType="1" res="-9.9000000000000000e+01" rms="0.0000000000000000e+00" purity="4.5773375034332275e-01" nType="-1"/>
                </Node>
                <Node pos="r" depth="3" NCoef="0" IVar="-1" Cut="0.0000000000000000e+00" cType="1" res="-9.9000000000000000e+01" rms="0.0000000000000000e+00" purity="4.4762802124023438e-01" nType="-1"/>
              </Node>
            </Node>
            <Node pos="r" depth="1" NCoef="0" IVar="-1" Cut="0.0000000000000000e+00" cType="1" res="-9.9000000000000000e+01" rms="0.0000000000000000e+00" purity="4.4435119628906250e-01" nType="-1"/>
          </Node>
        </BinaryTree>
        <BinaryTree type="DecisionTree" boostWeight="9.7989328323323886e-03" itree="65">
          <Node pos="s" depth="0" NCoef="0" IVar="5" Cut="7.9553228616714478e-01" cType="0" res="-9.9000000000000000e+01" rms="0.0000000000000000e+00" purity="4.9346649646759033e-01" nType="0">
            <Node pos="l" depth="1" NCoef="0" IVar="5" Cut="2.1439433097839355e+00" cType="0" res="-9.9000000000000000e+01" rms="0.0000000000000000e+00" purity="4.9693599343299866e-01" nType="0">
              <Node pos="l" depth="2" NCoef="0" IVar="-1" Cut="0.0000000000000000e+00" cType="1" res="-9.9000000000000000e+01" rms="0.0000000000000000e+00" purity="5.4967886209487915e-01" nType="1"/>
              <Node pos="r" depth="2" NCoef="0" IVar="3" Cut="3.8812133789062500e+02" cType="1" res="-9.9000000000000000e+01" rms="0.0000000000000000e+00" purity="4.9379149079322815e-01" nType="0">
                <Node pos="l" depth="3" NCoef="0" IVar="0" Cut="1.8968885803222656e+02" cType="0" res="-9.9000000000000000e+01" rms="0.0000000000000000e+00" purity="4.9717158079147339e-01" nType="0">
                  <Node pos="l" depth="4" NCoef="0" IVar="-1" Cut="0.0000000000000000e+00" cType="1" res="-9.9000000000000000e+01" rms="0.0000000000000000e+00" purity="5.4573804140090942e-01" nType="1"/>
                  <Node pos="r" depth="4" NCoef="0" IVar="-1" Cut="0.0000000000000000e+00" cType="1" res="-9.9000000000000000e+01" rms="0.0000000000000000e+00" purity="4.9394562840461731e-01" nType="-1"/>
                </Node>
                <Node pos="r" depth="3" NCoef="0" IVar="-1" Cut="0.0000000000000000e+00" cType="1" res="-9.9000000000000000e+01" rms="0.0000000000000000e+00" purity="4.5386916399002075e-01" nType="-1"/>
              </Node>
            </Node>
            <Node pos="r" depth="1" NCoef="0" IVar="-1" Cut="0.0000000000000000e+00" cType="1" res="-9.9000000000000000e+01" rms="0.0000000000000000e+00" purity="4.4849401712417603e-01" nType="-1"/>
          </Node>
        </BinaryTree>
        <BinaryTree type="DecisionTree" boostWeight="1.0568286156775490e-02" itree="66">
          <Node pos="s" depth="0" NCoef="0" IVar="5" Cut="7.9553228616714478e-01" cType="0" res="-9.9000000000000000e+01" rms="0.0000000000000000e+00" purity="4.9546059966087341e-01" nType="0">
            <Node pos="l" depth="1" NCoef="0" IVar="5" Cut="2.1439433097839355e+00" cType="0" res="-9.9000000000000000e+01" rms="0.0000000000000000e+00" purity="4.9889481067657471e-01" nType="0">
              <Node pos="l" depth="2" NCoef="0" IVar="-1" Cut="0.0000000000000000e+00" cType="1" res="-9.9000000000000000e+01" rms="0.0000000000000000e+00" purity="5.4725217819213867e-01" nType="1"/>
              <Node pos="r" depth="2" NCoef="0" IVar="3" Cut="3.8812133789062500e+02" cType="1" res="-9.9000000000000000e+01" rms="0.0000000000000000e+00" purity="4.9601316452026367e-01" nType="0">
                <Node pos="l" depth="3" NCoef="0" IVar="5" Cut="1.2761437892913818e+00" cType="0" res="-9.9000000000000000e+01" rms="0.0000000000000000e+00" purity="4.9936833977699280e-01" nType="0">
                  <Node pos="l" depth="4" NCoef="0" IVar="-1" Cut="0.0000000000000000e+00" cType="1" res="-9.9000000000000000e+01" rms="0.0000000000000000e+00" purity="5.1822918653488159e-01" nType="1"/>
                  <Node pos="r" depth="4" NCoef="0" IVar="-1" Cut="0.0000000000000000e+00" cType="1" res="-9.9000000000000000e+01" rms="0.0000000000000000e+00" purity="4.9217337369918823e-01" nType="-1"/>
                </Node>
                <Node pos="r" depth="3" NCoef="0" IVar="-1" Cut="0.0000000000000000e+00" cType="1" res="-9.9000000000000000e+01" rms="0.0000000000000000e+00" purity="4.5637059211730957e-01" nType="-1"/>
              </Node>
            </Node>
            <Node pos="r" depth="1" NCoef="0" IVar="-1" Cut="0.0000000000000000e+00" cType="1" res="-9.9000000000000000e+01" rms="0.0000000000000000e+00" purity="4.5092552900314331e-01" nType="-1"/>
          </Node>
        </BinaryTree>
        <BinaryTree type="DecisionTree" boostWeight="1.1286985637580297e-02" itree="67">
          <Node pos="s" depth="0" NCoef="0" IVar="5" Cut="7.9553228616714478e-01" cType="0" res="-9.9000000000000000e+01" rms="0.0000000000000000e+00" purity="4.9667179584503174e-01" nType="0">
            <Node pos="l" depth="1" NCoef="0" IVar="1" Cut="4.0698322296142578e+01" cType="0" res="-9.9000000000000000e+01" rms="0.0000000000000000e+00" purity="4.9999567866325378e-01" nType="0">
              <Node pos="l" depth="2" NCoef="0" IVar="1" Cut="8.7926437377929688e+01" cType="1" res="-9.9000000000000000e+01" rms="0.0000000000000000e+00" purity="5.0275707244873047e-01" nType="0">
                <Node pos="l" depth="3" NCoef="0" IVar="-1" Cut="1.8355857849121094e+02" cType="0" res="-9.9000000000000000e+01" rms="0.0000000000000000e+00" purity="5.1857584714889526e-01" nType="1"/>
                <Node pos="r" depth="3" NCoef="0" IVar="-1" Cut="1.3713977050781250e+02" cType="0" res="-9.9000000000000000e+01" rms="0.0000000000000000e+00" purity="4.8836725950241089e-01" nType="-1"/>
              </Node>
              <Node pos="r" depth="2" NCoef="0" IVar="-1" Cut="0.0000000000000000e+00" cType="1" res="-9.9000000000000000e+01" rms="0.0000000000000000e+00" purity="4.5530053973197937e-01" nType="-1"/>
            </Node>
            <Node pos="r" depth="1" NCoef="0" IVar="-1" Cut="0.0000000000000000e+00" cType="1" res="-9.9000000000000000e+01" rms="0.0000000000000000e+00" purity="4.5355042815208435e-01" nType="-1"/>
          </Node>
        </BinaryTree>
        <BinaryTree type="DecisionTree" boostWeight="1.5112355256437150e-02" itree="68">
          <Node pos="s" depth="0" NCoef="0" IVar="2" Cut="1.3681138610839844e+02" cType="0" res="-9.9000000000000000e+01" rms="0.0000000000000000e+00" purity="4.9718794226646423e-01" nType="0">
            <Node pos="l" depth="1" NCoef="0" IVar="1" Cut="6.6367286682128906e+01" cType="0" res="-9.9000000000000000e+01" rms="0.0000000000000000e+00" purity="5.0240772962570190e-01" nType="0">
              <Node pos="l" depth="2" NCoef="0" IVar="2" Cut="2.3230499267578125e+02" cType="0" res="-9.9000000000000000e+01" rms="0.0000000000000000e+00" purity="5.0900816917419434e-01" nType="0">
                <Node pos="l" depth="3" NCoef="0" IVar="-1" Cut="9.2778335571289062e+01" cType="1" res="-9.9000000000000000e+01" rms="0.0000000000000000e+00" purity="5.4995185136795044e-01" nType="1"/>
                <Node pos="r" depth="3" NCoef="0" IVar="3" Cut="2.3826977539062500e+02" cType="1" res="-9.9000000000000000e+01" rms="0.0000000000000000e+00" purity="5.0113457441329956e-01" nType="0">
                  <Node pos="l" depth="4" NCoef="0" IVar="-1" Cut="0.0000000000000000e+00" cType="1" res="-9.9000000000000000e+01" rms="0.0000000000000000e+00" purity="5.1176977157592773e-01" nType="1"/>
                  <Node pos="r" depth="4" NCoef="0" IVar="-1" Cut="0.0000000000000000e+00" cType="1" res="-9.9000000000000000e+01" rms="0.0000000000000000e+00" purity="4.6429291367530823e-01" nType="-1"/>
                </Node>
              </Node>
              <Node pos="r" depth="2" NCoef="0" IVar="2" Cut="1.9761955261230469e+02" cType="1" res="-9.9000000000000000e+01" rms="0.0000000000000000e+00" purity="4.7754484415054321e-01" nType="0">
                <Node pos="l" depth="3" NCoef="0" IVar="4" Cut="2.0668668746948242e+00" cType="1" res="-9.9000000000000000e+01" rms="0.0000000000000000e+00" purity="4.9224892258644104e-01" nType="0">
                  <Node pos="l" depth="4" NCoef="0" IVar="-1" Cut="0.0000000000000000e+00" cType="1" res="-9.9000000000000000e+01" rms="0.0000000000000000e+00" purity="5.1157158613204956e-01" nType="1"/>
                  <Node pos="r" depth="4" NCoef="0" IVar="-1" Cut="0.0000000000000000e+00" cType="1" res="-9.9000000000000000e+01" rms="0.0000000000000000e+00" purity="4.7340625524520874e-01" nType="-1"/>
                </Node>
                <Node pos="r" depth="3" NCoef="0" IVar="-1" Cut="0.0000000000000000e+00" cType="1" res="-9.9000000000000000e+01" rms="0.0000000000000000e+00" purity="4.4563421607017517e-01" nType="-1"/>
              </Node>
            </Node>
            <Node pos="r" depth="1" NCoef="0" IVar="0" Cut="4.8797157287597656e+01" cType="0" res="-9.9000000000000000e+01" rms="0.0000000000000000e+00" purity="4.7195440530776978e-01" nType="0">
              <Node pos="l" depth="2" NCoef="0" IVar="-1" Cut="0.0000000000000000e+00" cType="1" res="-9.9000000000000000e+01" rms="0.0000000000000000e+00" purity="5.0201529264450073e-01" nType="1"/>
              <Node pos="r" depth="2" NCoef="0" IVar="-1" Cut="0.0000000000000000e+00" cType="1" res="-9.9000000000000000e+01" rms="0.0000000000000000e+00" purity="4.2739993333816528e-01" nType="-1"/>
            </Node>
          </Node>
        </BinaryTree>
        <BinaryTree type="DecisionTree" boostWeight="1.5752191736037684e-02" itree="69">
          <Node pos="s" depth="0" NCoef="0" IVar="2" Cut="1.5507814025878906e+02" cType="0" res="-9.9000000000000000e+01" rms="0.0000000000000000e+00" purity="4.9576804041862488e-01" nType="0">
            <Node pos="l" depth="1" NCoef="0" IVar="4" Cut="2.2555382251739502e+00" cType="1" res="-9.9000000000000000e+01" rms="0.0000000000000000e+00" purity="5.0410205125808716e-01" nType="0">
              <Node pos="l" depth="2" NCoef="0" IVar="1" Cut="1.2663973236083984e+02" cType="1" res="-9.9000000000000000e+01" rms="0.0000000000000000e+00" purity="5.0932091474533081e-01" nType="0">
                <Node pos="l" depth="3" NCoef="0" IVar="-1" Cut="1.7798280715942383e+00" cType="0" res="-9.9000000000000000e+01" rms="0.0000000000000000e+00" purity="5.1542854309082031e-01" nType="1"/>
                <Node pos="r" depth="3" NCoef="0" IVar="-1" Cut="0.0000000000000000e+00" cType="1" res="-9.9000000000000000e+01" rms="0.0000000000000000e+00" purity="4.7692412137985229e-01" nType="-1"/>
              </Node>
              <Node pos="r" depth="2" NCoef="0" IVar="-1" Cut="0.0000000000000000e+00" cType="1" res="-9.9000000000000000e+01" rms="0.0000000000000000e+00" purity="4.6061435341835022e-01" nType="-1"/>
            </Node>
            <Node pos="r" depth="1" NCoef="0" IVar="3" Cut="1.5337438964843750e+02" cType="1" res="-9.9000000000000000e+01" rms="0.0000000000000000e+00" purity="4.7994592785835266e-01" nType="0">
              <Node pos="l" depth="2" NCoef="0" IVar="1" Cut="8.1662353515625000e+01" cType="1" res="-9.9000000000000000e+01" rms="0.0000000000000000e+00" purity="4.9583148956298828e-01" nType="0">
                <Node pos="l" depth="3" NCoef="0" IVar="1" Cut="6.6507141113281250e+01" cType="0" res="-9.9000000000000000e+01" rms="0.0000000000000000e+00" purity="5.2172362804412842e-01" nType="0">
                  <Node pos="l" depth="4" NCoef="0" IVar="-1" Cut="0.0000000000000000e+00" cType="1" res="-9.9000000000000000e+01" rms="0.0000000000000000e+00" purity="5.4922670125961304e-01" nType="1"/>
                  <Node pos="r" depth="4" NCoef="0" IVar="-1" Cut="0.0000000000000000e+00" cType="1" res="-9.9000000000000000e+01" rms="0.0000000000000000e+00" purity="4.9685847759246826e-01" nType="-1"/>
                </Node>
                <Node pos="r" depth="3" NCoef="0" IVar="4" Cut="1.7836524248123169e+00" cType="0" res="-9.9000000000000000e+01" rms="0.0000000000000000e+00" purity="4.7351562976837158e-01" nType="0">
                  <Node pos="l" depth="4" NCoef="0" IVar="-1" Cut="0.0000000000000000e+00" cType="1" res="-9.9000000000000000e+01" rms="0.0000000000000000e+00" purity="5.1012873649597168e-01" nType="1"/>
                  <Node pos="r" depth="4" NCoef="0" IVar="-1" Cut="0.0000000000000000e+00" cType="1" res="-9.9000000000000000e+01" rms="0.0000000000000000e+00" purity="4.4835352897644043e-01" nType="-1"/>
                </Node>
              </Node>
              <Node pos="r" depth="2" NCoef="0" IVar="-1" Cut="0.0000000000000000e+00" cType="1" res="-9.9000000000000000e+01" rms="0.0000000000000000e+00" purity="4.3029707670211792e-01" nType="-1"/>
            </Node>
          </Node>
        </BinaryTree>
        <BinaryTree type="DecisionTree" boostWeight="1.5441746973488201e-02" itree="70">
          <Node pos="s" depth="0" NCoef="0" IVar="4" Cut="5.9698092937469482e-01" cType="0" res="-9.9000000000000000e+01" rms="0.0000000000000000e+00" purity="4.9494078755378723e-01" nType="0">
            <Node pos="l" depth="1" NCoef="0" IVar="2" Cut="2.0638891601562500e+02" cType="0" res="-9.9000000000000000e+01" rms="0.0000000000000000e+00" purity="4.9784386157989502e-01" nType="0">
              <Node pos="l" depth="2" NCoef="0" IVar="6" Cut="1.6856951713562012e+00" cType="1" res="-9.9000000000000000e+01" rms="0.0000000000000000e+00" purity="5.2228569984436035e-01" nType="0">
                <Node pos="l" depth="3" NCoef="0" IVar="-1" Cut="9.2382362365722656e+01" cType="1" res="-9.9000000000000000e+01" rms="0.0000000000000000e+00" purity="5.5151104927062988e-01" nType="1"/>
                <Node pos="r" depth="3" NCoef="0" IVar="-1" Cut="0.0000000000000000e+00" cType="1" res="-9.9000000000000000e+01" rms="0.0000000000000000e+00" purity="4.5309767127037048e-01" nType="-1"/>
              </Node>
              <Node pos="r" depth="2" NCoef="0" IVar="3" Cut="1.9486100769042969e+02" cType="1" res="-9.9000000000000000e+01" rms="0.0000000000000000e+00" purity="4.9154442548751831e-01" nType="0">
                <Node pos="l" depth="3" NCoef="0" IVar="6" Cut="3.2575182914733887e+00" cType="1" res="-9.9000000000000000e+01" rms="0.0000000000000000e+00" purity="5.0147724151611328e-01" nType="0">
                  <Node pos="l" depth="4" NCoef="0" IVar="-1" Cut="0.0000000000000000e+00" cType="1" res="-9.9000000000000000e+01" rms="0.0000000000000000e+00" purity="5.0713640451431274e-01" nType="1"/>
                  <Node pos="r" depth="4" NCoef="0" IVar="-1" Cut="0.0000000000000000e+00" cType="1" res="-9.9000000000000000e+01" rms="0.0000000000000000e+00" purity="4.5738691091537476e-01" nType="-1"/>
                </Node>
                <Node pos="r" depth="3" NCoef="0" IVar="-1" Cut="1.0518707036972046e+00" cType="0" res="-9.9000000000000000e+01" rms="0.0000000000000000e+00" purity="4.6687632799148560e-01" nType="-1"/>
              </Node>
            </Node>
            <Node pos="r" depth="1" NCoef="0" IVar="-1" Cut="0.0000000000000000e+00" cType="1" res="-9.9000000000000000e+01" rms="0.0000000000000000e+00" purity="4.5077013969421387e-01" nType="-1"/>
          </Node>
        </BinaryTree>
        <BinaryTree type="DecisionTree" boostWeight="6.7803080854972756e-03" itree="71">
          <Node pos="s" depth="0" NCoef="0" IVar="5" Cut="7.9553228616714478e-01" cType="0" res="-9.9000000000000000e+01" rms="0.0000000000000000e+00" purity="4.9416702985763550e-01" nType="0">
            <Node pos="l" depth="1" NCoef="0" IVar="5" Cut="2.1439433097839355e+00" cType="0" res="-9.9000000000000000e+01" rms="0.0000000000000000e+00" purity="4.9728170037269592e-01" nType="0">
              <Node pos="l" depth="2" NCoef="0" IVar="-1" Cut="0.0000000000000000e+00" cType="1" res="-9.9000000000000000e+01" rms="0.0000000000000000e+00" purity="5.4240322113037109e-01" nType="1"/>
              <Node pos="r" depth="2" NCoef="0" IVar="3" Cut="3.8812133789062500e+02" cType="1" res="-9.9000000000000000e+01" rms="0.0000000000000000e+00" purity="4.9459618330001831e-01" nType="0">
                <Node pos="l" depth="3" NCoef="0" IVar="6" Cut="9.8006039857864380e-01" cType="0" res="-9.9000000000000000e+01" rms="0.0000000000000000e+00" purity="4.9776360392570496e-01" nType="0">
                  <Node pos="l" depth="4" NCoef="0" IVar="-1" Cut="0.0000000000000000e+00" cType="1" res="-9.9000000000000000e+01" rms="0.0000000000000000e+00" purity="5.0069367885589600e-01" nType="1"/>
                  <Node pos="r" depth="4" NCoef="0" IVar="-1" Cut="0.0000000000000000e+00" cType="1" res="-9.9000000000000000e+01" rms="0.0000000000000000e+00" purity="4.5911785960197449e-01" nType="-1"/>
                </Node>
                <Node pos="r" depth="3" NCoef="0" IVar="-1" Cut="0.0000000000000000e+00" cType="1" res="-9.9000000000000000e+01" rms="0.0000000000000000e+00" purity="4.5715525746345520e-01" nType="-1"/>
              </Node>
            </Node>
            <Node pos="r" depth="1" NCoef="0" IVar="-1" Cut="0.0000000000000000e+00" cType="1" res="-9.9000000000000000e+01" rms="0.0000000000000000e+00" purity="4.5368611812591553e-01" nType="-1"/>
          </Node>
        </BinaryTree>
        <BinaryTree type="DecisionTree" boostWeight="1.6839580302200199e-02" itree="72">
          <Node pos="s" depth="0" NCoef="0" IVar="2" Cut="1.7334490966796875e+02" cType="0" res="-9.9000000000000000e+01" rms="0.0000000000000000e+00" purity="4.9314212799072266e-01" nType="0">
            <Node pos="l" depth="1" NCoef="0" IVar="1" Cut="7.0817687988281250e+01" cType="0" res="-9.9000000000000000e+01" rms="0.0000000000000000e+00" purity="5.0477635860443115e-01" nType="0">
              <Node pos="l" depth="2" NCoef="0" IVar="1" Cut="9.3787986755371094e+01" cType="1" res="-9.9000000000000000e+01" rms="0.0000000000000000e+00" purity="5.1385563611984253e-01" nType="0">
                <Node pos="l" depth="3" NCoef="0" IVar="6" Cut="1.9666848182678223e+00" cType="1" res="-9.9000000000000000e+01" rms="0.0000000000000000e+00" purity="5.4350620508193970e-01" nType="0">
                  <Node pos="l" depth="4" NCoef="0" IVar="-1" Cut="0.0000000000000000e+00" cType="1" res="-9.9000000000000000e+01" rms="0.0000000000000000e+00" purity="5.7135695219039917e-01" nType="1"/>
                  <Node pos="r" depth="4" NCoef="0" IVar="-1" Cut="0.0000000000000000e+00" cType="1" res="-9.9000000000000000e+01" rms="0.0000000000000000e+00" purity="4.9038362503051758e-01" nType="-1"/>
                </Node>
                <Node pos="r" depth="3" NCoef="0" IVar="0" Cut="1.4174649047851562e+02" cType="1" res="-9.9000000000000000e+01" rms="0.0000000000000000e+00" purity="4.9268439412117004e-01" nType="0">
                  <Node pos="l" depth="4" NCoef="0" IVar="-1" Cut="0.0000000000000000e+00" cType="1" res="-9.9000000000000000e+01" rms="0.0000000000000000e+00" purity="5.0548571348190308e-01" nType="1"/>
                  <Node pos="r" depth="4" NCoef="0" IVar="-1" Cut="0.0000000000000000e+00" cType="1" res="-9.9000000000000000e+01" rms="0.0000000000000000e+00" purity="4.6737128496170044e-01" nType="-1"/>
                </Node>
              </Node>
              <Node pos="r" depth="2" NCoef="0" IVar="2" Cut="2.0532025146484375e+02" cType="1" res="-9.9000000000000000e+01" rms="0.0000000000000000e+00" purity="4.7678261995315552e-01" nType="0">
                <Node pos="l" depth="3" NCoef="0" IVar="-1" Cut="0.0000000000000000e+00" cType="1" res="-9.9000000000000000e+01" rms="0.0000000000000000e+00" purity="5.0583916902542114e-01" nType="1"/>
                <Node pos="r" depth="3" NCoef="0" IVar="-1" Cut="0.0000000000000000e+00" cType="1" res="-9.9000000000000000e+01" rms="0.0000000000000000e+00" purity="4.4553649425506592e-01" nType="-1"/>
              </Node>
            </Node>
            <Node pos="r" depth="1" NCoef="0" IVar="3" Cut="1.7411770629882812e+02" cType="1" res="-9.9000000000000000e+01" rms="0.0000000000000000e+00" purity="4.8276755213737488e-01" nType="0">
              <Node pos="l" depth="2" NCoef="0" IVar="4" Cut="1.4132281541824341e+00" cType="0" res="-9.9000000000000000e+01" rms="0.0000000000000000e+00" purity="4.9244084954261780e-01" nType="0">
                <Node pos="l" depth="3" NCoef="0" IVar="6" Cut="3.1207540035247803e+00" cType="1" res="-9.9000000000000000e+01" rms="0.0000000000000000e+00" purity="5.0255548954010010e-01" nType="0">
                  <Node pos="l" depth="4" NCoef="0" IVar="-1" Cut="0.0000000000000000e+00" cType="1" res="-9.9000000000000000e+01" rms="0.0000000000000000e+00" purity="5.1161062717437744e-01" nType="1"/>
                  <Node pos="r" depth="4" NCoef="0" IVar="-1" Cut="0.0000000000000000e+00" cType="1" res="-9.9000000000000000e+01" rms="0.0000000000000000e+00" purity="4.7225761413574219e-01" nType="-1"/>
                </Node>
                <Node pos="r" depth="3" NCoef="0" IVar="-1" Cut="1.4213792419433594e+02" cType="0" res="-9.9000000000000000e+01" rms="0.0000000000000000e+00" purity="4.7062700986862183e-01" nType="-1"/>
              </Node>
              <Node pos="r" depth="2" NCoef="0" IVar="-1" Cut="1.1602730751037598e+00" cType="0" res="-9.9000000000000000e+01" rms="0.0000000000000000e+00" purity="4.4693699479103088e-01" nType="-1"/>
            </Node>
          </Node>
        </BinaryTree>
        <BinaryTree type="DecisionTree" boostWeight="9.2011605432203228e-03" itree="73">
          <Node pos="s" depth="0" NCoef="0" IVar="0" Cut="2.5233226013183594e+02" cType="0" res="-9.9000000000000000e+01" rms="0.0000000000000000e+00" purity="4.9309828877449036e-01" nType="0">
            <Node pos="l" depth="1" NCoef="0" IVar="-1" Cut="0.0000000000000000e+00" cType="1" res="-9.9000000000000000e+01" rms="0.0000000000000000e+00" purity="5.3995561599731445e-01" nType="1"/>
            <Node pos="r" depth="1" NCoef="0" IVar="5" Cut="8.1352460384368896e-01" cType="0" res="-9.9000000000000000e+01" rms="0.0000000000000000e+00" purity="4.9056771397590637e-01" nType="0">
              <Node pos="l" depth="2" NCoef="0" IVar="4" Cut="6.3019782304763794e-01" cType="0" res="-9.9000000000000000e+01" rms="0.0000000000000000e+00" purity="4.9405696988105774e-01" nType="0">
                <Node pos="l" depth="3" NCoef="0" IVar="5" Cut="1.3912345170974731e+00" cType="0" res="-9.9000000000000000e+01" rms="0.0000000000000000e+00" purity="4.9640834331512451e-01" nType="0">
                  <Node pos="l" depth="4" NCoef="0" IVar="-1" Cut="0.0000000000000000e+00" cType="1" res="-9.9000000000000000e+01" rms="0.0000000000000000e+00" purity="5.1336383819580078e-01" nType="1"/>
                  <Node pos="r" depth="4" NCoef="0" IVar="-1" Cut="0.0000000000000000e+00" cType="1" res="-9.9000000000000000e+01" rms="0.0000000000000000e+00" purity="4.9214130640029907e-01" nType="-1"/>
                </Node>
                <Node pos="r" depth="3" NCoef="0" IVar="-1" Cut="0.0000000000000000e+00" cType="1" res="-9.9000000000000000e+01" rms="0.0000000000000000e+00" purity="4.6258407831192017e-01" nType="-1"/>
              </Node>
              <Node pos="r" depth="2" NCoef="0" IVar="-1" Cut="0.0000000000000000e+00" cType="1" res="-9.9000000000000000e+01" rms="0.0000000000000000e+00" purity="4.5366862416267395e-01" nType="-1"/>
            </Node>
          </Node>
        </BinaryTree>
        <BinaryTree type="DecisionTree" boostWeight="7.0995961719582971e-03" itree="74">
          <Node pos="s" depth="0" NCoef="0" IVar="1" Cut="1.4304244995117188e+02" cType="1" res="-9.9000000000000000e+01" rms="0.0000000000000000e+00" purity="4.9444094300270081e-01" nType="0">
            <Node pos="l" depth="1" NCoef="0" IVar="2" Cut="2.6467874145507812e+02" cType="0" res="-9.9000000000000000e+01" rms="0.0000000000000000e+00" purity="4.9705532193183899e-01" nType="0">
              <Node pos="l" depth="2" NCoef="0" IVar="-1" Cut="0.0000000000000000e+00" cType="1" res="-9.9000000000000000e+01" rms="0.0000000000000000e+00" purity="5.3804701566696167e-01" nType="1"/>
              <Node pos="r" depth="2" NCoef="0" IVar="2" Cut="1.2035319519042969e+02" cType="0" res="-9.9000000000000000e+01" rms="0.0000000000000000e+00" purity="4.9371170997619629e-01" nType="0">
                <Node pos="l" depth="3" NCoef="0" IVar="3" Cut="2.9626565551757812e+02" cType="1" res="-9.9000000000000000e+01" rms="0.0000000000000000e+00" purity="4.9641126394271851e-01" nType="0">
                  <Node pos="l" depth="4" NCoef="0" IVar="-1" Cut="0.0000000000000000e+00" cType="1" res="-9.9000000000000000e+01" rms="0.0000000000000000e+00" purity="5.0062280893325806e-01" nType="1"/>
                  <Node pos="r" depth="4" NCoef="0" IVar="-1" Cut="0.0000000000000000e+00" cType="1" res="-9.9000000000000000e+01" rms="0.0000000000000000e+00" purity="4.7143542766571045e-01" nType="-1"/>
                </Node>
                <Node pos="r" depth="3" NCoef="0" IVar="-1" Cut="0.0000000000000000e+00" cType="1" res="-9.9000000000000000e+01" rms="0.0000000000000000e+00" purity="4.5328196883201599e-01" nType="-1"/>
              </Node>
            </Node>
            <Node pos="r" depth="1" NCoef="0" IVar="-1" Cut="0.0000000000000000e+00" cType="1" res="-9.9000000000000000e+01" rms="0.0000000000000000e+00" purity="4.5252016186714172e-01" nType="-1"/>
          </Node>
        </BinaryTree>
        <BinaryTree type="DecisionTree" boostWeight="1.2674897728720070e-02" itree="75">
          <Node pos="s" depth="0" NCoef="0" IVar="1" Cut="4.0698322296142578e+01" cType="0" res="-9.9000000000000000e+01" rms="0.0000000000000000e+00" purity="4.9349355697631836e-01" nType="0">
            <Node pos="l" depth="1" NCoef="0" IVar="1" Cut="8.7926437377929688e+01" cType="1" res="-9.9000000000000000e+01" rms="0.0000000000000000e+00" purity="4.9608537554740906e-01" nType="0">
              <Node pos="l" depth="2" NCoef="0" IVar="0" Cut="1.8355857849121094e+02" cType="0" res="-9.9000000000000000e+01" rms="0.0000000000000000e+00" purity="5.0912797451019287e-01" nType="0">
                <Node pos="l" depth="3" NCoef="0" IVar="-1" Cut="0.0000000000000000e+00" cType="1" res="-9.9000000000000000e+01" rms="0.0000000000000000e+00" purity="5.6588113307952881e-01" nType="1"/>
                <Node pos="r" depth="3" NCoef="0" IVar="3" Cut="1.4801332092285156e+02" cType="1" res="-9.9000000000000000e+01" rms="0.0000000000000000e+00" purity="4.9971476197242737e-01" nType="0">
                  <Node pos="l" depth="4" NCoef="0" IVar="-1" Cut="0.0000000000000000e+00" cType="1" res="-9.9000000000000000e+01" rms="0.0000000000000000e+00" purity="5.2914553880691528e-01" nType="1"/>
                  <Node pos="r" depth="4" NCoef="0" IVar="-1" Cut="0.0000000000000000e+00" cType="1" res="-9.9000000000000000e+01" rms="0.0000000000000000e+00" purity="4.8822772502899170e-01" nType="-1"/>
                </Node>
              </Node>
              <Node pos="r" depth="2" NCoef="0" IVar="-1" Cut="1.3713977050781250e+02" cType="0" res="-9.9000000000000000e+01" rms="0.0000000000000000e+00" purity="4.8436641693115234e-01" nType="-1"/>
            </Node>
            <Node pos="r" depth="1" NCoef="0" IVar="-1" Cut="0.0000000000000000e+00" cType="1" res="-9.9000000000000000e+01" rms="0.0000000000000000e+00" purity="4.5183491706848145e-01" nType="-1"/>
          </Node>
        </BinaryTree>
        <BinaryTree type="DecisionTree" boostWeight="1.2824274128200495e-02" itree="76">
          <Node pos="s" depth="0" NCoef="0" IVar="2" Cut="1.3681138610839844e+02" cType="0" res="-9.9000000000000000e+01" rms="0.0000000000000000e+00" purity="4.9565345048904419e-01" nType="0">
            <Node pos="l" depth="1" NCoef="0" IVar="1" Cut="6.6367286682128906e+01" cType="0" res="-9.9000000000000000e+01" rms="0.0000000000000000e+00" purity="5.0054740905761719e-01" nType="0">
              <Node pos="l" depth="2" NCoef="0" IVar="2" Cut="2.0626129150390625e+02" cType="0" res="-9.9000000000000000e+01" rms="0.0000000000000000e+00" purity="5.0654858350753784e-01" nType="0">
                <Node pos="l" depth="3" NCoef="0" IVar="-1" Cut="1.7953947782516479e+00" cType="0" res="-9.9000000000000000e+01" rms="0.0000000000000000e+00" purity="5.3279787302017212e-01" nType="1"/>
                <Node pos="r" depth="3" NCoef="0" IVar="6" Cut="1.4645050764083862e+00" cType="0" res="-9.9000000000000000e+01" rms="0.0000000000000000e+00" purity="4.9657177925109863e-01" nType="0">
                  <Node pos="l" depth="4" NCoef="0" IVar="-1" Cut="0.0000000000000000e+00" cType="1" res="-9.9000000000000000e+01" rms="0.0000000000000000e+00" purity="5.0664460659027100e-01" nType="1"/>
                  <Node pos="r" depth="4" NCoef="0" IVar="-1" Cut="0.0000000000000000e+00" cType="1" res="-9.9000000000000000e+01" rms="0.0000000000000000e+00" purity="4.4997918605804443e-01" nType="-1"/>
                </Node>
              </Node>
              <Node pos="r" depth="2" NCoef="0" IVar="-1" Cut="1.9086454772949219e+02" cType="1" res="-9.9000000000000000e+01" rms="0.0000000000000000e+00" purity="4.7796013951301575e-01" nType="-1"/>
            </Node>
            <Node pos="r" depth="1" NCoef="0" IVar="-1" Cut="9.8948127031326294e-01" cType="0" res="-9.9000000000000000e+01" rms="0.0000000000000000e+00" purity="4.7196069359779358e-01" nType="-1"/>
          </Node>
        </BinaryTree>
        <BinaryTree type="DecisionTree" boostWeight="7.4899392749999110e-03" itree="77">
          <Node pos="s" depth="0" NCoef="0" IVar="5" Cut="7.9553228616714478e-01" cType="0" res="-9.9000000000000000e+01" rms="0.0000000000000000e+00" purity="4.9523258209228516e-01" nType="0">
            <Node pos="l" depth="1" NCoef="0" IVar="5" Cut="2.1439433097839355e+00" cType="0" res="-9.9000000000000000e+01" rms="0.0000000000000000e+00" purity="4.9810200929641724e-01" nType="0">
              <Node pos="l" depth="2" NCoef="0" IVar="-1" Cut="0.0000000000000000e+00" cType="1" res="-9.9000000000000000e+01" rms="0.0000000000000000e+00" purity="5.3966319561004639e-01" nType="1"/>
              <Node pos="r" depth="2" NCoef="0" IVar="3" Cut="3.8812133789062500e+02" cType="1" res="-9.9000000000000000e+01" rms="0.0000000000000000e+00" purity="4.9562948942184448e-01" nType="0">
                <Node pos="l" depth="3" NCoef="0" IVar="0" Cut="1.8968885803222656e+02" cType="0" res="-9.9000000000000000e+01" rms="0.0000000000000000e+00" purity="4.9856662750244141e-01" nType="0">
                  <Node pos="l" depth="4" NCoef="0" IVar="-1" Cut="0.0000000000000000e+00" cType="1" res="-9.9000000000000000e+01" rms="0.0000000000000000e+00" purity="5.3561973571777344e-01" nType="1"/>
                  <Node pos="r" depth="4" NCoef="0" IVar="-1" Cut="0.0000000000000000e+00" cType="1" res="-9.9000000000000000e+01" rms="0.0000000000000000e+00" purity="4.9611222743988037e-01" nType="-1"/>
                </Node>
                <Node pos="r" depth="3" NCoef="0" IVar="-1" Cut="0.0000000000000000e+00" cType="1" res="-9.9000000000000000e+01" rms="0.0000000000000000e+00" purity="4.6088221669197083e-01" nType="-1"/>
              </Node>
            </Node>
            <Node pos="r" depth="1" NCoef="0" IVar="-1" Cut="0.0000000000000000e+00" cType="1" res="-9.9000000000000000e+01" rms="0.0000000000000000e+00" purity="4.5788186788558960e-01" nType="-1"/>
          </Node>
        </BinaryTree>
        <BinaryTree type="DecisionTree" boostWeight="1.0866823819366708e-02" itree="78">
          <Node pos="s" depth="0" NCoef="0" IVar="5" Cut="7.9553228616714478e-01" cType="0" res="-9.9000000000000000e+01" rms="0.0000000000000000e+00" purity="4.9675330519676208e-01" nType="0">
            <Node pos="l" depth="1" NCoef="0" IVar="4" Cut="5.9540402889251709e-01" cType="0" res="-9.9000000000000000e+01" rms="0.0000000000000000e+00" purity="4.9959546327590942e-01" nType="0">
              <Node pos="l" depth="2" NCoef="0" IVar="6" Cut="1.2222827672958374e+00" cType="1" res="-9.9000000000000000e+01" rms="0.0000000000000000e+00" purity="5.0202226638793945e-01" nType="0">
                <Node pos="l" depth="3" NCoef="0" IVar="2" Cut="2.1451867675781250e+02" cType="0" res="-9.9000000000000000e+01" rms="0.0000000000000000e+00" purity="5.2772521972656250e-01" nType="0">
                  <Node pos="l" depth="4" NCoef="0" IVar="-1" Cut="0.0000000000000000e+00" cType="1" res="-9.9000000000000000e+01" rms="0.0000000000000000e+00" purity="5.7349514961242676e-01" nType="1"/>
                  <Node pos="r" depth="4" NCoef="0" IVar="-1" Cut="0.0000000000000000e+00" cType="1" res="-9.9000000000000000e+01" rms="0.0000000000000000e+00" purity="4.7232294082641602e-01" nType="-1"/>
                </Node>
                <Node pos="r" depth="3" NCoef="0" IVar="3" Cut="3.1861987304687500e+02" cType="1" res="-9.9000000000000000e+01" rms="0.0000000000000000e+00" purity="4.9741777777671814e-01" nType="0">
                  <Node pos="l" depth="4" NCoef="0" IVar="-1" Cut="0.0000000000000000e+00" cType="1" res="-9.9000000000000000e+01" rms="0.0000000000000000e+00" purity="5.0320822000503540e-01" nType="1"/>
                  <Node pos="r" depth="4" NCoef="0" IVar="-1" Cut="0.0000000000000000e+00" cType="1" res="-9.9000000000000000e+01" rms="0.0000000000000000e+00" purity="4.5070871710777283e-01" nType="-1"/>
                </Node>
              </Node>
              <Node pos="r" depth="2" NCoef="0" IVar="-1" Cut="0.0000000000000000e+00" cType="1" res="-9.9000000000000000e+01" rms="0.0000000000000000e+00" purity="4.6340185403823853e-01" nType="-1"/>
            </Node>
            <Node pos="r" depth="1" NCoef="0" IVar="-1" Cut="0.0000000000000000e+00" cType="1" res="-9.9000000000000000e+01" rms="0.0000000000000000e+00" purity="4.5974591374397278e-01" nType="-1"/>
          </Node>
        </BinaryTree>
        <BinaryTree type="DecisionTree" boostWeight="1.2880492461770072e-02" itree="79">
          <Node pos="s" depth="0" NCoef="0" IVar="1" Cut="1.4304244995117188e+02" cType="1" res="-9.9000000000000000e+01" rms="0.0000000000000000e+00" purity="4.9553176760673523e-01" nType="0">
            <Node pos="l" depth="1" NCoef="0" IVar="6" Cut="1.2175170183181763e+00" cType="1" res="-9.9000000000000000e+01" rms="0.0000000000000000e+00" purity="4.9792775511741638e-01" nType="0">
              <Node pos="l" depth="2" NCoef="0" IVar="2" Cut="2.2122898864746094e+02" cType="0" res="-9.9000000000000000e+01" rms="0.0000000000000000e+00" purity="5.2256834506988525e-01" nType="0">
                <Node pos="l" depth="3" NCoef="0" IVar="-1" Cut="0.0000000000000000e+00" cType="1" res="-9.9000000000000000e+01" rms="0.0000000000000000e+00" purity="5.6494736671447754e-01" nType="1"/>
                <Node pos="r" depth="3" NCoef="0" IVar="-1" Cut="0.0000000000000000e+00" cType="1" res="-9.9000000000000000e+01" rms="0.0000000000000000e+00" purity="4.6872976422309875e-01" nType="-1"/>
              </Node>
              <Node pos="r" depth="2" NCoef="0" IVar="3" Cut="2.4753379821777344e+02" cType="1" res="-9.9000000000000000e+01" rms="0.0000000000000000e+00" purity="4.9323275685310364e-01" nType="0">
                <Node pos="l" depth="3" NCoef="0" IVar="6" Cut="3.2814323902130127e+00" cType="1" res="-9.9000000000000000e+01" rms="0.0000000000000000e+00" purity="5.0111061334609985e-01" nType="0">
                  <Node pos="l" depth="4" NCoef="0" IVar="-1" Cut="0.0000000000000000e+00" cType="1" res="-9.9000000000000000e+01" rms="0.0000000000000000e+00" purity="5.0531888008117676e-01" nType="1"/>
                  <Node pos="r" depth="4" NCoef="0" IVar="-1" Cut="0.0000000000000000e+00" cType="1" res="-9.9000000000000000e+01" rms="0.0000000000000000e+00" purity="4.6210032701492310e-01" nType="-1"/>
                </Node>
                <Node pos="r" depth="3" NCoef="0" IVar="-1" Cut="3.6155364990234375e+02" cType="1" res="-9.9000000000000000e+01" rms="0.0000000000000000e+00" purity="4.6267691254615784e-01" nType="-1"/>
              </Node>
            </Node>
            <Node pos="r" depth="1" NCoef="0" IVar="-1" Cut="0.0000000000000000e+00" cType="1" res="-9.9000000000000000e+01" rms="0.0000000000000000e+00" purity="4.5707803964614868e-01" nType="-1"/>
          </Node>
        </BinaryTree>
        <BinaryTree type="DecisionTree" boostWeight="1.3510480552970404e-02" itree="80">
          <Node pos="s" depth="0" NCoef="0" IVar="2" Cut="1.4594476318359375e+02" cType="0" res="-9.9000000000000000e+01" rms="0.0000000000000000e+00" purity="4.9458643794059753e-01" nType="0">
            <Node pos="l" depth="1" NCoef="0" IVar="1" Cut="6.6367286682128906e+01" cType="0" res="-9.9000000000000000e+01" rms="0.0000000000000000e+00" purity="5.0024330615997314e-01" nType="0">
              <Node pos="l" depth="2" NCoef="0" IVar="5" Cut="1.9516000747680664e+00" cType="0" res="-9.9000000000000000e+01" rms="0.0000000000000000e+00" purity="5.0597125291824341e-01" nType="0">
                <Node pos="l" depth="3" NCoef="0" IVar="-1" Cut="0.0000000000000000e+00" cType="1" res="-9.9000000000000000e+01" rms="0.0000000000000000e+00" purity="5.5615687370300293e-01" nType="1"/>
                <Node pos="r" depth="3" NCoef="0" IVar="4" Cut="1.1105195283889771e+00" cType="0" res="-9.9000000000000000e+01" rms="0.0000000000000000e+00" purity="5.0087624788284302e-01" nType="0">
                  <Node pos="l" depth="4" NCoef="0" IVar="-1" Cut="0.0000000000000000e+00" cType="1" res="-9.9000000000000000e+01" rms="0.0000000000000000e+00" purity="5.1107448339462280e-01" nType="1"/>
                  <Node pos="r" depth="4" NCoef="0" IVar="-1" Cut="0.0000000000000000e+00" cType="1" res="-9.9000000000000000e+01" rms="0.0000000000000000e+00" purity="4.8400872945785522e-01" nType="-1"/>
                </Node>
              </Node>
              <Node pos="r" depth="2" NCoef="0" IVar="-1" Cut="1.9260038757324219e+02" cType="1" res="-9.9000000000000000e+01" rms="0.0000000000000000e+00" purity="4.7837972640991211e-01" nType="-1"/>
            </Node>
            <Node pos="r" depth="1" NCoef="0" IVar="5" Cut="9.8948127031326294e-01" cType="0" res="-9.9000000000000000e+01" rms="0.0000000000000000e+00" purity="4.7800976037979126e-01" nType="0">
              <Node pos="l" depth="2" NCoef="0" IVar="4" Cut="1.7884597778320312e+00" cType="0" res="-9.9000000000000000e+01" rms="0.0000000000000000e+00" purity="4.9783030152320862e-01" nType="0">
                <Node pos="l" depth="3" NCoef="0" IVar="-1" Cut="0.0000000000000000e+00" cType="1" res="-9.9000000000000000e+01" rms="0.0000000000000000e+00" purity="5.2322089672088623e-01" nType="1"/>
                <Node pos="r" depth="3" NCoef="0" IVar="-1" Cut="0.0000000000000000e+00" cType="1" res="-9.9000000000000000e+01" rms="0.0000000000000000e+00" purity="4.7315642237663269e-01" nType="-1"/>
              </Node>
              <Node pos="r" depth="2" NCoef="0" IVar="-1" Cut="0.0000000000000000e+00" cType="1" res="-9.9000000000000000e+01" rms="0.0000000000000000e+00" purity="4.4661486148834229e-01" nType="-1"/>
            </Node>
          </Node>
        </BinaryTree>
        <BinaryTree type="DecisionTree" boostWeight="1.6740378437169048e-02" itree="81">
          <Node pos="s" depth="0" NCoef="0" IVar="2" Cut="2.0074505615234375e+02" cType="0" res="-9.9000000000000000e+01" rms="0.0000000000000000e+00" purity="4.9486312270164490e-01" nType="0">
            <Node pos="l" depth="1" NCoef="0" IVar="6" Cut="1.7805354595184326e+00" cType="1" res="-9.9000000000000000e+01" rms="0.0000000000000000e+00" purity="5.1124942302703857e-01" nType="0">
              <Node pos="l" depth="2" NCoef="0" IVar="1" Cut="1.0893698883056641e+02" cType="1" res="-9.9000000000000000e+01" rms="0.0000000000000000e+00" purity="5.3048121929168701e-01" nType="0">
                <Node pos="l" depth="3" NCoef="0" IVar="1" Cut="7.4102622985839844e+01" cType="0" res="-9.9000000000000000e+01" rms="0.0000000000000000e+00" purity="5.4980760812759399e-01" nType="0">
                  <Node pos="l" depth="4" NCoef="0" IVar="-1" Cut="0.0000000000000000e+00" cType="1" res="-9.9000000000000000e+01" rms="0.0000000000000000e+00" purity="5.8226215839385986e-01" nType="1"/>
                  <Node pos="r" depth="4" NCoef="0" IVar="-1" Cut="0.0000000000000000e+00" cType="1" res="-9.9000000000000000e+01" rms="0.0000000000000000e+00" purity="4.9641042947769165e-01" nType="-1"/>
                </Node>
                <Node pos="r" depth="3" NCoef="0" IVar="-1" Cut="0.0000000000000000e+00" cType="1" res="-9.9000000000000000e+01" rms="0.0000000000000000e+00" purity="4.7823792695999146e-01" nType="-1"/>
              </Node>
              <Node pos="r" depth="2" NCoef="0" IVar="-1" Cut="0.0000000000000000e+00" cType="1" res="-9.9000000000000000e+01" rms="0.0000000000000000e+00" purity="4.5840346813201904e-01" nType="-1"/>
            </Node>
            <Node pos="r" depth="1" NCoef="0" IVar="3" Cut="1.9486100769042969e+02" cType="1" res="-9.9000000000000000e+01" rms="0.0000000000000000e+00" purity="4.8922994732856750e-01" nType="0">
              <Node pos="l" depth="2" NCoef="0" IVar="2" Cut="1.2092332458496094e+02" cType="0" res="-9.9000000000000000e+01" rms="0.0000000000000000e+00" purity="4.9620327353477478e-01" nType="0">
                <Node pos="l" depth="3" NCoef="0" IVar="0" Cut="6.2801185607910156e+01" cType="1" res="-9.9000000000000000e+01" rms="0.0000000000000000e+00" purity="5.0062334537506104e-01" nType="0">
                  <Node pos="l" depth="4" NCoef="0" IVar="-1" Cut="0.0000000000000000e+00" cType="1" res="-9.9000000000000000e+01" rms="0.0000000000000000e+00" purity="5.1607620716094971e-01" nType="1"/>
                  <Node pos="r" depth="4" NCoef="0" IVar="-1" Cut="0.0000000000000000e+00" cType="1" res="-9.9000000000000000e+01" rms="0.0000000000000000e+00" purity="4.8664617538452148e-01" nType="-1"/>
                </Node>
                <Node pos="r" depth="3" NCoef="0" IVar="-1" Cut="0.0000000000000000e+00" cType="1" res="-9.9000000000000000e+01" rms="0.0000000000000000e+00" purity="4.5668199658393860e-01" nType="-1"/>
              </Node>
              <Node pos="r" depth="2" NCoef="0" IVar="5" Cut="1.0518707036972046e+00" cType="0" res="-9.9000000000000000e+01" rms="0.0000000000000000e+00" purity="4.6938362717628479e-01" nType="0">
                <Node pos="l" depth="3" NCoef="0" IVar="4" Cut="1.4911870956420898e+00" cType="0" res="-9.9000000000000000e+01" rms="0.0000000000000000e+00" purity="4.9523600935935974e-01" nType="0">
                  <Node pos="l" depth="4" NCoef="0" IVar="-1" Cut="0.0000000000000000e+00" cType="1" res="-9.9000000000000000e+01" rms="0.0000000000000000e+00" purity="5.0918632745742798e-01" nType="1"/>
                  <Node pos="r" depth="4" NCoef="0" IVar="-1" Cut="0.0000000000000000e+00" cType="1" res="-9.9000000000000000e+01" rms="0.0000000000000000e+00" purity="4.8340132832527161e-01" nType="-1"/>
                </Node>
                <Node pos="r" depth="3" NCoef="0" IVar="-1" Cut="0.0000000000000000e+00" cType="1" res="-9.9000000000000000e+01" rms="0.0000000000000000e+00" purity="4.0559437870979309e-01" nType="-1"/>
              </Node>
            </Node>
          </Node>
        </BinaryTree>
        <BinaryTree type="DecisionTree" boostWeight="1.4953733014180275e-02" itree="82">
          <Node pos="s" depth="0" NCoef="0" IVar="2" Cut="1.7334490966796875e+02" cType="0" res="-9.9000000000000000e+01" rms="0.0000000000000000e+00" purity="4.9591684341430664e-01" nType="0">
            <Node pos="l" depth="1" NCoef="0" IVar="4" Cut="1.8753242492675781e+00" cType="1" res="-9.9000000000000000e+01" rms="0.0000000000000000e+00" purity="5.0659674406051636e-01" nType="0">
              <Node pos="l" depth="2" NCoef="0" IVar="1" Cut="8.7154533386230469e+01" cType="1" res="-9.9000000000000000e+01" rms="0.0000000000000000e+00" purity="5.1365065574645996e-01" nType="0">
                <Node pos="l" depth="3" NCoef="0" IVar="-1" Cut="7.5939331054687500e+01" cType="0" res="-9.9000000000000000e+01" rms="0.0000000000000000e+00" purity="5.3318446874618530e-01" nType="1"/>
                <Node pos="r" depth="3" NCoef="0" IVar="4" Cut="7.1380025148391724e-01" cType="0" res="-9.9000000000000000e+01" rms="0.0000000000000000e+00" purity="4.9918317794799805e-01" nType="0">
                  <Node pos="l" depth="4" NCoef="0" IVar="-1" Cut="0.0000000000000000e+00" cType="1" res="-9.9000000000000000e+01" rms="0.0000000000000000e+00" purity="5.0932526588439941e-01" nType="1"/>
                  <Node pos="r" depth="4" NCoef="0" IVar="-1" Cut="0.0000000000000000e+00" cType="1" res="-9.9000000000000000e+01" rms="0.0000000000000000e+00" purity="4.6660134196281433e-01" nType="-1"/>
                </Node>
              </Node>
              <Node pos="r" depth="2" NCoef="0" IVar="-1" Cut="0.0000000000000000e+00" cType="1" res="-9.9000000000000000e+01" rms="0.0000000000000000e+00" purity="4.7147551178932190e-01" nType="-1"/>
            </Node>
            <Node pos="r" depth="1" NCoef="0" IVar="3" Cut="1.7411770629882812e+02" cType="1" res="-9.9000000000000000e+01" rms="0.0000000000000000e+00" purity="4.8639109730720520e-01" nType="0">
              <Node pos="l" depth="2" NCoef="0" IVar="1" Cut="8.1662353515625000e+01" cType="1" res="-9.9000000000000000e+01" rms="0.0000000000000000e+00" purity="4.9426499009132385e-01" nType="0">
                <Node pos="l" depth="3" NCoef="0" IVar="4" Cut="2.2176711559295654e+00" cType="1" res="-9.9000000000000000e+01" rms="0.0000000000000000e+00" purity="5.0707530975341797e-01" nType="0">
                  <Node pos="l" depth="4" NCoef="0" IVar="-1" Cut="0.0000000000000000e+00" cType="1" res="-9.9000000000000000e+01" rms="0.0000000000000000e+00" purity="5.2531296014785767e-01" nType="1"/>
                  <Node pos="r" depth="4" NCoef="0" IVar="-1" Cut="0.0000000000000000e+00" cType="1" res="-9.9000000000000000e+01" rms="0.0000000000000000e+00" purity="4.7834628820419312e-01" nType="-1"/>
                </Node>
                <Node pos="r" depth="3" NCoef="0" IVar="-1" Cut="1.3020892333984375e+02" cType="0" res="-9.9000000000000000e+01" rms="0.0000000000000000e+00" purity="4.8433139920234680e-01" nType="-1"/>
              </Node>
              <Node pos="r" depth="2" NCoef="0" IVar="5" Cut="1.1602730751037598e+00" cType="0" res="-9.9000000000000000e+01" rms="0.0000000000000000e+00" purity="4.5716732740402222e-01" nType="0">
                <Node pos="l" depth="3" NCoef="0" IVar="-1" Cut="0.0000000000000000e+00" cType="1" res="-9.9000000000000000e+01" rms="0.0000000000000000e+00" purity="5.0748980045318604e-01" nType="1"/>
                <Node pos="r" depth="3" NCoef="0" IVar="-1" Cut="0.0000000000000000e+00" cType="1" res="-9.9000000000000000e+01" rms="0.0000000000000000e+00" purity="4.0011543035507202e-01" nType="-1"/>
              </Node>
            </Node>
          </Node>
        </BinaryTree>
        <BinaryTree type="DecisionTree" boostWeight="1.3343963148491619e-02" itree="83">
          <Node pos="s" depth="0" NCoef="0" IVar="5" Cut="9.7103297710418701e-01" cType="0" res="-9.9000000000000000e+01" rms="0.0000000000000000e+00" purity="4.9586650729179382e-01" nType="0">
            <Node pos="l" depth="1" NCoef="0" IVar="6" Cut="1.2175170183181763e+00" cType="1" res="-9.9000000000000000e+01" rms="0.0000000000000000e+00" purity="5.0096487998962402e-01" nType="0">
              <Node pos="l" depth="2" NCoef="0" IVar="2" Cut="2.2122898864746094e+02" cType="0" res="-9.9000000000000000e+01" rms="0.0000000000000000e+00" purity="5.1846247911453247e-01" nType="0">
                <Node pos="l" depth="3" NCoef="0" IVar="-1" Cut="0.0000000000000000e+00" cType="1" res="-9.9000000000000000e+01" rms="0.0000000000000000e+00" purity="5.5377131700515747e-01" nType="1"/>
                <Node pos="r" depth="3" NCoef="0" IVar="-1" Cut="0.0000000000000000e+00" cType="1" res="-9.9000000000000000e+01" rms="0.0000000000000000e+00" purity="4.7184970974922180e-01" nType="-1"/>
              </Node>
              <Node pos="r" depth="2" NCoef="0" IVar="3" Cut="3.1861987304687500e+02" cType="1" res="-9.9000000000000000e+01" rms="0.0000000000000000e+00" purity="4.9655798077583313e-01" nType="0">
                <Node pos="l" depth="3" NCoef="0" IVar="0" Cut="1.2695333862304688e+02" cType="0" res="-9.9000000000000000e+01" rms="0.0000000000000000e+00" purity="5.0291901826858521e-01" nType="0">
                  <Node pos="l" depth="4" NCoef="0" IVar="-1" Cut="0.0000000000000000e+00" cType="1" res="-9.9000000000000000e+01" rms="0.0000000000000000e+00" purity="5.2415597438812256e-01" nType="1"/>
                  <Node pos="r" depth="4" NCoef="0" IVar="-1" Cut="0.0000000000000000e+00" cType="1" res="-9.9000000000000000e+01" rms="0.0000000000000000e+00" purity="4.9615630507469177e-01" nType="-1"/>
                </Node>
                <Node pos="r" depth="3" NCoef="0" IVar="-1" Cut="0.0000000000000000e+00" cType="1" res="-9.9000000000000000e+01" rms="0.0000000000000000e+00" purity="4.5346739888191223e-01" nType="-1"/>
              </Node>
            </Node>
            <Node pos="r" depth="1" NCoef="0" IVar="2" Cut="1.3672694396972656e+02" cType="0" res="-9.9000000000000000e+01" rms="0.0000000000000000e+00" purity="4.7935536503791809e-01" nType="0">
              <Node pos="l" depth="2" NCoef="0" IVar="1" Cut="1.0012123870849609e+02" cType="1" res="-9.9000000000000000e+01" rms="0.0000000000000000e+00" purity="4.9478903412818909e-01" nType="0">
                <Node pos="l" depth="3" NCoef="0" IVar="-1" Cut="0.0000000000000000e+00" cType="1" res="-9.9000000000000000e+01" rms="0.0000000000000000e+00" purity="5.1192820072174072e-01" nType="1"/>
                <Node pos="r" depth="3" NCoef="0" IVar="-1" Cut="0.0000000000000000e+00" cType="1" res="-9.9000000000000000e+01" rms="0.0000000000000000e+00" purity="4.6967786550521851e-01" nType="-1"/>
              </Node>
              <Node pos="r" depth="2" NCoef="0" IVar="-1" Cut="0.0000000000000000e+00" cType="1" res="-9.9000000000000000e+01" rms="0.0000000000000000e+00" purity="4.3514746427536011e-01" nType="-1"/>
            </Node>
          </Node>
        </BinaryTree>
        <BinaryTree type="DecisionTree" boostWeight="1.2000669647924659e-02" itree="84">
          <Node pos="s" depth="0" NCoef="0" IVar="5" Cut="9.7103297710418701e-01" cType="0" res="-9.9000000000000000e+01" rms="0.0000000000000000e+00" purity="4.9710553884506226e-01" nType="0">
            <Node pos="l" depth="1" NCoef="0" IVar="4" Cut="5.9540402889251709e-01" cType="0" res="-9.9000000000000000e+01" rms="0.0000000000000000e+00" purity="5.0246632099151611e-01" nType="0">
              <Node pos="l" depth="2" NCoef="0" IVar="6" Cut="1.2222827672958374e+00" cType="1" res="-9.9000000000000000e+01" rms="0.0000000000000000e+00" purity="5.0488919019699097e-01" nType="0">
                <Node pos="l" depth="3" NCoef="0" IVar="2" Cut="2.1451867675781250e+02" cType="0" res="-9.9000000000000000e+01" rms="0.0000000000000000e+00" purity="5.3174662590026855e-01" nType="0">
                  <Node pos="l" depth="4" NCoef="0" IVar="-1" Cut="0.0000000000000000e+00" cType="1" res="-9.9000000000000000e+01" rms="0.0000000000000000e+00" purity="5.6738340854644775e-01" nType="1"/>
                  <Node pos="r" depth="4" NCoef="0" IVar="-1" Cut="0.0000000000000000e+00" cType="1" res="-9.9000000000000000e+01" rms="0.0000000000000000e+00" purity="4.8482382297515869e-01" nType="-1"/>
                </Node>
                <Node pos="r" depth="3" NCoef="0" IVar="3" Cut="3.1861987304687500e+02" cType="1" res="-9.9000000000000000e+01" rms="0.0000000000000000e+00" purity="4.9930030107498169e-01" nType="0">
                  <Node pos="l" depth="4" NCoef="0" IVar="-1" Cut="0.0000000000000000e+00" cType="1" res="-9.9000000000000000e+01" rms="0.0000000000000000e+00" purity="5.0520622730255127e-01" nType="1"/>
                  <Node pos="r" depth="4" NCoef="0" IVar="-1" Cut="0.0000000000000000e+00" cType="1" res="-9.9000000000000000e+01" rms="0.0000000000000000e+00" purity="4.5873424410820007e-01" nType="-1"/>
                </Node>
              </Node>
              <Node pos="r" depth="2" NCoef="0" IVar="-1" Cut="0.0000000000000000e+00" cType="1" res="-9.9000000000000000e+01" rms="0.0000000000000000e+00" purity="4.6951085329055786e-01" nType="-1"/>
            </Node>
            <Node pos="r" depth="1" NCoef="0" IVar="2" Cut="1.3672694396972656e+02" cType="0" res="-9.9000000000000000e+01" rms="0.0000000000000000e+00" purity="4.7974056005477905e-01" nType="0">
              <Node pos="l" depth="2" NCoef="0" IVar="3" Cut="1.7731155395507812e+02" cType="1" res="-9.9000000000000000e+01" rms="0.0000000000000000e+00" purity="4.9415126442909241e-01" nType="0">
                <Node pos="l" depth="3" NCoef="0" IVar="-1" Cut="0.0000000000000000e+00" cType="1" res="-9.9000000000000000e+01" rms="0.0000000000000000e+00" purity="5.1235073804855347e-01" nType="1"/>
                <Node pos="r" depth="3" NCoef="0" IVar="-1" Cut="0.0000000000000000e+00" cType="1" res="-9.9000000000000000e+01" rms="0.0000000000000000e+00" purity="4.7243839502334595e-01" nType="-1"/>
              </Node>
              <Node pos="r" depth="2" NCoef="0" IVar="-1" Cut="0.0000000000000000e+00" cType="1" res="-9.9000000000000000e+01" rms="0.0000000000000000e+00" purity="4.3843716382980347e-01" nType="-1"/>
            </Node>
          </Node>
        </BinaryTree>
        <BinaryTree type="DecisionTree" boostWeight="1.0741617081132087e-02" itree="85">
          <Node pos="s" depth="0" NCoef="0" IVar="1" Cut="4.0698322296142578e+01" cType="0" res="-9.9000000000000000e+01" rms="0.0000000000000000e+00" purity="4.9605664610862732e-01" nType="0">
            <Node pos="l" depth="1" NCoef="0" IVar="1" Cut="8.7926437377929688e+01" cType="1" res="-9.9000000000000000e+01" rms="0.0000000000000000e+00" purity="4.9832984805107117e-01" nType="0">
              <Node pos="l" depth="2" NCoef="0" IVar="0" Cut="1.8355857849121094e+02" cType="0" res="-9.9000000000000000e+01" rms="0.0000000000000000e+00" purity="5.0901752710342407e-01" nType="0">
                <Node pos="l" depth="3" NCoef="0" IVar="-1" Cut="0.0000000000000000e+00" cType="1" res="-9.9000000000000000e+01" rms="0.0000000000000000e+00" purity="5.5836719274520874e-01" nType="1"/>
                <Node pos="r" depth="3" NCoef="0" IVar="3" Cut="1.4801332092285156e+02" cType="1" res="-9.9000000000000000e+01" rms="0.0000000000000000e+00" purity="5.0086444616317749e-01" nType="0">
                  <Node pos="l" depth="4" NCoef="0" IVar="-1" Cut="0.0000000000000000e+00" cType="1" res="-9.9000000000000000e+01" rms="0.0000000000000000e+00" purity="5.2849131822586060e-01" nType="1"/>
                  <Node pos="r" depth="4" NCoef="0" IVar="-1" Cut="0.0000000000000000e+00" cType="1" res="-9.9000000000000000e+01" rms="0.0000000000000000e+00" purity="4.9007532000541687e-01" nType="-1"/>
                </Node>
              </Node>
              <Node pos="r" depth="2" NCoef="0" IVar="5" Cut="8.9584606885910034e-01" cType="0" res="-9.9000000000000000e+01" rms="0.0000000000000000e+00" purity="4.8872983455657959e-01" nType="0">
                <Node pos="l" depth="3" NCoef="0" IVar="5" Cut="1.4719736576080322e+00" cType="1" res="-9.9000000000000000e+01" rms="0.0000000000000000e+00" purity="4.9569156765937805e-01" nType="0">
                  <Node pos="l" depth="4" NCoef="0" IVar="-1" Cut="0.0000000000000000e+00" cType="1" res="-9.9000000000000000e+01" rms="0.0000000000000000e+00" purity="5.0070291757583618e-01" nType="1"/>
                  <Node pos="r" depth="4" NCoef="0" IVar="-1" Cut="0.0000000000000000e+00" cType="1" res="-9.9000000000000000e+01" rms="0.0000000000000000e+00" purity="4.7765308618545532e-01" nType="-1"/>
                </Node>
                <Node pos="r" depth="3" NCoef="0" IVar="-1" Cut="0.0000000000000000e+00" cType="1" res="-9.9000000000000000e+01" rms="0.0000000000000000e+00" purity="4.5104670524597168e-01" nType="-1"/>
              </Node>
            </Node>
            <Node pos="r" depth="1" NCoef="0" IVar="-1" Cut="0.0000000000000000e+00" cType="1" res="-9.9000000000000000e+01" rms="0.0000000000000000e+00" purity="4.5954388380050659e-01" nType="-1"/>
          </Node>
        </BinaryTree>
        <BinaryTree type="DecisionTree" boostWeight="1.3419630063987329e-02" itree="86">
          <Node pos="s" depth="0" NCoef="0" IVar="2" Cut="1.5507814025878906e+02" cType="0" res="-9.9000000000000000e+01" rms="0.0000000000000000e+00" purity="4.9611076712608337e-01" nType="0">
            <Node pos="l" depth="1" NCoef="0" IVar="4" Cut="2.2253947257995605e+00" cType="1" res="-9.9000000000000000e+01" rms="0.0000000000000000e+00" purity="5.0241261720657349e-01" nType="0">
              <Node pos="l" depth="2" NCoef="0" IVar="1" Cut="9.3763854980468750e+01" cType="1" res="-9.9000000000000000e+01" rms="0.0000000000000000e+00" purity="5.0670880079269409e-01" nType="0">
                <Node pos="l" depth="3" NCoef="0" IVar="1" Cut="7.5879119873046875e+01" cType="0" res="-9.9000000000000000e+01" rms="0.0000000000000000e+00" purity="5.1757115125656128e-01" nType="0">
                  <Node pos="l" depth="4" NCoef="0" IVar="-1" Cut="0.0000000000000000e+00" cType="1" res="-9.9000000000000000e+01" rms="0.0000000000000000e+00" purity="5.4191291332244873e-01" nType="1"/>
                  <Node pos="r" depth="4" NCoef="0" IVar="-1" Cut="0.0000000000000000e+00" cType="1" res="-9.9000000000000000e+01" rms="0.0000000000000000e+00" purity="4.9467018246650696e-01" nType="-1"/>
                </Node>
                <Node pos="r" depth="3" NCoef="0" IVar="0" Cut="1.4155992126464844e+02" cType="1" res="-9.9000000000000000e+01" rms="0.0000000000000000e+00" purity="4.9479928612709045e-01" nType="0">
                  <Node pos="l" depth="4" NCoef="0" IVar="-1" Cut="0.0000000000000000e+00" cType="1" res="-9.9000000000000000e+01" rms="0.0000000000000000e+00" purity="5.0196832418441772e-01" nType="1"/>
                  <Node pos="r" depth="4" NCoef="0" IVar="-1" Cut="0.0000000000000000e+00" cType="1" res="-9.9000000000000000e+01" rms="0.0000000000000000e+00" purity="4.7650352120399475e-01" nType="-1"/>
                </Node>
              </Node>
              <Node pos="r" depth="2" NCoef="0" IVar="-1" Cut="0.0000000000000000e+00" cType="1" res="-9.9000000000000000e+01" rms="0.0000000000000000e+00" purity="4.6903365850448608e-01" nType="-1"/>
            </Node>
            <Node pos="r" depth="1" NCoef="0" IVar="3" Cut="1.5337438964843750e+02" cType="1" res="-9.9000000000000000e+01" rms="0.0000000000000000e+00" purity="4.8412743210792542e-01" nType="0">
              <Node pos="l" depth="2" NCoef="0" IVar="1" Cut="8.1662353515625000e+01" cType="1" res="-9.9000000000000000e+01" rms="0.0000000000000000e+00" purity="4.9667179584503174e-01" nType="0">
                <Node pos="l" depth="3" NCoef="0" IVar="1" Cut="6.3871505737304688e+01" cType="0" res="-9.9000000000000000e+01" rms="0.0000000000000000e+00" purity="5.1661533117294312e-01" nType="0">
                  <Node pos="l" depth="4" NCoef="0" IVar="-1" Cut="0.0000000000000000e+00" cType="1" res="-9.9000000000000000e+01" rms="0.0000000000000000e+00" purity="5.3578960895538330e-01" nType="1"/>
                  <Node pos="r" depth="4" NCoef="0" IVar="-1" Cut="0.0000000000000000e+00" cType="1" res="-9.9000000000000000e+01" rms="0.0000000000000000e+00" purity="4.9488556385040283e-01" nType="-1"/>
                </Node>
                <Node pos="r" depth="3" NCoef="0" IVar="4" Cut="1.7836524248123169e+00" cType="0" res="-9.9000000000000000e+01" rms="0.0000000000000000e+00" purity="4.7947642207145691e-01" nType="0">
                  <Node pos="l" depth="4" NCoef="0" IVar="-1" Cut="0.0000000000000000e+00" cType="1" res="-9.9000000000000000e+01" rms="0.0000000000000000e+00" purity="5.0645136833190918e-01" nType="1"/>
                  <Node pos="r" depth="4" NCoef="0" IVar="-1" Cut="0.0000000000000000e+00" cType="1" res="-9.9000000000000000e+01" rms="0.0000000000000000e+00" purity="4.6091982722282410e-01" nType="-1"/>
                </Node>
              </Node>
              <Node pos="r" depth="2" NCoef="0" IVar="-1" Cut="0.0000000000000000e+00" cType="1" res="-9.9000000000000000e+01" rms="0.0000000000000000e+00" purity="4.4476598501205444e-01" nType="-1"/>
            </Node>
          </Node>
        </BinaryTree>
        <BinaryTree type="DecisionTree" boostWeight="8.1899959248015811e-03" itree="87">
          <Node pos="s" depth="0" NCoef="0" IVar="0" Cut="2.5233226013183594e+02" cType="0" res="-9.9000000000000000e+01" rms="0.0000000000000000e+00" purity="4.9638792872428894e-01" nType="0">
            <Node pos="l" depth="1" NCoef="0" IVar="-1" Cut="0.0000000000000000e+00" cType="1" res="-9.9000000000000000e+01" rms="0.0000000000000000e+00" purity="5.3542762994766235e-01" nType="1"/>
            <Node pos="r" depth="1" NCoef="0" IVar="5" Cut="8.1352460384368896e-01" cType="0" res="-9.9000000000000000e+01" rms="0.0000000000000000e+00" purity="4.9428337812423706e-01" nType="0">
              <Node pos="l" depth="2" NCoef="0" IVar="1" Cut="8.8007827758789062e+01" cType="1" res="-9.9000000000000000e+01" rms="0.0000000000000000e+00" purity="4.9713554978370667e-01" nType="0">
                <Node pos="l" depth="3" NCoef="0" IVar="1" Cut="7.3572830200195312e+01" cType="0" res="-9.9000000000000000e+01" rms="0.0000000000000000e+00" purity="5.0363796949386597e-01" nType="0">
                  <Node pos="l" depth="4" NCoef="0" IVar="-1" Cut="0.0000000000000000e+00" cType="1" res="-9.9000000000000000e+01" rms="0.0000000000000000e+00" purity="5.1772475242614746e-01" nType="1"/>
                  <Node pos="r" depth="4" NCoef="0" IVar="-1" Cut="0.0000000000000000e+00" cType="1" res="-9.9000000000000000e+01" rms="0.0000000000000000e+00" purity="4.9378842115402222e-01" nType="-1"/>
                </Node>
                <Node pos="r" depth="3" NCoef="0" IVar="-1" Cut="1.3713977050781250e+02" cType="0" res="-9.9000000000000000e+01" rms="0.0000000000000000e+00" purity="4.9045541882514954e-01" nType="-1"/>
              </Node>
              <Node pos="r" depth="2" NCoef="0" IVar="-1" Cut="0.0000000000000000e+00" cType="1" res="-9.9000000000000000e+01" rms="0.0000000000000000e+00" purity="4.6398398280143738e-01" nType="-1"/>
            </Node>
          </Node>
        </BinaryTree>
        <BinaryTree type="DecisionTree" boostWeight="9.8275480856915339e-03" itree="88">
          <Node pos="s" depth="0" NCoef="0" IVar="5" Cut="9.7103297710418701e-01" cType="0" res="-9.9000000000000000e+01" rms="0.0000000000000000e+00" purity="4.9751189351081848e-01" nType="0">
            <Node pos="l" depth="1" NCoef="0" IVar="6" Cut="1.2175170183181763e+00" cType="1" res="-9.9000000000000000e+01" rms="0.0000000000000000e+00" purity="5.0219541788101196e-01" nType="0">
              <Node pos="l" depth="2" NCoef="0" IVar="5" Cut="1.7991400957107544e+00" cType="0" res="-9.9000000000000000e+01" rms="0.0000000000000000e+00" purity="5.1991140842437744e-01" nType="0">
                <Node pos="l" depth="3" NCoef="0" IVar="-1" Cut="0.0000000000000000e+00" cType="1" res="-9.9000000000000000e+01" rms="0.0000000000000000e+00" purity="5.7197988033294678e-01" nType="1"/>
                <Node pos="r" depth="3" NCoef="0" IVar="-1" Cut="0.0000000000000000e+00" cType="1" res="-9.9000000000000000e+01" rms="0.0000000000000000e+00" purity="4.9108555912971497e-01" nType="-1"/>
              </Node>
              <Node pos="r" depth="2" NCoef="0" IVar="2" Cut="2.2843708801269531e+02" cType="1" res="-9.9000000000000000e+01" rms="0.0000000000000000e+00" purity="4.9773496389389038e-01" nType="0">
                <Node pos="l" depth="3" NCoef="0" IVar="2" Cut="2.0532461547851562e+02" cType="0" res="-9.9000000000000000e+01" rms="0.0000000000000000e+00" purity="5.0234699249267578e-01" nType="0">
                  <Node pos="l" depth="4" NCoef="0" IVar="-1" Cut="0.0000000000000000e+00" cType="1" res="-9.9000000000000000e+01" rms="0.0000000000000000e+00" purity="5.3117263317108154e-01" nType="1"/>
                  <Node pos="r" depth="4" NCoef="0" IVar="-1" Cut="0.0000000000000000e+00" cType="1" res="-9.9000000000000000e+01" rms="0.0000000000000000e+00" purity="4.9902436137199402e-01" nType="-1"/>
                </Node>
                <Node pos="r" depth="3" NCoef="0" IVar="-1" Cut="0.0000000000000000e+00" cType="1" res="-9.9000000000000000e+01" rms="0.0000000000000000e+00" purity="4.4981426000595093e-01" nType="-1"/>
              </Node>
            </Node>
            <Node pos="r" depth="1" NCoef="0" IVar="2" Cut="1.3672694396972656e+02" cType="0" res="-9.9000000000000000e+01" rms="0.0000000000000000e+00" purity="4.8232915997505188e-01" nType="0">
              <Node pos="l" depth="2" NCoef="0" IVar="1" Cut="1.0012123870849609e+02" cType="1" res="-9.9000000000000000e+01" rms="0.0000000000000000e+00" purity="4.9627071619033813e-01" nType="0">
                <Node pos="l" depth="3" NCoef="0" IVar="-1" Cut="0.0000000000000000e+00" cType="1" res="-9.9000000000000000e+01" rms="0.0000000000000000e+00" purity="5.1160043478012085e-01" nType="1"/>
                <Node pos="r" depth="3" NCoef="0" IVar="-1" Cut="0.0000000000000000e+00" cType="1" res="-9.9000000000000000e+01" rms="0.0000000000000000e+00" purity="4.7380420565605164e-01" nType="-1"/>
              </Node>
              <Node pos="r" depth="2" NCoef="0" IVar="-1" Cut="0.0000000000000000e+00" cType="1" res="-9.9000000000000000e+01" rms="0.0000000000000000e+00" purity="4.4230550527572632e-01" nType="-1"/>
            </Node>
          </Node>
        </BinaryTree>
        <BinaryTree type="DecisionTree" boostWeight="9.2768909895521393e-03" itree="89">
          <Node pos="s" depth="0" NCoef="0" IVar="5" Cut="9.7103297710418701e-01" cType="0" res="-9.9000000000000000e+01" rms="0.0000000000000000e+00" purity="4.9894800782203674e-01" nType="0">
            <Node pos="l" depth="1" NCoef="0" IVar="6" Cut="1.2175170183181763e+00" cType="1" res="-9.9000000000000000e+01" rms="0.0000000000000000e+00" purity="5.0398576259613037e-01" nType="0">
              <Node pos="l" depth="2" NCoef="0" IVar="5" Cut="1.7991400957107544e+00" cType="0" res="-9.9000000000000000e+01" rms="0.0000000000000000e+00" purity="5.2066105604171753e-01" nType="0">
                <Node pos="l" depth="3" NCoef="0" IVar="-1" Cut="0.0000000000000000e+00" cType="1" res="-9.9000000000000000e+01" rms="0.0000000000000000e+00" purity="5.6957226991653442e-01" nType="1"/>
                <Node pos="r" depth="3" NCoef="0" IVar="-1" Cut="0.0000000000000000e+00" cType="1" res="-9.9000000000000000e+01" rms="0.0000000000000000e+00" purity="4.9360331892967224e-01" nType="-1"/>
              </Node>
              <Node pos="r" depth="2" NCoef="0" IVar="2" Cut="2.2843708801269531e+02" cType="1" res="-9.9000000000000000e+01" rms="0.0000000000000000e+00" purity="4.9978849291801453e-01" nType="0">
                <Node pos="l" depth="3" NCoef="0" IVar="-1" Cut="1.3379611206054688e+02" cType="1" res="-9.9000000000000000e+01" rms="0.0000000000000000e+00" purity="5.0434136390686035e-01" nType="1"/>
                <Node pos="r" depth="3" NCoef="0" IVar="-1" Cut="0.0000000000000000e+00" cType="1" res="-9.9000000000000000e+01" rms="0.0000000000000000e+00" purity="4.5247575640678406e-01" nType="-1"/>
              </Node>
            </Node>
            <Node pos="r" depth="1" NCoef="0" IVar="2" Cut="1.3672694396972656e+02" cType="0" res="-9.9000000000000000e+01" rms="0.0000000000000000e+00" purity="4.8261281847953796e-01" nType="0">
              <Node pos="l" depth="2" NCoef="0" IVar="4" Cut="1.4105967283248901e+00" cType="0" res="-9.9000000000000000e+01" rms="0.0000000000000000e+00" purity="4.9580129981040955e-01" nType="0">
                <Node pos="l" depth="3" NCoef="0" IVar="-1" Cut="0.0000000000000000e+00" cType="1" res="-9.9000000000000000e+01" rms="0.0000000000000000e+00" purity="5.0886136293411255e-01" nType="1"/>
                <Node pos="r" depth="3" NCoef="0" IVar="-1" Cut="0.0000000000000000e+00" cType="1" res="-9.9000000000000000e+01" rms="0.0000000000000000e+00" purity="4.7358325123786926e-01" nType="-1"/>
              </Node>
              <Node pos="r" depth="2" NCoef="0" IVar="-1" Cut="0.0000000000000000e+00" cType="1" res="-9.9000000000000000e+01" rms="0.0000000000000000e+00" purity="4.4473591446876526e-01" nType="-1"/>
            </Node>
          </Node>
        </BinaryTree>
        <BinaryTree type="DecisionTree" boostWeight="1.1259963312646995e-02" itree="90">
          <Node pos="s" depth="0" NCoef="0" IVar="6" Cut="1.2175170183181763e+00" cType="1" res="-9.9000000000000000e+01" rms="0.0000000000000000e+00" purity="4.9793201684951782e-01" nType="0">
            <Node pos="l" depth="1" NCoef="0" IVar="5" Cut="1.8418854475021362e+00" cType="0" res="-9.9000000000000000e+01" rms="0.0000000000000000e+00" purity="5.1710945367813110e-01" nType="0">
              <Node pos="l" depth="2" NCoef="0" IVar="-1" Cut="0.0000000000000000e+00" cType="1" res="-9.9000000000000000e+01" rms="0.0000000000000000e+00" purity="5.7059794664382935e-01" nType="1"/>
              <Node pos="r" depth="2" NCoef="0" IVar="4" Cut="8.6462002992630005e-01" cType="0" res="-9.9000000000000000e+01" rms="0.0000000000000000e+00" purity="4.9367636442184448e-01" nType="0">
                <Node pos="l" depth="3" NCoef="0" IVar="-1" Cut="0.0000000000000000e+00" cType="1" res="-9.9000000000000000e+01" rms="0.0000000000000000e+00" purity="5.1695406436920166e-01" nType="1"/>
                <Node pos="r" depth="3" NCoef="0" IVar="-1" Cut="0.0000000000000000e+00" cType="1" res="-9.9000000000000000e+01" rms="0.0000000000000000e+00" purity="4.7122460603713989e-01" nType="-1"/>
              </Node>
            </Node>
            <Node pos="r" depth="1" NCoef="0" IVar="3" Cut="2.9857754516601562e+02" cType="1" res="-9.9000000000000000e+01" rms="0.0000000000000000e+00" purity="4.9403229355812073e-01" nType="0">
              <Node pos="l" depth="2" NCoef="0" IVar="6" Cut="3.3502287864685059e+00" cType="1" res="-9.9000000000000000e+01" rms="0.0000000000000000e+00" purity="4.9913275241851807e-01" nType="0">
                <Node pos="l" depth="3" NCoef="0" IVar="1" Cut="9.1958503723144531e+01" cType="1" res="-9.9000000000000000e+01" rms="0.0000000000000000e+00" purity="5.0206387042999268e-01" nType="0">
                  <Node pos="l" depth="4" NCoef="0" IVar="-1" Cut="0.0000000000000000e+00" cType="1" res="-9.9000000000000000e+01" rms="0.0000000000000000e+00" purity="5.0951290130615234e-01" nType="1"/>
                  <Node pos="r" depth="4" NCoef="0" IVar="-1" Cut="0.0000000000000000e+00" cType="1" res="-9.9000000000000000e+01" rms="0.0000000000000000e+00" purity="4.9151608347892761e-01" nType="-1"/>
                </Node>
                <Node pos="r" depth="3" NCoef="0" IVar="-1" Cut="0.0000000000000000e+00" cType="1" res="-9.9000000000000000e+01" rms="0.0000000000000000e+00" purity="4.6390682458877563e-01" nType="-1"/>
              </Node>
              <Node pos="r" depth="2" NCoef="0" IVar="-1" Cut="3.7336306762695312e+02" cType="1" res="-9.9000000000000000e+01" rms="0.0000000000000000e+00" purity="4.5909467339515686e-01" nType="-1"/>
            </Node>
          </Node>
        </BinaryTree>
        <BinaryTree type="DecisionTree" boostWeight="1.1777516029847761e-02" itree="91">
          <Node pos="s" depth="0" NCoef="0" IVar="4" Cut="2.6653203964233398e+00" cType="1" res="-9.9000000000000000e+01" rms="0.0000000000000000e+00" purity="4.9794468283653259e-01" nType="0">
            <Node pos="l" depth="1" NCoef="0" IVar="1" Cut="8.6458099365234375e+01" cType="1" res="-9.9000000000000000e+01" rms="0.0000000000000000e+00" purity="5.0002163648605347e-01" nType="0">
              <Node pos="l" depth="2" NCoef="0" IVar="1" Cut="7.3763099670410156e+01" cType="0" res="-9.9000000000000000e+01" rms="0.0000000000000000e+00" purity="5.0994694232940674e-01" nType="0">
                <Node pos="l" depth="3" NCoef="0" IVar="-1" Cut="1.3029474020004272e+00" cType="0" res="-9.9000000000000000e+01" rms="0.0000000000000000e+00" purity="5.3029465675354004e-01" nType="1"/>
                <Node pos="r" depth="3" NCoef="0" IVar="3" Cut="1.9032130432128906e+02" cType="1" res="-9.9000000000000000e+01" rms="0.0000000000000000e+00" purity="4.9645847082138062e-01" nType="0">
                  <Node pos="l" depth="4" NCoef="0" IVar="-1" Cut="0.0000000000000000e+00" cType="1" res="-9.9000000000000000e+01" rms="0.0000000000000000e+00" purity="5.1419514417648315e-01" nType="1"/>
                  <Node pos="r" depth="4" NCoef="0" IVar="-1" Cut="0.0000000000000000e+00" cType="1" res="-9.9000000000000000e+01" rms="0.0000000000000000e+00" purity="4.7800946235656738e-01" nType="-1"/>
                </Node>
              </Node>
              <Node pos="r" depth="2" NCoef="0" IVar="2" Cut="1.3713977050781250e+02" cType="0" res="-9.9000000000000000e+01" rms="0.0000000000000000e+00" purity="4.9151277542114258e-01" nType="0">
                <Node pos="l" depth="3" NCoef="0" IVar="2" Cut="2.0657392883300781e+02" cType="0" res="-9.9000000000000000e+01" rms="0.0000000000000000e+00" purity="4.9750041961669922e-01" nType="0">
                  <Node pos="l" depth="4" NCoef="0" IVar="-1" Cut="0.0000000000000000e+00" cType="1" res="-9.9000000000000000e+01" rms="0.0000000000000000e+00" purity="5.1428467035293579e-01" nType="1"/>
                  <Node pos="r" depth="4" NCoef="0" IVar="-1" Cut="0.0000000000000000e+00" cType="1" res="-9.9000000000000000e+01" rms="0.0000000000000000e+00" purity="4.9153384566307068e-01" nType="-1"/>
                </Node>
                <Node pos="r" depth="3" NCoef="0" IVar="-1" Cut="0.0000000000000000e+00" cType="1" res="-9.9000000000000000e+01" rms="0.0000000000000000e+00" purity="4.5652034878730774e-01" nType="-1"/>
              </Node>
            </Node>
            <Node pos="r" depth="1" NCoef="0" IVar="-1" Cut="0.0000000000000000e+00" cType="1" res="-9.9000000000000000e+01" rms="0.0000000000000000e+00" purity="4.6311479806900024e-01" nType="-1"/>
          </Node>
        </BinaryTree>
        <BinaryTree type="DecisionTree" boostWeight="1.0040001470782088e-02" itree="92">
          <Node pos="s" depth="0" NCoef="0" IVar="5" Cut="9.7103297710418701e-01" cType="0" res="-9.9000000000000000e+01" rms="0.0000000000000000e+00" purity="4.9844470620155334e-01" nType="0">
            <Node pos="l" depth="1" NCoef="0" IVar="6" Cut="1.2175170183181763e+00" cType="1" res="-9.9000000000000000e+01" rms="0.0000000000000000e+00" purity="5.0299513339996338e-01" nType="0">
              <Node pos="l" depth="2" NCoef="0" IVar="5" Cut="1.7991400957107544e+00" cType="0" res="-9.9000000000000000e+01" rms="0.0000000000000000e+00" purity="5.2038639783859253e-01" nType="0">
                <Node pos="l" depth="3" NCoef="0" IVar="-1" Cut="0.0000000000000000e+00" cType="1" res="-9.9000000000000000e+01" rms="0.0000000000000000e+00" purity="5.6407481431961060e-01" nType="1"/>
                <Node pos="r" depth="3" NCoef="0" IVar="-1" Cut="0.0000000000000000e+00" cType="1" res="-9.9000000000000000e+01" rms="0.0000000000000000e+00" purity="4.9625334143638611e-01" nType="-1"/>
              </Node>
              <Node pos="r" depth="2" NCoef="0" IVar="2" Cut="2.2843708801269531e+02" cType="1" res="-9.9000000000000000e+01" rms="0.0000000000000000e+00" purity="4.9861922860145569e-01" nType="0">
                <Node pos="l" depth="3" NCoef="0" IVar="3" Cut="1.3379611206054688e+02" cType="1" res="-9.9000000000000000e+01" rms="0.0000000000000000e+00" purity="5.0279414653778076e-01" nType="0">
                  <Node pos="l" depth="4" NCoef="0" IVar="-1" Cut="0.0000000000000000e+00" cType="1" res="-9.9000000000000000e+01" rms="0.0000000000000000e+00" purity="5.2723497152328491e-01" nType="1"/>
                  <Node pos="r" depth="4" NCoef="0" IVar="-1" Cut="0.0000000000000000e+00" cType="1" res="-9.9000000000000000e+01" rms="0.0000000000000000e+00" purity="4.9934479594230652e-01" nType="-1"/>
                </Node>
                <Node pos="r" depth="3" NCoef="0" IVar="-1" Cut="0.0000000000000000e+00" cType="1" res="-9.9000000000000000e+01" rms="0.0000000000000000e+00" purity="4.5523056387901306e-01" nType="-1"/>
              </Node>
            </Node>
            <Node pos="r" depth="1" NCoef="0" IVar="2" Cut="1.5364105224609375e+02" cType="0" res="-9.9000000000000000e+01" rms="0.0000000000000000e+00" purity="4.8368200659751892e-01" nType="0">
              <Node pos="l" depth="2" NCoef="0" IVar="3" Cut="1.9018717956542969e+02" cType="1" res="-9.9000000000000000e+01" rms="0.0000000000000000e+00" purity="5.0438982248306274e-01" nType="0">
                <Node pos="l" depth="3" NCoef="0" IVar="-1" Cut="0.0000000000000000e+00" cType="1" res="-9.9000000000000000e+01" rms="0.0000000000000000e+00" purity="5.3069394826889038e-01" nType="1"/>
                <Node pos="r" depth="3" NCoef="0" IVar="-1" Cut="0.0000000000000000e+00" cType="1" res="-9.9000000000000000e+01" rms="0.0000000000000000e+00" purity="4.6918871998786926e-01" nType="-1"/>
              </Node>
              <Node pos="r" depth="2" NCoef="0" IVar="-1" Cut="8.3420494079589844e+01" cType="1" res="-9.9000000000000000e+01" rms="0.0000000000000000e+00" purity="4.6005418896675110e-01" nType="-1"/>
            </Node>
          </Node>
        </BinaryTree>
        <BinaryTree type="DecisionTree" boostWeight="1.0641435963355038e-02" itree="93">
          <Node pos="s" depth="0" NCoef="0" IVar="5" Cut="9.7103297710418701e-01" cType="0" res="-9.9000000000000000e+01" rms="0.0000000000000000e+00" purity="5.0002145767211914e-01" nType="0">
            <Node pos="l" depth="1" NCoef="0" IVar="6" Cut="1.2175170183181763e+00" cType="1" res="-9.9000000000000000e+01" rms="0.0000000000000000e+00" purity="5.0475513935089111e-01" nType="0">
              <Node pos="l" depth="2" NCoef="0" IVar="2" Cut="2.2122898864746094e+02" cType="0" res="-9.9000000000000000e+01" rms="0.0000000000000000e+00" purity="5.2115184068679810e-01" nType="0">
                <Node pos="l" depth="3" NCoef="0" IVar="-1" Cut="0.0000000000000000e+00" cType="1" res="-9.9000000000000000e+01" rms="0.0000000000000000e+00" purity="5.4819267988204956e-01" nType="1"/>
                <Node pos="r" depth="3" NCoef="0" IVar="-1" Cut="0.0000000000000000e+00" cType="1" res="-9.9000000000000000e+01" rms="0.0000000000000000e+00" purity="4.8551541566848755e-01" nType="-1"/>
              </Node>
              <Node pos="r" depth="2" NCoef="0" IVar="2" Cut="2.2843708801269531e+02" cType="1" res="-9.9000000000000000e+01" rms="0.0000000000000000e+00" purity="5.0063055753707886e-01" nType="0">
                <Node pos="l" depth="3" NCoef="0" IVar="-1" Cut="2.0532461547851562e+02" cType="0" res="-9.9000000000000000e+01" rms="0.0000000000000000e+00" purity="5.0473761558532715e-01" nType="1"/>
                <Node pos="r" depth="3" NCoef="0" IVar="-1" Cut="0.0000000000000000e+00" cType="1" res="-9.9000000000000000e+01" rms="0.0000000000000000e+00" purity="4.5794126391410828e-01" nType="-1"/>
              </Node>
            </Node>
            <Node pos="r" depth="1" NCoef="0" IVar="2" Cut="1.5364105224609375e+02" cType="0" res="-9.9000000000000000e+01" rms="0.0000000000000000e+00" purity="4.8465871810913086e-01" nType="0">
              <Node pos="l" depth="2" NCoef="0" IVar="3" Cut="1.9018717956542969e+02" cType="1" res="-9.9000000000000000e+01" rms="0.0000000000000000e+00" purity="5.0402712821960449e-01" nType="0">
                <Node pos="l" depth="3" NCoef="0" IVar="-1" Cut="0.0000000000000000e+00" cType="1" res="-9.9000000000000000e+01" rms="0.0000000000000000e+00" purity="5.2818453311920166e-01" nType="1"/>
                <Node pos="r" depth="3" NCoef="0" IVar="-1" Cut="0.0000000000000000e+00" cType="1" res="-9.9000000000000000e+01" rms="0.0000000000000000e+00" purity="4.7169885039329529e-01" nType="-1"/>
              </Node>
              <Node pos="r" depth="2" NCoef="0" IVar="-1" Cut="8.3420494079589844e+01" cType="1" res="-9.9000000000000000e+01" rms="0.0000000000000000e+00" purity="4.6255710721015930e-01" nType="-1"/>
            </Node>
          </Node>
        </BinaryTree>
        <BinaryTree type="DecisionTree" boostWeight="1.4615436173559433e-02" itree="94">
          <Node pos="s" depth="0" NCoef="0" IVar="2" Cut="1.8247828674316406e+02" cType="0" res="-9.9000000000000000e+01" rms="0.0000000000000000e+00" purity="4.9888548254966736e-01" nType="0">
            <Node pos="l" depth="1" NCoef="0" IVar="1" Cut="7.4448097229003906e+01" cType="0" res="-9.9000000000000000e+01" rms="0.0000000000000000e+00" purity="5.0936543941497803e-01" nType="0">
              <Node pos="l" depth="2" NCoef="0" IVar="1" Cut="8.8090919494628906e+01" cType="1" res="-9.9000000000000000e+01" rms="0.0000000000000000e+00" purity="5.2001661062240601e-01" nType="0">
                <Node pos="l" depth="3" NCoef="0" IVar="-1" Cut="0.0000000000000000e+00" cType="1" res="-9.9000000000000000e+01" rms="0.0000000000000000e+00" purity="5.6064242124557495e-01" nType="1"/>
                <Node pos="r" depth="3" NCoef="0" IVar="0" Cut="1.6653649902343750e+02" cType="1" res="-9.9000000000000000e+01" rms="0.0000000000000000e+00" purity="5.0413495302200317e-01" nType="0">
                  <Node pos="l" depth="4" NCoef="0" IVar="-1" Cut="0.0000000000000000e+00" cType="1" res="-9.9000000000000000e+01" rms="0.0000000000000000e+00" purity="5.1668924093246460e-01" nType="1"/>
                  <Node pos="r" depth="4" NCoef="0" IVar="-1" Cut="0.0000000000000000e+00" cType="1" res="-9.9000000000000000e+01" rms="0.0000000000000000e+00" purity="4.7501644492149353e-01" nType="-1"/>
                </Node>
              </Node>
              <Node pos="r" depth="2" NCoef="0" IVar="6" Cut="1.6090415716171265e+00" cType="1" res="-9.9000000000000000e+01" rms="0.0000000000000000e+00" purity="4.8326325416564941e-01" nType="0">
                <Node pos="l" depth="3" NCoef="0" IVar="-1" Cut="0.0000000000000000e+00" cType="1" res="-9.9000000000000000e+01" rms="0.0000000000000000e+00" purity="5.1378625631332397e-01" nType="1"/>
                <Node pos="r" depth="3" NCoef="0" IVar="-1" Cut="0.0000000000000000e+00" cType="1" res="-9.9000000000000000e+01" rms="0.0000000000000000e+00" purity="4.5389002561569214e-01" nType="-1"/>
              </Node>
            </Node>
            <Node pos="r" depth="1" NCoef="0" IVar="2" Cut="1.1917708587646484e+02" cType="0" res="-9.9000000000000000e+01" rms="0.0000000000000000e+00" purity="4.9223569035530090e-01" nType="0">
              <Node pos="l" depth="2" NCoef="0" IVar="3" Cut="1.8057574462890625e+02" cType="1" res="-9.9000000000000000e+01" rms="0.0000000000000000e+00" purity="4.9560296535491943e-01" nType="0">
                <Node pos="l" depth="3" NCoef="0" IVar="0" Cut="5.6550231933593750e+01" cType="1" res="-9.9000000000000000e+01" rms="0.0000000000000000e+00" purity="5.0230777263641357e-01" nType="0">
                  <Node pos="l" depth="4" NCoef="0" IVar="-1" Cut="0.0000000000000000e+00" cType="1" res="-9.9000000000000000e+01" rms="0.0000000000000000e+00" purity="5.1573050022125244e-01" nType="1"/>
                  <Node pos="r" depth="4" NCoef="0" IVar="-1" Cut="0.0000000000000000e+00" cType="1" res="-9.9000000000000000e+01" rms="0.0000000000000000e+00" purity="4.9181044101715088e-01" nType="-1"/>
                </Node>
                <Node pos="r" depth="3" NCoef="0" IVar="5" Cut="1.1386336088180542e+00" cType="0" res="-9.9000000000000000e+01" rms="0.0000000000000000e+00" purity="4.7532933950424194e-01" nType="0">
                  <Node pos="l" depth="4" NCoef="0" IVar="-1" Cut="0.0000000000000000e+00" cType="1" res="-9.9000000000000000e+01" rms="0.0000000000000000e+00" purity="5.1207619905471802e-01" nType="1"/>
                  <Node pos="r" depth="4" NCoef="0" IVar="-1" Cut="0.0000000000000000e+00" cType="1" res="-9.9000000000000000e+01" rms="0.0000000000000000e+00" purity="4.2980122566223145e-01" nType="-1"/>
                </Node>
              </Node>
              <Node pos="r" depth="2" NCoef="0" IVar="-1" Cut="0.0000000000000000e+00" cType="1" res="-9.9000000000000000e+01" rms="0.0000000000000000e+00" purity="4.5509624481201172e-01" nType="-1"/>
            </Node>
          </Node>
        </BinaryTree>
        <BinaryTree type="DecisionTree" boostWeight="7.3652272343382201e-03" itree="95">
          <Node pos="s" depth="0" NCoef="0" IVar="1" Cut="4.0698322296142578e+01" cType="0" res="-9.9000000000000000e+01" rms="0.0000000000000000e+00" purity="4.9868440628051758e-01" nType="0">
            <Node pos="l" depth="1" NCoef="0" IVar="1" Cut="1.4459895324707031e+02" cType="1" res="-9.9000000000000000e+01" rms="0.0000000000000000e+00" purity="5.0067979097366333e-01" nType="0">
              <Node pos="l" depth="2" NCoef="0" IVar="6" Cut="1.2175170183181763e+00" cType="1" res="-9.9000000000000000e+01" rms="0.0000000000000000e+00" purity="5.0276094675064087e-01" nType="0">
                <Node pos="l" depth="3" NCoef="0" IVar="-1" Cut="1.7617355585098267e+00" cType="0" res="-9.9000000000000000e+01" rms="0.0000000000000000e+00" purity="5.2765440940856934e-01" nType="1"/>
                <Node pos="r" depth="3" NCoef="0" IVar="3" Cut="3.1861987304687500e+02" cType="1" res="-9.9000000000000000e+01" rms="0.0000000000000000e+00" purity="4.9774235486984253e-01" nType="0">
                  <Node pos="l" depth="4" NCoef="0" IVar="-1" Cut="0.0000000000000000e+00" cType="1" res="-9.9000000000000000e+01" rms="0.0000000000000000e+00" purity="5.0206476449966431e-01" nType="1"/>
                  <Node pos="r" depth="4" NCoef="0" IVar="-1" Cut="0.0000000000000000e+00" cType="1" res="-9.9000000000000000e+01" rms="0.0000000000000000e+00" purity="4.6215575933456421e-01" nType="-1"/>
                </Node>
              </Node>
              <Node pos="r" depth="2" NCoef="0" IVar="-1" Cut="0.0000000000000000e+00" cType="1" res="-9.9000000000000000e+01" rms="0.0000000000000000e+00" purity="4.6630129218101501e-01" nType="-1"/>
            </Node>
            <Node pos="r" depth="1" NCoef="0" IVar="-1" Cut="0.0000000000000000e+00" cType="1" res="-9.9000000000000000e+01" rms="0.0000000000000000e+00" purity="4.6663394570350647e-01" nType="-1"/>
          </Node>
        </BinaryTree>
        <BinaryTree type="DecisionTree" boostWeight="1.1955186539009833e-02" itree="96">
          <Node pos="s" depth="0" NCoef="0" IVar="6" Cut="2.5102562904357910e+00" cType="1" res="-9.9000000000000000e+01" rms="0.0000000000000000e+00" purity="4.9755510687828064e-01" nType="0">
            <Node pos="l" depth="1" NCoef="0" IVar="4" Cut="5.9423309564590454e-01" cType="0" res="-9.9000000000000000e+01" rms="0.0000000000000000e+00" purity="5.0361251831054688e-01" nType="0">
              <Node pos="l" depth="2" NCoef="0" IVar="6" Cut="1.1741071939468384e+00" cType="1" res="-9.9000000000000000e+01" rms="0.0000000000000000e+00" purity="5.0691962242126465e-01" nType="0">
                <Node pos="l" depth="3" NCoef="0" IVar="2" Cut="2.1451867675781250e+02" cType="0" res="-9.9000000000000000e+01" rms="0.0000000000000000e+00" purity="5.3225690126419067e-01" nType="0">
                  <Node pos="l" depth="4" NCoef="0" IVar="-1" Cut="0.0000000000000000e+00" cType="1" res="-9.9000000000000000e+01" rms="0.0000000000000000e+00" purity="5.5970424413681030e-01" nType="1"/>
                  <Node pos="r" depth="4" NCoef="0" IVar="-1" Cut="0.0000000000000000e+00" cType="1" res="-9.9000000000000000e+01" rms="0.0000000000000000e+00" purity="4.9969068169593811e-01" nType="-1"/>
                </Node>
                <Node pos="r" depth="3" NCoef="0" IVar="3" Cut="2.9770623779296875e+02" cType="1" res="-9.9000000000000000e+01" rms="0.0000000000000000e+00" purity="5.0011104345321655e-01" nType="0">
                  <Node pos="l" depth="4" NCoef="0" IVar="-1" Cut="0.0000000000000000e+00" cType="1" res="-9.9000000000000000e+01" rms="0.0000000000000000e+00" purity="5.0732219219207764e-01" nType="1"/>
                  <Node pos="r" depth="4" NCoef="0" IVar="-1" Cut="0.0000000000000000e+00" cType="1" res="-9.9000000000000000e+01" rms="0.0000000000000000e+00" purity="4.6821081638336182e-01" nType="-1"/>
                </Node>
              </Node>
              <Node pos="r" depth="2" NCoef="0" IVar="-1" Cut="0.0000000000000000e+00" cType="1" res="-9.9000000000000000e+01" rms="0.0000000000000000e+00" purity="4.6806329488754272e-01" nType="-1"/>
            </Node>
            <Node pos="r" depth="1" NCoef="0" IVar="3" Cut="2.0488217163085938e+02" cType="1" res="-9.9000000000000000e+01" rms="0.0000000000000000e+00" purity="4.8706457018852234e-01" nType="0">
              <Node pos="l" depth="2" NCoef="0" IVar="6" Cut="3.2942469120025635e+00" cType="1" res="-9.9000000000000000e+01" rms="0.0000000000000000e+00" purity="4.9326777458190918e-01" nType="0">
                <Node pos="l" depth="3" NCoef="0" IVar="4" Cut="2.0021171569824219e+00" cType="0" res="-9.9000000000000000e+01" rms="0.0000000000000000e+00" purity="4.9867650866508484e-01" nType="0">
                  <Node pos="l" depth="4" NCoef="0" IVar="-1" Cut="0.0000000000000000e+00" cType="1" res="-9.9000000000000000e+01" rms="0.0000000000000000e+00" purity="5.1493209600448608e-01" nType="1"/>
                  <Node pos="r" depth="4" NCoef="0" IVar="-1" Cut="0.0000000000000000e+00" cType="1" res="-9.9000000000000000e+01" rms="0.0000000000000000e+00" purity="4.7771632671356201e-01" nType="-1"/>
                </Node>
                <Node pos="r" depth="3" NCoef="0" IVar="-1" Cut="0.0000000000000000e+00" cType="1" res="-9.9000000000000000e+01" rms="0.0000000000000000e+00" purity="4.7059220075607300e-01" nType="-1"/>
              </Node>
              <Node pos="r" depth="2" NCoef="0" IVar="-1" Cut="0.0000000000000000e+00" cType="1" res="-9.9000000000000000e+01" rms="0.0000000000000000e+00" purity="4.5980283617973328e-01" nType="-1"/>
            </Node>
          </Node>
        </BinaryTree>
        <BinaryTree type="DecisionTree" boostWeight="7.3178781605406570e-03" itree="97">
          <Node pos="s" depth="0" NCoef="0" IVar="6" Cut="1.2175170183181763e+00" cType="1" res="-9.9000000000000000e+01" rms="0.0000000000000000e+00" purity="4.9713647365570068e-01" nType="0">
            <Node pos="l" depth="1" NCoef="0" IVar="5" Cut="1.8418854475021362e+00" cType="0" res="-9.9000000000000000e+01" rms="0.0000000000000000e+00" purity="5.1541620492935181e-01" nType="0">
              <Node pos="l" depth="2" NCoef="0" IVar="-1" Cut="0.0000000000000000e+00" cType="1" res="-9.9000000000000000e+01" rms="0.0000000000000000e+00" purity="5.6126993894577026e-01" nType="1"/>
              <Node pos="r" depth="2" NCoef="0" IVar="4" Cut="8.6462002992630005e-01" cType="0" res="-9.9000000000000000e+01" rms="0.0000000000000000e+00" purity="4.9536162614822388e-01" nType="0">
                <Node pos="l" depth="3" NCoef="0" IVar="-1" Cut="0.0000000000000000e+00" cType="1" res="-9.9000000000000000e+01" rms="0.0000000000000000e+00" purity="5.1732975244522095e-01" nType="1"/>
                <Node pos="r" depth="3" NCoef="0" IVar="-1" Cut="0.0000000000000000e+00" cType="1" res="-9.9000000000000000e+01" rms="0.0000000000000000e+00" purity="4.7413975000381470e-01" nType="-1"/>
              </Node>
            </Node>
            <Node pos="r" depth="1" NCoef="0" IVar="3" Cut="3.6080746459960938e+02" cType="1" res="-9.9000000000000000e+01" rms="0.0000000000000000e+00" purity="4.9342122673988342e-01" nType="0">
              <Node pos="l" depth="2" NCoef="0" IVar="5" Cut="7.7302688360214233e-01" cType="0" res="-9.9000000000000000e+01" rms="0.0000000000000000e+00" purity="4.9613898992538452e-01" nType="0">
                <Node pos="l" depth="3" NCoef="0" IVar="4" Cut="2.6004562377929688e+00" cType="1" res="-9.9000000000000000e+01" rms="0.0000000000000000e+00" purity="4.9860146641731262e-01" nType="0">
                  <Node pos="l" depth="4" NCoef="0" IVar="-1" Cut="0.0000000000000000e+00" cType="1" res="-9.9000000000000000e+01" rms="0.0000000000000000e+00" purity="5.0078362226486206e-01" nType="1"/>
                  <Node pos="r" depth="4" NCoef="0" IVar="-1" Cut="0.0000000000000000e+00" cType="1" res="-9.9000000000000000e+01" rms="0.0000000000000000e+00" purity="4.7490993142127991e-01" nType="-1"/>
                </Node>
                <Node pos="r" depth="3" NCoef="0" IVar="-1" Cut="0.0000000000000000e+00" cType="1" res="-9.9000000000000000e+01" rms="0.0000000000000000e+00" purity="4.6299999952316284e-01" nType="-1"/>
              </Node>
              <Node pos="r" depth="2" NCoef="0" IVar="-1" Cut="0.0000000000000000e+00" cType="1" res="-9.9000000000000000e+01" rms="0.0000000000000000e+00" purity="4.5805355906486511e-01" nType="-1"/>
            </Node>
          </Node>
        </BinaryTree>
        <BinaryTree type="DecisionTree" boostWeight="1.3147984144596845e-02" itree="98">
          <Node pos="s" depth="0" NCoef="0" IVar="6" Cut="1.2175170183181763e+00" cType="1" res="-9.9000000000000000e+01" rms="0.0000000000000000e+00" purity="4.9616262316703796e-01" nType="0">
            <Node pos="l" depth="1" NCoef="0" IVar="5" Cut="1.8418854475021362e+00" cType="0" res="-9.9000000000000000e+01" rms="0.0000000000000000e+00" purity="5.1489752531051636e-01" nType="0">
              <Node pos="l" depth="2" NCoef="0" IVar="-1" Cut="0.0000000000000000e+00" cType="1" res="-9.9000000000000000e+01" rms="0.0000000000000000e+00" purity="5.5946719646453857e-01" nType="1"/>
              <Node pos="r" depth="2" NCoef="0" IVar="4" Cut="8.2305663824081421e-01" cType="0" res="-9.9000000000000000e+01" rms="0.0000000000000000e+00" purity="4.9541097879409790e-01" nType="0">
                <Node pos="l" depth="3" NCoef="0" IVar="-1" Cut="0.0000000000000000e+00" cType="1" res="-9.9000000000000000e+01" rms="0.0000000000000000e+00" purity="5.1387590169906616e-01" nType="1"/>
                <Node pos="r" depth="3" NCoef="0" IVar="-1" Cut="0.0000000000000000e+00" cType="1" res="-9.9000000000000000e+01" rms="0.0000000000000000e+00" purity="4.7418910264968872e-01" nType="-1"/>
              </Node>
            </Node>
            <Node pos="r" depth="1" NCoef="0" IVar="3" Cut="2.9857754516601562e+02" cType="1" res="-9.9000000000000000e+01" rms="0.0000000000000000e+00" purity="4.9235549569129944e-01" nType="0">
              <Node pos="l" depth="2" NCoef="0" IVar="2" Cut="1.8147952270507812e+02" cType="0" res="-9.9000000000000000e+01" rms="0.0000000000000000e+00" purity="4.9583402276039124e-01" nType="0">
                <Node pos="l" depth="3" NCoef="0" IVar="1" Cut="7.5968429565429688e+01" cType="0" res="-9.9000000000000000e+01" rms="0.0000000000000000e+00" purity="5.1093596220016479e-01" nType="0">
                  <Node pos="l" depth="4" NCoef="0" IVar="-1" Cut="0.0000000000000000e+00" cType="1" res="-9.9000000000000000e+01" rms="0.0000000000000000e+00" purity="5.2590203285217285e-01" nType="1"/>
                  <Node pos="r" depth="4" NCoef="0" IVar="-1" Cut="0.0000000000000000e+00" cType="1" res="-9.9000000000000000e+01" rms="0.0000000000000000e+00" purity="4.7944837808609009e-01" nType="-1"/>
                </Node>
                <Node pos="r" depth="3" NCoef="0" IVar="0" Cut="1.1991658020019531e+02" cType="0" res="-9.9000000000000000e+01" rms="0.0000000000000000e+00" purity="4.9007415771484375e-01" nType="0">
                  <Node pos="l" depth="4" NCoef="0" IVar="-1" Cut="0.0000000000000000e+00" cType="1" res="-9.9000000000000000e+01" rms="0.0000000000000000e+00" purity="5.2645802497863770e-01" nType="1"/>
                  <Node pos="r" depth="4" NCoef="0" IVar="-1" Cut="0.0000000000000000e+00" cType="1" res="-9.9000000000000000e+01" rms="0.0000000000000000e+00" purity="4.8537802696228027e-01" nType="-1"/>
                </Node>
              </Node>
              <Node pos="r" depth="2" NCoef="0" IVar="-1" Cut="3.7336306762695312e+02" cType="1" res="-9.9000000000000000e+01" rms="0.0000000000000000e+00" purity="4.6851772069931030e-01" nType="-1"/>
            </Node>
          </Node>
        </BinaryTree>
        <BinaryTree type="DecisionTree" boostWeight="7.8875603017839416e-03" itree="99">
          <Node pos="s" depth="0" NCoef="0" IVar="6" Cut="1.1367207765579224e+00" cType="1" res="-9.9000000000000000e+01" rms="0.0000000000000000e+00" purity="4.9744448065757751e-01" nType="0">
            <Node pos="l" depth="1" NCoef="0" IVar="3" Cut="3.1209490966796875e+02" cType="0" res="-9.9000000000000000e+01" rms="0.0000000000000000e+00" purity="5.1540338993072510e-01" nType="0">
              <Node pos="l" depth="2" NCoef="0" IVar="-1" Cut="0.0000000000000000e+00" cType="1" res="-9.9000000000000000e+01" rms="0.0000000000000000e+00" purity="5.4553335905075073e-01" nType="1"/>
              <Node pos="r" depth="2" NCoef="0" IVar="-1" Cut="0.0000000000000000e+00" cType="1" res="-9.9000000000000000e+01" rms="0.0000000000000000e+00" purity="4.8892164230346680e-01" nType="-1"/>
            </Node>
            <Node pos="r" depth="1" NCoef="0" IVar="3" Cut="3.6527694702148438e+02" cType="1" res="-9.9000000000000000e+01" rms="0.0000000000000000e+00" purity="4.9438238143920898e-01" nType="0">
              <Node pos="l" depth="2" NCoef="0" IVar="2" Cut="1.2089050292968750e+02" cType="0" res="-9.9000000000000000e+01" rms="0.0000000000000000e+00" purity="4.9676340818405151e-01" nType="0">
                <Node pos="l" depth="3" NCoef="0" IVar="5" Cut="1.2657709121704102e+00" cType="0" res="-9.9000000000000000e+01" rms="0.0000000000000000e+00" purity="4.9921885132789612e-01" nType="0">
                  <Node pos="l" depth="4" NCoef="0" IVar="-1" Cut="0.0000000000000000e+00" cType="1" res="-9.9000000000000000e+01" rms="0.0000000000000000e+00" purity="5.1203006505966187e-01" nType="1"/>
                  <Node pos="r" depth="4" NCoef="0" IVar="-1" Cut="0.0000000000000000e+00" cType="1" res="-9.9000000000000000e+01" rms="0.0000000000000000e+00" purity="4.9499949812889099e-01" nType="-1"/>
                </Node>
                <Node pos="r" depth="3" NCoef="0" IVar="-1" Cut="0.0000000000000000e+00" cType="1" res="-9.9000000000000000e+01" rms="0.0000000000000000e+00" purity="4.6503967046737671e-01" nType="-1"/>
              </Node>
              <Node pos="r" depth="2" NCoef="0" IVar="-1" Cut="0.0000000000000000e+00" cType="1" res="-9.9000000000000000e+01" rms="0.0000000000000000e+00" purity="4.6411499381065369e-01" nType="-1"/>
            </Node>
          </Node>
        </BinaryTree>
        <BinaryTree type="DecisionTree" boostWeight="7.7534413278555351e-03" itree="100">
          <Node pos="s" depth="0" NCoef="0" IVar="1" Cut="4.0698322296142578e+01" cType="0" res="-9.9000000000000000e+01" rms="0.0000000000000000e+00" purity="4.9845200777053833e-01" nType="0">
            <Node pos="l" depth="1" NCoef="0" IVar="1" Cut="1.4459895324707031e+02" cType="1" res="-9.9000000000000000e+01" rms="0.0000000000000000e+00" purity="5.0022512674331665e-01" nType="0">
              <Node pos="l" depth="2" NCoef="0" IVar="6" Cut="1.1367207765579224e+00" cType="1" res="-9.9000000000000000e+01" rms="0.0000000000000000e+00" purity="5.0216716527938843e-01" nType="0">
                <Node pos="l" depth="3" NCoef="0" IVar="2" Cut="2.3033688354492188e+02" cType="0" res="-9.9000000000000000e+01" rms="0.0000000000000000e+00" purity="5.2727997303009033e-01" nType="0">
                  <Node pos="l" depth="4" NCoef="0" IVar="-1" Cut="0.0000000000000000e+00" cType="1" res="-9.9000000000000000e+01" rms="0.0000000000000000e+00" purity="5.5635148286819458e-01" nType="1"/>
                  <Node pos="r" depth="4" NCoef="0" IVar="-1" Cut="0.0000000000000000e+00" cType="1" res="-9.9000000000000000e+01" rms="0.0000000000000000e+00" purity="4.9545231461524963e-01" nType="-1"/>
                </Node>
                <Node pos="r" depth="3" NCoef="0" IVar="3" Cut="2.2821070861816406e+02" cType="1" res="-9.9000000000000000e+01" rms="0.0000000000000000e+00" purity="4.9793562293052673e-01" nType="0">
                  <Node pos="l" depth="4" NCoef="0" IVar="-1" Cut="0.0000000000000000e+00" cType="1" res="-9.9000000000000000e+01" rms="0.0000000000000000e+00" purity="5.0341320037841797e-01" nType="1"/>
                  <Node pos="r" depth="4" NCoef="0" IVar="-1" Cut="0.0000000000000000e+00" cType="1" res="-9.9000000000000000e+01" rms="0.0000000000000000e+00" purity="4.8243445158004761e-01" nType="-1"/>
                </Node>
              </Node>
              <Node pos="r" depth="2" NCoef="0" IVar="-1" Cut="0.0000000000000000e+00" cType="1" res="-9.9000000000000000e+01" rms="0.0000000000000000e+00" purity="4.6812182664871216e-01" nType="-1"/>
            </Node>
            <Node pos="r" depth="1" NCoef="0" IVar="-1" Cut="0.0000000000000000e+00" cType="1" res="-9.9000000000000000e+01" rms="0.0000000000000000e+00" purity="4.6998128294944763e-01" nType="-1"/>
          </Node>
        </BinaryTree>
        <BinaryTree type="DecisionTree" boostWeight="5.5820263373880163e-03" itree="101">
          <Node pos="s" depth="0" NCoef="0" IVar="6" Cut="1.1367207765579224e+00" cType="1" res="-9.9000000000000000e+01" rms="0.0000000000000000e+00" purity="4.9797540903091431e-01" nType="0">
            <Node pos="l" depth="1" NCoef="0" IVar="5" Cut="1.7617355585098267e+00" cType="0" res="-9.9000000000000000e+01" rms="0.0000000000000000e+00" purity="5.1578927040100098e-01" nType="0">
              <Node pos="l" depth="2" NCoef="0" IVar="-1" Cut="0.0000000000000000e+00" cType="1" res="-9.9000000000000000e+01" rms="0.0000000000000000e+00" purity="5.5092591047286987e-01" nType="1"/>
              <Node pos="r" depth="2" NCoef="0" IVar="-1" Cut="0.0000000000000000e+00" cType="1" res="-9.9000000000000000e+01" rms="0.0000000000000000e+00" purity="4.9694302678108215e-01" nType="-1"/>
            </Node>
            <Node pos="r" depth="1" NCoef="0" IVar="2" Cut="1.2035341644287109e+02" cType="0" res="-9.9000000000000000e+01" rms="0.0000000000000000e+00" purity="4.9493876099586487e-01" nType="0">
              <Node pos="l" depth="2" NCoef="0" IVar="3" Cut="3.6846252441406250e+02" cType="1" res="-9.9000000000000000e+01" rms="0.0000000000000000e+00" purity="4.9704349040985107e-01" nType="0">
                <Node pos="l" depth="3" NCoef="0" IVar="4" Cut="2.5480902194976807e+00" cType="1" res="-9.9000000000000000e+01" rms="0.0000000000000000e+00" purity="4.9940612912178040e-01" nType="0">
                  <Node pos="l" depth="4" NCoef="0" IVar="-1" Cut="0.0000000000000000e+00" cType="1" res="-9.9000000000000000e+01" rms="0.0000000000000000e+00" purity="5.0155949592590332e-01" nType="1"/>
                  <Node pos="r" depth="4" NCoef="0" IVar="-1" Cut="0.0000000000000000e+00" cType="1" res="-9.9000000000000000e+01" rms="0.0000000000000000e+00" purity="4.7750186920166016e-01" nType="-1"/>
                </Node>
                <Node pos="r" depth="3" NCoef="0" IVar="-1" Cut="0.0000000000000000e+00" cType="1" res="-9.9000000000000000e+01" rms="0.0000000000000000e+00" purity="4.6798580884933472e-01" nType="-1"/>
              </Node>
              <Node pos="r" depth="2" NCoef="0" IVar="-1" Cut="0.0000000000000000e+00" cType="1" res="-9.9000000000000000e+01" rms="0.0000000000000000e+00" purity="4.6441459655761719e-01" nType="-1"/>
            </Node>
          </Node>
        </BinaryTree>
        <BinaryTree type="DecisionTree" boostWeight="8.1267856653552198e-03" itree="102">
          <Node pos="s" depth="0" NCoef="0" IVar="6" Cut="1.1367207765579224e+00" cType="1" res="-9.9000000000000000e+01" rms="0.0000000000000000e+00" purity="4.9735471606254578e-01" nType="0">
            <Node pos="l" depth="1" NCoef="0" IVar="3" Cut="3.1209490966796875e+02" cType="0" res="-9.9000000000000000e+01" rms="0.0000000000000000e+00" purity="5.1622712612152100e-01" nType="0">
              <Node pos="l" depth="2" NCoef="0" IVar="-1" Cut="0.0000000000000000e+00" cType="1" res="-9.9000000000000000e+01" rms="0.0000000000000000e+00" purity="5.4274928569793701e-01" nType="1"/>
              <Node pos="r" depth="2" NCoef="0" IVar="-1" Cut="0.0000000000000000e+00" cType="1" res="-9.9000000000000000e+01" rms="0.0000000000000000e+00" purity="4.9293974041938782e-01" nType="-1"/>
            </Node>
            <Node pos="r" depth="1" NCoef="0" IVar="2" Cut="1.2035341644287109e+02" cType="0" res="-9.9000000000000000e+01" rms="0.0000000000000000e+00" purity="4.9413776397705078e-01" nType="0">
              <Node pos="l" depth="2" NCoef="0" IVar="3" Cut="2.1057644653320312e+02" cType="1" res="-9.9000000000000000e+01" rms="0.0000000000000000e+00" purity="4.9609091877937317e-01" nType="0">
                <Node pos="l" depth="3" NCoef="0" IVar="2" Cut="1.8020336914062500e+02" cType="0" res="-9.9000000000000000e+01" rms="0.0000000000000000e+00" purity="5.0174152851104736e-01" nType="0">
                  <Node pos="l" depth="4" NCoef="0" IVar="-1" Cut="0.0000000000000000e+00" cType="1" res="-9.9000000000000000e+01" rms="0.0000000000000000e+00" purity="5.2130502462387085e-01" nType="1"/>
                  <Node pos="r" depth="4" NCoef="0" IVar="-1" Cut="0.0000000000000000e+00" cType="1" res="-9.9000000000000000e+01" rms="0.0000000000000000e+00" purity="4.9613338708877563e-01" nType="-1"/>
                </Node>
                <Node pos="r" depth="3" NCoef="0" IVar="-1" Cut="1.0587832927703857e+00" cType="0" res="-9.9000000000000000e+01" rms="0.0000000000000000e+00" purity="4.8468032479286194e-01" nType="-1"/>
              </Node>
              <Node pos="r" depth="2" NCoef="0" IVar="-1" Cut="0.0000000000000000e+00" cType="1" res="-9.9000000000000000e+01" rms="0.0000000000000000e+00" purity="4.6580705046653748e-01" nType="-1"/>
            </Node>
          </Node>
        </BinaryTree>
        <BinaryTree type="DecisionTree" boostWeight="7.7123343952865738e-03" itree="103">
          <Node pos="s" depth="0" NCoef="0" IVar="6" Cut="1.1367207765579224e+00" cType="1" res="-9.9000000000000000e+01" rms="0.0000000000000000e+00" purity="4.9866649508476257e-01" nType="0">
            <Node pos="l" depth="1" NCoef="0" IVar="4" Cut="6.9836652278900146e-01" cType="0" res="-9.9000000000000000e+01" rms="0.0000000000000000e+00" purity="5.1642251014709473e-01" nType="0">
              <Node pos="l" depth="2" NCoef="0" IVar="-1" Cut="0.0000000000000000e+00" cType="1" res="-9.9000000000000000e+01" rms="0.0000000000000000e+00" purity="5.3570818901062012e-01" nType="1"/>
              <Node pos="r" depth="2" NCoef="0" IVar="-1" Cut="0.0000000000000000e+00" cType="1" res="-9.9000000000000000e+01" rms="0.0000000000000000e+00" purity="4.8460918664932251e-01" nType="-1"/>
            </Node>
            <Node pos="r" depth="1" NCoef="0" IVar="2" Cut="1.2035341644287109e+02" cType="0" res="-9.9000000000000000e+01" rms="0.0000000000000000e+00" purity="4.9564003944396973e-01" nType="0">
              <Node pos="l" depth="2" NCoef="0" IVar="3" Cut="2.1057644653320312e+02" cType="1" res="-9.9000000000000000e+01" rms="0.0000000000000000e+00" purity="4.9755635857582092e-01" nType="0">
                <Node pos="l" depth="3" NCoef="0" IVar="2" Cut="1.8020336914062500e+02" cType="0" res="-9.9000000000000000e+01" rms="0.0000000000000000e+00" purity="5.0288432836532593e-01" nType="0">
                  <Node pos="l" depth="4" NCoef="0" IVar="-1" Cut="0.0000000000000000e+00" cType="1" res="-9.9000000000000000e+01" rms="0.0000000000000000e+00" purity="5.1927495002746582e-01" nType="1"/>
                  <Node pos="r" depth="4" NCoef="0" IVar="-1" Cut="0.0000000000000000e+00" cType="1" res="-9.9000000000000000e+01" rms="0.0000000000000000e+00" purity="4.9818661808967590e-01" nType="-1"/>
                </Node>
                <Node pos="r" depth="3" NCoef="0" IVar="5" Cut="1.0587832927703857e+00" cType="0" res="-9.9000000000000000e+01" rms="0.0000000000000000e+00" purity="4.8679801821708679e-01" nType="0">
                  <Node pos="l" depth="4" NCoef="0" IVar="-1" Cut="0.0000000000000000e+00" cType="1" res="-9.9000000000000000e+01" rms="0.0000000000000000e+00" purity="5.0110083818435669e-01" nType="1"/>
                  <Node pos="r" depth="4" NCoef="0" IVar="-1" Cut="0.0000000000000000e+00" cType="1" res="-9.9000000000000000e+01" rms="0.0000000000000000e+00" purity="4.3733179569244385e-01" nType="-1"/>
                </Node>
              </Node>
              <Node pos="r" depth="2" NCoef="0" IVar="-1" Cut="0.0000000000000000e+00" cType="1" res="-9.9000000000000000e+01" rms="0.0000000000000000e+00" purity="4.6783524751663208e-01" nType="-1"/>
            </Node>
          </Node>
        </BinaryTree>
        <BinaryTree type="DecisionTree" boostWeight="8.4718011044362055e-03" itree="104">
          <Node pos="s" depth="0" NCoef="0" IVar="6" Cut="1.1367207765579224e+00" cType="1" res="-9.9000000000000000e+01" rms="0.0000000000000000e+00" purity="4.9901524186134338e-01" nType="0">
            <Node pos="l" depth="1" NCoef="0" IVar="5" Cut="1.7617355585098267e+00" cType="0" res="-9.9000000000000000e+01" rms="0.0000000000000000e+00" purity="5.1603680849075317e-01" nType="0">
              <Node pos="l" depth="2" NCoef="0" IVar="-1" Cut="0.0000000000000000e+00" cType="1" res="-9.9000000000000000e+01" rms="0.0000000000000000e+00" purity="5.4920011758804321e-01" nType="1"/>
              <Node pos="r" depth="2" NCoef="0" IVar="-1" Cut="0.0000000000000000e+00" cType="1" res="-9.9000000000000000e+01" rms="0.0000000000000000e+00" purity="4.9825093150138855e-01" nType="-1"/>
            </Node>
            <Node pos="r" depth="1" NCoef="0" IVar="3" Cut="2.2821070861816406e+02" cType="1" res="-9.9000000000000000e+01" rms="0.0000000000000000e+00" purity="4.9611386656761169e-01" nType="0">
              <Node pos="l" depth="2" NCoef="0" IVar="2" Cut="2.0105113220214844e+02" cType="0" res="-9.9000000000000000e+01" rms="0.0000000000000000e+00" purity="5.0056731700897217e-01" nType="0">
                <Node pos="l" depth="3" NCoef="0" IVar="-1" Cut="0.0000000000000000e+00" cType="1" res="-9.9000000000000000e+01" rms="0.0000000000000000e+00" purity="5.3546202182769775e-01" nType="1"/>
                <Node pos="r" depth="3" NCoef="0" IVar="3" Cut="1.9428086853027344e+02" cType="1" res="-9.9000000000000000e+01" rms="0.0000000000000000e+00" purity="4.9731922149658203e-01" nType="0">
                  <Node pos="l" depth="4" NCoef="0" IVar="-1" Cut="0.0000000000000000e+00" cType="1" res="-9.9000000000000000e+01" rms="0.0000000000000000e+00" purity="5.0207364559173584e-01" nType="1"/>
                  <Node pos="r" depth="4" NCoef="0" IVar="-1" Cut="0.0000000000000000e+00" cType="1" res="-9.9000000000000000e+01" rms="0.0000000000000000e+00" purity="4.5815604925155640e-01" nType="-1"/>
                </Node>
              </Node>
              <Node pos="r" depth="2" NCoef="0" IVar="6" Cut="1.7779605388641357e+00" cType="1" res="-9.9000000000000000e+01" rms="0.0000000000000000e+00" purity="4.8324722051620483e-01" nType="0">
                <Node pos="l" depth="3" NCoef="0" IVar="1" Cut="8.5862594604492188e+01" cType="1" res="-9.9000000000000000e+01" rms="0.0000000000000000e+00" purity="5.0397306680679321e-01" nType="0">
                  <Node pos="l" depth="4" NCoef="0" IVar="-1" Cut="0.0000000000000000e+00" cType="1" res="-9.9000000000000000e+01" rms="0.0000000000000000e+00" purity="5.1996117830276489e-01" nType="1"/>
                  <Node pos="r" depth="4" NCoef="0" IVar="-1" Cut="0.0000000000000000e+00" cType="1" res="-9.9000000000000000e+01" rms="0.0000000000000000e+00" purity="4.8683834075927734e-01" nType="-1"/>
                </Node>
                <Node pos="r" depth="3" NCoef="0" IVar="-1" Cut="1.7975122070312500e+02" cType="1" res="-9.9000000000000000e+01" rms="0.0000000000000000e+00" purity="4.6460965275764465e-01" nType="-1"/>
              </Node>
            </Node>
          </Node>
        </BinaryTree>
        <BinaryTree type="DecisionTree" boostWeight="6.3492452396090313e-03" itree="105">
          <Node pos="s" depth="0" NCoef="0" IVar="6" Cut="1.1367207765579224e+00" cType="1" res="-9.9000000000000000e+01" rms="0.0000000000000000e+00" purity="4.9827885627746582e-01" nType="0">
            <Node pos="l" depth="1" NCoef="0" IVar="4" Cut="6.9836652278900146e-01" cType="0" res="-9.9000000000000000e+01" rms="0.0000000000000000e+00" purity="5.1670080423355103e-01" nType="0">
              <Node pos="l" depth="2" NCoef="0" IVar="-1" Cut="0.0000000000000000e+00" cType="1" res="-9.9000000000000000e+01" rms="0.0000000000000000e+00" purity="5.3468883037567139e-01" nType="1"/>
              <Node pos="r" depth="2" NCoef="0" IVar="-1" Cut="0.0000000000000000e+00" cType="1" res="-9.9000000000000000e+01" rms="0.0000000000000000e+00" purity="4.8704287409782410e-01" nType="-1"/>
            </Node>
            <Node pos="r" depth="1" NCoef="0" IVar="2" Cut="1.2035341644287109e+02" cType="0" res="-9.9000000000000000e+01" rms="0.0000000000000000e+00" purity="4.9513894319534302e-01" nType="0">
              <Node pos="l" depth="2" NCoef="0" IVar="3" Cut="3.6846252441406250e+02" cType="1" res="-9.9000000000000000e+01" rms="0.0000000000000000e+00" purity="4.9701371788978577e-01" nType="0">
                <Node pos="l" depth="3" NCoef="0" IVar="3" Cut="1.3263659667968750e+02" cType="1" res="-9.9000000000000000e+01" rms="0.0000000000000000e+00" purity="4.9910885095596313e-01" nType="0">
                  <Node pos="l" depth="4" NCoef="0" IVar="-1" Cut="0.0000000000000000e+00" cType="1" res="-9.9000000000000000e+01" rms="0.0000000000000000e+00" purity="5.2079063653945923e-01" nType="1"/>
                  <Node pos="r" depth="4" NCoef="0" IVar="-1" Cut="0.0000000000000000e+00" cType="1" res="-9.9000000000000000e+01" rms="0.0000000000000000e+00" purity="4.9713000655174255e-01" nType="-1"/>
                </Node>
                <Node pos="r" depth="3" NCoef="0" IVar="-1" Cut="0.0000000000000000e+00" cType="1" res="-9.9000000000000000e+01" rms="0.0000000000000000e+00" purity="4.7124502062797546e-01" nType="-1"/>
              </Node>
              <Node pos="r" depth="2" NCoef="0" IVar="-1" Cut="0.0000000000000000e+00" cType="1" res="-9.9000000000000000e+01" rms="0.0000000000000000e+00" purity="4.6794161200523376e-01" nType="-1"/>
            </Node>
          </Node>
        </BinaryTree>
        <BinaryTree type="DecisionTree" boostWeight="5.8556663479137402e-03" itree="106">
          <Node pos="s" depth="0" NCoef="0" IVar="6" Cut="1.1367207765579224e+00" cType="1" res="-9.9000000000000000e+01" rms="0.0000000000000000e+00" purity="4.9941998720169067e-01" nType="0">
            <Node pos="l" depth="1" NCoef="0" IVar="2" Cut="2.3033688354492188e+02" cType="0" res="-9.9000000000000000e+01" rms="0.0000000000000000e+00" purity="5.1638245582580566e-01" nType="0">
              <Node pos="l" depth="2" NCoef="0" IVar="-1" Cut="0.0000000000000000e+00" cType="1" res="-9.9000000000000000e+01" rms="0.0000000000000000e+00" purity="5.3913092613220215e-01" nType="1"/>
              <Node pos="r" depth="2" NCoef="0" IVar="-1" Cut="0.0000000000000000e+00" cType="1" res="-9.9000000000000000e+01" rms="0.0000000000000000e+00" purity="4.9239090085029602e-01" nType="-1"/>
            </Node>
            <Node pos="r" depth="1" NCoef="0" IVar="2" Cut="1.2035341644287109e+02" cType="0" res="-9.9000000000000000e+01" rms="0.0000000000000000e+00" purity="4.9652895331382751e-01" nType="0">
              <Node pos="l" depth="2" NCoef="0" IVar="3" Cut="3.6846252441406250e+02" cType="1" res="-9.9000000000000000e+01" rms="0.0000000000000000e+00" purity="4.9838981032371521e-01" nType="0">
                <Node pos="l" depth="3" NCoef="0" IVar="0" Cut="1.5185124206542969e+02" cType="0" res="-9.9000000000000000e+01" rms="0.0000000000000000e+00" purity="5.0046342611312866e-01" nType="0">
                  <Node pos="l" depth="4" NCoef="0" IVar="-1" Cut="0.0000000000000000e+00" cType="1" res="-9.9000000000000000e+01" rms="0.0000000000000000e+00" purity="5.1800841093063354e-01" nType="1"/>
                  <Node pos="r" depth="4" NCoef="0" IVar="-1" Cut="0.0000000000000000e+00" cType="1" res="-9.9000000000000000e+01" rms="0.0000000000000000e+00" purity="4.9795657396316528e-01" nType="-1"/>
                </Node>
                <Node pos="r" depth="3" NCoef="0" IVar="-1" Cut="0.0000000000000000e+00" cType="1" res="-9.9000000000000000e+01" rms="0.0000000000000000e+00" purity="4.7288328409194946e-01" nType="-1"/>
              </Node>
              <Node pos="r" depth="2" NCoef="0" IVar="-1" Cut="0.0000000000000000e+00" cType="1" res="-9.9000000000000000e+01" rms="0.0000000000000000e+00" purity="4.6952679753303528e-01" nType="-1"/>
            </Node>
          </Node>
        </BinaryTree>
        <BinaryTree type="DecisionTree" boostWeight="5.9189965955683795e-03" itree="107">
          <Node pos="s" depth="0" NCoef="0" IVar="1" Cut="1.4304244995117188e+02" cType="1" res="-9.9000000000000000e+01" rms="0.0000000000000000e+00" purity="5.0041103363037109e-01" nType="0">
            <Node pos="l" depth="1" NCoef="0" IVar="6" Cut="1.2175170183181763e+00" cType="1" res="-9.9000000000000000e+01" rms="0.0000000000000000e+00" purity="5.0206059217453003e-01" nType="0">
              <Node pos="l" depth="2" NCoef="0" IVar="-1" Cut="1.7617355585098267e+00" cType="0" res="-9.9000000000000000e+01" rms="0.0000000000000000e+00" purity="5.2353185415267944e-01" nType="1"/>
              <Node pos="r" depth="2" NCoef="0" IVar="2" Cut="2.2843708801269531e+02" cType="1" res="-9.9000000000000000e+01" rms="0.0000000000000000e+00" purity="4.9797922372817993e-01" nType="0">
                <Node pos="l" depth="3" NCoef="0" IVar="2" Cut="1.2104878997802734e+02" cType="0" res="-9.9000000000000000e+01" rms="0.0000000000000000e+00" purity="5.0051224231719971e-01" nType="0">
                  <Node pos="l" depth="4" NCoef="0" IVar="-1" Cut="0.0000000000000000e+00" cType="1" res="-9.9000000000000000e+01" rms="0.0000000000000000e+00" purity="5.0234586000442505e-01" nType="1"/>
                  <Node pos="r" depth="4" NCoef="0" IVar="-1" Cut="0.0000000000000000e+00" cType="1" res="-9.9000000000000000e+01" rms="0.0000000000000000e+00" purity="4.7769096493721008e-01" nType="-1"/>
                </Node>
                <Node pos="r" depth="3" NCoef="0" IVar="-1" Cut="0.0000000000000000e+00" cType="1" res="-9.9000000000000000e+01" rms="0.0000000000000000e+00" purity="4.6403121948242188e-01" nType="-1"/>
              </Node>
            </Node>
            <Node pos="r" depth="1" NCoef="0" IVar="-1" Cut="0.0000000000000000e+00" cType="1" res="-9.9000000000000000e+01" rms="0.0000000000000000e+00" purity="4.7384896874427795e-01" nType="-1"/>
          </Node>
        </BinaryTree>
        <BinaryTree type="DecisionTree" boostWeight="5.5772310322754516e-03" itree="108">
          <Node pos="s" depth="0" NCoef="0" IVar="6" Cut="1.1367207765579224e+00" cType="1" res="-9.9000000000000000e+01" rms="0.0000000000000000e+00" purity="4.9943330883979797e-01" nType="0">
            <Node pos="l" depth="1" NCoef="0" IVar="3" Cut="3.1209490966796875e+02" cType="0" res="-9.9000000000000000e+01" rms="0.0000000000000000e+00" purity="5.1522648334503174e-01" nType="0">
              <Node pos="l" depth="2" NCoef="0" IVar="-1" Cut="0.0000000000000000e+00" cType="1" res="-9.9000000000000000e+01" rms="0.0000000000000000e+00" purity="5.3887987136840820e-01" nType="1"/>
              <Node pos="r" depth="2" NCoef="0" IVar="-1" Cut="0.0000000000000000e+00" cType="1" res="-9.9000000000000000e+01" rms="0.0000000000000000e+00" purity="4.9446719884872437e-01" nType="-1"/>
            </Node>
            <Node pos="r" depth="1" NCoef="0" IVar="3" Cut="3.6527694702148438e+02" cType="1" res="-9.9000000000000000e+01" rms="0.0000000000000000e+00" purity="4.9674215912818909e-01" nType="0">
              <Node pos="l" depth="2" NCoef="0" IVar="5" Cut="7.7302688360214233e-01" cType="0" res="-9.9000000000000000e+01" rms="0.0000000000000000e+00" purity="4.9853122234344482e-01" nType="0">
                <Node pos="l" depth="3" NCoef="0" IVar="3" Cut="1.4271018981933594e+02" cType="1" res="-9.9000000000000000e+01" rms="0.0000000000000000e+00" purity="5.0062328577041626e-01" nType="0">
                  <Node pos="l" depth="4" NCoef="0" IVar="-1" Cut="0.0000000000000000e+00" cType="1" res="-9.9000000000000000e+01" rms="0.0000000000000000e+00" purity="5.1099848747253418e-01" nType="1"/>
                  <Node pos="r" depth="4" NCoef="0" IVar="-1" Cut="0.0000000000000000e+00" cType="1" res="-9.9000000000000000e+01" rms="0.0000000000000000e+00" purity="4.9783986806869507e-01" nType="-1"/>
                </Node>
                <Node pos="r" depth="3" NCoef="0" IVar="-1" Cut="0.0000000000000000e+00" cType="1" res="-9.9000000000000000e+01" rms="0.0000000000000000e+00" purity="4.6975132822990417e-01" nType="-1"/>
              </Node>
              <Node pos="r" depth="2" NCoef="0" IVar="-1" Cut="0.0000000000000000e+00" cType="1" res="-9.9000000000000000e+01" rms="0.0000000000000000e+00" purity="4.7399049997329712e-01" nType="-1"/>
            </Node>
          </Node>
        </BinaryTree>
        <BinaryTree type="DecisionTree" boostWeight="7.2456564983709032e-03" itree="109">
          <Node pos="s" depth="0" NCoef="0" IVar="4" Cut="5.9698092937469482e-01" cType="0" res="-9.9000000000000000e+01" rms="0.0000000000000000e+00" purity="5.0023007392883301e-01" nType="0">
            <Node pos="l" depth="1" NCoef="0" IVar="6" Cut="1.1415419578552246e+00" cType="1" res="-9.9000000000000000e+01" rms="0.0000000000000000e+00" purity="5.0192040205001831e-01" nType="0">
              <Node pos="l" depth="2" NCoef="0" IVar="-1" Cut="2.1451867675781250e+02" cType="0" res="-9.9000000000000000e+01" rms="0.0000000000000000e+00" purity="5.2859348058700562e-01" nType="1"/>
              <Node pos="r" depth="2" NCoef="0" IVar="4" Cut="2.6413934230804443e+00" cType="1" res="-9.9000000000000000e+01" rms="0.0000000000000000e+00" purity="4.9822783470153809e-01" nType="0">
                <Node pos="l" depth="3" NCoef="0" IVar="1" Cut="8.5177398681640625e+01" cType="1" res="-9.9000000000000000e+01" rms="0.0000000000000000e+00" purity="5.0012940168380737e-01" nType="0">
                  <Node pos="l" depth="4" NCoef="0" IVar="-1" Cut="0.0000000000000000e+00" cType="1" res="-9.9000000000000000e+01" rms="0.0000000000000000e+00" purity="5.0801175832748413e-01" nType="1"/>
                  <Node pos="r" depth="4" NCoef="0" IVar="-1" Cut="0.0000000000000000e+00" cType="1" res="-9.9000000000000000e+01" rms="0.0000000000000000e+00" purity="4.9307298660278320e-01" nType="-1"/>
                </Node>
                <Node pos="r" depth="3" NCoef="0" IVar="-1" Cut="0.0000000000000000e+00" cType="1" res="-9.9000000000000000e+01" rms="0.0000000000000000e+00" purity="4.7450560331344604e-01" nType="-1"/>
              </Node>
            </Node>
            <Node pos="r" depth="1" NCoef="0" IVar="-1" Cut="0.0000000000000000e+00" cType="1" res="-9.9000000000000000e+01" rms="0.0000000000000000e+00" purity="4.7440704703330994e-01" nType="-1"/>
          </Node>
        </BinaryTree>
        <BinaryTree type="DecisionTree" boostWeight="5.4215432694026166e-03" itree="110">
          <Node pos="s" depth="0" NCoef="0" IVar="1" Cut="4.0698322296142578e+01" cType="0" res="-9.9000000000000000e+01" rms="0.0000000000000000e+00" purity="5.0033938884735107e-01" nType="0">
            <Node pos="l" depth="1" NCoef="0" IVar="1" Cut="1.4459895324707031e+02" cType="1" res="-9.9000000000000000e+01" rms="0.0000000000000000e+00" purity="5.0199395418167114e-01" nType="0">
              <Node pos="l" depth="2" NCoef="0" IVar="6" Cut="1.2175170183181763e+00" cType="1" res="-9.9000000000000000e+01" rms="0.0000000000000000e+00" purity="5.0360870361328125e-01" nType="0">
                <Node pos="l" depth="3" NCoef="0" IVar="-1" Cut="1.7617355585098267e+00" cType="0" res="-9.9000000000000000e+01" rms="0.0000000000000000e+00" purity="5.2365976572036743e-01" nType="1"/>
                <Node pos="r" depth="3" NCoef="0" IVar="2" Cut="2.2843708801269531e+02" cType="1" res="-9.9000000000000000e+01" rms="0.0000000000000000e+00" purity="4.9957084655761719e-01" nType="0">
                  <Node pos="l" depth="4" NCoef="0" IVar="-1" Cut="0.0000000000000000e+00" cType="1" res="-9.9000000000000000e+01" rms="0.0000000000000000e+00" purity="5.0169992446899414e-01" nType="1"/>
                  <Node pos="r" depth="4" NCoef="0" IVar="-1" Cut="0.0000000000000000e+00" cType="1" res="-9.9000000000000000e+01" rms="0.0000000000000000e+00" purity="4.7187399864196777e-01" nType="-1"/>
                </Node>
              </Node>
              <Node pos="r" depth="2" NCoef="0" IVar="-1" Cut="0.0000000000000000e+00" cType="1" res="-9.9000000000000000e+01" rms="0.0000000000000000e+00" purity="4.7527176141738892e-01" nType="-1"/>
            </Node>
            <Node pos="r" depth="1" NCoef="0" IVar="-1" Cut="0.0000000000000000e+00" cType="1" res="-9.9000000000000000e+01" rms="0.0000000000000000e+00" purity="4.7376760840415955e-01" nType="-1"/>
          </Node>
        </BinaryTree>
        <BinaryTree type="DecisionTree" boostWeight="1.2311516924222422e-02" itree="111">
          <Node pos="s" depth="0" NCoef="0" IVar="2" Cut="1.4594476318359375e+02" cType="0" res="-9.9000000000000000e+01" rms="0.0000000000000000e+00" purity="4.9943512678146362e-01" nType="0">
            <Node pos="l" depth="1" NCoef="0" IVar="1" Cut="7.5499473571777344e+01" cType="0" res="-9.9000000000000000e+01" rms="0.0000000000000000e+00" purity="5.0316947698593140e-01" nType="0">
              <Node pos="l" depth="2" NCoef="0" IVar="1" Cut="8.6569099426269531e+01" cType="1" res="-9.9000000000000000e+01" rms="0.0000000000000000e+00" purity="5.0822955369949341e-01" nType="0">
                <Node pos="l" depth="3" NCoef="0" IVar="-1" Cut="1.2393977642059326e+00" cType="0" res="-9.9000000000000000e+01" rms="0.0000000000000000e+00" purity="5.3446745872497559e-01" nType="1"/>
                <Node pos="r" depth="3" NCoef="0" IVar="5" Cut="1.3287487030029297e+00" cType="1" res="-9.9000000000000000e+01" rms="0.0000000000000000e+00" purity="5.0053435564041138e-01" nType="0">
                  <Node pos="l" depth="4" NCoef="0" IVar="-1" Cut="0.0000000000000000e+00" cType="1" res="-9.9000000000000000e+01" rms="0.0000000000000000e+00" purity="5.0705993175506592e-01" nType="1"/>
                  <Node pos="r" depth="4" NCoef="0" IVar="-1" Cut="0.0000000000000000e+00" cType="1" res="-9.9000000000000000e+01" rms="0.0000000000000000e+00" purity="4.8579972982406616e-01" nType="-1"/>
                </Node>
              </Node>
              <Node pos="r" depth="2" NCoef="0" IVar="2" Cut="2.1259437561035156e+02" cType="1" res="-9.9000000000000000e+01" rms="0.0000000000000000e+00" purity="4.9177527427673340e-01" nType="0">
                <Node pos="l" depth="3" NCoef="0" IVar="6" Cut="2.5233201980590820e+00" cType="1" res="-9.9000000000000000e+01" rms="0.0000000000000000e+00" purity="5.0051409006118774e-01" nType="0">
                  <Node pos="l" depth="4" NCoef="0" IVar="-1" Cut="0.0000000000000000e+00" cType="1" res="-9.9000000000000000e+01" rms="0.0000000000000000e+00" purity="5.1252216100692749e-01" nType="1"/>
                  <Node pos="r" depth="4" NCoef="0" IVar="-1" Cut="0.0000000000000000e+00" cType="1" res="-9.9000000000000000e+01" rms="0.0000000000000000e+00" purity="4.8145541548728943e-01" nType="-1"/>
                </Node>
                <Node pos="r" depth="3" NCoef="0" IVar="-1" Cut="0.0000000000000000e+00" cType="1" res="-9.9000000000000000e+01" rms="0.0000000000000000e+00" purity="4.6734818816184998e-01" nType="-1"/>
              </Node>
            </Node>
            <Node pos="r" depth="1" NCoef="0" IVar="0" Cut="4.8700023651123047e+01" cType="0" res="-9.9000000000000000e+01" rms="0.0000000000000000e+00" purity="4.8847079277038574e-01" nType="0">
              <Node pos="l" depth="2" NCoef="0" IVar="3" Cut="1.4192326354980469e+02" cType="1" res="-9.9000000000000000e+01" rms="0.0000000000000000e+00" purity="5.0491708517074585e-01" nType="0">
                <Node pos="l" depth="3" NCoef="0" IVar="-1" Cut="0.0000000000000000e+00" cType="1" res="-9.9000000000000000e+01" rms="0.0000000000000000e+00" purity="5.2728366851806641e-01" nType="1"/>
                <Node pos="r" depth="3" NCoef="0" IVar="-1" Cut="0.0000000000000000e+00" cType="1" res="-9.9000000000000000e+01" rms="0.0000000000000000e+00" purity="4.6736931800842285e-01" nType="-1"/>
              </Node>
              <Node pos="r" depth="2" NCoef="0" IVar="-1" Cut="0.0000000000000000e+00" cType="1" res="-9.9000000000000000e+01" rms="0.0000000000000000e+00" purity="4.6193915605545044e-01" nType="-1"/>
            </Node>
          </Node>
        </BinaryTree>
        <BinaryTree type="DecisionTree" boostWeight="4.2765335558095632e-03" itree="112">
          <Node pos="s" depth="0" NCoef="0" IVar="5" Cut="7.9553228616714478e-01" cType="0" res="-9.9000000000000000e+01" rms="0.0000000000000000e+00" purity="4.9889361858367920e-01" nType="0">
            <Node pos="l" depth="1" NCoef="0" IVar="5" Cut="2.1439433097839355e+00" cType="0" res="-9.9000000000000000e+01" rms="0.0000000000000000e+00" purity="5.0066125392913818e-01" nType="0">
              <Node pos="l" depth="2" NCoef="0" IVar="-1" Cut="0.0000000000000000e+00" cType="1" res="-9.9000000000000000e+01" rms="0.0000000000000000e+00" purity="5.2780771255493164e-01" nType="1"/>
              <Node pos="r" depth="2" NCoef="0" IVar="3" Cut="3.8812133789062500e+02" cType="1" res="-9.9000000000000000e+01" rms="0.0000000000000000e+00" purity="4.9904999136924744e-01" nType="0">
                <Node pos="l" depth="3" NCoef="0" IVar="0" Cut="1.8968885803222656e+02" cType="0" res="-9.9000000000000000e+01" rms="0.0000000000000000e+00" purity="5.0082737207412720e-01" nType="0">
                  <Node pos="l" depth="4" NCoef="0" IVar="-1" Cut="0.0000000000000000e+00" cType="1" res="-9.9000000000000000e+01" rms="0.0000000000000000e+00" purity="5.3116899728775024e-01" nType="1"/>
                  <Node pos="r" depth="4" NCoef="0" IVar="-1" Cut="0.0000000000000000e+00" cType="1" res="-9.9000000000000000e+01" rms="0.0000000000000000e+00" purity="4.9882316589355469e-01" nType="-1"/>
                </Node>
                <Node pos="r" depth="3" NCoef="0" IVar="-1" Cut="0.0000000000000000e+00" cType="1" res="-9.9000000000000000e+01" rms="0.0000000000000000e+00" purity="4.7791489958763123e-01" nType="-1"/>
              </Node>
            </Node>
            <Node pos="r" depth="1" NCoef="0" IVar="-1" Cut="0.0000000000000000e+00" cType="1" res="-9.9000000000000000e+01" rms="0.0000000000000000e+00" purity="4.7569829225540161e-01" nType="-1"/>
          </Node>
        </BinaryTree>
        <BinaryTree type="DecisionTree" boostWeight="9.9279255221527540e-03" itree="113">
          <Node pos="s" depth="0" NCoef="0" IVar="5" Cut="7.9553228616714478e-01" cType="0" res="-9.9000000000000000e+01" rms="0.0000000000000000e+00" purity="4.9975737929344177e-01" nType="0">
            <Node pos="l" depth="1" NCoef="0" IVar="6" Cut="1.7830904722213745e+00" cType="1" res="-9.9000000000000000e+01" rms="0.0000000000000000e+00" purity="5.0150924921035767e-01" nType="0">
              <Node pos="l" depth="2" NCoef="0" IVar="2" Cut="2.0301318359375000e+02" cType="0" res="-9.9000000000000000e+01" rms="0.0000000000000000e+00" purity="5.0963830947875977e-01" nType="0">
                <Node pos="l" depth="3" NCoef="0" IVar="1" Cut="9.9860969543457031e+01" cType="1" res="-9.9000000000000000e+01" rms="0.0000000000000000e+00" purity="5.2557373046875000e-01" nType="0">
                  <Node pos="l" depth="4" NCoef="0" IVar="-1" Cut="0.0000000000000000e+00" cType="1" res="-9.9000000000000000e+01" rms="0.0000000000000000e+00" purity="5.4179090261459351e-01" nType="1"/>
                  <Node pos="r" depth="4" NCoef="0" IVar="-1" Cut="0.0000000000000000e+00" cType="1" res="-9.9000000000000000e+01" rms="0.0000000000000000e+00" purity="4.9458530545234680e-01" nType="-1"/>
                </Node>
                <Node pos="r" depth="3" NCoef="0" IVar="4" Cut="1.1764036417007446e+00" cType="0" res="-9.9000000000000000e+01" rms="0.0000000000000000e+00" purity="4.9258050322532654e-01" nType="0">
                  <Node pos="l" depth="4" NCoef="0" IVar="-1" Cut="0.0000000000000000e+00" cType="1" res="-9.9000000000000000e+01" rms="0.0000000000000000e+00" purity="5.1709097623825073e-01" nType="1"/>
                  <Node pos="r" depth="4" NCoef="0" IVar="-1" Cut="0.0000000000000000e+00" cType="1" res="-9.9000000000000000e+01" rms="0.0000000000000000e+00" purity="4.7391700744628906e-01" nType="-1"/>
                </Node>
              </Node>
              <Node pos="r" depth="2" NCoef="0" IVar="2" Cut="2.0346542358398438e+02" cType="1" res="-9.9000000000000000e+01" rms="0.0000000000000000e+00" purity="4.9666047096252441e-01" nType="0">
                <Node pos="l" depth="3" NCoef="0" IVar="3" Cut="1.4801332092285156e+02" cType="1" res="-9.9000000000000000e+01" rms="0.0000000000000000e+00" purity="5.0035738945007324e-01" nType="0">
                  <Node pos="l" depth="4" NCoef="0" IVar="-1" Cut="0.0000000000000000e+00" cType="1" res="-9.9000000000000000e+01" rms="0.0000000000000000e+00" purity="5.1203918457031250e-01" nType="1"/>
                  <Node pos="r" depth="4" NCoef="0" IVar="-1" Cut="0.0000000000000000e+00" cType="1" res="-9.9000000000000000e+01" rms="0.0000000000000000e+00" purity="4.9501731991767883e-01" nType="-1"/>
                </Node>
                <Node pos="r" depth="3" NCoef="0" IVar="-1" Cut="0.0000000000000000e+00" cType="1" res="-9.9000000000000000e+01" rms="0.0000000000000000e+00" purity="4.6206107735633850e-01" nType="-1"/>
              </Node>
            </Node>
            <Node pos="r" depth="1" NCoef="0" IVar="-1" Cut="0.0000000000000000e+00" cType="1" res="-9.9000000000000000e+01" rms="0.0000000000000000e+00" purity="4.7676667571067810e-01" nType="-1"/>
          </Node>
        </BinaryTree>
        <BinaryTree type="DecisionTree" boostWeight="1.2076323846242012e-02" itree="114">
          <Node pos="s" depth="0" NCoef="0" IVar="2" Cut="1.4594476318359375e+02" cType="0" res="-9.9000000000000000e+01" rms="0.0000000000000000e+00" purity="5.0050014257431030e-01" nType="0">
            <Node pos="l" depth="1" NCoef="0" IVar="1" Cut="7.5499473571777344e+01" cType="0" res="-9.9000000000000000e+01" rms="0.0000000000000000e+00" purity="5.0431036949157715e-01" nType="0">
              <Node pos="l" depth="2" NCoef="0" IVar="2" Cut="2.4903721618652344e+02" cType="0" res="-9.9000000000000000e+01" rms="0.0000000000000000e+00" purity="5.0896102190017700e-01" nType="0">
                <Node pos="l" depth="3" NCoef="0" IVar="-1" Cut="0.0000000000000000e+00" cType="1" res="-9.9000000000000000e+01" rms="0.0000000000000000e+00" purity="5.4345524311065674e-01" nType="1"/>
                <Node pos="r" depth="3" NCoef="0" IVar="4" Cut="1.1050609350204468e+00" cType="0" res="-9.9000000000000000e+01" rms="0.0000000000000000e+00" purity="5.0389939546585083e-01" nType="0">
                  <Node pos="l" depth="4" NCoef="0" IVar="-1" Cut="0.0000000000000000e+00" cType="1" res="-9.9000000000000000e+01" rms="0.0000000000000000e+00" purity="5.1298505067825317e-01" nType="1"/>
                  <Node pos="r" depth="4" NCoef="0" IVar="-1" Cut="0.0000000000000000e+00" cType="1" res="-9.9000000000000000e+01" rms="0.0000000000000000e+00" purity="4.8745283484458923e-01" nType="-1"/>
                </Node>
              </Node>
              <Node pos="r" depth="2" NCoef="0" IVar="2" Cut="1.9260038757324219e+02" cType="1" res="-9.9000000000000000e+01" rms="0.0000000000000000e+00" purity="4.9383804202079773e-01" nType="0">
                <Node pos="l" depth="3" NCoef="0" IVar="2" Cut="1.7134620666503906e+02" cType="0" res="-9.9000000000000000e+01" rms="0.0000000000000000e+00" purity="5.0603526830673218e-01" nType="0">
                  <Node pos="l" depth="4" NCoef="0" IVar="-1" Cut="0.0000000000000000e+00" cType="1" res="-9.9000000000000000e+01" rms="0.0000000000000000e+00" purity="5.2518755197525024e-01" nType="1"/>
                  <Node pos="r" depth="4" NCoef="0" IVar="-1" Cut="0.0000000000000000e+00" cType="1" res="-9.9000000000000000e+01" rms="0.0000000000000000e+00" purity="4.9351412057876587e-01" nType="-1"/>
                </Node>
                <Node pos="r" depth="3" NCoef="0" IVar="-1" Cut="0.0000000000000000e+00" cType="1" res="-9.9000000000000000e+01" rms="0.0000000000000000e+00" purity="4.7630402445793152e-01" nType="-1"/>
              </Node>
            </Node>
            <Node pos="r" depth="1" NCoef="0" IVar="0" Cut="4.8700023651123047e+01" cType="0" res="-9.9000000000000000e+01" rms="0.0000000000000000e+00" purity="4.8930794000625610e-01" nType="0">
              <Node pos="l" depth="2" NCoef="0" IVar="3" Cut="1.4192326354980469e+02" cType="1" res="-9.9000000000000000e+01" rms="0.0000000000000000e+00" purity="5.0444477796554565e-01" nType="0">
                <Node pos="l" depth="3" NCoef="0" IVar="-1" Cut="0.0000000000000000e+00" cType="1" res="-9.9000000000000000e+01" rms="0.0000000000000000e+00" purity="5.2361243963241577e-01" nType="1"/>
                <Node pos="r" depth="3" NCoef="0" IVar="-1" Cut="0.0000000000000000e+00" cType="1" res="-9.9000000000000000e+01" rms="0.0000000000000000e+00" purity="4.7226279973983765e-01" nType="-1"/>
              </Node>
              <Node pos="r" depth="2" NCoef="0" IVar="-1" Cut="0.0000000000000000e+00" cType="1" res="-9.9000000000000000e+01" rms="0.0000000000000000e+00" purity="4.6488600969314575e-01" nType="-1"/>
            </Node>
          </Node>
        </BinaryTree>
        <BinaryTree type="DecisionTree" boostWeight="8.6301315699054797e-03" itree="115">
          <Node pos="s" depth="0" NCoef="0" IVar="2" Cut="1.3681138610839844e+02" cType="0" res="-9.9000000000000000e+01" rms="0.0000000000000000e+00" purity="5.0048929452896118e-01" nType="0">
            <Node pos="l" depth="1" NCoef="0" IVar="4" Cut="1.6717915534973145e+00" cType="1" res="-9.9000000000000000e+01" rms="0.0000000000000000e+00" purity="5.0327509641647339e-01" nType="0">
              <Node pos="l" depth="2" NCoef="0" IVar="-1" Cut="2.0391681194305420e+00" cType="0" res="-9.9000000000000000e+01" rms="0.0000000000000000e+00" purity="5.0823056697845459e-01" nType="1"/>
              <Node pos="r" depth="2" NCoef="0" IVar="0" Cut="9.1325370788574219e+01" cType="1" res="-9.9000000000000000e+01" rms="0.0000000000000000e+00" purity="4.9406504631042480e-01" nType="0">
                <Node pos="l" depth="3" NCoef="0" IVar="0" Cut="6.5246261596679688e+01" cType="1" res="-9.9000000000000000e+01" rms="0.0000000000000000e+00" purity="5.0744575262069702e-01" nType="0">
                  <Node pos="l" depth="4" NCoef="0" IVar="-1" Cut="0.0000000000000000e+00" cType="1" res="-9.9000000000000000e+01" rms="0.0000000000000000e+00" purity="5.1422756910324097e-01" nType="1"/>
                  <Node pos="r" depth="4" NCoef="0" IVar="-1" Cut="0.0000000000000000e+00" cType="1" res="-9.9000000000000000e+01" rms="0.0000000000000000e+00" purity="4.9198353290557861e-01" nType="-1"/>
                </Node>
                <Node pos="r" depth="3" NCoef="0" IVar="-1" Cut="0.0000000000000000e+00" cType="1" res="-9.9000000000000000e+01" rms="0.0000000000000000e+00" purity="4.6624860167503357e-01" nType="-1"/>
              </Node>
            </Node>
            <Node pos="r" depth="1" NCoef="0" IVar="0" Cut="4.8797157287597656e+01" cType="0" res="-9.9000000000000000e+01" rms="0.0000000000000000e+00" purity="4.8694702982902527e-01" nType="0">
              <Node pos="l" depth="2" NCoef="0" IVar="-1" Cut="0.0000000000000000e+00" cType="1" res="-9.9000000000000000e+01" rms="0.0000000000000000e+00" purity="5.1035416126251221e-01" nType="1"/>
              <Node pos="r" depth="2" NCoef="0" IVar="-1" Cut="0.0000000000000000e+00" cType="1" res="-9.9000000000000000e+01" rms="0.0000000000000000e+00" purity="4.5193994045257568e-01" nType="-1"/>
            </Node>
          </Node>
        </BinaryTree>
        <BinaryTree type="DecisionTree" boostWeight="6.9361285145653449e-03" itree="116">
          <Node pos="s" depth="0" NCoef="0" IVar="4" Cut="5.9698092937469482e-01" cType="0" res="-9.9000000000000000e+01" rms="0.0000000000000000e+00" purity="4.9929505586624146e-01" nType="0">
            <Node pos="l" depth="1" NCoef="0" IVar="6" Cut="1.2222827672958374e+00" cType="1" res="-9.9000000000000000e+01" rms="0.0000000000000000e+00" purity="5.0083565711975098e-01" nType="0">
              <Node pos="l" depth="2" NCoef="0" IVar="-1" Cut="1.6014356613159180e+00" cType="0" res="-9.9000000000000000e+01" rms="0.0000000000000000e+00" purity="5.2269923686981201e-01" nType="1"/>
              <Node pos="r" depth="2" NCoef="0" IVar="2" Cut="2.2843708801269531e+02" cType="1" res="-9.9000000000000000e+01" rms="0.0000000000000000e+00" purity="4.9716013669967651e-01" nType="0">
                <Node pos="l" depth="3" NCoef="0" IVar="2" Cut="1.6590527343750000e+02" cType="0" res="-9.9000000000000000e+01" rms="0.0000000000000000e+00" purity="4.9900487065315247e-01" nType="0">
                  <Node pos="l" depth="4" NCoef="0" IVar="-1" Cut="0.0000000000000000e+00" cType="1" res="-9.9000000000000000e+01" rms="0.0000000000000000e+00" purity="5.0704276561737061e-01" nType="1"/>
                  <Node pos="r" depth="4" NCoef="0" IVar="-1" Cut="0.0000000000000000e+00" cType="1" res="-9.9000000000000000e+01" rms="0.0000000000000000e+00" purity="4.9250581860542297e-01" nType="-1"/>
                </Node>
                <Node pos="r" depth="3" NCoef="0" IVar="-1" Cut="0.0000000000000000e+00" cType="1" res="-9.9000000000000000e+01" rms="0.0000000000000000e+00" purity="4.7143849730491638e-01" nType="-1"/>
              </Node>
            </Node>
            <Node pos="r" depth="1" NCoef="0" IVar="-1" Cut="0.0000000000000000e+00" cType="1" res="-9.9000000000000000e+01" rms="0.0000000000000000e+00" purity="4.7576341032981873e-01" nType="-1"/>
          </Node>
        </BinaryTree>
        <BinaryTree type="DecisionTree" boostWeight="4.1923960528038829e-03" itree="117">
          <Node pos="s" depth="0" NCoef="0" IVar="5" Cut="7.9553228616714478e-01" cType="0" res="-9.9000000000000000e+01" rms="0.0000000000000000e+00" purity="4.9941569566726685e-01" nType="0">
            <Node pos="l" depth="1" NCoef="0" IVar="5" Cut="2.1439433097839355e+00" cType="0" res="-9.9000000000000000e+01" rms="0.0000000000000000e+00" purity="5.0098729133605957e-01" nType="0">
              <Node pos="l" depth="2" NCoef="0" IVar="-1" Cut="0.0000000000000000e+00" cType="1" res="-9.9000000000000000e+01" rms="0.0000000000000000e+00" purity="5.2475678920745850e-01" nType="1"/>
              <Node pos="r" depth="2" NCoef="0" IVar="3" Cut="4.1096569824218750e+02" cType="1" res="-9.9000000000000000e+01" rms="0.0000000000000000e+00" purity="4.9957698583602905e-01" nType="0">
                <Node pos="l" depth="3" NCoef="0" IVar="5" Cut="1.5431436300277710e+00" cType="0" res="-9.9000000000000000e+01" rms="0.0000000000000000e+00" purity="5.0130784511566162e-01" nType="0">
                  <Node pos="l" depth="4" NCoef="0" IVar="-1" Cut="0.0000000000000000e+00" cType="1" res="-9.9000000000000000e+01" rms="0.0000000000000000e+00" purity="5.2018523216247559e-01" nType="1"/>
                  <Node pos="r" depth="4" NCoef="0" IVar="-1" Cut="0.0000000000000000e+00" cType="1" res="-9.9000000000000000e+01" rms="0.0000000000000000e+00" purity="4.9884262681007385e-01" nType="-1"/>
                </Node>
                <Node pos="r" depth="3" NCoef="0" IVar="-1" Cut="0.0000000000000000e+00" cType="1" res="-9.9000000000000000e+01" rms="0.0000000000000000e+00" purity="4.7456663846969604e-01" nType="-1"/>
              </Node>
            </Node>
            <Node pos="r" depth="1" NCoef="0" IVar="-1" Cut="0.0000000000000000e+00" cType="1" res="-9.9000000000000000e+01" rms="0.0000000000000000e+00" purity="4.7877866029739380e-01" nType="-1"/>
          </Node>
        </BinaryTree>
        <BinaryTree type="DecisionTree" boostWeight="6.1411546329288068e-03" itree="118">
          <Node pos="s" depth="0" NCoef="0" IVar="4" Cut="5.9698092937469482e-01" cType="0" res="-9.9000000000000000e+01" rms="0.0000000000000000e+00" purity="5.0016564130783081e-01" nType="0">
            <Node pos="l" depth="1" NCoef="0" IVar="6" Cut="1.1415419578552246e+00" cType="1" res="-9.9000000000000000e+01" rms="0.0000000000000000e+00" purity="5.0161838531494141e-01" nType="0">
              <Node pos="l" depth="2" NCoef="0" IVar="2" Cut="2.1451867675781250e+02" cType="0" res="-9.9000000000000000e+01" rms="0.0000000000000000e+00" purity="5.2344024181365967e-01" nType="0">
                <Node pos="l" depth="3" NCoef="0" IVar="-1" Cut="0.0000000000000000e+00" cType="1" res="-9.9000000000000000e+01" rms="0.0000000000000000e+00" purity="5.4651498794555664e-01" nType="1"/>
                <Node pos="r" depth="3" NCoef="0" IVar="-1" Cut="0.0000000000000000e+00" cType="1" res="-9.9000000000000000e+01" rms="0.0000000000000000e+00" purity="4.9610847234725952e-01" nType="-1"/>
              </Node>
              <Node pos="r" depth="2" NCoef="0" IVar="2" Cut="1.2035341644287109e+02" cType="0" res="-9.9000000000000000e+01" rms="0.0000000000000000e+00" purity="4.9859836697578430e-01" nType="0">
                <Node pos="l" depth="3" NCoef="0" IVar="3" Cut="2.1057644653320312e+02" cType="1" res="-9.9000000000000000e+01" rms="0.0000000000000000e+00" purity="5.0011456012725830e-01" nType="0">
                  <Node pos="l" depth="4" NCoef="0" IVar="-1" Cut="0.0000000000000000e+00" cType="1" res="-9.9000000000000000e+01" rms="0.0000000000000000e+00" purity="5.0447839498519897e-01" nType="1"/>
                  <Node pos="r" depth="4" NCoef="0" IVar="-1" Cut="0.0000000000000000e+00" cType="1" res="-9.9000000000000000e+01" rms="0.0000000000000000e+00" purity="4.9114996194839478e-01" nType="-1"/>
                </Node>
                <Node pos="r" depth="3" NCoef="0" IVar="-1" Cut="0.0000000000000000e+00" cType="1" res="-9.9000000000000000e+01" rms="0.0000000000000000e+00" purity="4.7677871584892273e-01" nType="-1"/>
              </Node>
            </Node>
            <Node pos="r" depth="1" NCoef="0" IVar="-1" Cut="0.0000000000000000e+00" cType="1" res="-9.9000000000000000e+01" rms="0.0000000000000000e+00" purity="4.7797757387161255e-01" nType="-1"/>
          </Node>
        </BinaryTree>
        <BinaryTree type="DecisionTree" boostWeight="4.2864009173778092e-03" itree="119">
          <Node pos="s" depth="0" NCoef="0" IVar="5" Cut="7.9553228616714478e-01" cType="0" res="-9.9000000000000000e+01" rms="0.0000000000000000e+00" purity="4.9993953108787537e-01" nType="0">
            <Node pos="l" depth="1" NCoef="0" IVar="5" Cut="2.1439433097839355e+00" cType="0" res="-9.9000000000000000e+01" rms="0.0000000000000000e+00" purity="5.0152117013931274e-01" nType="0">
              <Node pos="l" depth="2" NCoef="0" IVar="-1" Cut="0.0000000000000000e+00" cType="1" res="-9.9000000000000000e+01" rms="0.0000000000000000e+00" purity="5.2430796623229980e-01" nType="1"/>
              <Node pos="r" depth="2" NCoef="0" IVar="3" Cut="4.1096569824218750e+02" cType="1" res="-9.9000000000000000e+01" rms="0.0000000000000000e+00" purity="5.0016915798187256e-01" nType="0">
                <Node pos="l" depth="3" NCoef="0" IVar="0" Cut="1.4760058593750000e+02" cType="0" res="-9.9000000000000000e+01" rms="0.0000000000000000e+00" purity="5.0182342529296875e-01" nType="0">
                  <Node pos="l" depth="4" NCoef="0" IVar="-1" Cut="0.0000000000000000e+00" cType="1" res="-9.9000000000000000e+01" rms="0.0000000000000000e+00" purity="5.1673591136932373e-01" nType="1"/>
                  <Node pos="r" depth="4" NCoef="0" IVar="-1" Cut="0.0000000000000000e+00" cType="1" res="-9.9000000000000000e+01" rms="0.0000000000000000e+00" purity="4.9885997176170349e-01" nType="-1"/>
                </Node>
                <Node pos="r" depth="3" NCoef="0" IVar="-1" Cut="0.0000000000000000e+00" cType="1" res="-9.9000000000000000e+01" rms="0.0000000000000000e+00" purity="4.7625711560249329e-01" nType="-1"/>
              </Node>
            </Node>
            <Node pos="r" depth="1" NCoef="0" IVar="-1" Cut="0.0000000000000000e+00" cType="1" res="-9.9000000000000000e+01" rms="0.0000000000000000e+00" purity="4.7916382551193237e-01" nType="-1"/>
          </Node>
        </BinaryTree>
        <BinaryTree type="DecisionTree" boostWeight="4.7629731543989235e-03" itree="120">
          <Node pos="s" depth="0" NCoef="0" IVar="5" Cut="7.9553228616714478e-01" cType="0" res="-9.9000000000000000e+01" rms="0.0000000000000000e+00" purity="5.0061613321304321e-01" nType="0">
            <Node pos="l" depth="1" NCoef="0" IVar="3" Cut="4.5548760986328125e+02" cType="1" res="-9.9000000000000000e+01" rms="0.0000000000000000e+00" purity="5.0216758251190186e-01" nType="0">
              <Node pos="l" depth="2" NCoef="0" IVar="3" Cut="3.3283245849609375e+02" cType="0" res="-9.9000000000000000e+01" rms="0.0000000000000000e+00" purity="5.0351274013519287e-01" nType="0">
                <Node pos="l" depth="3" NCoef="0" IVar="-1" Cut="0.0000000000000000e+00" cType="1" res="-9.9000000000000000e+01" rms="0.0000000000000000e+00" purity="5.3040409088134766e-01" nType="1"/>
                <Node pos="r" depth="3" NCoef="0" IVar="3" Cut="1.4378729248046875e+02" cType="1" res="-9.9000000000000000e+01" rms="0.0000000000000000e+00" purity="5.0066816806793213e-01" nType="0">
                  <Node pos="l" depth="4" NCoef="0" IVar="-1" Cut="0.0000000000000000e+00" cType="1" res="-9.9000000000000000e+01" rms="0.0000000000000000e+00" purity="5.1048147678375244e-01" nType="1"/>
                  <Node pos="r" depth="4" NCoef="0" IVar="-1" Cut="0.0000000000000000e+00" cType="1" res="-9.9000000000000000e+01" rms="0.0000000000000000e+00" purity="4.9804225564002991e-01" nType="-1"/>
                </Node>
              </Node>
              <Node pos="r" depth="2" NCoef="0" IVar="-1" Cut="0.0000000000000000e+00" cType="1" res="-9.9000000000000000e+01" rms="0.0000000000000000e+00" purity="4.8200285434722900e-01" nType="-1"/>
            </Node>
            <Node pos="r" depth="1" NCoef="0" IVar="-1" Cut="0.0000000000000000e+00" cType="1" res="-9.9000000000000000e+01" rms="0.0000000000000000e+00" purity="4.8023518919944763e-01" nType="-1"/>
          </Node>
        </BinaryTree>
        <BinaryTree type="DecisionTree" boostWeight="4.1011168817594590e-03" itree="121">
          <Node pos="s" depth="0" NCoef="0" IVar="5" Cut="7.9553228616714478e-01" cType="0" res="-9.9000000000000000e+01" rms="0.0000000000000000e+00" purity="5.0123709440231323e-01" nType="0">
            <Node pos="l" depth="1" NCoef="0" IVar="5" Cut="2.1439433097839355e+00" cType="0" res="-9.9000000000000000e+01" rms="0.0000000000000000e+00" purity="5.0274497270584106e-01" nType="0">
              <Node pos="l" depth="2" NCoef="0" IVar="-1" Cut="0.0000000000000000e+00" cType="1" res="-9.9000000000000000e+01" rms="0.0000000000000000e+00" purity="5.2380645275115967e-01" nType="1"/>
              <Node pos="r" depth="2" NCoef="0" IVar="3" Cut="3.8812133789062500e+02" cType="1" res="-9.9000000000000000e+01" rms="0.0000000000000000e+00" purity="5.0149524211883545e-01" nType="0">
                <Node pos="l" depth="3" NCoef="0" IVar="0" Cut="1.3256906127929688e+02" cType="0" res="-9.9000000000000000e+01" rms="0.0000000000000000e+00" purity="5.0332295894622803e-01" nType="0">
                  <Node pos="l" depth="4" NCoef="0" IVar="-1" Cut="0.0000000000000000e+00" cType="1" res="-9.9000000000000000e+01" rms="0.0000000000000000e+00" purity="5.1564306020736694e-01" nType="1"/>
                  <Node pos="r" depth="4" NCoef="0" IVar="-1" Cut="0.0000000000000000e+00" cType="1" res="-9.9000000000000000e+01" rms="0.0000000000000000e+00" purity="4.9982893466949463e-01" nType="-1"/>
                </Node>
                <Node pos="r" depth="3" NCoef="0" IVar="-1" Cut="0.0000000000000000e+00" cType="1" res="-9.9000000000000000e+01" rms="0.0000000000000000e+00" purity="4.7975206375122070e-01" nType="-1"/>
              </Node>
            </Node>
            <Node pos="r" depth="1" NCoef="0" IVar="-1" Cut="0.0000000000000000e+00" cType="1" res="-9.9000000000000000e+01" rms="0.0000000000000000e+00" purity="4.8142597079277039e-01" nType="-1"/>
          </Node>
        </BinaryTree>
        <BinaryTree type="DecisionTree" boostWeight="6.0308925043707070e-03" itree="122">
          <Node pos="s" depth="0" NCoef="0" IVar="1" Cut="1.4304244995117188e+02" cType="1" res="-9.9000000000000000e+01" rms="0.0000000000000000e+00" purity="5.0179564952850342e-01" nType="0">
            <Node pos="l" depth="1" NCoef="0" IVar="6" Cut="1.2175170183181763e+00" cType="1" res="-9.9000000000000000e+01" rms="0.0000000000000000e+00" purity="5.0315093994140625e-01" nType="0">
              <Node pos="l" depth="2" NCoef="0" IVar="-1" Cut="1.7617355585098267e+00" cType="0" res="-9.9000000000000000e+01" rms="0.0000000000000000e+00" purity="5.1967895030975342e-01" nType="1"/>
              <Node pos="r" depth="2" NCoef="0" IVar="2" Cut="2.2843708801269531e+02" cType="1" res="-9.9000000000000000e+01" rms="0.0000000000000000e+00" purity="5.0001060962677002e-01" nType="0">
                <Node pos="l" depth="3" NCoef="0" IVar="1" Cut="8.7307991027832031e+01" cType="1" res="-9.9000000000000000e+01" rms="0.0000000000000000e+00" purity="5.0208783149719238e-01" nType="0">
                  <Node pos="l" depth="4" NCoef="0" IVar="-1" Cut="0.0000000000000000e+00" cType="1" res="-9.9000000000000000e+01" rms="0.0000000000000000e+00" purity="5.0741231441497803e-01" nType="1"/>
                  <Node pos="r" depth="4" NCoef="0" IVar="-1" Cut="0.0000000000000000e+00" cType="1" res="-9.9000000000000000e+01" rms="0.0000000000000000e+00" purity="4.9575749039649963e-01" nType="-1"/>
                </Node>
                <Node pos="r" depth="3" NCoef="0" IVar="-1" Cut="0.0000000000000000e+00" cType="1" res="-9.9000000000000000e+01" rms="0.0000000000000000e+00" purity="4.7215792536735535e-01" nType="-1"/>
              </Node>
            </Node>
            <Node pos="r" depth="1" NCoef="0" IVar="-1" Cut="0.0000000000000000e+00" cType="1" res="-9.9000000000000000e+01" rms="0.0000000000000000e+00" purity="4.7995585203170776e-01" nType="-1"/>
          </Node>
        </BinaryTree>
        <BinaryTree type="DecisionTree" boostWeight="5.1708914172429446e-03" itree="123">
          <Node pos="s" depth="0" NCoef="0" IVar="1" Cut="4.0698322296142578e+01" cType="0" res="-9.9000000000000000e+01" rms="0.0000000000000000e+00" purity="5.0165313482284546e-01" nType="0">
            <Node pos="l" depth="1" NCoef="0" IVar="1" Cut="1.4459895324707031e+02" cType="1" res="-9.9000000000000000e+01" rms="0.0000000000000000e+00" purity="5.0307875871658325e-01" nType="0">
              <Node pos="l" depth="2" NCoef="0" IVar="6" Cut="1.1367207765579224e+00" cType="1" res="-9.9000000000000000e+01" rms="0.0000000000000000e+00" purity="5.0448101758956909e-01" nType="0">
                <Node pos="l" depth="3" NCoef="0" IVar="2" Cut="2.3033688354492188e+02" cType="0" res="-9.9000000000000000e+01" rms="0.0000000000000000e+00" purity="5.2212363481521606e-01" nType="0">
                  <Node pos="l" depth="4" NCoef="0" IVar="-1" Cut="0.0000000000000000e+00" cType="1" res="-9.9000000000000000e+01" rms="0.0000000000000000e+00" purity="5.4308915138244629e-01" nType="1"/>
                  <Node pos="r" depth="4" NCoef="0" IVar="-1" Cut="0.0000000000000000e+00" cType="1" res="-9.9000000000000000e+01" rms="0.0000000000000000e+00" purity="4.9922102689743042e-01" nType="-1"/>
                </Node>
                <Node pos="r" depth="3" NCoef="0" IVar="3" Cut="3.6527694702148438e+02" cType="1" res="-9.9000000000000000e+01" rms="0.0000000000000000e+00" purity="5.0151145458221436e-01" nType="0">
                  <Node pos="l" depth="4" NCoef="0" IVar="-1" Cut="0.0000000000000000e+00" cType="1" res="-9.9000000000000000e+01" rms="0.0000000000000000e+00" purity="5.0321060419082642e-01" nType="1"/>
                  <Node pos="r" depth="4" NCoef="0" IVar="-1" Cut="0.0000000000000000e+00" cType="1" res="-9.9000000000000000e+01" rms="0.0000000000000000e+00" purity="4.8039260506629944e-01" nType="-1"/>
                </Node>
              </Node>
              <Node pos="r" depth="2" NCoef="0" IVar="-1" Cut="0.0000000000000000e+00" cType="1" res="-9.9000000000000000e+01" rms="0.0000000000000000e+00" purity="4.7985756397247314e-01" nType="-1"/>
            </Node>
            <Node pos="r" depth="1" NCoef="0" IVar="-1" Cut="0.0000000000000000e+00" cType="1" res="-9.9000000000000000e+01" rms="0.0000000000000000e+00" purity="4.7875794768333435e-01" nType="-1"/>
          </Node>
        </BinaryTree>
        <BinaryTree type="DecisionTree" boostWeight="7.1504322645458565e-03" itree="124">
          <Node pos="s" depth="0" NCoef="0" IVar="2" Cut="1.3681138610839844e+02" cType="0" res="-9.9000000000000000e+01" rms="0.0000000000000000e+00" purity="5.0095850229263306e-01" nType="0">
            <Node pos="l" depth="1" NCoef="0" IVar="3" Cut="4.4669989013671875e+02" cType="1" res="-9.9000000000000000e+01" rms="0.0000000000000000e+00" purity="5.0340986251831055e-01" nType="0">
              <Node pos="l" depth="2" NCoef="0" IVar="3" Cut="3.3009268188476562e+02" cType="0" res="-9.9000000000000000e+01" rms="0.0000000000000000e+00" purity="5.0529074668884277e-01" nType="0">
                <Node pos="l" depth="3" NCoef="0" IVar="-1" Cut="0.0000000000000000e+00" cType="1" res="-9.9000000000000000e+01" rms="0.0000000000000000e+00" purity="5.3483098745346069e-01" nType="1"/>
                <Node pos="r" depth="3" NCoef="0" IVar="0" Cut="4.4660461425781250e+01" cType="1" res="-9.9000000000000000e+01" rms="0.0000000000000000e+00" purity="5.0177282094955444e-01" nType="0">
                  <Node pos="l" depth="4" NCoef="0" IVar="-1" Cut="0.0000000000000000e+00" cType="1" res="-9.9000000000000000e+01" rms="0.0000000000000000e+00" purity="5.1915776729583740e-01" nType="1"/>
                  <Node pos="r" depth="4" NCoef="0" IVar="-1" Cut="0.0000000000000000e+00" cType="1" res="-9.9000000000000000e+01" rms="0.0000000000000000e+00" purity="4.9766388535499573e-01" nType="-1"/>
                </Node>
              </Node>
              <Node pos="r" depth="2" NCoef="0" IVar="-1" Cut="0.0000000000000000e+00" cType="1" res="-9.9000000000000000e+01" rms="0.0000000000000000e+00" purity="4.8053312301635742e-01" nType="-1"/>
            </Node>
            <Node pos="r" depth="1" NCoef="0" IVar="0" Cut="4.8797157287597656e+01" cType="0" res="-9.9000000000000000e+01" rms="0.0000000000000000e+00" purity="4.8903709650039673e-01" nType="0">
              <Node pos="l" depth="2" NCoef="0" IVar="-1" Cut="0.0000000000000000e+00" cType="1" res="-9.9000000000000000e+01" rms="0.0000000000000000e+00" purity="5.1063692569732666e-01" nType="1"/>
              <Node pos="r" depth="2" NCoef="0" IVar="-1" Cut="0.0000000000000000e+00" cType="1" res="-9.9000000000000000e+01" rms="0.0000000000000000e+00" purity="4.5669236779212952e-01" nType="-1"/>
            </Node>
          </Node>
        </BinaryTree>
        <BinaryTree type="DecisionTree" boostWeight="1.0571483963550380e-02" itree="125">
          <Node pos="s" depth="0" NCoef="0" IVar="2" Cut="1.3681138610839844e+02" cType="0" res="-9.9000000000000000e+01" rms="0.0000000000000000e+00" purity="5.0165772438049316e-01" nType="0">
            <Node pos="l" depth="1" NCoef="0" IVar="1" Cut="7.3673042297363281e+01" cType="0" res="-9.9000000000000000e+01" rms="0.0000000000000000e+00" purity="5.0432622432708740e-01" nType="0">
              <Node pos="l" depth="2" NCoef="0" IVar="2" Cut="2.0626129150390625e+02" cType="0" res="-9.9000000000000000e+01" rms="0.0000000000000000e+00" purity="5.0841826200485229e-01" nType="0">
                <Node pos="l" depth="3" NCoef="0" IVar="-1" Cut="8.8646903991699219e+01" cType="1" res="-9.9000000000000000e+01" rms="0.0000000000000000e+00" purity="5.2721077203750610e-01" nType="1"/>
                <Node pos="r" depth="3" NCoef="0" IVar="4" Cut="1.4211655855178833e+00" cType="0" res="-9.9000000000000000e+01" rms="0.0000000000000000e+00" purity="5.0134640932083130e-01" nType="0">
                  <Node pos="l" depth="4" NCoef="0" IVar="-1" Cut="0.0000000000000000e+00" cType="1" res="-9.9000000000000000e+01" rms="0.0000000000000000e+00" purity="5.1282715797424316e-01" nType="1"/>
                  <Node pos="r" depth="4" NCoef="0" IVar="-1" Cut="0.0000000000000000e+00" cType="1" res="-9.9000000000000000e+01" rms="0.0000000000000000e+00" purity="4.8976024985313416e-01" nType="-1"/>
                </Node>
              </Node>
              <Node pos="r" depth="2" NCoef="0" IVar="2" Cut="2.1112815856933594e+02" cType="1" res="-9.9000000000000000e+01" rms="0.0000000000000000e+00" purity="4.9424934387207031e-01" nType="0">
                <Node pos="l" depth="3" NCoef="0" IVar="4" Cut="1.7380268573760986e+00" cType="1" res="-9.9000000000000000e+01" rms="0.0000000000000000e+00" purity="5.0366342067718506e-01" nType="0">
                  <Node pos="l" depth="4" NCoef="0" IVar="-1" Cut="0.0000000000000000e+00" cType="1" res="-9.9000000000000000e+01" rms="0.0000000000000000e+00" purity="5.2224296331405640e-01" nType="1"/>
                  <Node pos="r" depth="4" NCoef="0" IVar="-1" Cut="0.0000000000000000e+00" cType="1" res="-9.9000000000000000e+01" rms="0.0000000000000000e+00" purity="4.9180349707603455e-01" nType="-1"/>
                </Node>
                <Node pos="r" depth="3" NCoef="0" IVar="-1" Cut="0.0000000000000000e+00" cType="1" res="-9.9000000000000000e+01" rms="0.0000000000000000e+00" purity="4.6428817510604858e-01" nType="-1"/>
              </Node>
            </Node>
            <Node pos="r" depth="1" NCoef="0" IVar="0" Cut="4.8797157287597656e+01" cType="0" res="-9.9000000000000000e+01" rms="0.0000000000000000e+00" purity="4.8867774009704590e-01" nType="0">
              <Node pos="l" depth="2" NCoef="0" IVar="-1" Cut="0.0000000000000000e+00" cType="1" res="-9.9000000000000000e+01" rms="0.0000000000000000e+00" purity="5.0884568691253662e-01" nType="1"/>
              <Node pos="r" depth="2" NCoef="0" IVar="-1" Cut="0.0000000000000000e+00" cType="1" res="-9.9000000000000000e+01" rms="0.0000000000000000e+00" purity="4.5846989750862122e-01" nType="-1"/>
            </Node>
          </Node>
        </BinaryTree>
        <BinaryTree type="DecisionTree" boostWeight="5.8276326764890307e-03" itree="126">
          <Node pos="s" depth="0" NCoef="0" IVar="2" Cut="1.3681138610839844e+02" cType="0" res="-9.9000000000000000e+01" rms="0.0000000000000000e+00" purity="5.0141668319702148e-01" nType="0">
            <Node pos="l" depth="1" NCoef="0" IVar="3" Cut="4.4669989013671875e+02" cType="1" res="-9.9000000000000000e+01" rms="0.0000000000000000e+00" purity="5.0414466857910156e-01" nType="0">
              <Node pos="l" depth="2" NCoef="0" IVar="3" Cut="3.3009268188476562e+02" cType="0" res="-9.9000000000000000e+01" rms="0.0000000000000000e+00" purity="5.0599491596221924e-01" nType="0">
                <Node pos="l" depth="3" NCoef="0" IVar="-1" Cut="0.0000000000000000e+00" cType="1" res="-9.9000000000000000e+01" rms="0.0000000000000000e+00" purity="5.3268367052078247e-01" nType="1"/>
                <Node pos="r" depth="3" NCoef="0" IVar="0" Cut="4.4660461425781250e+01" cType="1" res="-9.9000000000000000e+01" rms="0.0000000000000000e+00" purity="5.0281739234924316e-01" nType="0">
                  <Node pos="l" depth="4" NCoef="0" IVar="-1" Cut="0.0000000000000000e+00" cType="1" res="-9.9000000000000000e+01" rms="0.0000000000000000e+00" purity="5.1729995012283325e-01" nType="1"/>
                  <Node pos="r" depth="4" NCoef="0" IVar="-1" Cut="0.0000000000000000e+00" cType="1" res="-9.9000000000000000e+01" rms="0.0000000000000000e+00" purity="4.9939435720443726e-01" nType="-1"/>
                </Node>
              </Node>
              <Node pos="r" depth="2" NCoef="0" IVar="-1" Cut="0.0000000000000000e+00" cType="1" res="-9.9000000000000000e+01" rms="0.0000000000000000e+00" purity="4.8164540529251099e-01" nType="-1"/>
            </Node>
            <Node pos="r" depth="1" NCoef="0" IVar="0" Cut="4.8797157287597656e+01" cType="0" res="-9.9000000000000000e+01" rms="0.0000000000000000e+00" purity="4.8814618587493896e-01" nType="0">
              <Node pos="l" depth="2" NCoef="0" IVar="-1" Cut="0.0000000000000000e+00" cType="1" res="-9.9000000000000000e+01" rms="0.0000000000000000e+00" purity="5.0619727373123169e-01" nType="1"/>
              <Node pos="r" depth="2" NCoef="0" IVar="-1" Cut="0.0000000000000000e+00" cType="1" res="-9.9000000000000000e+01" rms="0.0000000000000000e+00" purity="4.6109965443611145e-01" nType="-1"/>
            </Node>
          </Node>
        </BinaryTree>
        <BinaryTree type="DecisionTree" boostWeight="7.2543585589436256e-03" itree="127">
          <Node pos="s" depth="0" NCoef="0" IVar="2" Cut="1.3681138610839844e+02" cType="0" res="-9.9000000000000000e+01" rms="0.0000000000000000e+00" purity="5.0198590755462646e-01" nType="0">
            <Node pos="l" depth="1" NCoef="0" IVar="3" Cut="4.4669989013671875e+02" cType="1" res="-9.9000000000000000e+01" rms="0.0000000000000000e+00" purity="5.0489079952239990e-01" nType="0">
              <Node pos="l" depth="2" NCoef="0" IVar="0" Cut="1.9248051452636719e+02" cType="0" res="-9.9000000000000000e+01" rms="0.0000000000000000e+00" purity="5.0667339563369751e-01" nType="0">
                <Node pos="l" depth="3" NCoef="0" IVar="-1" Cut="0.0000000000000000e+00" cType="1" res="-9.9000000000000000e+01" rms="0.0000000000000000e+00" purity="5.3215587139129639e-01" nType="1"/>
                <Node pos="r" depth="3" NCoef="0" IVar="6" Cut="1.3837643861770630e+00" cType="0" res="-9.9000000000000000e+01" rms="0.0000000000000000e+00" purity="5.0362432003021240e-01" nType="0">
                  <Node pos="l" depth="4" NCoef="0" IVar="-1" Cut="0.0000000000000000e+00" cType="1" res="-9.9000000000000000e+01" rms="0.0000000000000000e+00" purity="5.0632238388061523e-01" nType="1"/>
                  <Node pos="r" depth="4" NCoef="0" IVar="-1" Cut="0.0000000000000000e+00" cType="1" res="-9.9000000000000000e+01" rms="0.0000000000000000e+00" purity="4.9001485109329224e-01" nType="-1"/>
                </Node>
              </Node>
              <Node pos="r" depth="2" NCoef="0" IVar="-1" Cut="0.0000000000000000e+00" cType="1" res="-9.9000000000000000e+01" rms="0.0000000000000000e+00" purity="4.8321634531021118e-01" nType="-1"/>
            </Node>
            <Node pos="r" depth="1" NCoef="0" IVar="1" Cut="8.3413665771484375e+01" cType="1" res="-9.9000000000000000e+01" rms="0.0000000000000000e+00" purity="4.8785308003425598e-01" nType="0">
              <Node pos="l" depth="2" NCoef="0" IVar="-1" Cut="0.0000000000000000e+00" cType="1" res="-9.9000000000000000e+01" rms="0.0000000000000000e+00" purity="5.0921225547790527e-01" nType="1"/>
              <Node pos="r" depth="2" NCoef="0" IVar="-1" Cut="0.0000000000000000e+00" cType="1" res="-9.9000000000000000e+01" rms="0.0000000000000000e+00" purity="4.6616944670677185e-01" nType="-1"/>
            </Node>
          </Node>
        </BinaryTree>
        <BinaryTree type="DecisionTree" boostWeight="9.8171102218436463e-03" itree="128">
          <Node pos="s" depth="0" NCoef="0" IVar="2" Cut="1.3681138610839844e+02" cType="0" res="-9.9000000000000000e+01" rms="0.0000000000000000e+00" purity="5.0112950801849365e-01" nType="0">
            <Node pos="l" depth="1" NCoef="0" IVar="4" Cut="1.6404464244842529e+00" cType="1" res="-9.9000000000000000e+01" rms="0.0000000000000000e+00" purity="5.0386214256286621e-01" nType="0">
              <Node pos="l" depth="2" NCoef="0" IVar="5" Cut="2.0391681194305420e+00" cType="0" res="-9.9000000000000000e+01" rms="0.0000000000000000e+00" purity="5.0880312919616699e-01" nType="0">
                <Node pos="l" depth="3" NCoef="0" IVar="-1" Cut="0.0000000000000000e+00" cType="1" res="-9.9000000000000000e+01" rms="0.0000000000000000e+00" purity="5.3564667701721191e-01" nType="1"/>
                <Node pos="r" depth="3" NCoef="0" IVar="2" Cut="1.6285774230957031e+02" cType="0" res="-9.9000000000000000e+01" rms="0.0000000000000000e+00" purity="5.0567454099655151e-01" nType="0">
                  <Node pos="l" depth="4" NCoef="0" IVar="-1" Cut="0.0000000000000000e+00" cType="1" res="-9.9000000000000000e+01" rms="0.0000000000000000e+00" purity="5.1034963130950928e-01" nType="1"/>
                  <Node pos="r" depth="4" NCoef="0" IVar="-1" Cut="0.0000000000000000e+00" cType="1" res="-9.9000000000000000e+01" rms="0.0000000000000000e+00" purity="4.9141407012939453e-01" nType="-1"/>
                </Node>
              </Node>
              <Node pos="r" depth="2" NCoef="0" IVar="0" Cut="9.1325370788574219e+01" cType="1" res="-9.9000000000000000e+01" rms="0.0000000000000000e+00" purity="4.9522995948791504e-01" nType="0">
                <Node pos="l" depth="3" NCoef="0" IVar="3" Cut="1.7740518188476562e+02" cType="1" res="-9.9000000000000000e+01" rms="0.0000000000000000e+00" purity="5.0633257627487183e-01" nType="0">
                  <Node pos="l" depth="4" NCoef="0" IVar="-1" Cut="0.0000000000000000e+00" cType="1" res="-9.9000000000000000e+01" rms="0.0000000000000000e+00" purity="5.1266175508499146e-01" nType="1"/>
                  <Node pos="r" depth="4" NCoef="0" IVar="-1" Cut="0.0000000000000000e+00" cType="1" res="-9.9000000000000000e+01" rms="0.0000000000000000e+00" purity="4.9535870552062988e-01" nType="-1"/>
                </Node>
                <Node pos="r" depth="3" NCoef="0" IVar="-1" Cut="0.0000000000000000e+00" cType="1" res="-9.9000000000000000e+01" rms="0.0000000000000000e+00" purity="4.7271126508712769e-01" nType="-1"/>
              </Node>
            </Node>
            <Node pos="r" depth="1" NCoef="0" IVar="4" Cut="1.5885623693466187e+00" cType="0" res="-9.9000000000000000e+01" rms="0.0000000000000000e+00" purity="4.8783332109451294e-01" nType="0">
              <Node pos="l" depth="2" NCoef="0" IVar="0" Cut="5.0232727050781250e+01" cType="0" res="-9.9000000000000000e+01" rms="0.0000000000000000e+00" purity="5.0331181287765503e-01" nType="0">
                <Node pos="l" depth="3" NCoef="0" IVar="-1" Cut="0.0000000000000000e+00" cType="1" res="-9.9000000000000000e+01" rms="0.0000000000000000e+00" purity="5.2504855394363403e-01" nType="1"/>
                <Node pos="r" depth="3" NCoef="0" IVar="-1" Cut="0.0000000000000000e+00" cType="1" res="-9.9000000000000000e+01" rms="0.0000000000000000e+00" purity="4.7855904698371887e-01" nType="-1"/>
              </Node>
              <Node pos="r" depth="2" NCoef="0" IVar="-1" Cut="0.0000000000000000e+00" cType="1" res="-9.9000000000000000e+01" rms="0.0000000000000000e+00" purity="4.5936083793640137e-01" nType="-1"/>
            </Node>
          </Node>
        </BinaryTree>
        <BinaryTree type="DecisionTree" boostWeight="8.1688017830510128e-03" itree="129">
          <Node pos="s" depth="0" NCoef="0" IVar="5" Cut="7.9553228616714478e-01" cType="0" res="-9.9000000000000000e+01" rms="0.0000000000000000e+00" purity="5.0065785646438599e-01" nType="0">
            <Node pos="l" depth="1" NCoef="0" IVar="6" Cut="1.7830904722213745e+00" cType="1" res="-9.9000000000000000e+01" rms="0.0000000000000000e+00" purity="5.0218313932418823e-01" nType="0">
              <Node pos="l" depth="2" NCoef="0" IVar="2" Cut="2.0301318359375000e+02" cType="0" res="-9.9000000000000000e+01" rms="0.0000000000000000e+00" purity="5.0856548547744751e-01" nType="0">
                <Node pos="l" depth="3" NCoef="0" IVar="1" Cut="9.9860969543457031e+01" cType="1" res="-9.9000000000000000e+01" rms="0.0000000000000000e+00" purity="5.2133840322494507e-01" nType="0">
                  <Node pos="l" depth="4" NCoef="0" IVar="-1" Cut="0.0000000000000000e+00" cType="1" res="-9.9000000000000000e+01" rms="0.0000000000000000e+00" purity="5.3654932975769043e-01" nType="1"/>
                  <Node pos="r" depth="4" NCoef="0" IVar="-1" Cut="0.0000000000000000e+00" cType="1" res="-9.9000000000000000e+01" rms="0.0000000000000000e+00" purity="4.9230733513832092e-01" nType="-1"/>
                </Node>
                <Node pos="r" depth="3" NCoef="0" IVar="4" Cut="1.1764036417007446e+00" cType="0" res="-9.9000000000000000e+01" rms="0.0000000000000000e+00" purity="4.9488729238510132e-01" nType="0">
                  <Node pos="l" depth="4" NCoef="0" IVar="-1" Cut="0.0000000000000000e+00" cType="1" res="-9.9000000000000000e+01" rms="0.0000000000000000e+00" purity="5.1357567310333252e-01" nType="1"/>
                  <Node pos="r" depth="4" NCoef="0" IVar="-1" Cut="0.0000000000000000e+00" cType="1" res="-9.9000000000000000e+01" rms="0.0000000000000000e+00" purity="4.8065108060836792e-01" nType="-1"/>
                </Node>
              </Node>
              <Node pos="r" depth="2" NCoef="0" IVar="2" Cut="2.0346542358398438e+02" cType="1" res="-9.9000000000000000e+01" rms="0.0000000000000000e+00" purity="4.9837654829025269e-01" nType="0">
                <Node pos="l" depth="3" NCoef="0" IVar="0" Cut="9.8046630859375000e+01" cType="0" res="-9.9000000000000000e+01" rms="0.0000000000000000e+00" purity="5.0179690122604370e-01" nType="0">
                  <Node pos="l" depth="4" NCoef="0" IVar="-1" Cut="0.0000000000000000e+00" cType="1" res="-9.9000000000000000e+01" rms="0.0000000000000000e+00" purity="5.1346856355667114e-01" nType="1"/>
                  <Node pos="r" depth="4" NCoef="0" IVar="-1" Cut="0.0000000000000000e+00" cType="1" res="-9.9000000000000000e+01" rms="0.0000000000000000e+00" purity="4.9768763780593872e-01" nType="-1"/>
                </Node>
                <Node pos="r" depth="3" NCoef="0" IVar="-1" Cut="0.0000000000000000e+00" cType="1" res="-9.9000000000000000e+01" rms="0.0000000000000000e+00" purity="4.6634221076965332e-01" nType="-1"/>
              </Node>
            </Node>
            <Node pos="r" depth="1" NCoef="0" IVar="-1" Cut="0.0000000000000000e+00" cType="1" res="-9.9000000000000000e+01" rms="0.0000000000000000e+00" purity="4.8060739040374756e-01" nType="-1"/>
          </Node>
        </BinaryTree>
        <BinaryTree type="DecisionTree" boostWeight="6.0090503553663294e-03" itree="130">
          <Node pos="s" depth="0" NCoef="0" IVar="4" Cut="5.9698092937469482e-01" cType="0" res="-9.9000000000000000e+01" rms="0.0000000000000000e+00" purity="5.0137907266616821e-01" nType="0">
            <Node pos="l" depth="1" NCoef="0" IVar="6" Cut="1.1415419578552246e+00" cType="1" res="-9.9000000000000000e+01" rms="0.0000000000000000e+00" purity="5.0271838903427124e-01" nType="0">
              <Node pos="l" depth="2" NCoef="0" IVar="-1" Cut="2.1451867675781250e+02" cType="0" res="-9.9000000000000000e+01" rms="0.0000000000000000e+00" purity="5.2403515577316284e-01" nType="1"/>
              <Node pos="r" depth="2" NCoef="0" IVar="3" Cut="2.9674383544921875e+02" cType="1" res="-9.9000000000000000e+01" rms="0.0000000000000000e+00" purity="4.9976831674575806e-01" nType="0">
                <Node pos="l" depth="3" NCoef="0" IVar="6" Cut="3.0889279842376709e+00" cType="1" res="-9.9000000000000000e+01" rms="0.0000000000000000e+00" purity="5.0189852714538574e-01" nType="0">
                  <Node pos="l" depth="4" NCoef="0" IVar="-1" Cut="0.0000000000000000e+00" cType="1" res="-9.9000000000000000e+01" rms="0.0000000000000000e+00" purity="5.0497269630432129e-01" nType="1"/>
                  <Node pos="r" depth="4" NCoef="0" IVar="-1" Cut="0.0000000000000000e+00" cType="1" res="-9.9000000000000000e+01" rms="0.0000000000000000e+00" purity="4.8670232295989990e-01" nType="-1"/>
                </Node>
                <Node pos="r" depth="3" NCoef="0" IVar="-1" Cut="2.0214752197265625e+02" cType="1" res="-9.9000000000000000e+01" rms="0.0000000000000000e+00" purity="4.8596581816673279e-01" nType="-1"/>
              </Node>
            </Node>
            <Node pos="r" depth="1" NCoef="0" IVar="-1" Cut="0.0000000000000000e+00" cType="1" res="-9.9000000000000000e+01" rms="0.0000000000000000e+00" purity="4.8092037439346313e-01" nType="-1"/>
          </Node>
        </BinaryTree>
        <BinaryTree type="DecisionTree" boostWeight="9.3058326276422541e-03" itree="131">
          <Node pos="s" depth="0" NCoef="0" IVar="2" Cut="1.3681138610839844e+02" cType="0" res="-9.9000000000000000e+01" rms="0.0000000000000000e+00" purity="5.0076323747634888e-01" nType="0">
            <Node pos="l" depth="1" NCoef="0" IVar="1" Cut="7.3673042297363281e+01" cType="0" res="-9.9000000000000000e+01" rms="0.0000000000000000e+00" purity="5.0311702489852905e-01" nType="0">
              <Node pos="l" depth="2" NCoef="0" IVar="2" Cut="2.4966746520996094e+02" cType="0" res="-9.9000000000000000e+01" rms="0.0000000000000000e+00" purity="5.0680977106094360e-01" nType="0">
                <Node pos="l" depth="3" NCoef="0" IVar="-1" Cut="0.0000000000000000e+00" cType="1" res="-9.9000000000000000e+01" rms="0.0000000000000000e+00" purity="5.3526884317398071e-01" nType="1"/>
                <Node pos="r" depth="3" NCoef="0" IVar="6" Cut="1.3837643861770630e+00" cType="0" res="-9.9000000000000000e+01" rms="0.0000000000000000e+00" purity="5.0311070680618286e-01" nType="0">
                  <Node pos="l" depth="4" NCoef="0" IVar="-1" Cut="0.0000000000000000e+00" cType="1" res="-9.9000000000000000e+01" rms="0.0000000000000000e+00" purity="5.0677788257598877e-01" nType="1"/>
                  <Node pos="r" depth="4" NCoef="0" IVar="-1" Cut="0.0000000000000000e+00" cType="1" res="-9.9000000000000000e+01" rms="0.0000000000000000e+00" purity="4.8914012312889099e-01" nType="-1"/>
                </Node>
              </Node>
              <Node pos="r" depth="2" NCoef="0" IVar="2" Cut="2.1112815856933594e+02" cType="1" res="-9.9000000000000000e+01" rms="0.0000000000000000e+00" purity="4.9402484297752380e-01" nType="0">
                <Node pos="l" depth="3" NCoef="0" IVar="0" Cut="7.1403182983398438e+01" cType="1" res="-9.9000000000000000e+01" rms="0.0000000000000000e+00" purity="5.0328737497329712e-01" nType="0">
                  <Node pos="l" depth="4" NCoef="0" IVar="-1" Cut="0.0000000000000000e+00" cType="1" res="-9.9000000000000000e+01" rms="0.0000000000000000e+00" purity="5.2233785390853882e-01" nType="1"/>
                  <Node pos="r" depth="4" NCoef="0" IVar="-1" Cut="0.0000000000000000e+00" cType="1" res="-9.9000000000000000e+01" rms="0.0000000000000000e+00" purity="4.9096849560737610e-01" nType="-1"/>
                </Node>
                <Node pos="r" depth="3" NCoef="0" IVar="-1" Cut="0.0000000000000000e+00" cType="1" res="-9.9000000000000000e+01" rms="0.0000000000000000e+00" purity="4.6455612778663635e-01" nType="-1"/>
              </Node>
            </Node>
            <Node pos="r" depth="1" NCoef="0" IVar="4" Cut="1.5885623693466187e+00" cType="0" res="-9.9000000000000000e+01" rms="0.0000000000000000e+00" purity="4.8930817842483521e-01" nType="0">
              <Node pos="l" depth="2" NCoef="0" IVar="0" Cut="5.0232727050781250e+01" cType="0" res="-9.9000000000000000e+01" rms="0.0000000000000000e+00" purity="5.0406700372695923e-01" nType="0">
                <Node pos="l" depth="3" NCoef="0" IVar="-1" Cut="0.0000000000000000e+00" cType="1" res="-9.9000000000000000e+01" rms="0.0000000000000000e+00" purity="5.2276158332824707e-01" nType="1"/>
                <Node pos="r" depth="3" NCoef="0" IVar="-1" Cut="0.0000000000000000e+00" cType="1" res="-9.9000000000000000e+01" rms="0.0000000000000000e+00" purity="4.8277270793914795e-01" nType="-1"/>
              </Node>
              <Node pos="r" depth="2" NCoef="0" IVar="-1" Cut="0.0000000000000000e+00" cType="1" res="-9.9000000000000000e+01" rms="0.0000000000000000e+00" purity="4.6215012669563293e-01" nType="-1"/>
            </Node>
          </Node>
        </BinaryTree>
        <BinaryTree type="DecisionTree" boostWeight="5.1921688263377869e-03" itree="132">
          <Node pos="s" depth="0" NCoef="0" IVar="5" Cut="7.9553228616714478e-01" cType="0" res="-9.9000000000000000e+01" rms="0.0000000000000000e+00" purity="5.0026667118072510e-01" nType="0">
            <Node pos="l" depth="1" NCoef="0" IVar="6" Cut="1.2175170183181763e+00" cType="1" res="-9.9000000000000000e+01" rms="0.0000000000000000e+00" purity="5.0172138214111328e-01" nType="0">
              <Node pos="l" depth="2" NCoef="0" IVar="4" Cut="7.1914821863174438e-01" cType="0" res="-9.9000000000000000e+01" rms="0.0000000000000000e+00" purity="5.1302564144134521e-01" nType="0">
                <Node pos="l" depth="3" NCoef="0" IVar="-1" Cut="9.5473188161849976e-01" cType="1" res="-9.9000000000000000e+01" rms="0.0000000000000000e+00" purity="5.2964931726455688e-01" nType="1"/>
                <Node pos="r" depth="3" NCoef="0" IVar="-1" Cut="0.0000000000000000e+00" cType="1" res="-9.9000000000000000e+01" rms="0.0000000000000000e+00" purity="4.8625430464744568e-01" nType="-1"/>
              </Node>
              <Node pos="r" depth="2" NCoef="0" IVar="2" Cut="2.2843708801269531e+02" cType="1" res="-9.9000000000000000e+01" rms="0.0000000000000000e+00" purity="4.9929144978523254e-01" nType="0">
                <Node pos="l" depth="3" NCoef="0" IVar="2" Cut="2.0532461547851562e+02" cType="0" res="-9.9000000000000000e+01" rms="0.0000000000000000e+00" purity="5.0142037868499756e-01" nType="0">
                  <Node pos="l" depth="4" NCoef="0" IVar="-1" Cut="0.0000000000000000e+00" cType="1" res="-9.9000000000000000e+01" rms="0.0000000000000000e+00" purity="5.2246904373168945e-01" nType="1"/>
                  <Node pos="r" depth="4" NCoef="0" IVar="-1" Cut="0.0000000000000000e+00" cType="1" res="-9.9000000000000000e+01" rms="0.0000000000000000e+00" purity="4.9930849671363831e-01" nType="-1"/>
                </Node>
                <Node pos="r" depth="3" NCoef="0" IVar="-1" Cut="0.0000000000000000e+00" cType="1" res="-9.9000000000000000e+01" rms="0.0000000000000000e+00" purity="4.7238671779632568e-01" nType="-1"/>
              </Node>
            </Node>
            <Node pos="r" depth="1" NCoef="0" IVar="-1" Cut="0.0000000000000000e+00" cType="1" res="-9.9000000000000000e+01" rms="0.0000000000000000e+00" purity="4.8113849759101868e-01" nType="-1"/>
          </Node>
        </BinaryTree>
        <BinaryTree type="DecisionTree" boostWeight="4.8809272155988237e-03" itree="133">
          <Node pos="s" depth="0" NCoef="0" IVar="5" Cut="7.9553228616714478e-01" cType="0" res="-9.9000000000000000e+01" rms="0.0000000000000000e+00" purity="5.0115603208541870e-01" nType="0">
            <Node pos="l" depth="1" NCoef="0" IVar="6" Cut="1.2175170183181763e+00" cType="1" res="-9.9000000000000000e+01" rms="0.0000000000000000e+00" purity="5.0257951021194458e-01" nType="0">
              <Node pos="l" depth="2" NCoef="0" IVar="4" Cut="7.1914821863174438e-01" cType="0" res="-9.9000000000000000e+01" rms="0.0000000000000000e+00" purity="5.1277035474777222e-01" nType="0">
                <Node pos="l" depth="3" NCoef="0" IVar="-1" Cut="9.5473188161849976e-01" cType="1" res="-9.9000000000000000e+01" rms="0.0000000000000000e+00" purity="5.2835506200790405e-01" nType="1"/>
                <Node pos="r" depth="3" NCoef="0" IVar="-1" Cut="0.0000000000000000e+00" cType="1" res="-9.9000000000000000e+01" rms="0.0000000000000000e+00" purity="4.8768067359924316e-01" nType="-1"/>
              </Node>
              <Node pos="r" depth="2" NCoef="0" IVar="2" Cut="2.2843708801269531e+02" cType="1" res="-9.9000000000000000e+01" rms="0.0000000000000000e+00" purity="5.0038897991180420e-01" nType="0">
                <Node pos="l" depth="3" NCoef="0" IVar="-1" Cut="7.8081023693084717e-01" cType="1" res="-9.9000000000000000e+01" rms="0.0000000000000000e+00" purity="5.0249618291854858e-01" nType="1"/>
                <Node pos="r" depth="3" NCoef="0" IVar="-1" Cut="0.0000000000000000e+00" cType="1" res="-9.9000000000000000e+01" rms="0.0000000000000000e+00" purity="4.7375881671905518e-01" nType="-1"/>
              </Node>
            </Node>
            <Node pos="r" depth="1" NCoef="0" IVar="-1" Cut="0.0000000000000000e+00" cType="1" res="-9.9000000000000000e+01" rms="0.0000000000000000e+00" purity="4.8243656754493713e-01" nType="-1"/>
          </Node>
        </BinaryTree>
        <BinaryTree type="DecisionTree" boostWeight="4.0890579718369400e-03" itree="134">
          <Node pos="s" depth="0" NCoef="0" IVar="6" Cut="1.1367207765579224e+00" cType="1" res="-9.9000000000000000e+01" rms="0.0000000000000000e+00" purity="5.0040835142135620e-01" nType="0">
            <Node pos="l" depth="1" NCoef="0" IVar="6" Cut="7.4468582868576050e-01" cType="0" res="-9.9000000000000000e+01" rms="0.0000000000000000e+00" purity="5.1249569654464722e-01" nType="0">
              <Node pos="l" depth="2" NCoef="0" IVar="-1" Cut="0.0000000000000000e+00" cType="1" res="-9.9000000000000000e+01" rms="0.0000000000000000e+00" purity="5.2714061737060547e-01" nType="1"/>
              <Node pos="r" depth="2" NCoef="0" IVar="-1" Cut="0.0000000000000000e+00" cType="1" res="-9.9000000000000000e+01" rms="0.0000000000000000e+00" purity="4.8977836966514587e-01" nType="-1"/>
            </Node>
            <Node pos="r" depth="1" NCoef="0" IVar="2" Cut="1.2035341644287109e+02" cType="0" res="-9.9000000000000000e+01" rms="0.0000000000000000e+00" purity="4.9834921956062317e-01" nType="0">
              <Node pos="l" depth="2" NCoef="0" IVar="3" Cut="3.6846252441406250e+02" cType="1" res="-9.9000000000000000e+01" rms="0.0000000000000000e+00" purity="4.9980425834655762e-01" nType="0">
                <Node pos="l" depth="3" NCoef="0" IVar="3" Cut="1.3263659667968750e+02" cType="1" res="-9.9000000000000000e+01" rms="0.0000000000000000e+00" purity="5.0144606828689575e-01" nType="0">
                  <Node pos="l" depth="4" NCoef="0" IVar="-1" Cut="0.0000000000000000e+00" cType="1" res="-9.9000000000000000e+01" rms="0.0000000000000000e+00" purity="5.1958519220352173e-01" nType="1"/>
                  <Node pos="r" depth="4" NCoef="0" IVar="-1" Cut="0.0000000000000000e+00" cType="1" res="-9.9000000000000000e+01" rms="0.0000000000000000e+00" purity="4.9979344010353088e-01" nType="-1"/>
                </Node>
                <Node pos="r" depth="3" NCoef="0" IVar="-1" Cut="0.0000000000000000e+00" cType="1" res="-9.9000000000000000e+01" rms="0.0000000000000000e+00" purity="4.7957876324653625e-01" nType="-1"/>
              </Node>
              <Node pos="r" depth="2" NCoef="0" IVar="-1" Cut="0.0000000000000000e+00" cType="1" res="-9.9000000000000000e+01" rms="0.0000000000000000e+00" purity="4.7712630033493042e-01" nType="-1"/>
            </Node>
          </Node>
        </BinaryTree>
        <BinaryTree type="DecisionTree" boostWeight="5.6685187510300168e-03" itree="135">
          <Node pos="s" depth="0" NCoef="0" IVar="1" Cut="4.0698322296142578e+01" cType="0" res="-9.9000000000000000e+01" rms="0.0000000000000000e+00" purity="5.0114297866821289e-01" nType="0">
            <Node pos="l" depth="1" NCoef="0" IVar="1" Cut="1.4459895324707031e+02" cType="1" res="-9.9000000000000000e+01" rms="0.0000000000000000e+00" purity="5.0235682725906372e-01" nType="0">
              <Node pos="l" depth="2" NCoef="0" IVar="6" Cut="1.1367207765579224e+00" cType="1" res="-9.9000000000000000e+01" rms="0.0000000000000000e+00" purity="5.0363647937774658e-01" nType="0">
                <Node pos="l" depth="3" NCoef="0" IVar="-1" Cut="1.6815855503082275e+00" cType="0" res="-9.9000000000000000e+01" rms="0.0000000000000000e+00" purity="5.2233088016510010e-01" nType="1"/>
                <Node pos="r" depth="3" NCoef="0" IVar="3" Cut="1.5967759704589844e+02" cType="1" res="-9.9000000000000000e+01" rms="0.0000000000000000e+00" purity="5.0048935413360596e-01" nType="0">
                  <Node pos="l" depth="4" NCoef="0" IVar="-1" Cut="0.0000000000000000e+00" cType="1" res="-9.9000000000000000e+01" rms="0.0000000000000000e+00" purity="5.0924241542816162e-01" nType="1"/>
                  <Node pos="r" depth="4" NCoef="0" IVar="-1" Cut="0.0000000000000000e+00" cType="1" res="-9.9000000000000000e+01" rms="0.0000000000000000e+00" purity="4.9583515524864197e-01" nType="-1"/>
                </Node>
              </Node>
              <Node pos="r" depth="2" NCoef="0" IVar="-1" Cut="0.0000000000000000e+00" cType="1" res="-9.9000000000000000e+01" rms="0.0000000000000000e+00" purity="4.8114925622940063e-01" nType="-1"/>
            </Node>
            <Node pos="r" depth="1" NCoef="0" IVar="-1" Cut="0.0000000000000000e+00" cType="1" res="-9.9000000000000000e+01" rms="0.0000000000000000e+00" purity="4.8165011405944824e-01" nType="-1"/>
          </Node>
        </BinaryTree>
        <BinaryTree type="DecisionTree" boostWeight="9.4793374395199994e-03" itree="136">
          <Node pos="s" depth="0" NCoef="0" IVar="2" Cut="1.4594476318359375e+02" cType="0" res="-9.9000000000000000e+01" rms="0.0000000000000000e+00" purity="5.0146746635437012e-01" nType="0">
            <Node pos="l" depth="1" NCoef="0" IVar="6" Cut="2.3167958259582520e+00" cType="1" res="-9.9000000000000000e+01" rms="0.0000000000000000e+00" purity="5.0461333990097046e-01" nType="0">
              <Node pos="l" depth="2" NCoef="0" IVar="1" Cut="9.3763854980468750e+01" cType="1" res="-9.9000000000000000e+01" rms="0.0000000000000000e+00" purity="5.0905913114547729e-01" nType="0">
                <Node pos="l" depth="3" NCoef="0" IVar="-1" Cut="7.5879119873046875e+01" cType="0" res="-9.9000000000000000e+01" rms="0.0000000000000000e+00" purity="5.1695698499679565e-01" nType="1"/>
                <Node pos="r" depth="3" NCoef="0" IVar="0" Cut="1.4174649047851562e+02" cType="1" res="-9.9000000000000000e+01" rms="0.0000000000000000e+00" purity="4.9903365969657898e-01" nType="0">
                  <Node pos="l" depth="4" NCoef="0" IVar="-1" Cut="0.0000000000000000e+00" cType="1" res="-9.9000000000000000e+01" rms="0.0000000000000000e+00" purity="5.1069164276123047e-01" nType="1"/>
                  <Node pos="r" depth="4" NCoef="0" IVar="-1" Cut="0.0000000000000000e+00" cType="1" res="-9.9000000000000000e+01" rms="0.0000000000000000e+00" purity="4.7845065593719482e-01" nType="-1"/>
                </Node>
              </Node>
              <Node pos="r" depth="2" NCoef="0" IVar="2" Cut="1.8784326171875000e+02" cType="1" res="-9.9000000000000000e+01" rms="0.0000000000000000e+00" purity="4.9698498845100403e-01" nType="0">
                <Node pos="l" depth="3" NCoef="0" IVar="2" Cut="1.6211805725097656e+02" cType="1" res="-9.9000000000000000e+01" rms="0.0000000000000000e+00" purity="5.0552546977996826e-01" nType="0">
                  <Node pos="l" depth="4" NCoef="0" IVar="-1" Cut="0.0000000000000000e+00" cType="1" res="-9.9000000000000000e+01" rms="0.0000000000000000e+00" purity="5.1364248991012573e-01" nType="1"/>
                  <Node pos="r" depth="4" NCoef="0" IVar="-1" Cut="0.0000000000000000e+00" cType="1" res="-9.9000000000000000e+01" rms="0.0000000000000000e+00" purity="4.9921357631683350e-01" nType="-1"/>
                </Node>
                <Node pos="r" depth="3" NCoef="0" IVar="-1" Cut="0.0000000000000000e+00" cType="1" res="-9.9000000000000000e+01" rms="0.0000000000000000e+00" purity="4.7015014290809631e-01" nType="-1"/>
              </Node>
            </Node>
            <Node pos="r" depth="1" NCoef="0" IVar="5" Cut="9.2926335334777832e-01" cType="0" res="-9.9000000000000000e+01" rms="0.0000000000000000e+00" purity="4.9221265316009521e-01" nType="0">
              <Node pos="l" depth="2" NCoef="0" IVar="3" Cut="1.3131236267089844e+02" cType="1" res="-9.9000000000000000e+01" rms="0.0000000000000000e+00" purity="5.0082683563232422e-01" nType="0">
                <Node pos="l" depth="3" NCoef="0" IVar="-1" Cut="0.0000000000000000e+00" cType="1" res="-9.9000000000000000e+01" rms="0.0000000000000000e+00" purity="5.2071839570999146e-01" nType="1"/>
                <Node pos="r" depth="3" NCoef="0" IVar="-1" Cut="8.5719528198242188e+01" cType="0" res="-9.9000000000000000e+01" rms="0.0000000000000000e+00" purity="4.8815676569938660e-01" nType="-1"/>
              </Node>
              <Node pos="r" depth="2" NCoef="0" IVar="-1" Cut="0.0000000000000000e+00" cType="1" res="-9.9000000000000000e+01" rms="0.0000000000000000e+00" purity="4.6874386072158813e-01" nType="-1"/>
            </Node>
          </Node>
        </BinaryTree>
        <BinaryTree type="DecisionTree" boostWeight="5.4785519633656641e-03" itree="137">
          <Node pos="s" depth="0" NCoef="0" IVar="2" Cut="1.3681138610839844e+02" cType="0" res="-9.9000000000000000e+01" rms="0.0000000000000000e+00" purity="5.0119817256927490e-01" nType="0">
            <Node pos="l" depth="1" NCoef="0" IVar="3" Cut="4.4669989013671875e+02" cType="1" res="-9.9000000000000000e+01" rms="0.0000000000000000e+00" purity="5.0346225500106812e-01" nType="0">
              <Node pos="l" depth="2" NCoef="0" IVar="3" Cut="3.3009268188476562e+02" cType="0" res="-9.9000000000000000e+01" rms="0.0000000000000000e+00" purity="5.0514477491378784e-01" nType="0">
                <Node pos="l" depth="3" NCoef="0" IVar="-1" Cut="0.0000000000000000e+00" cType="1" res="-9.9000000000000000e+01" rms="0.0000000000000000e+00" purity="5.3004080057144165e-01" nType="1"/>
                <Node pos="r" depth="3" NCoef="0" IVar="0" Cut="4.4660461425781250e+01" cType="1" res="-9.9000000000000000e+01" rms="0.0000000000000000e+00" purity="5.0218206644058228e-01" nType="0">
                  <Node pos="l" depth="4" NCoef="0" IVar="-1" Cut="0.0000000000000000e+00" cType="1" res="-9.9000000000000000e+01" rms="0.0000000000000000e+00" purity="5.1478415727615356e-01" nType="1"/>
                  <Node pos="r" depth="4" NCoef="0" IVar="-1" Cut="0.0000000000000000e+00" cType="1" res="-9.9000000000000000e+01" rms="0.0000000000000000e+00" purity="4.9920409917831421e-01" nType="-1"/>
                </Node>
              </Node>
              <Node pos="r" depth="2" NCoef="0" IVar="-1" Cut="0.0000000000000000e+00" cType="1" res="-9.9000000000000000e+01" rms="0.0000000000000000e+00" purity="4.8300924897193909e-01" nType="-1"/>
            </Node>
            <Node pos="r" depth="1" NCoef="0" IVar="1" Cut="8.3413665771484375e+01" cType="1" res="-9.9000000000000000e+01" rms="0.0000000000000000e+00" purity="4.9017325043678284e-01" nType="0">
              <Node pos="l" depth="2" NCoef="0" IVar="-1" Cut="0.0000000000000000e+00" cType="1" res="-9.9000000000000000e+01" rms="0.0000000000000000e+00" purity="5.0907289981842041e-01" nType="1"/>
              <Node pos="r" depth="2" NCoef="0" IVar="-1" Cut="0.0000000000000000e+00" cType="1" res="-9.9000000000000000e+01" rms="0.0000000000000000e+00" purity="4.7096067667007446e-01" nType="-1"/>
            </Node>
          </Node>
        </BinaryTree>
        <BinaryTree type="DecisionTree" boostWeight="7.1321286101125167e-03" itree="138">
          <Node pos="s" depth="0" NCoef="0" IVar="2" Cut="1.3681138610839844e+02" cType="0" res="-9.9000000000000000e+01" rms="0.0000000000000000e+00" purity="5.0177609920501709e-01" nType="0">
            <Node pos="l" depth="1" NCoef="0" IVar="3" Cut="4.4669989013671875e+02" cType="1" res="-9.9000000000000000e+01" rms="0.0000000000000000e+00" purity="5.0416171550750732e-01" nType="0">
              <Node pos="l" depth="2" NCoef="0" IVar="5" Cut="1.7706661224365234e+00" cType="0" res="-9.9000000000000000e+01" rms="0.0000000000000000e+00" purity="5.0578093528747559e-01" nType="0">
                <Node pos="l" depth="3" NCoef="0" IVar="-1" Cut="0.0000000000000000e+00" cType="1" res="-9.9000000000000000e+01" rms="0.0000000000000000e+00" purity="5.3095996379852295e-01" nType="1"/>
                <Node pos="r" depth="3" NCoef="0" IVar="6" Cut="1.3837643861770630e+00" cType="0" res="-9.9000000000000000e+01" rms="0.0000000000000000e+00" purity="5.0309354066848755e-01" nType="0">
                  <Node pos="l" depth="4" NCoef="0" IVar="-1" Cut="0.0000000000000000e+00" cType="1" res="-9.9000000000000000e+01" rms="0.0000000000000000e+00" purity="5.0581175088882446e-01" nType="1"/>
                  <Node pos="r" depth="4" NCoef="0" IVar="-1" Cut="0.0000000000000000e+00" cType="1" res="-9.9000000000000000e+01" rms="0.0000000000000000e+00" purity="4.8994287848472595e-01" nType="-1"/>
                </Node>
              </Node>
              <Node pos="r" depth="2" NCoef="0" IVar="-1" Cut="0.0000000000000000e+00" cType="1" res="-9.9000000000000000e+01" rms="0.0000000000000000e+00" purity="4.8447889089584351e-01" nType="-1"/>
            </Node>
            <Node pos="r" depth="1" NCoef="0" IVar="4" Cut="1.5885623693466187e+00" cType="0" res="-9.9000000000000000e+01" rms="0.0000000000000000e+00" purity="4.9015793204307556e-01" nType="0">
              <Node pos="l" depth="2" NCoef="0" IVar="0" Cut="5.0232727050781250e+01" cType="0" res="-9.9000000000000000e+01" rms="0.0000000000000000e+00" purity="5.0393116474151611e-01" nType="0">
                <Node pos="l" depth="3" NCoef="0" IVar="-1" Cut="0.0000000000000000e+00" cType="1" res="-9.9000000000000000e+01" rms="0.0000000000000000e+00" purity="5.2050918340682983e-01" nType="1"/>
                <Node pos="r" depth="3" NCoef="0" IVar="-1" Cut="0.0000000000000000e+00" cType="1" res="-9.9000000000000000e+01" rms="0.0000000000000000e+00" purity="4.8504531383514404e-01" nType="-1"/>
              </Node>
              <Node pos="r" depth="2" NCoef="0" IVar="-1" Cut="0.0000000000000000e+00" cType="1" res="-9.9000000000000000e+01" rms="0.0000000000000000e+00" purity="4.6480837464332581e-01" nType="-1"/>
            </Node>
          </Node>
        </BinaryTree>
        <BinaryTree type="DecisionTree" boostWeight="3.5630709638170216e-03" itree="139">
          <Node pos="s" depth="0" NCoef="0" IVar="1" Cut="4.0698322296142578e+01" cType="0" res="-9.9000000000000000e+01" rms="0.0000000000000000e+00" purity="5.0105041265487671e-01" nType="0">
            <Node pos="l" depth="1" NCoef="0" IVar="0" Cut="2.4087586975097656e+02" cType="0" res="-9.9000000000000000e+01" rms="0.0000000000000000e+00" purity="5.0225222110748291e-01" nType="0">
              <Node pos="l" depth="2" NCoef="0" IVar="-1" Cut="0.0000000000000000e+00" cType="1" res="-9.9000000000000000e+01" rms="0.0000000000000000e+00" purity="5.2298784255981445e-01" nType="1"/>
              <Node pos="r" depth="2" NCoef="0" IVar="5" Cut="7.7259516716003418e-01" cType="0" res="-9.9000000000000000e+01" rms="0.0000000000000000e+00" purity="5.0094658136367798e-01" nType="0">
                <Node pos="l" depth="3" NCoef="0" IVar="1" Cut="1.0189234161376953e+02" cType="0" res="-9.9000000000000000e+01" rms="0.0000000000000000e+00" purity="5.0228607654571533e-01" nType="0">
                  <Node pos="l" depth="4" NCoef="0" IVar="-1" Cut="0.0000000000000000e+00" cType="1" res="-9.9000000000000000e+01" rms="0.0000000000000000e+00" purity="5.0768172740936279e-01" nType="1"/>
                  <Node pos="r" depth="4" NCoef="0" IVar="-1" Cut="0.0000000000000000e+00" cType="1" res="-9.9000000000000000e+01" rms="0.0000000000000000e+00" purity="4.9942398071289062e-01" nType="-1"/>
                </Node>
                <Node pos="r" depth="3" NCoef="0" IVar="-1" Cut="0.0000000000000000e+00" cType="1" res="-9.9000000000000000e+01" rms="0.0000000000000000e+00" purity="4.8057997226715088e-01" nType="-1"/>
              </Node>
            </Node>
            <Node pos="r" depth="1" NCoef="0" IVar="-1" Cut="0.0000000000000000e+00" cType="1" res="-9.9000000000000000e+01" rms="0.0000000000000000e+00" purity="4.8175299167633057e-01" nType="-1"/>
          </Node>
        </BinaryTree>
        <BinaryTree type="DecisionTree" boostWeight="1.2359485684672725e-02" itree="140">
          <Node pos="s" depth="0" NCoef="0" IVar="5" Cut="9.7103297710418701e-01" cType="0" res="-9.9000000000000000e+01" rms="0.0000000000000000e+00" purity="5.0133913755416870e-01" nType="0">
            <Node pos="l" depth="1" NCoef="0" IVar="4" Cut="1.5696300268173218e+00" cType="1" res="-9.9000000000000000e+01" rms="0.0000000000000000e+00" purity="5.0393998622894287e-01" nType="0">
              <Node pos="l" depth="2" NCoef="0" IVar="2" Cut="2.0104949951171875e+02" cType="0" res="-9.9000000000000000e+01" rms="0.0000000000000000e+00" purity="5.0823277235031128e-01" nType="0">
                <Node pos="l" depth="3" NCoef="0" IVar="1" Cut="1.1075219726562500e+02" cType="1" res="-9.9000000000000000e+01" rms="0.0000000000000000e+00" purity="5.2255129814147949e-01" nType="0">
                  <Node pos="l" depth="4" NCoef="0" IVar="-1" Cut="0.0000000000000000e+00" cType="1" res="-9.9000000000000000e+01" rms="0.0000000000000000e+00" purity="5.3279221057891846e-01" nType="1"/>
                  <Node pos="r" depth="4" NCoef="0" IVar="-1" Cut="0.0000000000000000e+00" cType="1" res="-9.9000000000000000e+01" rms="0.0000000000000000e+00" purity="4.9360406398773193e-01" nType="-1"/>
                </Node>
                <Node pos="r" depth="3" NCoef="0" IVar="6" Cut="1.5482369661331177e+00" cType="0" res="-9.9000000000000000e+01" rms="0.0000000000000000e+00" purity="4.9754965305328369e-01" nType="0">
                  <Node pos="l" depth="4" NCoef="0" IVar="-1" Cut="0.0000000000000000e+00" cType="1" res="-9.9000000000000000e+01" rms="0.0000000000000000e+00" purity="5.0813823938369751e-01" nType="1"/>
                  <Node pos="r" depth="4" NCoef="0" IVar="-1" Cut="0.0000000000000000e+00" cType="1" res="-9.9000000000000000e+01" rms="0.0000000000000000e+00" purity="4.7708341479301453e-01" nType="-1"/>
                </Node>
              </Node>
              <Node pos="r" depth="2" NCoef="0" IVar="2" Cut="1.6200181579589844e+02" cType="1" res="-9.9000000000000000e+01" rms="0.0000000000000000e+00" purity="4.9749004840850830e-01" nType="0">
                <Node pos="l" depth="3" NCoef="0" IVar="-1" Cut="2.6276328563690186e+00" cType="0" res="-9.9000000000000000e+01" rms="0.0000000000000000e+00" purity="5.1498818397521973e-01" nType="1"/>
                <Node pos="r" depth="3" NCoef="0" IVar="0" Cut="9.1638679504394531e+01" cType="1" res="-9.9000000000000000e+01" rms="0.0000000000000000e+00" purity="4.7769182920455933e-01" nType="0">
                  <Node pos="l" depth="4" NCoef="0" IVar="-1" Cut="0.0000000000000000e+00" cType="1" res="-9.9000000000000000e+01" rms="0.0000000000000000e+00" purity="5.0436460971832275e-01" nType="1"/>
                  <Node pos="r" depth="4" NCoef="0" IVar="-1" Cut="0.0000000000000000e+00" cType="1" res="-9.9000000000000000e+01" rms="0.0000000000000000e+00" purity="4.5391592383384705e-01" nType="-1"/>
                </Node>
              </Node>
            </Node>
            <Node pos="r" depth="1" NCoef="0" IVar="3" Cut="1.9531552124023438e+02" cType="1" res="-9.9000000000000000e+01" rms="0.0000000000000000e+00" purity="4.9287700653076172e-01" nType="0">
              <Node pos="l" depth="2" NCoef="0" IVar="2" Cut="1.5215910339355469e+02" cType="0" res="-9.9000000000000000e+01" rms="0.0000000000000000e+00" purity="5.0249576568603516e-01" nType="0">
                <Node pos="l" depth="3" NCoef="0" IVar="-1" Cut="0.0000000000000000e+00" cType="1" res="-9.9000000000000000e+01" rms="0.0000000000000000e+00" purity="5.2538102865219116e-01" nType="1"/>
                <Node pos="r" depth="3" NCoef="0" IVar="-1" Cut="0.0000000000000000e+00" cType="1" res="-9.9000000000000000e+01" rms="0.0000000000000000e+00" purity="4.8348727822303772e-01" nType="-1"/>
              </Node>
              <Node pos="r" depth="2" NCoef="0" IVar="-1" Cut="0.0000000000000000e+00" cType="1" res="-9.9000000000000000e+01" rms="0.0000000000000000e+00" purity="4.6148088574409485e-01" nType="-1"/>
            </Node>
          </Node>
        </BinaryTree>
        <BinaryTree type="DecisionTree" boostWeight="4.8315917513848351e-03" itree="141">
          <Node pos="s" depth="0" NCoef="0" IVar="6" Cut="1.2175170183181763e+00" cType="1" res="-9.9000000000000000e+01" rms="0.0000000000000000e+00" purity="5.0055235624313354e-01" nType="0">
            <Node pos="l" depth="1" NCoef="0" IVar="4" Cut="7.1914821863174438e-01" cType="0" res="-9.9000000000000000e+01" rms="0.0000000000000000e+00" purity="5.1181101799011230e-01" nType="0">
              <Node pos="l" depth="2" NCoef="0" IVar="-1" Cut="2.1285707092285156e+02" cType="0" res="-9.9000000000000000e+01" rms="0.0000000000000000e+00" purity="5.2646231651306152e-01" nType="1"/>
              <Node pos="r" depth="2" NCoef="0" IVar="-1" Cut="0.0000000000000000e+00" cType="1" res="-9.9000000000000000e+01" rms="0.0000000000000000e+00" purity="4.8814031481742859e-01" nType="-1"/>
            </Node>
            <Node pos="r" depth="1" NCoef="0" IVar="2" Cut="2.2843708801269531e+02" cType="1" res="-9.9000000000000000e+01" rms="0.0000000000000000e+00" purity="4.9826675653457642e-01" nType="0">
              <Node pos="l" depth="2" NCoef="0" IVar="2" Cut="1.2376736450195312e+02" cType="0" res="-9.9000000000000000e+01" rms="0.0000000000000000e+00" purity="4.9982541799545288e-01" nType="0">
                <Node pos="l" depth="3" NCoef="0" IVar="4" Cut="7.8253102302551270e-01" cType="1" res="-9.9000000000000000e+01" rms="0.0000000000000000e+00" purity="5.0187116861343384e-01" nType="0">
                  <Node pos="l" depth="4" NCoef="0" IVar="-1" Cut="0.0000000000000000e+00" cType="1" res="-9.9000000000000000e+01" rms="0.0000000000000000e+00" purity="5.2516120672225952e-01" nType="1"/>
                  <Node pos="r" depth="4" NCoef="0" IVar="-1" Cut="0.0000000000000000e+00" cType="1" res="-9.9000000000000000e+01" rms="0.0000000000000000e+00" purity="4.9964347481727600e-01" nType="-1"/>
                </Node>
                <Node pos="r" depth="3" NCoef="0" IVar="-1" Cut="0.0000000000000000e+00" cType="1" res="-9.9000000000000000e+01" rms="0.0000000000000000e+00" purity="4.7967103123664856e-01" nType="-1"/>
              </Node>
              <Node pos="r" depth="2" NCoef="0" IVar="-1" Cut="0.0000000000000000e+00" cType="1" res="-9.9000000000000000e+01" rms="0.0000000000000000e+00" purity="4.7711324691772461e-01" nType="-1"/>
            </Node>
          </Node>
        </BinaryTree>
        <BinaryTree type="DecisionTree" boostWeight="5.4991961882928072e-03" itree="142">
          <Node pos="s" depth="0" NCoef="0" IVar="1" Cut="4.0698322296142578e+01" cType="0" res="-9.9000000000000000e+01" rms="0.0000000000000000e+00" purity="5.0138181447982788e-01" nType="0">
            <Node pos="l" depth="1" NCoef="0" IVar="6" Cut="1.2175170183181763e+00" cType="1" res="-9.9000000000000000e+01" rms="0.0000000000000000e+00" purity="5.0254124402999878e-01" nType="0">
              <Node pos="l" depth="2" NCoef="0" IVar="5" Cut="1.7617355585098267e+00" cType="0" res="-9.9000000000000000e+01" rms="0.0000000000000000e+00" purity="5.1337623596191406e-01" nType="0">
                <Node pos="l" depth="3" NCoef="0" IVar="-1" Cut="0.0000000000000000e+00" cType="1" res="-9.9000000000000000e+01" rms="0.0000000000000000e+00" purity="5.4037088155746460e-01" nType="1"/>
                <Node pos="r" depth="3" NCoef="0" IVar="5" Cut="1.2538284063339233e+00" cType="1" res="-9.9000000000000000e+01" rms="0.0000000000000000e+00" purity="4.9986636638641357e-01" nType="0">
                  <Node pos="l" depth="4" NCoef="0" IVar="-1" Cut="0.0000000000000000e+00" cType="1" res="-9.9000000000000000e+01" rms="0.0000000000000000e+00" purity="5.1538091897964478e-01" nType="1"/>
                  <Node pos="r" depth="4" NCoef="0" IVar="-1" Cut="0.0000000000000000e+00" cType="1" res="-9.9000000000000000e+01" rms="0.0000000000000000e+00" purity="4.8461660742759705e-01" nType="-1"/>
                </Node>
              </Node>
              <Node pos="r" depth="2" NCoef="0" IVar="3" Cut="2.9857754516601562e+02" cType="1" res="-9.9000000000000000e+01" rms="0.0000000000000000e+00" purity="5.0022619962692261e-01" nType="0">
                <Node pos="l" depth="3" NCoef="0" IVar="2" Cut="1.8969180297851562e+02" cType="0" res="-9.9000000000000000e+01" rms="0.0000000000000000e+00" purity="5.0246930122375488e-01" nType="0">
                  <Node pos="l" depth="4" NCoef="0" IVar="-1" Cut="0.0000000000000000e+00" cType="1" res="-9.9000000000000000e+01" rms="0.0000000000000000e+00" purity="5.1538449525833130e-01" nType="1"/>
                  <Node pos="r" depth="4" NCoef="0" IVar="-1" Cut="0.0000000000000000e+00" cType="1" res="-9.9000000000000000e+01" rms="0.0000000000000000e+00" purity="4.9901056289672852e-01" nType="-1"/>
                </Node>
                <Node pos="r" depth="3" NCoef="0" IVar="-1" Cut="0.0000000000000000e+00" cType="1" res="-9.9000000000000000e+01" rms="0.0000000000000000e+00" purity="4.8486641049385071e-01" nType="-1"/>
              </Node>
            </Node>
            <Node pos="r" depth="1" NCoef="0" IVar="-1" Cut="0.0000000000000000e+00" cType="1" res="-9.9000000000000000e+01" rms="0.0000000000000000e+00" purity="4.8276671767234802e-01" nType="-1"/>
          </Node>
        </BinaryTree>
        <BinaryTree type="DecisionTree" boostWeight="6.8614737547351276e-03" itree="143">
          <Node pos="s" depth="0" NCoef="0" IVar="1" Cut="4.0698322296142578e+01" cType="0" res="-9.9000000000000000e+01" rms="0.0000000000000000e+00" purity="5.0207406282424927e-01" nType="0">
            <Node pos="l" depth="1" NCoef="0" IVar="1" Cut="1.2728234863281250e+02" cType="1" res="-9.9000000000000000e+01" rms="0.0000000000000000e+00" purity="5.0318992137908936e-01" nType="0">
              <Node pos="l" depth="2" NCoef="0" IVar="6" Cut="1.2175170183181763e+00" cType="1" res="-9.9000000000000000e+01" rms="0.0000000000000000e+00" purity="5.0511074066162109e-01" nType="0">
                <Node pos="l" depth="3" NCoef="0" IVar="-1" Cut="1.6921553611755371e+00" cType="0" res="-9.9000000000000000e+01" rms="0.0000000000000000e+00" purity="5.2435171604156494e-01" nType="1"/>
                <Node pos="r" depth="3" NCoef="0" IVar="3" Cut="1.4801332092285156e+02" cType="1" res="-9.9000000000000000e+01" rms="0.0000000000000000e+00" purity="5.0142258405685425e-01" nType="0">
                  <Node pos="l" depth="4" NCoef="0" IVar="-1" Cut="0.0000000000000000e+00" cType="1" res="-9.9000000000000000e+01" rms="0.0000000000000000e+00" purity="5.1613509654998779e-01" nType="1"/>
                  <Node pos="r" depth="4" NCoef="0" IVar="-1" Cut="0.0000000000000000e+00" cType="1" res="-9.9000000000000000e+01" rms="0.0000000000000000e+00" purity="4.9642887711524963e-01" nType="-1"/>
                </Node>
              </Node>
              <Node pos="r" depth="2" NCoef="0" IVar="4" Cut="1.1890259981155396e+00" cType="0" res="-9.9000000000000000e+01" rms="0.0000000000000000e+00" purity="4.9093160033226013e-01" nType="0">
                <Node pos="l" depth="3" NCoef="0" IVar="-1" Cut="0.0000000000000000e+00" cType="1" res="-9.9000000000000000e+01" rms="0.0000000000000000e+00" purity="5.1163703203201294e-01" nType="1"/>
                <Node pos="r" depth="3" NCoef="0" IVar="-1" Cut="0.0000000000000000e+00" cType="1" res="-9.9000000000000000e+01" rms="0.0000000000000000e+00" purity="4.6837595105171204e-01" nType="-1"/>
              </Node>
            </Node>
            <Node pos="r" depth="1" NCoef="0" IVar="-1" Cut="0.0000000000000000e+00" cType="1" res="-9.9000000000000000e+01" rms="0.0000000000000000e+00" purity="4.8415815830230713e-01" nType="-1"/>
          </Node>
        </BinaryTree>
        <BinaryTree type="DecisionTree" boostWeight="6.2166581413606176e-03" itree="144">
          <Node pos="s" depth="0" NCoef="0" IVar="2" Cut="1.3681138610839844e+02" cType="0" res="-9.9000000000000000e+01" rms="0.0000000000000000e+00" purity="5.0253754854202271e-01" nType="0">
            <Node pos="l" depth="1" NCoef="0" IVar="3" Cut="4.4669989013671875e+02" cType="1" res="-9.9000000000000000e+01" rms="0.0000000000000000e+00" purity="5.0470560789108276e-01" nType="0">
              <Node pos="l" depth="2" NCoef="0" IVar="3" Cut="3.3316058349609375e+02" cType="0" res="-9.9000000000000000e+01" rms="0.0000000000000000e+00" purity="5.0622123479843140e-01" nType="0">
                <Node pos="l" depth="3" NCoef="0" IVar="-1" Cut="0.0000000000000000e+00" cType="1" res="-9.9000000000000000e+01" rms="0.0000000000000000e+00" purity="5.2983534336090088e-01" nType="1"/>
                <Node pos="r" depth="3" NCoef="0" IVar="4" Cut="2.4554197788238525e+00" cType="1" res="-9.9000000000000000e+01" rms="0.0000000000000000e+00" purity="5.0352019071578979e-01" nType="0">
                  <Node pos="l" depth="4" NCoef="0" IVar="-1" Cut="0.0000000000000000e+00" cType="1" res="-9.9000000000000000e+01" rms="0.0000000000000000e+00" purity="5.0522571802139282e-01" nType="1"/>
                  <Node pos="r" depth="4" NCoef="0" IVar="-1" Cut="0.0000000000000000e+00" cType="1" res="-9.9000000000000000e+01" rms="0.0000000000000000e+00" purity="4.8671990633010864e-01" nType="-1"/>
                </Node>
              </Node>
              <Node pos="r" depth="2" NCoef="0" IVar="-1" Cut="0.0000000000000000e+00" cType="1" res="-9.9000000000000000e+01" rms="0.0000000000000000e+00" purity="4.8627987504005432e-01" nType="-1"/>
            </Node>
            <Node pos="r" depth="1" NCoef="0" IVar="4" Cut="1.8329142332077026e+00" cType="0" res="-9.9000000000000000e+01" rms="0.0000000000000000e+00" purity="4.9197599291801453e-01" nType="0">
              <Node pos="l" depth="2" NCoef="0" IVar="-1" Cut="0.0000000000000000e+00" cType="1" res="-9.9000000000000000e+01" rms="0.0000000000000000e+00" purity="5.0939816236495972e-01" nType="1"/>
              <Node pos="r" depth="2" NCoef="0" IVar="-1" Cut="0.0000000000000000e+00" cType="1" res="-9.9000000000000000e+01" rms="0.0000000000000000e+00" purity="4.7286781668663025e-01" nType="-1"/>
            </Node>
          </Node>
        </BinaryTree>
        <BinaryTree type="DecisionTree" boostWeight="5.8497135343243906e-03" itree="145">
          <Node pos="s" depth="0" NCoef="0" IVar="6" Cut="3.3990147113800049e+00" cType="1" res="-9.9000000000000000e+01" rms="0.0000000000000000e+00" purity="5.0163471698760986e-01" nType="0">
            <Node pos="l" depth="1" NCoef="0" IVar="1" Cut="1.2294087219238281e+02" cType="1" res="-9.9000000000000000e+01" rms="0.0000000000000000e+00" purity="5.0269222259521484e-01" nType="0">
              <Node pos="l" depth="2" NCoef="0" IVar="6" Cut="1.2486450672149658e+00" cType="1" res="-9.9000000000000000e+01" rms="0.0000000000000000e+00" purity="5.0506019592285156e-01" nType="0">
                <Node pos="l" depth="3" NCoef="0" IVar="0" Cut="1.8095515441894531e+02" cType="0" res="-9.9000000000000000e+01" rms="0.0000000000000000e+00" purity="5.2009803056716919e-01" nType="0">
                  <Node pos="l" depth="4" NCoef="0" IVar="-1" Cut="0.0000000000000000e+00" cType="1" res="-9.9000000000000000e+01" rms="0.0000000000000000e+00" purity="5.4742473363876343e-01" nType="1"/>
                  <Node pos="r" depth="4" NCoef="0" IVar="-1" Cut="0.0000000000000000e+00" cType="1" res="-9.9000000000000000e+01" rms="0.0000000000000000e+00" purity="4.9982413649559021e-01" nType="-1"/>
                </Node>
                <Node pos="r" depth="3" NCoef="0" IVar="2" Cut="2.2348872375488281e+02" cType="1" res="-9.9000000000000000e+01" rms="0.0000000000000000e+00" purity="5.0199013948440552e-01" nType="0">
                  <Node pos="l" depth="4" NCoef="0" IVar="-1" Cut="0.0000000000000000e+00" cType="1" res="-9.9000000000000000e+01" rms="0.0000000000000000e+00" purity="5.0440156459808350e-01" nType="1"/>
                  <Node pos="r" depth="4" NCoef="0" IVar="-1" Cut="0.0000000000000000e+00" cType="1" res="-9.9000000000000000e+01" rms="0.0000000000000000e+00" purity="4.7560983896255493e-01" nType="-1"/>
                </Node>
              </Node>
              <Node pos="r" depth="2" NCoef="0" IVar="4" Cut="1.1317127943038940e+00" cType="0" res="-9.9000000000000000e+01" rms="0.0000000000000000e+00" purity="4.8957946896553040e-01" nType="0">
                <Node pos="l" depth="3" NCoef="0" IVar="-1" Cut="0.0000000000000000e+00" cType="1" res="-9.9000000000000000e+01" rms="0.0000000000000000e+00" purity="5.0306028127670288e-01" nType="1"/>
                <Node pos="r" depth="3" NCoef="0" IVar="-1" Cut="0.0000000000000000e+00" cType="1" res="-9.9000000000000000e+01" rms="0.0000000000000000e+00" purity="4.7272148728370667e-01" nType="-1"/>
              </Node>
            </Node>
            <Node pos="r" depth="1" NCoef="0" IVar="-1" Cut="0.0000000000000000e+00" cType="1" res="-9.9000000000000000e+01" rms="0.0000000000000000e+00" purity="4.8198255896568298e-01" nType="-1"/>
          </Node>
        </BinaryTree>
        <BinaryTree type="DecisionTree" boostWeight="8.4476993977093112e-03" itree="146">
          <Node pos="s" depth="0" NCoef="0" IVar="2" Cut="1.4594476318359375e+02" cType="0" res="-9.9000000000000000e+01" rms="0.0000000000000000e+00" purity="5.0090789794921875e-01" nType="0">
            <Node pos="l" depth="1" NCoef="0" IVar="6" Cut="2.3167958259582520e+00" cType="1" res="-9.9000000000000000e+01" rms="0.0000000000000000e+00" purity="5.0353360176086426e-01" nType="0">
              <Node pos="l" depth="2" NCoef="0" IVar="4" Cut="6.0140645503997803e-01" cType="0" res="-9.9000000000000000e+01" rms="0.0000000000000000e+00" purity="5.0755327939987183e-01" nType="0">
                <Node pos="l" depth="3" NCoef="0" IVar="-1" Cut="9.3540885925292969e+01" cType="1" res="-9.9000000000000000e+01" rms="0.0000000000000000e+00" purity="5.1041519641876221e-01" nType="1"/>
                <Node pos="r" depth="3" NCoef="0" IVar="-1" Cut="0.0000000000000000e+00" cType="1" res="-9.9000000000000000e+01" rms="0.0000000000000000e+00" purity="4.8355072736740112e-01" nType="-1"/>
              </Node>
              <Node pos="r" depth="2" NCoef="0" IVar="2" Cut="1.8784326171875000e+02" cType="1" res="-9.9000000000000000e+01" rms="0.0000000000000000e+00" purity="4.9663659930229187e-01" nType="0">
                <Node pos="l" depth="3" NCoef="0" IVar="1" Cut="1.0548175811767578e+02" cType="1" res="-9.9000000000000000e+01" rms="0.0000000000000000e+00" purity="5.0460076332092285e-01" nType="0">
                  <Node pos="l" depth="4" NCoef="0" IVar="-1" Cut="0.0000000000000000e+00" cType="1" res="-9.9000000000000000e+01" rms="0.0000000000000000e+00" purity="5.0956732034683228e-01" nType="1"/>
                  <Node pos="r" depth="4" NCoef="0" IVar="-1" Cut="0.0000000000000000e+00" cType="1" res="-9.9000000000000000e+01" rms="0.0000000000000000e+00" purity="4.9220085144042969e-01" nType="-1"/>
                </Node>
                <Node pos="r" depth="3" NCoef="0" IVar="-1" Cut="0.0000000000000000e+00" cType="1" res="-9.9000000000000000e+01" rms="0.0000000000000000e+00" purity="4.7159942984580994e-01" nType="-1"/>
              </Node>
            </Node>
            <Node pos="r" depth="1" NCoef="0" IVar="3" Cut="1.3263108825683594e+02" cType="1" res="-9.9000000000000000e+01" rms="0.0000000000000000e+00" purity="4.9318078160285950e-01" nType="0">
              <Node pos="l" depth="2" NCoef="0" IVar="0" Cut="5.0796268463134766e+01" cType="0" res="-9.9000000000000000e+01" rms="0.0000000000000000e+00" purity="5.0742733478546143e-01" nType="0">
                <Node pos="l" depth="3" NCoef="0" IVar="-1" Cut="0.0000000000000000e+00" cType="1" res="-9.9000000000000000e+01" rms="0.0000000000000000e+00" purity="5.2890259027481079e-01" nType="1"/>
                <Node pos="r" depth="3" NCoef="0" IVar="-1" Cut="0.0000000000000000e+00" cType="1" res="-9.9000000000000000e+01" rms="0.0000000000000000e+00" purity="4.8434594273567200e-01" nType="-1"/>
              </Node>
              <Node pos="r" depth="2" NCoef="0" IVar="-1" Cut="1.3623777770996094e+02" cType="0" res="-9.9000000000000000e+01" rms="0.0000000000000000e+00" purity="4.8188373446464539e-01" nType="-1"/>
            </Node>
          </Node>
        </BinaryTree>
        <BinaryTree type="DecisionTree" boostWeight="4.8561616646318456e-03" itree="147">
          <Node pos="s" depth="0" NCoef="0" IVar="1" Cut="4.0698322296142578e+01" cType="0" res="-9.9000000000000000e+01" rms="0.0000000000000000e+00" purity="5.0037527084350586e-01" nType="0">
            <Node pos="l" depth="1" NCoef="0" IVar="1" Cut="1.4459895324707031e+02" cType="1" res="-9.9000000000000000e+01" rms="0.0000000000000000e+00" purity="5.0144189596176147e-01" nType="0">
              <Node pos="l" depth="2" NCoef="0" IVar="6" Cut="1.1367207765579224e+00" cType="1" res="-9.9000000000000000e+01" rms="0.0000000000000000e+00" purity="5.0259631872177124e-01" nType="0">
                <Node pos="l" depth="3" NCoef="0" IVar="-1" Cut="2.3033688354492188e+02" cType="0" res="-9.9000000000000000e+01" rms="0.0000000000000000e+00" purity="5.1885360479354858e-01" nType="1"/>
                <Node pos="r" depth="3" NCoef="0" IVar="3" Cut="1.5967759704589844e+02" cType="1" res="-9.9000000000000000e+01" rms="0.0000000000000000e+00" purity="4.9986028671264648e-01" nType="0">
                  <Node pos="l" depth="4" NCoef="0" IVar="-1" Cut="0.0000000000000000e+00" cType="1" res="-9.9000000000000000e+01" rms="0.0000000000000000e+00" purity="5.0690966844558716e-01" nType="1"/>
                  <Node pos="r" depth="4" NCoef="0" IVar="-1" Cut="0.0000000000000000e+00" cType="1" res="-9.9000000000000000e+01" rms="0.0000000000000000e+00" purity="4.9611213803291321e-01" nType="-1"/>
                </Node>
              </Node>
              <Node pos="r" depth="2" NCoef="0" IVar="-1" Cut="0.0000000000000000e+00" cType="1" res="-9.9000000000000000e+01" rms="0.0000000000000000e+00" purity="4.8229041695594788e-01" nType="-1"/>
            </Node>
            <Node pos="r" depth="1" NCoef="0" IVar="-1" Cut="0.0000000000000000e+00" cType="1" res="-9.9000000000000000e+01" rms="0.0000000000000000e+00" purity="4.8325133323669434e-01" nType="-1"/>
          </Node>
        </BinaryTree>
        <BinaryTree type="DecisionTree" boostWeight="5.2515239292211446e-03" itree="148">
          <Node pos="s" depth="0" NCoef="0" IVar="2" Cut="1.3681138610839844e+02" cType="0" res="-9.9000000000000000e+01" rms="0.0000000000000000e+00" purity="5.0065213441848755e-01" nType="0">
            <Node pos="l" depth="1" NCoef="0" IVar="4" Cut="2.2360038757324219e+00" cType="1" res="-9.9000000000000000e+01" rms="0.0000000000000000e+00" purity="5.0261294841766357e-01" nType="0">
              <Node pos="l" depth="2" NCoef="0" IVar="4" Cut="5.8805704116821289e-01" cType="0" res="-9.9000000000000000e+01" rms="0.0000000000000000e+00" purity="5.0442433357238770e-01" nType="0">
                <Node pos="l" depth="3" NCoef="0" IVar="-1" Cut="1.6013278961181641e+00" cType="0" res="-9.9000000000000000e+01" rms="0.0000000000000000e+00" purity="5.0599735975265503e-01" nType="1"/>
                <Node pos="r" depth="3" NCoef="0" IVar="-1" Cut="0.0000000000000000e+00" cType="1" res="-9.9000000000000000e+01" rms="0.0000000000000000e+00" purity="4.8460048437118530e-01" nType="-1"/>
              </Node>
              <Node pos="r" depth="2" NCoef="0" IVar="-1" Cut="0.0000000000000000e+00" cType="1" res="-9.9000000000000000e+01" rms="0.0000000000000000e+00" purity="4.9100717902183533e-01" nType="-1"/>
            </Node>
            <Node pos="r" depth="1" NCoef="0" IVar="1" Cut="8.3413665771484375e+01" cType="1" res="-9.9000000000000000e+01" rms="0.0000000000000000e+00" purity="4.9109771847724915e-01" nType="0">
              <Node pos="l" depth="2" NCoef="0" IVar="-1" Cut="0.0000000000000000e+00" cType="1" res="-9.9000000000000000e+01" rms="0.0000000000000000e+00" purity="5.0831449031829834e-01" nType="1"/>
              <Node pos="r" depth="2" NCoef="0" IVar="-1" Cut="0.0000000000000000e+00" cType="1" res="-9.9000000000000000e+01" rms="0.0000000000000000e+00" purity="4.7357970476150513e-01" nType="-1"/>
            </Node>
          </Node>
        </BinaryTree>
        <BinaryTree type="DecisionTree" boostWeight="4.7689432688005021e-03" itree="149">
          <Node pos="s" depth="0" NCoef="0" IVar="2" Cut="1.2767800140380859e+02" cType="0" res="-9.9000000000000000e+01" rms="0.0000000000000000e+00" purity="4.9999728798866272e-01" nType="0">
            <Node pos="l" depth="1" NCoef="0" IVar="0" Cut="3.4660827636718750e+01" cType="1" res="-9.9000000000000000e+01" rms="0.0000000000000000e+00" purity="5.0136172771453857e-01" nType="0">
              <Node pos="l" depth="2" NCoef="0" IVar="-1" Cut="0.0000000000000000e+00" cType="1" res="-9.9000000000000000e+01" rms="0.0000000000000000e+00" purity="5.1315635442733765e-01" nType="1"/>
              <Node pos="r" depth="2" NCoef="0" IVar="4" Cut="2.2046587467193604e+00" cType="1" res="-9.9000000000000000e+01" rms="0.0000000000000000e+00" purity="4.9976986646652222e-01" nType="0">
                <Node pos="l" depth="3" NCoef="0" IVar="-1" Cut="2.4586680603027344e+02" cType="0" res="-9.9000000000000000e+01" rms="0.0000000000000000e+00" purity="5.0277960300445557e-01" nType="1"/>
                <Node pos="r" depth="3" NCoef="0" IVar="-1" Cut="0.0000000000000000e+00" cType="1" res="-9.9000000000000000e+01" rms="0.0000000000000000e+00" purity="4.8016211390495300e-01" nType="-1"/>
              </Node>
            </Node>
            <Node pos="r" depth="1" NCoef="0" IVar="4" Cut="1.9041100740432739e+00" cType="0" res="-9.9000000000000000e+01" rms="0.0000000000000000e+00" purity="4.8775738477706909e-01" nType="0">
              <Node pos="l" depth="2" NCoef="0" IVar="-1" Cut="0.0000000000000000e+00" cType="1" res="-9.9000000000000000e+01" rms="0.0000000000000000e+00" purity="5.1303583383560181e-01" nType="1"/>
              <Node pos="r" depth="2" NCoef="0" IVar="-1" Cut="0.0000000000000000e+00" cType="1" res="-9.9000000000000000e+01" rms="0.0000000000000000e+00" purity="4.6241095662117004e-01" nType="-1"/>
            </Node>
          </Node>
        </BinaryTree>
        <BinaryTree type="DecisionTree" boostWeight="4.8788517829623183e-03" itree="150">
          <Node pos="s" depth="0" NCoef="0" IVar="1" Cut="1.4304244995117188e+02" cType="1" res="-9.9000000000000000e+01" rms="0.0000000000000000e+00" purity="4.9917522072792053e-01" nType="0">
            <Node pos="l" depth="1" NCoef="0" IVar="6" Cut="1.2175170183181763e+00" cType="1" res="-9.9000000000000000e+01" rms="0.0000000000000000e+00" purity="5.0016748905181885e-01" nType="0">
              <Node pos="l" depth="2" NCoef="0" IVar="5" Cut="1.7617355585098267e+00" cType="0" res="-9.9000000000000000e+01" rms="0.0000000000000000e+00" purity="5.1251167058944702e-01" nType="0">
                <Node pos="l" depth="3" NCoef="0" IVar="-1" Cut="0.0000000000000000e+00" cType="1" res="-9.9000000000000000e+01" rms="0.0000000000000000e+00" purity="5.3584074974060059e-01" nType="1"/>
                <Node pos="r" depth="3" NCoef="0" IVar="-1" Cut="0.0000000000000000e+00" cType="1" res="-9.9000000000000000e+01" rms="0.0000000000000000e+00" purity="4.9986210465431213e-01" nType="-1"/>
              </Node>
              <Node pos="r" depth="2" NCoef="0" IVar="2" Cut="2.2843708801269531e+02" cType="1" res="-9.9000000000000000e+01" rms="0.0000000000000000e+00" purity="4.9782273173332214e-01" nType="0">
                <Node pos="l" depth="3" NCoef="0" IVar="2" Cut="1.6590527343750000e+02" cType="0" res="-9.9000000000000000e+01" rms="0.0000000000000000e+00" purity="4.9945023655891418e-01" nType="0">
                  <Node pos="l" depth="4" NCoef="0" IVar="-1" Cut="0.0000000000000000e+00" cType="1" res="-9.9000000000000000e+01" rms="0.0000000000000000e+00" purity="5.0536060333251953e-01" nType="1"/>
                  <Node pos="r" depth="4" NCoef="0" IVar="-1" Cut="0.0000000000000000e+00" cType="1" res="-9.9000000000000000e+01" rms="0.0000000000000000e+00" purity="4.9470138549804688e-01" nType="-1"/>
                </Node>
                <Node pos="r" depth="3" NCoef="0" IVar="-1" Cut="0.0000000000000000e+00" cType="1" res="-9.9000000000000000e+01" rms="0.0000000000000000e+00" purity="4.7600340843200684e-01" nType="-1"/>
              </Node>
            </Node>
            <Node pos="r" depth="1" NCoef="0" IVar="-1" Cut="0.0000000000000000e+00" cType="1" res="-9.9000000000000000e+01" rms="0.0000000000000000e+00" purity="4.8315444588661194e-01" nType="-1"/>
          </Node>
        </BinaryTree>
        <BinaryTree type="DecisionTree" boostWeight="7.9509423228391728e-03" itree="151">
          <Node pos="s" depth="0" NCoef="0" IVar="1" Cut="4.0698322296142578e+01" cType="0" res="-9.9000000000000000e+01" rms="0.0000000000000000e+00" purity="4.9947434663772583e-01" nType="0">
            <Node pos="l" depth="1" NCoef="0" IVar="1" Cut="8.7926437377929688e+01" cType="1" res="-9.9000000000000000e+01" rms="0.0000000000000000e+00" purity="5.0044399499893188e-01" nType="0">
              <Node pos="l" depth="2" NCoef="0" IVar="0" Cut="1.8355857849121094e+02" cType="0" res="-9.9000000000000000e+01" rms="0.0000000000000000e+00" purity="5.0521928071975708e-01" nType="0">
                <Node pos="l" depth="3" NCoef="0" IVar="-1" Cut="0.0000000000000000e+00" cType="1" res="-9.9000000000000000e+01" rms="0.0000000000000000e+00" purity="5.3761178255081177e-01" nType="1"/>
                <Node pos="r" depth="3" NCoef="0" IVar="3" Cut="1.4801332092285156e+02" cType="1" res="-9.9000000000000000e+01" rms="0.0000000000000000e+00" purity="4.9990800023078918e-01" nType="0">
                  <Node pos="l" depth="4" NCoef="0" IVar="-1" Cut="0.0000000000000000e+00" cType="1" res="-9.9000000000000000e+01" rms="0.0000000000000000e+00" purity="5.1995122432708740e-01" nType="1"/>
                  <Node pos="r" depth="4" NCoef="0" IVar="-1" Cut="0.0000000000000000e+00" cType="1" res="-9.9000000000000000e+01" rms="0.0000000000000000e+00" purity="4.9208754301071167e-01" nType="-1"/>
                </Node>
              </Node>
              <Node pos="r" depth="2" NCoef="0" IVar="5" Cut="8.9584606885910034e-01" cType="0" res="-9.9000000000000000e+01" rms="0.0000000000000000e+00" purity="4.9615684151649475e-01" nType="0">
                <Node pos="l" depth="3" NCoef="0" IVar="0" Cut="1.8359391784667969e+02" cType="1" res="-9.9000000000000000e+01" rms="0.0000000000000000e+00" purity="5.0071346759796143e-01" nType="0">
                  <Node pos="l" depth="4" NCoef="0" IVar="-1" Cut="0.0000000000000000e+00" cType="1" res="-9.9000000000000000e+01" rms="0.0000000000000000e+00" purity="5.0518184900283813e-01" nType="1"/>
                  <Node pos="r" depth="4" NCoef="0" IVar="-1" Cut="0.0000000000000000e+00" cType="1" res="-9.9000000000000000e+01" rms="0.0000000000000000e+00" purity="4.7417578101158142e-01" nType="-1"/>
                </Node>
                <Node pos="r" depth="3" NCoef="0" IVar="-1" Cut="0.0000000000000000e+00" cType="1" res="-9.9000000000000000e+01" rms="0.0000000000000000e+00" purity="4.7126969695091248e-01" nType="-1"/>
              </Node>
            </Node>
            <Node pos="r" depth="1" NCoef="0" IVar="-1" Cut="0.0000000000000000e+00" cType="1" res="-9.9000000000000000e+01" rms="0.0000000000000000e+00" purity="4.8390755057334900e-01" nType="-1"/>
          </Node>
        </BinaryTree>
        <BinaryTree type="DecisionTree" boostWeight="5.9018565383957547e-03" itree="152">
          <Node pos="s" depth="0" NCoef="0" IVar="1" Cut="1.2293914031982422e+02" cType="1" res="-9.9000000000000000e+01" rms="0.0000000000000000e+00" purity="4.9937856197357178e-01" nType="0">
            <Node pos="l" depth="1" NCoef="0" IVar="6" Cut="1.2175170183181763e+00" cType="1" res="-9.9000000000000000e+01" rms="0.0000000000000000e+00" purity="5.0115048885345459e-01" nType="0">
              <Node pos="l" depth="2" NCoef="0" IVar="5" Cut="1.6921553611755371e+00" cType="0" res="-9.9000000000000000e+01" rms="0.0000000000000000e+00" purity="5.1382124423980713e-01" nType="0">
                <Node pos="l" depth="3" NCoef="0" IVar="-1" Cut="0.0000000000000000e+00" cType="1" res="-9.9000000000000000e+01" rms="0.0000000000000000e+00" purity="5.4142075777053833e-01" nType="1"/>
                <Node pos="r" depth="3" NCoef="0" IVar="-1" Cut="0.0000000000000000e+00" cType="1" res="-9.9000000000000000e+01" rms="0.0000000000000000e+00" purity="4.9499776959419250e-01" nType="-1"/>
              </Node>
              <Node pos="r" depth="2" NCoef="0" IVar="2" Cut="2.2800282287597656e+02" cType="1" res="-9.9000000000000000e+01" rms="0.0000000000000000e+00" purity="4.9889144301414490e-01" nType="0">
                <Node pos="l" depth="3" NCoef="0" IVar="1" Cut="8.7706855773925781e+01" cType="1" res="-9.9000000000000000e+01" rms="0.0000000000000000e+00" purity="5.0065702199935913e-01" nType="0">
                  <Node pos="l" depth="4" NCoef="0" IVar="-1" Cut="0.0000000000000000e+00" cType="1" res="-9.9000000000000000e+01" rms="0.0000000000000000e+00" purity="5.0511789321899414e-01" nType="1"/>
                  <Node pos="r" depth="4" NCoef="0" IVar="-1" Cut="0.0000000000000000e+00" cType="1" res="-9.9000000000000000e+01" rms="0.0000000000000000e+00" purity="4.9378368258476257e-01" nType="-1"/>
                </Node>
                <Node pos="r" depth="3" NCoef="0" IVar="-1" Cut="0.0000000000000000e+00" cType="1" res="-9.9000000000000000e+01" rms="0.0000000000000000e+00" purity="4.7644647955894470e-01" nType="-1"/>
              </Node>
            </Node>
            <Node pos="r" depth="1" NCoef="0" IVar="5" Cut="1.0480177402496338e+00" cType="0" res="-9.9000000000000000e+01" rms="0.0000000000000000e+00" purity="4.8956769704818726e-01" nType="0">
              <Node pos="l" depth="2" NCoef="0" IVar="-1" Cut="0.0000000000000000e+00" cType="1" res="-9.9000000000000000e+01" rms="0.0000000000000000e+00" purity="5.0428861379623413e-01" nType="1"/>
              <Node pos="r" depth="2" NCoef="0" IVar="-1" Cut="0.0000000000000000e+00" cType="1" res="-9.9000000000000000e+01" rms="0.0000000000000000e+00" purity="4.6853354573249817e-01" nType="-1"/>
            </Node>
          </Node>
        </BinaryTree>
        <BinaryTree type="DecisionTree" boostWeight="5.4109013366037901e-03" itree="153">
          <Node pos="s" depth="0" NCoef="0" IVar="1" Cut="1.2293914031982422e+02" cType="1" res="-9.9000000000000000e+01" rms="0.0000000000000000e+00" purity="4.9924999475479126e-01" nType="0">
            <Node pos="l" depth="1" NCoef="0" IVar="6" Cut="1.2175170183181763e+00" cType="1" res="-9.9000000000000000e+01" rms="0.0000000000000000e+00" purity="5.0104582309722900e-01" nType="0">
              <Node pos="l" depth="2" NCoef="0" IVar="5" Cut="1.6921553611755371e+00" cType="0" res="-9.9000000000000000e+01" rms="0.0000000000000000e+00" purity="5.1411312818527222e-01" nType="0">
                <Node pos="l" depth="3" NCoef="0" IVar="-1" Cut="0.0000000000000000e+00" cType="1" res="-9.9000000000000000e+01" rms="0.0000000000000000e+00" purity="5.3995501995086670e-01" nType="1"/>
                <Node pos="r" depth="3" NCoef="0" IVar="-1" Cut="0.0000000000000000e+00" cType="1" res="-9.9000000000000000e+01" rms="0.0000000000000000e+00" purity="4.9649280309677124e-01" nType="-1"/>
              </Node>
              <Node pos="r" depth="2" NCoef="0" IVar="2" Cut="2.2800282287597656e+02" cType="1" res="-9.9000000000000000e+01" rms="0.0000000000000000e+00" purity="4.9871623516082764e-01" nType="0">
                <Node pos="l" depth="3" NCoef="0" IVar="2" Cut="1.5482963562011719e+02" cType="0" res="-9.9000000000000000e+01" rms="0.0000000000000000e+00" purity="5.0034582614898682e-01" nType="0">
                  <Node pos="l" depth="4" NCoef="0" IVar="-1" Cut="0.0000000000000000e+00" cType="1" res="-9.9000000000000000e+01" rms="0.0000000000000000e+00" purity="5.0473070144653320e-01" nType="1"/>
                  <Node pos="r" depth="4" NCoef="0" IVar="-1" Cut="0.0000000000000000e+00" cType="1" res="-9.9000000000000000e+01" rms="0.0000000000000000e+00" purity="4.9447691440582275e-01" nType="-1"/>
                </Node>
                <Node pos="r" depth="3" NCoef="0" IVar="-1" Cut="0.0000000000000000e+00" cType="1" res="-9.9000000000000000e+01" rms="0.0000000000000000e+00" purity="4.7799965739250183e-01" nType="-1"/>
              </Node>
            </Node>
            <Node pos="r" depth="1" NCoef="0" IVar="5" Cut="1.0480177402496338e+00" cType="0" res="-9.9000000000000000e+01" rms="0.0000000000000000e+00" purity="4.8930639028549194e-01" nType="0">
              <Node pos="l" depth="2" NCoef="0" IVar="-1" Cut="0.0000000000000000e+00" cType="1" res="-9.9000000000000000e+01" rms="0.0000000000000000e+00" purity="5.0281232595443726e-01" nType="1"/>
              <Node pos="r" depth="2" NCoef="0" IVar="-1" Cut="0.0000000000000000e+00" cType="1" res="-9.9000000000000000e+01" rms="0.0000000000000000e+00" purity="4.7000524401664734e-01" nType="-1"/>
            </Node>
          </Node>
        </BinaryTree>
        <BinaryTree type="DecisionTree" boostWeight="4.9850491980190483e-03" itree="154">
          <Node pos="s" depth="0" NCoef="0" IVar="1" Cut="1.2293914031982422e+02" cType="1" res="-9.9000000000000000e+01" rms="0.0000000000000000e+00" purity="4.9919348955154419e-01" nType="0">
            <Node pos="l" depth="1" NCoef="0" IVar="6" Cut="1.2175170183181763e+00" cType="1" res="-9.9000000000000000e+01" rms="0.0000000000000000e+00" purity="5.0102227926254272e-01" nType="0">
              <Node pos="l" depth="2" NCoef="0" IVar="5" Cut="1.6921553611755371e+00" cType="0" res="-9.9000000000000000e+01" rms="0.0000000000000000e+00" purity="5.1438063383102417e-01" nType="0">
                <Node pos="l" depth="3" NCoef="0" IVar="-1" Cut="0.0000000000000000e+00" cType="1" res="-9.9000000000000000e+01" rms="0.0000000000000000e+00" purity="5.3861063718795776e-01" nType="1"/>
                <Node pos="r" depth="3" NCoef="0" IVar="-1" Cut="0.0000000000000000e+00" cType="1" res="-9.9000000000000000e+01" rms="0.0000000000000000e+00" purity="4.9786329269409180e-01" nType="-1"/>
              </Node>
              <Node pos="r" depth="2" NCoef="0" IVar="2" Cut="2.2800282287597656e+02" cType="1" res="-9.9000000000000000e+01" rms="0.0000000000000000e+00" purity="4.9864092469215393e-01" nType="0">
                <Node pos="l" depth="3" NCoef="0" IVar="3" Cut="1.4801332092285156e+02" cType="1" res="-9.9000000000000000e+01" rms="0.0000000000000000e+00" purity="5.0015276670455933e-01" nType="0">
                  <Node pos="l" depth="4" NCoef="0" IVar="-1" Cut="0.0000000000000000e+00" cType="1" res="-9.9000000000000000e+01" rms="0.0000000000000000e+00" purity="5.0775992870330811e-01" nType="1"/>
                  <Node pos="r" depth="4" NCoef="0" IVar="-1" Cut="0.0000000000000000e+00" cType="1" res="-9.9000000000000000e+01" rms="0.0000000000000000e+00" purity="4.9721288681030273e-01" nType="-1"/>
                </Node>
                <Node pos="r" depth="3" NCoef="0" IVar="-1" Cut="0.0000000000000000e+00" cType="1" res="-9.9000000000000000e+01" rms="0.0000000000000000e+00" purity="4.7942310571670532e-01" nType="-1"/>
              </Node>
            </Node>
            <Node pos="r" depth="1" NCoef="0" IVar="4" Cut="1.1603693962097168e+00" cType="0" res="-9.9000000000000000e+01" rms="0.0000000000000000e+00" purity="4.8906677961349487e-01" nType="0">
              <Node pos="l" depth="2" NCoef="0" IVar="-1" Cut="0.0000000000000000e+00" cType="1" res="-9.9000000000000000e+01" rms="0.0000000000000000e+00" purity="5.0364178419113159e-01" nType="1"/>
              <Node pos="r" depth="2" NCoef="0" IVar="-1" Cut="0.0000000000000000e+00" cType="1" res="-9.9000000000000000e+01" rms="0.0000000000000000e+00" purity="4.7164770960807800e-01" nType="-1"/>
            </Node>
          </Node>
        </BinaryTree>
        <BinaryTree type="DecisionTree" boostWeight="4.5210644220204212e-03" itree="155">
          <Node pos="s" depth="0" NCoef="0" IVar="1" Cut="1.2293914031982422e+02" cType="1" res="-9.9000000000000000e+01" rms="0.0000000000000000e+00" purity="4.9965345859527588e-01" nType="0">
            <Node pos="l" depth="1" NCoef="0" IVar="6" Cut="1.2175170183181763e+00" cType="1" res="-9.9000000000000000e+01" rms="0.0000000000000000e+00" purity="5.0158447027206421e-01" nType="0">
              <Node pos="l" depth="2" NCoef="0" IVar="3" Cut="3.1209490966796875e+02" cType="0" res="-9.9000000000000000e+01" rms="0.0000000000000000e+00" purity="5.1462715864181519e-01" nType="0">
                <Node pos="l" depth="3" NCoef="0" IVar="-1" Cut="0.0000000000000000e+00" cType="1" res="-9.9000000000000000e+01" rms="0.0000000000000000e+00" purity="5.3493928909301758e-01" nType="1"/>
                <Node pos="r" depth="3" NCoef="0" IVar="-1" Cut="0.0000000000000000e+00" cType="1" res="-9.9000000000000000e+01" rms="0.0000000000000000e+00" purity="4.9645352363586426e-01" nType="-1"/>
              </Node>
              <Node pos="r" depth="2" NCoef="0" IVar="2" Cut="2.2800282287597656e+02" cType="1" res="-9.9000000000000000e+01" rms="0.0000000000000000e+00" purity="4.9925953149795532e-01" nType="0">
                <Node pos="l" depth="3" NCoef="0" IVar="2" Cut="1.2366455841064453e+02" cType="0" res="-9.9000000000000000e+01" rms="0.0000000000000000e+00" purity="5.0071692466735840e-01" nType="0">
                  <Node pos="l" depth="4" NCoef="0" IVar="-1" Cut="0.0000000000000000e+00" cType="1" res="-9.9000000000000000e+01" rms="0.0000000000000000e+00" purity="5.0221908092498779e-01" nType="1"/>
                  <Node pos="r" depth="4" NCoef="0" IVar="-1" Cut="0.0000000000000000e+00" cType="1" res="-9.9000000000000000e+01" rms="0.0000000000000000e+00" purity="4.8605525493621826e-01" nType="-1"/>
                </Node>
                <Node pos="r" depth="3" NCoef="0" IVar="-1" Cut="0.0000000000000000e+00" cType="1" res="-9.9000000000000000e+01" rms="0.0000000000000000e+00" purity="4.8073410987854004e-01" nType="-1"/>
              </Node>
            </Node>
            <Node pos="r" depth="1" NCoef="0" IVar="5" Cut="1.0480177402496338e+00" cType="0" res="-9.9000000000000000e+01" rms="0.0000000000000000e+00" purity="4.8896011710166931e-01" nType="0">
              <Node pos="l" depth="2" NCoef="0" IVar="-1" Cut="0.0000000000000000e+00" cType="1" res="-9.9000000000000000e+01" rms="0.0000000000000000e+00" purity="5.0153607130050659e-01" nType="1"/>
              <Node pos="r" depth="2" NCoef="0" IVar="-1" Cut="0.0000000000000000e+00" cType="1" res="-9.9000000000000000e+01" rms="0.0000000000000000e+00" purity="4.7098702192306519e-01" nType="-1"/>
            </Node>
          </Node>
        </BinaryTree>
        <BinaryTree type="DecisionTree" boostWeight="3.9719804752322719e-03" itree="156">
          <Node pos="s" depth="0" NCoef="0" IVar="1" Cut="1.2293914031982422e+02" cType="1" res="-9.9000000000000000e+01" rms="0.0000000000000000e+00" purity="4.9908336997032166e-01" nType="0">
            <Node pos="l" depth="1" NCoef="0" IVar="6" Cut="1.2175170183181763e+00" cType="1" res="-9.9000000000000000e+01" rms="0.0000000000000000e+00" purity="5.0094747543334961e-01" nType="0">
              <Node pos="l" depth="2" NCoef="0" IVar="5" Cut="1.6921553611755371e+00" cType="0" res="-9.9000000000000000e+01" rms="0.0000000000000000e+00" purity="5.1472234725952148e-01" nType="0">
                <Node pos="l" depth="3" NCoef="0" IVar="-1" Cut="0.0000000000000000e+00" cType="1" res="-9.9000000000000000e+01" rms="0.0000000000000000e+00" purity="5.3719764947891235e-01" nType="1"/>
                <Node pos="r" depth="3" NCoef="0" IVar="-1" Cut="0.0000000000000000e+00" cType="1" res="-9.9000000000000000e+01" rms="0.0000000000000000e+00" purity="4.9940583109855652e-01" nType="-1"/>
              </Node>
              <Node pos="r" depth="2" NCoef="0" IVar="2" Cut="2.2800282287597656e+02" cType="1" res="-9.9000000000000000e+01" rms="0.0000000000000000e+00" purity="4.9849209189414978e-01" nType="0">
                <Node pos="l" depth="3" NCoef="0" IVar="6" Cut="3.2814323902130127e+00" cType="1" res="-9.9000000000000000e+01" rms="0.0000000000000000e+00" purity="4.9979558587074280e-01" nType="0">
                  <Node pos="l" depth="4" NCoef="0" IVar="-1" Cut="0.0000000000000000e+00" cType="1" res="-9.9000000000000000e+01" rms="0.0000000000000000e+00" purity="5.0118958950042725e-01" nType="1"/>
                  <Node pos="r" depth="4" NCoef="0" IVar="-1" Cut="0.0000000000000000e+00" cType="1" res="-9.9000000000000000e+01" rms="0.0000000000000000e+00" purity="4.8549628257751465e-01" nType="-1"/>
                </Node>
                <Node pos="r" depth="3" NCoef="0" IVar="-1" Cut="0.0000000000000000e+00" cType="1" res="-9.9000000000000000e+01" rms="0.0000000000000000e+00" purity="4.8192274570465088e-01" nType="-1"/>
              </Node>
            </Node>
            <Node pos="r" depth="1" NCoef="0" IVar="4" Cut="1.1603693962097168e+00" cType="0" res="-9.9000000000000000e+01" rms="0.0000000000000000e+00" purity="4.8875993490219116e-01" nType="0">
              <Node pos="l" depth="2" NCoef="0" IVar="-1" Cut="0.0000000000000000e+00" cType="1" res="-9.9000000000000000e+01" rms="0.0000000000000000e+00" purity="5.0236761569976807e-01" nType="1"/>
              <Node pos="r" depth="2" NCoef="0" IVar="-1" Cut="0.0000000000000000e+00" cType="1" res="-9.9000000000000000e+01" rms="0.0000000000000000e+00" purity="4.7249692678451538e-01" nType="-1"/>
            </Node>
          </Node>
        </BinaryTree>
        <BinaryTree type="DecisionTree" boostWeight="4.6649498693142324e-03" itree="157">
          <Node pos="s" depth="0" NCoef="0" IVar="1" Cut="1.2293914031982422e+02" cType="1" res="-9.9000000000000000e+01" rms="0.0000000000000000e+00" purity="4.9860513210296631e-01" nType="0">
            <Node pos="l" depth="1" NCoef="0" IVar="6" Cut="1.2175170183181763e+00" cType="1" res="-9.9000000000000000e+01" rms="0.0000000000000000e+00" purity="5.0039809942245483e-01" nType="0">
              <Node pos="l" depth="2" NCoef="0" IVar="2" Cut="2.2122898864746094e+02" cType="0" res="-9.9000000000000000e+01" rms="0.0000000000000000e+00" purity="5.1491880416870117e-01" nType="0">
                <Node pos="l" depth="3" NCoef="0" IVar="-1" Cut="0.0000000000000000e+00" cType="1" res="-9.9000000000000000e+01" rms="0.0000000000000000e+00" purity="5.3027039766311646e-01" nType="1"/>
                <Node pos="r" depth="3" NCoef="0" IVar="-1" Cut="0.0000000000000000e+00" cType="1" res="-9.9000000000000000e+01" rms="0.0000000000000000e+00" purity="4.9365332722663879e-01" nType="-1"/>
              </Node>
              <Node pos="r" depth="2" NCoef="0" IVar="3" Cut="1.3379611206054688e+02" cType="1" res="-9.9000000000000000e+01" rms="0.0000000000000000e+00" purity="4.9780994653701782e-01" nType="0">
                <Node pos="l" depth="3" NCoef="0" IVar="-1" Cut="0.0000000000000000e+00" cType="1" res="-9.9000000000000000e+01" rms="0.0000000000000000e+00" purity="5.0880032777786255e-01" nType="1"/>
                <Node pos="r" depth="3" NCoef="0" IVar="-1" Cut="1.4086656188964844e+02" cType="0" res="-9.9000000000000000e+01" rms="0.0000000000000000e+00" purity="4.9599894881248474e-01" nType="-1"/>
              </Node>
            </Node>
            <Node pos="r" depth="1" NCoef="0" IVar="5" Cut="1.0480177402496338e+00" cType="0" res="-9.9000000000000000e+01" rms="0.0000000000000000e+00" purity="4.8867493867874146e-01" nType="0">
              <Node pos="l" depth="2" NCoef="0" IVar="-1" Cut="0.0000000000000000e+00" cType="1" res="-9.9000000000000000e+01" rms="0.0000000000000000e+00" purity="5.0046670436859131e-01" nType="1"/>
              <Node pos="r" depth="2" NCoef="0" IVar="-1" Cut="0.0000000000000000e+00" cType="1" res="-9.9000000000000000e+01" rms="0.0000000000000000e+00" purity="4.7182175517082214e-01" nType="-1"/>
            </Node>
          </Node>
        </BinaryTree>
        <BinaryTree type="DecisionTree" boostWeight="6.9790839138770830e-03" itree="158">
          <Node pos="s" depth="0" NCoef="0" IVar="1" Cut="1.2293914031982422e+02" cType="1" res="-9.9000000000000000e+01" rms="0.0000000000000000e+00" purity="4.9916404485702515e-01" nType="0">
            <Node pos="l" depth="1" NCoef="0" IVar="6" Cut="1.4599056243896484e+00" cType="1" res="-9.9000000000000000e+01" rms="0.0000000000000000e+00" purity="5.0109517574310303e-01" nType="0">
              <Node pos="l" depth="2" NCoef="0" IVar="2" Cut="2.2122898864746094e+02" cType="0" res="-9.9000000000000000e+01" rms="0.0000000000000000e+00" purity="5.1181572675704956e-01" nType="0">
                <Node pos="l" depth="3" NCoef="0" IVar="-1" Cut="0.0000000000000000e+00" cType="1" res="-9.9000000000000000e+01" rms="0.0000000000000000e+00" purity="5.3441643714904785e-01" nType="1"/>
                <Node pos="r" depth="3" NCoef="0" IVar="-1" Cut="0.0000000000000000e+00" cType="1" res="-9.9000000000000000e+01" rms="0.0000000000000000e+00" purity="4.8787599802017212e-01" nType="-1"/>
              </Node>
              <Node pos="r" depth="2" NCoef="0" IVar="2" Cut="2.1217793273925781e+02" cType="1" res="-9.9000000000000000e+01" rms="0.0000000000000000e+00" purity="4.9794259667396545e-01" nType="0">
                <Node pos="l" depth="3" NCoef="0" IVar="2" Cut="1.5465664672851562e+02" cType="0" res="-9.9000000000000000e+01" rms="0.0000000000000000e+00" purity="5.0102704763412476e-01" nType="0">
                  <Node pos="l" depth="4" NCoef="0" IVar="-1" Cut="0.0000000000000000e+00" cType="1" res="-9.9000000000000000e+01" rms="0.0000000000000000e+00" purity="5.0582337379455566e-01" nType="1"/>
                  <Node pos="r" depth="4" NCoef="0" IVar="-1" Cut="0.0000000000000000e+00" cType="1" res="-9.9000000000000000e+01" rms="0.0000000000000000e+00" purity="4.9539786577224731e-01" nType="-1"/>
                </Node>
                <Node pos="r" depth="3" NCoef="0" IVar="-1" Cut="0.0000000000000000e+00" cType="1" res="-9.9000000000000000e+01" rms="0.0000000000000000e+00" purity="4.6597912907600403e-01" nType="-1"/>
              </Node>
            </Node>
            <Node pos="r" depth="1" NCoef="0" IVar="4" Cut="1.1603693962097168e+00" cType="0" res="-9.9000000000000000e+01" rms="0.0000000000000000e+00" purity="4.8846837878227234e-01" nType="0">
              <Node pos="l" depth="2" NCoef="0" IVar="-1" Cut="0.0000000000000000e+00" cType="1" res="-9.9000000000000000e+01" rms="0.0000000000000000e+00" purity="5.0134652853012085e-01" nType="1"/>
              <Node pos="r" depth="2" NCoef="0" IVar="-1" Cut="0.0000000000000000e+00" cType="1" res="-9.9000000000000000e+01" rms="0.0000000000000000e+00" purity="4.7307765483856201e-01" nType="-1"/>
            </Node>
          </Node>
        </BinaryTree>
        <BinaryTree type="DecisionTree" boostWeight="6.2178851829336147e-03" itree="159">
          <Node pos="s" depth="0" NCoef="0" IVar="1" Cut="1.2293914031982422e+02" cType="1" res="-9.9000000000000000e+01" rms="0.0000000000000000e+00" purity="4.9915871024131775e-01" nType="0">
            <Node pos="l" depth="1" NCoef="0" IVar="6" Cut="1.4599056243896484e+00" cType="1" res="-9.9000000000000000e+01" rms="0.0000000000000000e+00" purity="5.0111573934555054e-01" nType="0">
              <Node pos="l" depth="2" NCoef="0" IVar="2" Cut="2.2122898864746094e+02" cType="0" res="-9.9000000000000000e+01" rms="0.0000000000000000e+00" purity="5.1178932189941406e-01" nType="0">
                <Node pos="l" depth="3" NCoef="0" IVar="-1" Cut="0.0000000000000000e+00" cType="1" res="-9.9000000000000000e+01" rms="0.0000000000000000e+00" purity="5.3267949819564819e-01" nType="1"/>
                <Node pos="r" depth="3" NCoef="0" IVar="-1" Cut="0.0000000000000000e+00" cType="1" res="-9.9000000000000000e+01" rms="0.0000000000000000e+00" purity="4.8966681957244873e-01" nType="-1"/>
              </Node>
              <Node pos="r" depth="2" NCoef="0" IVar="2" Cut="2.1217793273925781e+02" cType="1" res="-9.9000000000000000e+01" rms="0.0000000000000000e+00" purity="4.9797728657722473e-01" nType="0">
                <Node pos="l" depth="3" NCoef="0" IVar="3" Cut="1.4801332092285156e+02" cType="1" res="-9.9000000000000000e+01" rms="0.0000000000000000e+00" purity="5.0089120864868164e-01" nType="0">
                  <Node pos="l" depth="4" NCoef="0" IVar="-1" Cut="0.0000000000000000e+00" cType="1" res="-9.9000000000000000e+01" rms="0.0000000000000000e+00" purity="5.0843513011932373e-01" nType="1"/>
                  <Node pos="r" depth="4" NCoef="0" IVar="-1" Cut="0.0000000000000000e+00" cType="1" res="-9.9000000000000000e+01" rms="0.0000000000000000e+00" purity="4.9761405587196350e-01" nType="-1"/>
                </Node>
                <Node pos="r" depth="3" NCoef="0" IVar="-1" Cut="0.0000000000000000e+00" cType="1" res="-9.9000000000000000e+01" rms="0.0000000000000000e+00" purity="4.6777841448783875e-01" nType="-1"/>
              </Node>
            </Node>
            <Node pos="r" depth="1" NCoef="0" IVar="-1" Cut="1.0480177402496338e+00" cType="0" res="-9.9000000000000000e+01" rms="0.0000000000000000e+00" purity="4.8831906914710999e-01" nType="-1"/>
          </Node>
        </BinaryTree>
        <BinaryTree type="DecisionTree" boostWeight="8.9184917242935181e-03" itree="160">
          <Node pos="s" depth="0" NCoef="0" IVar="1" Cut="1.2293914031982422e+02" cType="1" res="-9.9000000000000000e+01" rms="0.0000000000000000e+00" purity="4.9985888600349426e-01" nType="0">
            <Node pos="l" depth="1" NCoef="0" IVar="1" Cut="6.9559249877929688e+01" cType="0" res="-9.9000000000000000e+01" rms="0.0000000000000000e+00" purity="5.0165951251983643e-01" nType="0">
              <Node pos="l" depth="2" NCoef="0" IVar="2" Cut="2.1901182556152344e+02" cType="0" res="-9.9000000000000000e+01" rms="0.0000000000000000e+00" purity="5.0525462627410889e-01" nType="0">
                <Node pos="l" depth="3" NCoef="0" IVar="-1" Cut="1.6206989288330078e+00" cType="0" res="-9.9000000000000000e+01" rms="0.0000000000000000e+00" purity="5.3373068571090698e-01" nType="1"/>
                <Node pos="r" depth="3" NCoef="0" IVar="4" Cut="1.4194769859313965e+00" cType="0" res="-9.9000000000000000e+01" rms="0.0000000000000000e+00" purity="4.9915632605552673e-01" nType="0">
                  <Node pos="l" depth="4" NCoef="0" IVar="-1" Cut="0.0000000000000000e+00" cType="1" res="-9.9000000000000000e+01" rms="0.0000000000000000e+00" purity="5.0960552692413330e-01" nType="1"/>
                  <Node pos="r" depth="4" NCoef="0" IVar="-1" Cut="0.0000000000000000e+00" cType="1" res="-9.9000000000000000e+01" rms="0.0000000000000000e+00" purity="4.8676010966300964e-01" nType="-1"/>
                </Node>
              </Node>
              <Node pos="r" depth="2" NCoef="0" IVar="2" Cut="1.9394638061523438e+02" cType="1" res="-9.9000000000000000e+01" rms="0.0000000000000000e+00" purity="4.9310955405235291e-01" nType="0">
                <Node pos="l" depth="3" NCoef="0" IVar="2" Cut="1.6605726623535156e+02" cType="0" res="-9.9000000000000000e+01" rms="0.0000000000000000e+00" purity="5.0197845697402954e-01" nType="0">
                  <Node pos="l" depth="4" NCoef="0" IVar="-1" Cut="0.0000000000000000e+00" cType="1" res="-9.9000000000000000e+01" rms="0.0000000000000000e+00" purity="5.2025103569030762e-01" nType="1"/>
                  <Node pos="r" depth="4" NCoef="0" IVar="-1" Cut="0.0000000000000000e+00" cType="1" res="-9.9000000000000000e+01" rms="0.0000000000000000e+00" purity="4.9346119165420532e-01" nType="-1"/>
                </Node>
                <Node pos="r" depth="3" NCoef="0" IVar="-1" Cut="0.0000000000000000e+00" cType="1" res="-9.9000000000000000e+01" rms="0.0000000000000000e+00" purity="4.7024312615394592e-01" nType="-1"/>
              </Node>
            </Node>
            <Node pos="r" depth="1" NCoef="0" IVar="5" Cut="1.0480177402496338e+00" cType="0" res="-9.9000000000000000e+01" rms="0.0000000000000000e+00" purity="4.8988589644432068e-01" nType="0">
              <Node pos="l" depth="2" NCoef="0" IVar="-1" Cut="0.0000000000000000e+00" cType="1" res="-9.9000000000000000e+01" rms="0.0000000000000000e+00" purity="5.0098294019699097e-01" nType="1"/>
              <Node pos="r" depth="2" NCoef="0" IVar="-1" Cut="0.0000000000000000e+00" cType="1" res="-9.9000000000000000e+01" rms="0.0000000000000000e+00" purity="4.7402229905128479e-01" nType="-1"/>
            </Node>
          </Node>
        </BinaryTree>
        <BinaryTree type="DecisionTree" boostWeight="6.0786272262103088e-03" itree="161">
          <Node pos="s" depth="0" NCoef="0" IVar="1" Cut="1.2293914031982422e+02" cType="1" res="-9.9000000000000000e+01" rms="0.0000000000000000e+00" purity="4.9978965520858765e-01" nType="0">
            <Node pos="l" depth="1" NCoef="0" IVar="6" Cut="1.4599056243896484e+00" cType="1" res="-9.9000000000000000e+01" rms="0.0000000000000000e+00" purity="5.0164908170700073e-01" nType="0">
              <Node pos="l" depth="2" NCoef="0" IVar="2" Cut="2.0301318359375000e+02" cType="0" res="-9.9000000000000000e+01" rms="0.0000000000000000e+00" purity="5.1199620962142944e-01" nType="0">
                <Node pos="l" depth="3" NCoef="0" IVar="-1" Cut="8.6277351379394531e+01" cType="1" res="-9.9000000000000000e+01" rms="0.0000000000000000e+00" purity="5.2674263715744019e-01" nType="1"/>
                <Node pos="r" depth="3" NCoef="0" IVar="-1" Cut="0.0000000000000000e+00" cType="1" res="-9.9000000000000000e+01" rms="0.0000000000000000e+00" purity="4.8827871680259705e-01" nType="-1"/>
              </Node>
              <Node pos="r" depth="2" NCoef="0" IVar="2" Cut="2.1217793273925781e+02" cType="1" res="-9.9000000000000000e+01" rms="0.0000000000000000e+00" purity="4.9860733747482300e-01" nType="0">
                <Node pos="l" depth="3" NCoef="0" IVar="2" Cut="1.2349973297119141e+02" cType="0" res="-9.9000000000000000e+01" rms="0.0000000000000000e+00" purity="5.0146991014480591e-01" nType="0">
                  <Node pos="l" depth="4" NCoef="0" IVar="-1" Cut="0.0000000000000000e+00" cType="1" res="-9.9000000000000000e+01" rms="0.0000000000000000e+00" purity="5.0315481424331665e-01" nType="1"/>
                  <Node pos="r" depth="4" NCoef="0" IVar="-1" Cut="0.0000000000000000e+00" cType="1" res="-9.9000000000000000e+01" rms="0.0000000000000000e+00" purity="4.8643055558204651e-01" nType="-1"/>
                </Node>
                <Node pos="r" depth="3" NCoef="0" IVar="-1" Cut="0.0000000000000000e+00" cType="1" res="-9.9000000000000000e+01" rms="0.0000000000000000e+00" purity="4.6893501281738281e-01" nType="-1"/>
              </Node>
            </Node>
            <Node pos="r" depth="1" NCoef="0" IVar="4" Cut="1.1603693962097168e+00" cType="0" res="-9.9000000000000000e+01" rms="0.0000000000000000e+00" purity="4.8949092626571655e-01" nType="0">
              <Node pos="l" depth="2" NCoef="0" IVar="-1" Cut="0.0000000000000000e+00" cType="1" res="-9.9000000000000000e+01" rms="0.0000000000000000e+00" purity="5.0111228227615356e-01" nType="1"/>
              <Node pos="r" depth="2" NCoef="0" IVar="-1" Cut="0.0000000000000000e+00" cType="1" res="-9.9000000000000000e+01" rms="0.0000000000000000e+00" purity="4.7560092806816101e-01" nType="-1"/>
            </Node>
          </Node>
        </BinaryTree>
        <BinaryTree type="DecisionTree" boostWeight="8.0539907917593807e-03" itree="162">
          <Node pos="s" depth="0" NCoef="0" IVar="6" Cut="1.7830904722213745e+00" cType="1" res="-9.9000000000000000e+01" rms="0.0000000000000000e+00" purity="4.9906849861145020e-01" nType="0">
            <Node pos="l" depth="1" NCoef="0" IVar="2" Cut="2.1212107849121094e+02" cType="0" res="-9.9000000000000000e+01" rms="0.0000000000000000e+00" purity="5.0480306148529053e-01" nType="0">
              <Node pos="l" depth="2" NCoef="0" IVar="1" Cut="9.9860969543457031e+01" cType="1" res="-9.9000000000000000e+01" rms="0.0000000000000000e+00" purity="5.1642185449600220e-01" nType="0">
                <Node pos="l" depth="3" NCoef="0" IVar="1" Cut="7.6711067199707031e+01" cType="0" res="-9.9000000000000000e+01" rms="0.0000000000000000e+00" purity="5.3016906976699829e-01" nType="0">
                  <Node pos="l" depth="4" NCoef="0" IVar="-1" Cut="0.0000000000000000e+00" cType="1" res="-9.9000000000000000e+01" rms="0.0000000000000000e+00" purity="5.6069433689117432e-01" nType="1"/>
                  <Node pos="r" depth="4" NCoef="0" IVar="-1" Cut="0.0000000000000000e+00" cType="1" res="-9.9000000000000000e+01" rms="0.0000000000000000e+00" purity="4.9737861752510071e-01" nType="-1"/>
                </Node>
                <Node pos="r" depth="3" NCoef="0" IVar="-1" Cut="0.0000000000000000e+00" cType="1" res="-9.9000000000000000e+01" rms="0.0000000000000000e+00" purity="4.8939043283462524e-01" nType="-1"/>
              </Node>
              <Node pos="r" depth="2" NCoef="0" IVar="1" Cut="1.0240721893310547e+02" cType="0" res="-9.9000000000000000e+01" rms="0.0000000000000000e+00" purity="4.9535816907882690e-01" nType="0">
                <Node pos="l" depth="3" NCoef="0" IVar="-1" Cut="0.0000000000000000e+00" cType="1" res="-9.9000000000000000e+01" rms="0.0000000000000000e+00" purity="5.0911426544189453e-01" nType="1"/>
                <Node pos="r" depth="3" NCoef="0" IVar="1" Cut="7.8342582702636719e+01" cType="1" res="-9.9000000000000000e+01" rms="0.0000000000000000e+00" purity="4.8474818468093872e-01" nType="0">
                  <Node pos="l" depth="4" NCoef="0" IVar="-1" Cut="0.0000000000000000e+00" cType="1" res="-9.9000000000000000e+01" rms="0.0000000000000000e+00" purity="5.0059282779693604e-01" nType="1"/>
                  <Node pos="r" depth="4" NCoef="0" IVar="-1" Cut="0.0000000000000000e+00" cType="1" res="-9.9000000000000000e+01" rms="0.0000000000000000e+00" purity="4.7110119462013245e-01" nType="-1"/>
                </Node>
              </Node>
            </Node>
            <Node pos="r" depth="1" NCoef="0" IVar="3" Cut="2.0488217163085938e+02" cType="1" res="-9.9000000000000000e+01" rms="0.0000000000000000e+00" purity="4.9586343765258789e-01" nType="0">
              <Node pos="l" depth="2" NCoef="0" IVar="1" Cut="1.2269375610351562e+02" cType="1" res="-9.9000000000000000e+01" rms="0.0000000000000000e+00" purity="5.0119054317474365e-01" nType="0">
                <Node pos="l" depth="3" NCoef="0" IVar="5" Cut="9.3682432174682617e-01" cType="1" res="-9.9000000000000000e+01" rms="0.0000000000000000e+00" purity="5.0398224592208862e-01" nType="0">
                  <Node pos="l" depth="4" NCoef="0" IVar="-1" Cut="0.0000000000000000e+00" cType="1" res="-9.9000000000000000e+01" rms="0.0000000000000000e+00" purity="5.1790750026702881e-01" nType="1"/>
                  <Node pos="r" depth="4" NCoef="0" IVar="-1" Cut="0.0000000000000000e+00" cType="1" res="-9.9000000000000000e+01" rms="0.0000000000000000e+00" purity="4.9861225485801697e-01" nType="-1"/>
                </Node>
                <Node pos="r" depth="3" NCoef="0" IVar="-1" Cut="0.0000000000000000e+00" cType="1" res="-9.9000000000000000e+01" rms="0.0000000000000000e+00" purity="4.8257660865783691e-01" nType="-1"/>
              </Node>
              <Node pos="r" depth="2" NCoef="0" IVar="-1" Cut="1.1140037775039673e+00" cType="0" res="-9.9000000000000000e+01" rms="0.0000000000000000e+00" purity="4.8006018996238708e-01" nType="-1"/>
            </Node>
          </Node>
        </BinaryTree>
        <BinaryTree type="DecisionTree" boostWeight="5.6324698772588222e-03" itree="163">
          <Node pos="s" depth="0" NCoef="0" IVar="1" Cut="1.2293914031982422e+02" cType="1" res="-9.9000000000000000e+01" rms="0.0000000000000000e+00" purity="4.9986234307289124e-01" nType="0">
            <Node pos="l" depth="1" NCoef="0" IVar="6" Cut="1.4599056243896484e+00" cType="1" res="-9.9000000000000000e+01" rms="0.0000000000000000e+00" purity="5.0160145759582520e-01" nType="0">
              <Node pos="l" depth="2" NCoef="0" IVar="2" Cut="2.2122898864746094e+02" cType="0" res="-9.9000000000000000e+01" rms="0.0000000000000000e+00" purity="5.1176160573959351e-01" nType="0">
                <Node pos="l" depth="3" NCoef="0" IVar="-1" Cut="0.0000000000000000e+00" cType="1" res="-9.9000000000000000e+01" rms="0.0000000000000000e+00" purity="5.2908205986022949e-01" nType="1"/>
                <Node pos="r" depth="3" NCoef="0" IVar="-1" Cut="0.0000000000000000e+00" cType="1" res="-9.9000000000000000e+01" rms="0.0000000000000000e+00" purity="4.9342903494834900e-01" nType="-1"/>
              </Node>
              <Node pos="r" depth="2" NCoef="0" IVar="2" Cut="2.1217793273925781e+02" cType="1" res="-9.9000000000000000e+01" rms="0.0000000000000000e+00" purity="4.9861502647399902e-01" nType="0">
                <Node pos="l" depth="3" NCoef="0" IVar="1" Cut="8.0233886718750000e+01" cType="1" res="-9.9000000000000000e+01" rms="0.0000000000000000e+00" purity="5.0120103359222412e-01" nType="0">
                  <Node pos="l" depth="4" NCoef="0" IVar="-1" Cut="0.0000000000000000e+00" cType="1" res="-9.9000000000000000e+01" rms="0.0000000000000000e+00" purity="5.0585174560546875e-01" nType="1"/>
                  <Node pos="r" depth="4" NCoef="0" IVar="-1" Cut="0.0000000000000000e+00" cType="1" res="-9.9000000000000000e+01" rms="0.0000000000000000e+00" purity="4.9682900309562683e-01" nType="-1"/>
                </Node>
                <Node pos="r" depth="3" NCoef="0" IVar="-1" Cut="0.0000000000000000e+00" cType="1" res="-9.9000000000000000e+01" rms="0.0000000000000000e+00" purity="4.7180080413818359e-01" nType="-1"/>
              </Node>
            </Node>
            <Node pos="r" depth="1" NCoef="0" IVar="4" Cut="1.1603693962097168e+00" cType="0" res="-9.9000000000000000e+01" rms="0.0000000000000000e+00" purity="4.9022909998893738e-01" nType="0">
              <Node pos="l" depth="2" NCoef="0" IVar="-1" Cut="0.0000000000000000e+00" cType="1" res="-9.9000000000000000e+01" rms="0.0000000000000000e+00" purity="5.0064700841903687e-01" nType="1"/>
              <Node pos="r" depth="2" NCoef="0" IVar="-1" Cut="0.0000000000000000e+00" cType="1" res="-9.9000000000000000e+01" rms="0.0000000000000000e+00" purity="4.7777539491653442e-01" nType="-1"/>
            </Node>
          </Node>
        </BinaryTree>
        <BinaryTree type="DecisionTree" boostWeight="7.8300805432253932e-03" itree="164">
          <Node pos="s" depth="0" NCoef="0" IVar="1" Cut="1.2293914031982422e+02" cType="1" res="-9.9000000000000000e+01" rms="0.0000000000000000e+00" purity="4.9995213747024536e-01" nType="0">
            <Node pos="l" depth="1" NCoef="0" IVar="1" Cut="6.9559249877929688e+01" cType="0" res="-9.9000000000000000e+01" rms="0.0000000000000000e+00" purity="5.0172924995422363e-01" nType="0">
              <Node pos="l" depth="2" NCoef="0" IVar="2" Cut="2.1901182556152344e+02" cType="0" res="-9.9000000000000000e+01" rms="0.0000000000000000e+00" purity="5.0526380538940430e-01" nType="0">
                <Node pos="l" depth="3" NCoef="0" IVar="-1" Cut="1.6206989288330078e+00" cType="0" res="-9.9000000000000000e+01" rms="0.0000000000000000e+00" purity="5.3051584959030151e-01" nType="1"/>
                <Node pos="r" depth="3" NCoef="0" IVar="4" Cut="1.4194769859313965e+00" cType="0" res="-9.9000000000000000e+01" rms="0.0000000000000000e+00" purity="4.9985936284065247e-01" nType="0">
                  <Node pos="l" depth="4" NCoef="0" IVar="-1" Cut="0.0000000000000000e+00" cType="1" res="-9.9000000000000000e+01" rms="0.0000000000000000e+00" purity="5.0798285007476807e-01" nType="1"/>
                  <Node pos="r" depth="4" NCoef="0" IVar="-1" Cut="0.0000000000000000e+00" cType="1" res="-9.9000000000000000e+01" rms="0.0000000000000000e+00" purity="4.9022132158279419e-01" nType="-1"/>
                </Node>
              </Node>
              <Node pos="r" depth="2" NCoef="0" IVar="2" Cut="1.9394638061523438e+02" cType="1" res="-9.9000000000000000e+01" rms="0.0000000000000000e+00" purity="4.9332472681999207e-01" nType="0">
                <Node pos="l" depth="3" NCoef="0" IVar="5" Cut="9.7608852386474609e-01" cType="0" res="-9.9000000000000000e+01" rms="0.0000000000000000e+00" purity="5.0121277570724487e-01" nType="0">
                  <Node pos="l" depth="4" NCoef="0" IVar="-1" Cut="0.0000000000000000e+00" cType="1" res="-9.9000000000000000e+01" rms="0.0000000000000000e+00" purity="5.0905930995941162e-01" nType="1"/>
                  <Node pos="r" depth="4" NCoef="0" IVar="-1" Cut="0.0000000000000000e+00" cType="1" res="-9.9000000000000000e+01" rms="0.0000000000000000e+00" purity="4.8189929127693176e-01" nType="-1"/>
                </Node>
                <Node pos="r" depth="3" NCoef="0" IVar="-1" Cut="0.0000000000000000e+00" cType="1" res="-9.9000000000000000e+01" rms="0.0000000000000000e+00" purity="4.7298347949981689e-01" nType="-1"/>
              </Node>
            </Node>
            <Node pos="r" depth="1" NCoef="0" IVar="-1" Cut="1.0480177402496338e+00" cType="0" res="-9.9000000000000000e+01" rms="0.0000000000000000e+00" purity="4.9010843038558960e-01" nType="-1"/>
          </Node>
        </BinaryTree>
        <BinaryTree type="DecisionTree" boostWeight="4.1767260992450162e-03" itree="165">
          <Node pos="s" depth="0" NCoef="0" IVar="3" Cut="4.5548760986328125e+02" cType="1" res="-9.9000000000000000e+01" rms="0.0000000000000000e+00" purity="4.9996590614318848e-01" nType="0">
            <Node pos="l" depth="1" NCoef="0" IVar="5" Cut="7.6027739048004150e-01" cType="0" res="-9.9000000000000000e+01" rms="0.0000000000000000e+00" purity="5.0101327896118164e-01" nType="0">
              <Node pos="l" depth="2" NCoef="0" IVar="3" Cut="3.0758148193359375e+02" cType="0" res="-9.9000000000000000e+01" rms="0.0000000000000000e+00" purity="5.0241816043853760e-01" nType="0">
                <Node pos="l" depth="3" NCoef="0" IVar="6" Cut="1.4354472160339355e+00" cType="1" res="-9.9000000000000000e+01" rms="0.0000000000000000e+00" purity="5.1797842979431152e-01" nType="0">
                  <Node pos="l" depth="4" NCoef="0" IVar="-1" Cut="0.0000000000000000e+00" cType="1" res="-9.9000000000000000e+01" rms="0.0000000000000000e+00" purity="5.4416549205780029e-01" nType="1"/>
                  <Node pos="r" depth="4" NCoef="0" IVar="-1" Cut="0.0000000000000000e+00" cType="1" res="-9.9000000000000000e+01" rms="0.0000000000000000e+00" purity="4.9334582686424255e-01" nType="-1"/>
                </Node>
                <Node pos="r" depth="3" NCoef="0" IVar="6" Cut="9.8006039857864380e-01" cType="0" res="-9.9000000000000000e+01" rms="0.0000000000000000e+00" purity="5.0017231702804565e-01" nType="0">
                  <Node pos="l" depth="4" NCoef="0" IVar="-1" Cut="0.0000000000000000e+00" cType="1" res="-9.9000000000000000e+01" rms="0.0000000000000000e+00" purity="5.0146371126174927e-01" nType="1"/>
                  <Node pos="r" depth="4" NCoef="0" IVar="-1" Cut="0.0000000000000000e+00" cType="1" res="-9.9000000000000000e+01" rms="0.0000000000000000e+00" purity="4.8207461833953857e-01" nType="-1"/>
                </Node>
              </Node>
              <Node pos="r" depth="2" NCoef="0" IVar="-1" Cut="0.0000000000000000e+00" cType="1" res="-9.9000000000000000e+01" rms="0.0000000000000000e+00" purity="4.7648760676383972e-01" nType="-1"/>
            </Node>
            <Node pos="r" depth="1" NCoef="0" IVar="-1" Cut="0.0000000000000000e+00" cType="1" res="-9.9000000000000000e+01" rms="0.0000000000000000e+00" purity="4.8345154523849487e-01" nType="-1"/>
          </Node>
        </BinaryTree>
        <BinaryTree type="DecisionTree" boostWeight="6.2816948146913283e-03" itree="166">
          <Node pos="s" depth="0" NCoef="0" IVar="6" Cut="1.7830904722213745e+00" cType="1" res="-9.9000000000000000e+01" rms="0.0000000000000000e+00" purity="4.9938705563545227e-01" nType="0">
            <Node pos="l" depth="1" NCoef="0" IVar="2" Cut="2.1212107849121094e+02" cType="0" res="-9.9000000000000000e+01" rms="0.0000000000000000e+00" purity="5.0515824556350708e-01" nType="0">
              <Node pos="l" depth="2" NCoef="0" IVar="-1" Cut="1.6134693908691406e+02" cType="1" res="-9.9000000000000000e+01" rms="0.0000000000000000e+00" purity="5.1646810770034790e-01" nType="1"/>
              <Node pos="r" depth="2" NCoef="0" IVar="1" Cut="1.0240721893310547e+02" cType="0" res="-9.9000000000000000e+01" rms="0.0000000000000000e+00" purity="4.9596664309501648e-01" nType="0">
                <Node pos="l" depth="3" NCoef="0" IVar="-1" Cut="0.0000000000000000e+00" cType="1" res="-9.9000000000000000e+01" rms="0.0000000000000000e+00" purity="5.0917029380798340e-01" nType="1"/>
                <Node pos="r" depth="3" NCoef="0" IVar="2" Cut="1.7796726989746094e+02" cType="0" res="-9.9000000000000000e+01" rms="0.0000000000000000e+00" purity="4.8578032851219177e-01" nType="0">
                  <Node pos="l" depth="4" NCoef="0" IVar="-1" Cut="0.0000000000000000e+00" cType="1" res="-9.9000000000000000e+01" rms="0.0000000000000000e+00" purity="5.0149744749069214e-01" nType="1"/>
                  <Node pos="r" depth="4" NCoef="0" IVar="-1" Cut="0.0000000000000000e+00" cType="1" res="-9.9000000000000000e+01" rms="0.0000000000000000e+00" purity="4.7215637564659119e-01" nType="-1"/>
                </Node>
              </Node>
            </Node>
            <Node pos="r" depth="1" NCoef="0" IVar="3" Cut="2.0488217163085938e+02" cType="1" res="-9.9000000000000000e+01" rms="0.0000000000000000e+00" purity="4.9616181850433350e-01" nType="0">
              <Node pos="l" depth="2" NCoef="0" IVar="1" Cut="1.2269375610351562e+02" cType="1" res="-9.9000000000000000e+01" rms="0.0000000000000000e+00" purity="5.0098520517349243e-01" nType="0">
                <Node pos="l" depth="3" NCoef="0" IVar="-1" Cut="8.2390797138214111e-01" cType="1" res="-9.9000000000000000e+01" rms="0.0000000000000000e+00" purity="5.0338697433471680e-01" nType="1"/>
                <Node pos="r" depth="3" NCoef="0" IVar="-1" Cut="0.0000000000000000e+00" cType="1" res="-9.9000000000000000e+01" rms="0.0000000000000000e+00" purity="4.8496866226196289e-01" nType="-1"/>
              </Node>
              <Node pos="r" depth="2" NCoef="0" IVar="-1" Cut="1.1140037775039673e+00" cType="0" res="-9.9000000000000000e+01" rms="0.0000000000000000e+00" purity="4.8185017704963684e-01" nType="-1"/>
            </Node>
          </Node>
        </BinaryTree>
        <BinaryTree type="DecisionTree" boostWeight="5.8219748489955359e-03" itree="167">
          <Node pos="s" depth="0" NCoef="0" IVar="6" Cut="1.7830904722213745e+00" cType="1" res="-9.9000000000000000e+01" rms="0.0000000000000000e+00" purity="4.9871143698692322e-01" nType="0">
            <Node pos="l" depth="1" NCoef="0" IVar="2" Cut="2.1212107849121094e+02" cType="0" res="-9.9000000000000000e+01" rms="0.0000000000000000e+00" purity="5.0411534309387207e-01" nType="0">
              <Node pos="l" depth="2" NCoef="0" IVar="-1" Cut="1.6134693908691406e+02" cType="1" res="-9.9000000000000000e+01" rms="0.0000000000000000e+00" purity="5.1489913463592529e-01" nType="1"/>
              <Node pos="r" depth="2" NCoef="0" IVar="0" Cut="1.4956837463378906e+02" cType="0" res="-9.9000000000000000e+01" rms="0.0000000000000000e+00" purity="4.9535173177719116e-01" nType="0">
                <Node pos="l" depth="3" NCoef="0" IVar="-1" Cut="0.0000000000000000e+00" cType="1" res="-9.9000000000000000e+01" rms="0.0000000000000000e+00" purity="5.1443392038345337e-01" nType="1"/>
                <Node pos="r" depth="3" NCoef="0" IVar="2" Cut="1.6170205688476562e+02" cType="0" res="-9.9000000000000000e+01" rms="0.0000000000000000e+00" purity="4.8884585499763489e-01" nType="0">
                  <Node pos="l" depth="4" NCoef="0" IVar="-1" Cut="0.0000000000000000e+00" cType="1" res="-9.9000000000000000e+01" rms="0.0000000000000000e+00" purity="5.0078660249710083e-01" nType="1"/>
                  <Node pos="r" depth="4" NCoef="0" IVar="-1" Cut="0.0000000000000000e+00" cType="1" res="-9.9000000000000000e+01" rms="0.0000000000000000e+00" purity="4.7290194034576416e-01" nType="-1"/>
                </Node>
              </Node>
            </Node>
            <Node pos="r" depth="1" NCoef="0" IVar="5" Cut="1.4487403631210327e+00" cType="1" res="-9.9000000000000000e+01" rms="0.0000000000000000e+00" purity="4.9569159746170044e-01" nType="0">
              <Node pos="l" depth="2" NCoef="0" IVar="5" Cut="1.2498620748519897e+00" cType="0" res="-9.9000000000000000e+01" rms="0.0000000000000000e+00" purity="4.9783939123153687e-01" nType="0">
                <Node pos="l" depth="3" NCoef="0" IVar="-1" Cut="0.0000000000000000e+00" cType="1" res="-9.9000000000000000e+01" rms="0.0000000000000000e+00" purity="5.1572406291961670e-01" nType="1"/>
                <Node pos="r" depth="3" NCoef="0" IVar="-1" Cut="9.3960975646972656e+01" cType="1" res="-9.9000000000000000e+01" rms="0.0000000000000000e+00" purity="4.9562132358551025e-01" nType="-1"/>
              </Node>
              <Node pos="r" depth="2" NCoef="0" IVar="-1" Cut="0.0000000000000000e+00" cType="1" res="-9.9000000000000000e+01" rms="0.0000000000000000e+00" purity="4.7211936116218567e-01" nType="-1"/>
            </Node>
          </Node>
        </BinaryTree>
        <BinaryTree type="DecisionTree" boostWeight="4.9870581594096243e-03" itree="168">
          <Node pos="s" depth="0" NCoef="0" IVar="3" Cut="4.5548760986328125e+02" cType="1" res="-9.9000000000000000e+01" rms="0.0000000000000000e+00" purity="4.9912440776824951e-01" nType="0">
            <Node pos="l" depth="1" NCoef="0" IVar="2" Cut="1.2358122253417969e+02" cType="0" res="-9.9000000000000000e+01" rms="0.0000000000000000e+00" purity="5.0017118453979492e-01" nType="0">
              <Node pos="l" depth="2" NCoef="0" IVar="3" Cut="3.3389355468750000e+02" cType="0" res="-9.9000000000000000e+01" rms="0.0000000000000000e+00" purity="5.0174540281295776e-01" nType="0">
                <Node pos="l" depth="3" NCoef="0" IVar="-1" Cut="0.0000000000000000e+00" cType="1" res="-9.9000000000000000e+01" rms="0.0000000000000000e+00" purity="5.1978641748428345e-01" nType="1"/>
                <Node pos="r" depth="3" NCoef="0" IVar="4" Cut="1.6685731410980225e+00" cType="1" res="-9.9000000000000000e+01" rms="0.0000000000000000e+00" purity="4.9980771541595459e-01" nType="0">
                  <Node pos="l" depth="4" NCoef="0" IVar="-1" Cut="0.0000000000000000e+00" cType="1" res="-9.9000000000000000e+01" rms="0.0000000000000000e+00" purity="5.0451099872589111e-01" nType="1"/>
                  <Node pos="r" depth="4" NCoef="0" IVar="-1" Cut="0.0000000000000000e+00" cType="1" res="-9.9000000000000000e+01" rms="0.0000000000000000e+00" purity="4.9326223134994507e-01" nType="-1"/>
                </Node>
              </Node>
              <Node pos="r" depth="2" NCoef="0" IVar="-1" Cut="0.0000000000000000e+00" cType="1" res="-9.9000000000000000e+01" rms="0.0000000000000000e+00" purity="4.8163729906082153e-01" nType="-1"/>
            </Node>
            <Node pos="r" depth="1" NCoef="0" IVar="-1" Cut="0.0000000000000000e+00" cType="1" res="-9.9000000000000000e+01" rms="0.0000000000000000e+00" purity="4.8262253403663635e-01" nType="-1"/>
          </Node>
        </BinaryTree>
        <BinaryTree type="DecisionTree" boostWeight="3.5221662074122750e-03" itree="169">
          <Node pos="s" depth="0" NCoef="0" IVar="3" Cut="4.5548760986328125e+02" cType="1" res="-9.9000000000000000e+01" rms="0.0000000000000000e+00" purity="4.9903297424316406e-01" nType="0">
            <Node pos="l" depth="1" NCoef="0" IVar="5" Cut="7.6027739048004150e-01" cType="0" res="-9.9000000000000000e+01" rms="0.0000000000000000e+00" purity="4.9999031424522400e-01" nType="0">
              <Node pos="l" depth="2" NCoef="0" IVar="3" Cut="3.0758148193359375e+02" cType="0" res="-9.9000000000000000e+01" rms="0.0000000000000000e+00" purity="5.0123697519302368e-01" nType="0">
                <Node pos="l" depth="3" NCoef="0" IVar="6" Cut="1.4354472160339355e+00" cType="1" res="-9.9000000000000000e+01" rms="0.0000000000000000e+00" purity="5.1599627733230591e-01" nType="0">
                  <Node pos="l" depth="4" NCoef="0" IVar="-1" Cut="0.0000000000000000e+00" cType="1" res="-9.9000000000000000e+01" rms="0.0000000000000000e+00" purity="5.3902864456176758e-01" nType="1"/>
                  <Node pos="r" depth="4" NCoef="0" IVar="-1" Cut="0.0000000000000000e+00" cType="1" res="-9.9000000000000000e+01" rms="0.0000000000000000e+00" purity="4.9434810876846313e-01" nType="-1"/>
                </Node>
                <Node pos="r" depth="3" NCoef="0" IVar="6" Cut="9.8006039857864380e-01" cType="0" res="-9.9000000000000000e+01" rms="0.0000000000000000e+00" purity="4.9910783767700195e-01" nType="0">
                  <Node pos="l" depth="4" NCoef="0" IVar="-1" Cut="0.0000000000000000e+00" cType="1" res="-9.9000000000000000e+01" rms="0.0000000000000000e+00" purity="5.0045645236968994e-01" nType="1"/>
                  <Node pos="r" depth="4" NCoef="0" IVar="-1" Cut="0.0000000000000000e+00" cType="1" res="-9.9000000000000000e+01" rms="0.0000000000000000e+00" purity="4.8021778464317322e-01" nType="-1"/>
                </Node>
              </Node>
              <Node pos="r" depth="2" NCoef="0" IVar="-1" Cut="0.0000000000000000e+00" cType="1" res="-9.9000000000000000e+01" rms="0.0000000000000000e+00" purity="4.7822028398513794e-01" nType="-1"/>
            </Node>
            <Node pos="r" depth="1" NCoef="0" IVar="-1" Cut="0.0000000000000000e+00" cType="1" res="-9.9000000000000000e+01" rms="0.0000000000000000e+00" purity="4.8394322395324707e-01" nType="-1"/>
          </Node>
        </BinaryTree>
        <BinaryTree type="DecisionTree" boostWeight="4.5528728960424593e-03" itree="170">
          <Node pos="s" depth="0" NCoef="0" IVar="1" Cut="4.0698322296142578e+01" cType="0" res="-9.9000000000000000e+01" rms="0.0000000000000000e+00" purity="4.9854481220245361e-01" nType="0">
            <Node pos="l" depth="1" NCoef="0" IVar="1" Cut="1.4459895324707031e+02" cType="1" res="-9.9000000000000000e+01" rms="0.0000000000000000e+00" purity="4.9947074055671692e-01" nType="0">
              <Node pos="l" depth="2" NCoef="0" IVar="6" Cut="1.1367207765579224e+00" cType="1" res="-9.9000000000000000e+01" rms="0.0000000000000000e+00" purity="5.0044417381286621e-01" nType="0">
                <Node pos="l" depth="3" NCoef="0" IVar="4" Cut="7.1914821863174438e-01" cType="0" res="-9.9000000000000000e+01" rms="0.0000000000000000e+00" purity="5.1385134458541870e-01" nType="0">
                  <Node pos="l" depth="4" NCoef="0" IVar="-1" Cut="0.0000000000000000e+00" cType="1" res="-9.9000000000000000e+01" rms="0.0000000000000000e+00" purity="5.2774757146835327e-01" nType="1"/>
                  <Node pos="r" depth="4" NCoef="0" IVar="-1" Cut="0.0000000000000000e+00" cType="1" res="-9.9000000000000000e+01" rms="0.0000000000000000e+00" purity="4.9453327059745789e-01" nType="-1"/>
                </Node>
                <Node pos="r" depth="3" NCoef="0" IVar="3" Cut="1.5967759704589844e+02" cType="1" res="-9.9000000000000000e+01" rms="0.0000000000000000e+00" purity="4.9818995594978333e-01" nType="0">
                  <Node pos="l" depth="4" NCoef="0" IVar="-1" Cut="0.0000000000000000e+00" cType="1" res="-9.9000000000000000e+01" rms="0.0000000000000000e+00" purity="5.0380426645278931e-01" nType="1"/>
                  <Node pos="r" depth="4" NCoef="0" IVar="-1" Cut="0.0000000000000000e+00" cType="1" res="-9.9000000000000000e+01" rms="0.0000000000000000e+00" purity="4.9520468711853027e-01" nType="-1"/>
                </Node>
              </Node>
              <Node pos="r" depth="2" NCoef="0" IVar="-1" Cut="0.0000000000000000e+00" cType="1" res="-9.9000000000000000e+01" rms="0.0000000000000000e+00" purity="4.8331156373023987e-01" nType="-1"/>
            </Node>
            <Node pos="r" depth="1" NCoef="0" IVar="-1" Cut="0.0000000000000000e+00" cType="1" res="-9.9000000000000000e+01" rms="0.0000000000000000e+00" purity="4.8368611931800842e-01" nType="-1"/>
          </Node>
        </BinaryTree>
        <BinaryTree type="DecisionTree" boostWeight="5.7484630810843897e-03" itree="171">
          <Node pos="s" depth="0" NCoef="0" IVar="2" Cut="1.3681138610839844e+02" cType="0" res="-9.9000000000000000e+01" rms="0.0000000000000000e+00" purity="4.9893030524253845e-01" nType="0">
            <Node pos="l" depth="1" NCoef="0" IVar="3" Cut="4.4669989013671875e+02" cType="1" res="-9.9000000000000000e+01" rms="0.0000000000000000e+00" purity="5.0064963102340698e-01" nType="0">
              <Node pos="l" depth="2" NCoef="0" IVar="3" Cut="3.3009268188476562e+02" cType="0" res="-9.9000000000000000e+01" rms="0.0000000000000000e+00" purity="5.0194048881530762e-01" nType="0">
                <Node pos="l" depth="3" NCoef="0" IVar="-1" Cut="0.0000000000000000e+00" cType="1" res="-9.9000000000000000e+01" rms="0.0000000000000000e+00" purity="5.2367246150970459e-01" nType="1"/>
                <Node pos="r" depth="3" NCoef="0" IVar="0" Cut="4.4660461425781250e+01" cType="1" res="-9.9000000000000000e+01" rms="0.0000000000000000e+00" purity="4.9936208128929138e-01" nType="0">
                  <Node pos="l" depth="4" NCoef="0" IVar="-1" Cut="0.0000000000000000e+00" cType="1" res="-9.9000000000000000e+01" rms="0.0000000000000000e+00" purity="5.1134890317916870e-01" nType="1"/>
                  <Node pos="r" depth="4" NCoef="0" IVar="-1" Cut="0.0000000000000000e+00" cType="1" res="-9.9000000000000000e+01" rms="0.0000000000000000e+00" purity="4.9653124809265137e-01" nType="-1"/>
                </Node>
              </Node>
              <Node pos="r" depth="2" NCoef="0" IVar="-1" Cut="0.0000000000000000e+00" cType="1" res="-9.9000000000000000e+01" rms="0.0000000000000000e+00" purity="4.8496824502944946e-01" nType="-1"/>
            </Node>
            <Node pos="r" depth="1" NCoef="0" IVar="0" Cut="7.2887275695800781e+01" cType="0" res="-9.9000000000000000e+01" rms="0.0000000000000000e+00" purity="4.9054780602455139e-01" nType="0">
              <Node pos="l" depth="2" NCoef="0" IVar="-1" Cut="0.0000000000000000e+00" cType="1" res="-9.9000000000000000e+01" rms="0.0000000000000000e+00" purity="5.1427346467971802e-01" nType="1"/>
              <Node pos="r" depth="2" NCoef="0" IVar="-1" Cut="8.3417984008789062e+01" cType="1" res="-9.9000000000000000e+01" rms="0.0000000000000000e+00" purity="4.7791713476181030e-01" nType="-1"/>
            </Node>
          </Node>
        </BinaryTree>
        <BinaryTree type="DecisionTree" boostWeight="7.2926451099602288e-03" itree="172">
          <Node pos="s" depth="0" NCoef="0" IVar="2" Cut="1.3681138610839844e+02" cType="0" res="-9.9000000000000000e+01" rms="0.0000000000000000e+00" purity="4.9961057305335999e-01" nType="0">
            <Node pos="l" depth="1" NCoef="0" IVar="1" Cut="7.3673042297363281e+01" cType="0" res="-9.9000000000000000e+01" rms="0.0000000000000000e+00" purity="5.0137931108474731e-01" nType="0">
              <Node pos="l" depth="2" NCoef="0" IVar="2" Cut="2.0626129150390625e+02" cType="0" res="-9.9000000000000000e+01" rms="0.0000000000000000e+00" purity="5.0420671701431274e-01" nType="0">
                <Node pos="l" depth="3" NCoef="0" IVar="-1" Cut="8.8646903991699219e+01" cType="1" res="-9.9000000000000000e+01" rms="0.0000000000000000e+00" purity="5.1832431554794312e-01" nType="1"/>
                <Node pos="r" depth="3" NCoef="0" IVar="0" Cut="1.3776835632324219e+02" cType="0" res="-9.9000000000000000e+01" rms="0.0000000000000000e+00" purity="4.9890667200088501e-01" nType="0">
                  <Node pos="l" depth="4" NCoef="0" IVar="-1" Cut="0.0000000000000000e+00" cType="1" res="-9.9000000000000000e+01" rms="0.0000000000000000e+00" purity="5.1287913322448730e-01" nType="1"/>
                  <Node pos="r" depth="4" NCoef="0" IVar="-1" Cut="0.0000000000000000e+00" cType="1" res="-9.9000000000000000e+01" rms="0.0000000000000000e+00" purity="4.9638703465461731e-01" nType="-1"/>
                </Node>
              </Node>
              <Node pos="r" depth="2" NCoef="0" IVar="2" Cut="2.1788316345214844e+02" cType="1" res="-9.9000000000000000e+01" rms="0.0000000000000000e+00" purity="4.9442172050476074e-01" nType="0">
                <Node pos="l" depth="3" NCoef="0" IVar="0" Cut="7.1403182983398438e+01" cType="1" res="-9.9000000000000000e+01" rms="0.0000000000000000e+00" purity="5.0242680311203003e-01" nType="0">
                  <Node pos="l" depth="4" NCoef="0" IVar="-1" Cut="0.0000000000000000e+00" cType="1" res="-9.9000000000000000e+01" rms="0.0000000000000000e+00" purity="5.1788163185119629e-01" nType="1"/>
                  <Node pos="r" depth="4" NCoef="0" IVar="-1" Cut="0.0000000000000000e+00" cType="1" res="-9.9000000000000000e+01" rms="0.0000000000000000e+00" purity="4.9286815524101257e-01" nType="-1"/>
                </Node>
                <Node pos="r" depth="3" NCoef="0" IVar="-1" Cut="0.0000000000000000e+00" cType="1" res="-9.9000000000000000e+01" rms="0.0000000000000000e+00" purity="4.6420335769653320e-01" nType="-1"/>
              </Node>
            </Node>
            <Node pos="r" depth="1" NCoef="0" IVar="0" Cut="7.2887275695800781e+01" cType="0" res="-9.9000000000000000e+01" rms="0.0000000000000000e+00" purity="4.9098628759384155e-01" nType="0">
              <Node pos="l" depth="2" NCoef="0" IVar="-1" Cut="0.0000000000000000e+00" cType="1" res="-9.9000000000000000e+01" rms="0.0000000000000000e+00" purity="5.1283651590347290e-01" nType="1"/>
              <Node pos="r" depth="2" NCoef="0" IVar="1" Cut="8.3417984008789062e+01" cType="1" res="-9.9000000000000000e+01" rms="0.0000000000000000e+00" purity="4.7935357689857483e-01" nType="0">
                <Node pos="l" depth="3" NCoef="0" IVar="-1" Cut="0.0000000000000000e+00" cType="1" res="-9.9000000000000000e+01" rms="0.0000000000000000e+00" purity="5.0055456161499023e-01" nType="1"/>
                <Node pos="r" depth="3" NCoef="0" IVar="-1" Cut="0.0000000000000000e+00" cType="1" res="-9.9000000000000000e+01" rms="0.0000000000000000e+00" purity="4.5678171515464783e-01" nType="-1"/>
              </Node>
            </Node>
          </Node>
        </BinaryTree>
        <BinaryTree type="DecisionTree" boostWeight="5.3365293251936936e-03" itree="173">
          <Node pos="s" depth="0" NCoef="0" IVar="2" Cut="1.3681138610839844e+02" cType="0" res="-9.9000000000000000e+01" rms="0.0000000000000000e+00" purity="4.9993246793746948e-01" nType="0">
            <Node pos="l" depth="1" NCoef="0" IVar="3" Cut="4.4669989013671875e+02" cType="1" res="-9.9000000000000000e+01" rms="0.0000000000000000e+00" purity="5.0190603733062744e-01" nType="0">
              <Node pos="l" depth="2" NCoef="0" IVar="3" Cut="3.3316058349609375e+02" cType="0" res="-9.9000000000000000e+01" rms="0.0000000000000000e+00" purity="5.0322550535202026e-01" nType="0">
                <Node pos="l" depth="3" NCoef="0" IVar="-1" Cut="0.0000000000000000e+00" cType="1" res="-9.9000000000000000e+01" rms="0.0000000000000000e+00" purity="5.2250850200653076e-01" nType="1"/>
                <Node pos="r" depth="3" NCoef="0" IVar="4" Cut="1.6717915534973145e+00" cType="1" res="-9.9000000000000000e+01" rms="0.0000000000000000e+00" purity="5.0102531909942627e-01" nType="0">
                  <Node pos="l" depth="4" NCoef="0" IVar="-1" Cut="0.0000000000000000e+00" cType="1" res="-9.9000000000000000e+01" rms="0.0000000000000000e+00" purity="5.0477278232574463e-01" nType="1"/>
                  <Node pos="r" depth="4" NCoef="0" IVar="-1" Cut="0.0000000000000000e+00" cType="1" res="-9.9000000000000000e+01" rms="0.0000000000000000e+00" purity="4.9523296952247620e-01" nType="-1"/>
                </Node>
              </Node>
              <Node pos="r" depth="2" NCoef="0" IVar="-1" Cut="0.0000000000000000e+00" cType="1" res="-9.9000000000000000e+01" rms="0.0000000000000000e+00" purity="4.8587813973426819e-01" nType="-1"/>
            </Node>
            <Node pos="r" depth="1" NCoef="0" IVar="0" Cut="7.2887275695800781e+01" cType="0" res="-9.9000000000000000e+01" rms="0.0000000000000000e+00" purity="4.9030885100364685e-01" nType="0">
              <Node pos="l" depth="2" NCoef="0" IVar="-1" Cut="0.0000000000000000e+00" cType="1" res="-9.9000000000000000e+01" rms="0.0000000000000000e+00" purity="5.1101320981979370e-01" nType="1"/>
              <Node pos="r" depth="2" NCoef="0" IVar="-1" Cut="8.3417984008789062e+01" cType="1" res="-9.9000000000000000e+01" rms="0.0000000000000000e+00" purity="4.7928571701049805e-01" nType="-1"/>
            </Node>
          </Node>
        </BinaryTree>
        <BinaryTree type="DecisionTree" boostWeight="4.3271885670732296e-03" itree="174">
          <Node pos="s" depth="0" NCoef="0" IVar="2" Cut="1.3681138610839844e+02" cType="0" res="-9.9000000000000000e+01" rms="0.0000000000000000e+00" purity="4.9979215860366821e-01" nType="0">
            <Node pos="l" depth="1" NCoef="0" IVar="3" Cut="4.4669989013671875e+02" cType="1" res="-9.9000000000000000e+01" rms="0.0000000000000000e+00" purity="5.0165331363677979e-01" nType="0">
              <Node pos="l" depth="2" NCoef="0" IVar="3" Cut="3.3316058349609375e+02" cType="0" res="-9.9000000000000000e+01" rms="0.0000000000000000e+00" purity="5.0283557176589966e-01" nType="0">
                <Node pos="l" depth="3" NCoef="0" IVar="-1" Cut="0.0000000000000000e+00" cType="1" res="-9.9000000000000000e+01" rms="0.0000000000000000e+00" purity="5.2117675542831421e-01" nType="1"/>
                <Node pos="r" depth="3" NCoef="0" IVar="0" Cut="4.4660461425781250e+01" cType="1" res="-9.9000000000000000e+01" rms="0.0000000000000000e+00" purity="5.0074309110641479e-01" nType="0">
                  <Node pos="l" depth="4" NCoef="0" IVar="-1" Cut="0.0000000000000000e+00" cType="1" res="-9.9000000000000000e+01" rms="0.0000000000000000e+00" purity="5.1072353124618530e-01" nType="1"/>
                  <Node pos="r" depth="4" NCoef="0" IVar="-1" Cut="0.0000000000000000e+00" cType="1" res="-9.9000000000000000e+01" rms="0.0000000000000000e+00" purity="4.9839466810226440e-01" nType="-1"/>
                </Node>
              </Node>
              <Node pos="r" depth="2" NCoef="0" IVar="-1" Cut="0.0000000000000000e+00" cType="1" res="-9.9000000000000000e+01" rms="0.0000000000000000e+00" purity="4.8729372024536133e-01" nType="-1"/>
            </Node>
            <Node pos="r" depth="1" NCoef="0" IVar="4" Cut="1.8329142332077026e+00" cType="0" res="-9.9000000000000000e+01" rms="0.0000000000000000e+00" purity="4.9071595072746277e-01" nType="0">
              <Node pos="l" depth="2" NCoef="0" IVar="-1" Cut="0.0000000000000000e+00" cType="1" res="-9.9000000000000000e+01" rms="0.0000000000000000e+00" purity="5.0486791133880615e-01" nType="1"/>
              <Node pos="r" depth="2" NCoef="0" IVar="-1" Cut="0.0000000000000000e+00" cType="1" res="-9.9000000000000000e+01" rms="0.0000000000000000e+00" purity="4.7518646717071533e-01" nType="-1"/>
            </Node>
          </Node>
        </BinaryTree>
        <BinaryTree type="DecisionTree" boostWeight="6.8877937709011889e-03" itree="175">
          <Node pos="s" depth="0" NCoef="0" IVar="2" Cut="1.3681138610839844e+02" cType="0" res="-9.9000000000000000e+01" rms="0.0000000000000000e+00" purity="5.0024461746215820e-01" nType="0">
            <Node pos="l" depth="1" NCoef="0" IVar="1" Cut="7.3673042297363281e+01" cType="0" res="-9.9000000000000000e+01" rms="0.0000000000000000e+00" purity="5.0220930576324463e-01" nType="0">
              <Node pos="l" depth="2" NCoef="0" IVar="2" Cut="2.0626129150390625e+02" cType="0" res="-9.9000000000000000e+01" rms="0.0000000000000000e+00" purity="5.0476449728012085e-01" nType="0">
                <Node pos="l" depth="3" NCoef="0" IVar="1" Cut="8.8646903991699219e+01" cType="1" res="-9.9000000000000000e+01" rms="0.0000000000000000e+00" purity="5.1661837100982666e-01" nType="0">
                  <Node pos="l" depth="4" NCoef="0" IVar="-1" Cut="0.0000000000000000e+00" cType="1" res="-9.9000000000000000e+01" rms="0.0000000000000000e+00" purity="5.5081510543823242e-01" nType="1"/>
                  <Node pos="r" depth="4" NCoef="0" IVar="-1" Cut="0.0000000000000000e+00" cType="1" res="-9.9000000000000000e+01" rms="0.0000000000000000e+00" purity="4.9943426251411438e-01" nType="-1"/>
                </Node>
                <Node pos="r" depth="3" NCoef="0" IVar="6" Cut="1.6259866952896118e+00" cType="0" res="-9.9000000000000000e+01" rms="0.0000000000000000e+00" purity="5.0031447410583496e-01" nType="0">
                  <Node pos="l" depth="4" NCoef="0" IVar="-1" Cut="0.0000000000000000e+00" cType="1" res="-9.9000000000000000e+01" rms="0.0000000000000000e+00" purity="5.0391477346420288e-01" nType="1"/>
                  <Node pos="r" depth="4" NCoef="0" IVar="-1" Cut="0.0000000000000000e+00" cType="1" res="-9.9000000000000000e+01" rms="0.0000000000000000e+00" purity="4.8862150311470032e-01" nType="-1"/>
                </Node>
              </Node>
              <Node pos="r" depth="2" NCoef="0" IVar="2" Cut="2.1788316345214844e+02" cType="1" res="-9.9000000000000000e+01" rms="0.0000000000000000e+00" purity="4.9592113494873047e-01" nType="0">
                <Node pos="l" depth="3" NCoef="0" IVar="6" Cut="1.9807268381118774e+00" cType="1" res="-9.9000000000000000e+01" rms="0.0000000000000000e+00" purity="5.0377637147903442e-01" nType="0">
                  <Node pos="l" depth="4" NCoef="0" IVar="-1" Cut="0.0000000000000000e+00" cType="1" res="-9.9000000000000000e+01" rms="0.0000000000000000e+00" purity="5.2139949798583984e-01" nType="1"/>
                  <Node pos="r" depth="4" NCoef="0" IVar="-1" Cut="0.0000000000000000e+00" cType="1" res="-9.9000000000000000e+01" rms="0.0000000000000000e+00" purity="4.9586656689643860e-01" nType="-1"/>
                </Node>
                <Node pos="r" depth="3" NCoef="0" IVar="-1" Cut="0.0000000000000000e+00" cType="1" res="-9.9000000000000000e+01" rms="0.0000000000000000e+00" purity="4.6627476811408997e-01" nType="-1"/>
              </Node>
            </Node>
            <Node pos="r" depth="1" NCoef="0" IVar="0" Cut="7.2887275695800781e+01" cType="0" res="-9.9000000000000000e+01" rms="0.0000000000000000e+00" purity="4.9066293239593506e-01" nType="0">
              <Node pos="l" depth="2" NCoef="0" IVar="-1" Cut="0.0000000000000000e+00" cType="1" res="-9.9000000000000000e+01" rms="0.0000000000000000e+00" purity="5.0986677408218384e-01" nType="1"/>
              <Node pos="r" depth="2" NCoef="0" IVar="-1" Cut="8.3417984008789062e+01" cType="1" res="-9.9000000000000000e+01" rms="0.0000000000000000e+00" purity="4.8043823242187500e-01" nType="-1"/>
            </Node>
          </Node>
        </BinaryTree>
        <BinaryTree type="DecisionTree" boostWeight="5.3401249129245631e-03" itree="176">
          <Node pos="s" depth="0" NCoef="0" IVar="2" Cut="1.3681138610839844e+02" cType="0" res="-9.9000000000000000e+01" rms="0.0000000000000000e+00" purity="5.0026315450668335e-01" nType="0">
            <Node pos="l" depth="1" NCoef="0" IVar="3" Cut="4.4669989013671875e+02" cType="1" res="-9.9000000000000000e+01" rms="0.0000000000000000e+00" purity="5.0212371349334717e-01" nType="0">
              <Node pos="l" depth="2" NCoef="0" IVar="3" Cut="3.3009268188476562e+02" cType="0" res="-9.9000000000000000e+01" rms="0.0000000000000000e+00" purity="5.0320518016815186e-01" nType="0">
                <Node pos="l" depth="3" NCoef="0" IVar="-1" Cut="0.0000000000000000e+00" cType="1" res="-9.9000000000000000e+01" rms="0.0000000000000000e+00" purity="5.2023357152938843e-01" nType="1"/>
                <Node pos="r" depth="3" NCoef="0" IVar="3" Cut="2.8033557128906250e+02" cType="1" res="-9.9000000000000000e+01" rms="0.0000000000000000e+00" purity="5.0118553638458252e-01" nType="0">
                  <Node pos="l" depth="4" NCoef="0" IVar="-1" Cut="0.0000000000000000e+00" cType="1" res="-9.9000000000000000e+01" rms="0.0000000000000000e+00" purity="5.0275641679763794e-01" nType="1"/>
                  <Node pos="r" depth="4" NCoef="0" IVar="-1" Cut="0.0000000000000000e+00" cType="1" res="-9.9000000000000000e+01" rms="0.0000000000000000e+00" purity="4.8564401268959045e-01" nType="-1"/>
                </Node>
              </Node>
              <Node pos="r" depth="2" NCoef="0" IVar="-1" Cut="0.0000000000000000e+00" cType="1" res="-9.9000000000000000e+01" rms="0.0000000000000000e+00" purity="4.8898991942405701e-01" nType="-1"/>
            </Node>
            <Node pos="r" depth="1" NCoef="0" IVar="3" Cut="1.3131236267089844e+02" cType="1" res="-9.9000000000000000e+01" rms="0.0000000000000000e+00" purity="4.9118837714195251e-01" nType="0">
              <Node pos="l" depth="2" NCoef="0" IVar="4" Cut="1.9041100740432739e+00" cType="0" res="-9.9000000000000000e+01" rms="0.0000000000000000e+00" purity="5.0250428915023804e-01" nType="0">
                <Node pos="l" depth="3" NCoef="0" IVar="-1" Cut="0.0000000000000000e+00" cType="1" res="-9.9000000000000000e+01" rms="0.0000000000000000e+00" purity="5.2316886186599731e-01" nType="1"/>
                <Node pos="r" depth="3" NCoef="0" IVar="-1" Cut="0.0000000000000000e+00" cType="1" res="-9.9000000000000000e+01" rms="0.0000000000000000e+00" purity="4.8112949728965759e-01" nType="-1"/>
              </Node>
              <Node pos="r" depth="2" NCoef="0" IVar="-1" Cut="0.0000000000000000e+00" cType="1" res="-9.9000000000000000e+01" rms="0.0000000000000000e+00" purity="4.7357079386711121e-01" nType="-1"/>
            </Node>
          </Node>
        </BinaryTree>
        <BinaryTree type="DecisionTree" boostWeight="7.3887404386660544e-03" itree="177">
          <Node pos="s" depth="0" NCoef="0" IVar="2" Cut="1.3681138610839844e+02" cType="0" res="-9.9000000000000000e+01" rms="0.0000000000000000e+00" purity="4.9958607554435730e-01" nType="0">
            <Node pos="l" depth="1" NCoef="0" IVar="6" Cut="2.0254790782928467e+00" cType="1" res="-9.9000000000000000e+01" rms="0.0000000000000000e+00" purity="5.0120377540588379e-01" nType="0">
              <Node pos="l" depth="2" NCoef="0" IVar="1" Cut="8.6622177124023438e+01" cType="1" res="-9.9000000000000000e+01" rms="0.0000000000000000e+00" purity="5.0481200218200684e-01" nType="0">
                <Node pos="l" depth="3" NCoef="0" IVar="1" Cut="7.6058357238769531e+01" cType="0" res="-9.9000000000000000e+01" rms="0.0000000000000000e+00" purity="5.1441454887390137e-01" nType="0">
                  <Node pos="l" depth="4" NCoef="0" IVar="-1" Cut="0.0000000000000000e+00" cType="1" res="-9.9000000000000000e+01" rms="0.0000000000000000e+00" purity="5.4191070795059204e-01" nType="1"/>
                  <Node pos="r" depth="4" NCoef="0" IVar="-1" Cut="0.0000000000000000e+00" cType="1" res="-9.9000000000000000e+01" rms="0.0000000000000000e+00" purity="4.9989676475524902e-01" nType="-1"/>
                </Node>
                <Node pos="r" depth="3" NCoef="0" IVar="0" Cut="1.3811589050292969e+02" cType="1" res="-9.9000000000000000e+01" rms="0.0000000000000000e+00" purity="4.9702689051628113e-01" nType="0">
                  <Node pos="l" depth="4" NCoef="0" IVar="-1" Cut="0.0000000000000000e+00" cType="1" res="-9.9000000000000000e+01" rms="0.0000000000000000e+00" purity="5.0814610719680786e-01" nType="1"/>
                  <Node pos="r" depth="4" NCoef="0" IVar="-1" Cut="0.0000000000000000e+00" cType="1" res="-9.9000000000000000e+01" rms="0.0000000000000000e+00" purity="4.8214948177337646e-01" nType="-1"/>
                </Node>
              </Node>
              <Node pos="r" depth="2" NCoef="0" IVar="2" Cut="1.9381175231933594e+02" cType="1" res="-9.9000000000000000e+01" rms="0.0000000000000000e+00" purity="4.9767762422561646e-01" nType="0">
                <Node pos="l" depth="3" NCoef="0" IVar="0" Cut="1.0693344879150391e+02" cType="0" res="-9.9000000000000000e+01" rms="0.0000000000000000e+00" purity="5.0112384557723999e-01" nType="0">
                  <Node pos="l" depth="4" NCoef="0" IVar="-1" Cut="0.0000000000000000e+00" cType="1" res="-9.9000000000000000e+01" rms="0.0000000000000000e+00" purity="5.1814383268356323e-01" nType="1"/>
                  <Node pos="r" depth="4" NCoef="0" IVar="-1" Cut="0.0000000000000000e+00" cType="1" res="-9.9000000000000000e+01" rms="0.0000000000000000e+00" purity="4.9761119484901428e-01" nType="-1"/>
                </Node>
                <Node pos="r" depth="3" NCoef="0" IVar="-1" Cut="0.0000000000000000e+00" cType="1" res="-9.9000000000000000e+01" rms="0.0000000000000000e+00" purity="4.8059752583503723e-01" nType="-1"/>
              </Node>
            </Node>
            <Node pos="r" depth="1" NCoef="0" IVar="3" Cut="1.3131236267089844e+02" cType="1" res="-9.9000000000000000e+01" rms="0.0000000000000000e+00" purity="4.9169510602951050e-01" nType="0">
              <Node pos="l" depth="2" NCoef="0" IVar="4" Cut="1.9041100740432739e+00" cType="0" res="-9.9000000000000000e+01" rms="0.0000000000000000e+00" purity="5.0247645378112793e-01" nType="0">
                <Node pos="l" depth="3" NCoef="0" IVar="-1" Cut="0.0000000000000000e+00" cType="1" res="-9.9000000000000000e+01" rms="0.0000000000000000e+00" purity="5.2182286977767944e-01" nType="1"/>
                <Node pos="r" depth="3" NCoef="0" IVar="-1" Cut="0.0000000000000000e+00" cType="1" res="-9.9000000000000000e+01" rms="0.0000000000000000e+00" purity="4.8246526718139648e-01" nType="-1"/>
              </Node>
              <Node pos="r" depth="2" NCoef="0" IVar="-1" Cut="0.0000000000000000e+00" cType="1" res="-9.9000000000000000e+01" rms="0.0000000000000000e+00" purity="4.7490915656089783e-01" nType="-1"/>
            </Node>
          </Node>
        </BinaryTree>
        <BinaryTree type="DecisionTree" boostWeight="4.1373372504415881e-03" itree="178">
          <Node pos="s" depth="0" NCoef="0" IVar="2" Cut="1.3681138610839844e+02" cType="0" res="-9.9000000000000000e+01" rms="0.0000000000000000e+00" purity="5.0032985210418701e-01" nType="0">
            <Node pos="l" depth="1" NCoef="0" IVar="4" Cut="6.0605722665786743e-01" cType="0" res="-9.9000000000000000e+01" rms="0.0000000000000000e+00" purity="5.0195610523223877e-01" nType="0">
              <Node pos="l" depth="2" NCoef="0" IVar="4" Cut="7.5193661451339722e-01" cType="1" res="-9.9000000000000000e+01" rms="0.0000000000000000e+00" purity="5.0289571285247803e-01" nType="0">
                <Node pos="l" depth="3" NCoef="0" IVar="-1" Cut="0.0000000000000000e+00" cType="1" res="-9.9000000000000000e+01" rms="0.0000000000000000e+00" purity="5.1941019296646118e-01" nType="1"/>
                <Node pos="r" depth="3" NCoef="0" IVar="0" Cut="1.3776835632324219e+02" cType="0" res="-9.9000000000000000e+01" rms="0.0000000000000000e+00" purity="5.0134980678558350e-01" nType="0">
                  <Node pos="l" depth="4" NCoef="0" IVar="-1" Cut="0.0000000000000000e+00" cType="1" res="-9.9000000000000000e+01" rms="0.0000000000000000e+00" purity="5.1138937473297119e-01" nType="1"/>
                  <Node pos="r" depth="4" NCoef="0" IVar="-1" Cut="0.0000000000000000e+00" cType="1" res="-9.9000000000000000e+01" rms="0.0000000000000000e+00" purity="4.9801334738731384e-01" nType="-1"/>
                </Node>
              </Node>
              <Node pos="r" depth="2" NCoef="0" IVar="-1" Cut="0.0000000000000000e+00" cType="1" res="-9.9000000000000000e+01" rms="0.0000000000000000e+00" purity="4.8998516798019409e-01" nType="-1"/>
            </Node>
            <Node pos="r" depth="1" NCoef="0" IVar="0" Cut="4.8797157287597656e+01" cType="0" res="-9.9000000000000000e+01" rms="0.0000000000000000e+00" purity="4.9239632487297058e-01" nType="0">
              <Node pos="l" depth="2" NCoef="0" IVar="-1" Cut="0.0000000000000000e+00" cType="1" res="-9.9000000000000000e+01" rms="0.0000000000000000e+00" purity="5.0328278541564941e-01" nType="1"/>
              <Node pos="r" depth="2" NCoef="0" IVar="-1" Cut="0.0000000000000000e+00" cType="1" res="-9.9000000000000000e+01" rms="0.0000000000000000e+00" purity="4.7606310248374939e-01" nType="-1"/>
            </Node>
          </Node>
        </BinaryTree>
        <BinaryTree type="DecisionTree" boostWeight="5.4678112381492004e-03" itree="179">
          <Node pos="s" depth="0" NCoef="0" IVar="2" Cut="1.3681138610839844e+02" cType="0" res="-9.9000000000000000e+01" rms="0.0000000000000000e+00" purity="5.0066035985946655e-01" nType="0">
            <Node pos="l" depth="1" NCoef="0" IVar="3" Cut="4.4669989013671875e+02" cType="1" res="-9.9000000000000000e+01" rms="0.0000000000000000e+00" purity="5.0239694118499756e-01" nType="0">
              <Node pos="l" depth="2" NCoef="0" IVar="3" Cut="3.0554937744140625e+02" cType="0" res="-9.9000000000000000e+01" rms="0.0000000000000000e+00" purity="5.0335299968719482e-01" nType="0">
                <Node pos="l" depth="3" NCoef="0" IVar="-1" Cut="1.6080187988281250e+02" cType="0" res="-9.9000000000000000e+01" rms="0.0000000000000000e+00" purity="5.1739341020584106e-01" nType="1"/>
                <Node pos="r" depth="3" NCoef="0" IVar="0" Cut="6.6844863891601562e+01" cType="1" res="-9.9000000000000000e+01" rms="0.0000000000000000e+00" purity="5.0104218721389771e-01" nType="0">
                  <Node pos="l" depth="4" NCoef="0" IVar="-1" Cut="0.0000000000000000e+00" cType="1" res="-9.9000000000000000e+01" rms="0.0000000000000000e+00" purity="5.0809603929519653e-01" nType="1"/>
                  <Node pos="r" depth="4" NCoef="0" IVar="-1" Cut="0.0000000000000000e+00" cType="1" res="-9.9000000000000000e+01" rms="0.0000000000000000e+00" purity="4.9698418378829956e-01" nType="-1"/>
                </Node>
              </Node>
              <Node pos="r" depth="2" NCoef="0" IVar="-1" Cut="0.0000000000000000e+00" cType="1" res="-9.9000000000000000e+01" rms="0.0000000000000000e+00" purity="4.9078810214996338e-01" nType="-1"/>
            </Node>
            <Node pos="r" depth="1" NCoef="0" IVar="3" Cut="1.3131236267089844e+02" cType="1" res="-9.9000000000000000e+01" rms="0.0000000000000000e+00" purity="4.9218833446502686e-01" nType="0">
              <Node pos="l" depth="2" NCoef="0" IVar="4" Cut="1.9041100740432739e+00" cType="0" res="-9.9000000000000000e+01" rms="0.0000000000000000e+00" purity="5.0235486030578613e-01" nType="0">
                <Node pos="l" depth="3" NCoef="0" IVar="-1" Cut="0.0000000000000000e+00" cType="1" res="-9.9000000000000000e+01" rms="0.0000000000000000e+00" purity="5.2002966403961182e-01" nType="1"/>
                <Node pos="r" depth="3" NCoef="0" IVar="-1" Cut="0.0000000000000000e+00" cType="1" res="-9.9000000000000000e+01" rms="0.0000000000000000e+00" purity="4.8407250642776489e-01" nType="-1"/>
              </Node>
              <Node pos="r" depth="2" NCoef="0" IVar="-1" Cut="0.0000000000000000e+00" cType="1" res="-9.9000000000000000e+01" rms="0.0000000000000000e+00" purity="4.7636035084724426e-01" nType="-1"/>
            </Node>
          </Node>
        </BinaryTree>
        <BinaryTree type="DecisionTree" boostWeight="5.6569907254572704e-03" itree="180">
          <Node pos="s" depth="0" NCoef="0" IVar="2" Cut="1.3681138610839844e+02" cType="0" res="-9.9000000000000000e+01" rms="0.0000000000000000e+00" purity="5.0094830989837646e-01" nType="0">
            <Node pos="l" depth="1" NCoef="0" IVar="4" Cut="6.0605722665786743e-01" cType="0" res="-9.9000000000000000e+01" rms="0.0000000000000000e+00" purity="5.0263732671737671e-01" nType="0">
              <Node pos="l" depth="2" NCoef="0" IVar="6" Cut="1.9489499330520630e+00" cType="1" res="-9.9000000000000000e+01" rms="0.0000000000000000e+00" purity="5.0350576639175415e-01" nType="0">
                <Node pos="l" depth="3" NCoef="0" IVar="2" Cut="2.0417610168457031e+02" cType="0" res="-9.9000000000000000e+01" rms="0.0000000000000000e+00" purity="5.0904375314712524e-01" nType="0">
                  <Node pos="l" depth="4" NCoef="0" IVar="-1" Cut="0.0000000000000000e+00" cType="1" res="-9.9000000000000000e+01" rms="0.0000000000000000e+00" purity="5.2003210783004761e-01" nType="1"/>
                  <Node pos="r" depth="4" NCoef="0" IVar="-1" Cut="0.0000000000000000e+00" cType="1" res="-9.9000000000000000e+01" rms="0.0000000000000000e+00" purity="4.9931475520133972e-01" nType="-1"/>
                </Node>
                <Node pos="r" depth="3" NCoef="0" IVar="0" Cut="7.1386184692382812e+01" cType="1" res="-9.9000000000000000e+01" rms="0.0000000000000000e+00" purity="4.9919915199279785e-01" nType="0">
                  <Node pos="l" depth="4" NCoef="0" IVar="-1" Cut="0.0000000000000000e+00" cType="1" res="-9.9000000000000000e+01" rms="0.0000000000000000e+00" purity="5.0690484046936035e-01" nType="1"/>
                  <Node pos="r" depth="4" NCoef="0" IVar="-1" Cut="0.0000000000000000e+00" cType="1" res="-9.9000000000000000e+01" rms="0.0000000000000000e+00" purity="4.9064770340919495e-01" nType="-1"/>
                </Node>
              </Node>
              <Node pos="r" depth="2" NCoef="0" IVar="-1" Cut="0.0000000000000000e+00" cType="1" res="-9.9000000000000000e+01" rms="0.0000000000000000e+00" purity="4.9157363176345825e-01" nType="-1"/>
            </Node>
            <Node pos="r" depth="1" NCoef="0" IVar="0" Cut="5.6827198028564453e+01" cType="0" res="-9.9000000000000000e+01" rms="0.0000000000000000e+00" purity="4.9270740151405334e-01" nType="0">
              <Node pos="l" depth="2" NCoef="0" IVar="-1" Cut="0.0000000000000000e+00" cType="1" res="-9.9000000000000000e+01" rms="0.0000000000000000e+00" purity="5.0521057844161987e-01" nType="1"/>
              <Node pos="r" depth="2" NCoef="0" IVar="-1" Cut="0.0000000000000000e+00" cType="1" res="-9.9000000000000000e+01" rms="0.0000000000000000e+00" purity="4.7987946867942810e-01" nType="-1"/>
            </Node>
          </Node>
        </BinaryTree>
        <BinaryTree type="DecisionTree" boostWeight="6.3471859658180575e-03" itree="181">
          <Node pos="s" depth="0" NCoef="0" IVar="2" Cut="1.3681138610839844e+02" cType="0" res="-9.9000000000000000e+01" rms="0.0000000000000000e+00" purity="5.0103926658630371e-01" nType="0">
            <Node pos="l" depth="1" NCoef="0" IVar="4" Cut="1.6404464244842529e+00" cType="1" res="-9.9000000000000000e+01" rms="0.0000000000000000e+00" purity="5.0275069475173950e-01" nType="0">
              <Node pos="l" depth="2" NCoef="0" IVar="1" Cut="1.2708904266357422e+02" cType="1" res="-9.9000000000000000e+01" rms="0.0000000000000000e+00" purity="5.0516897439956665e-01" nType="0">
                <Node pos="l" depth="3" NCoef="0" IVar="-1" Cut="1.6047701835632324e+00" cType="0" res="-9.9000000000000000e+01" rms="0.0000000000000000e+00" purity="5.0786346197128296e-01" nType="1"/>
                <Node pos="r" depth="3" NCoef="0" IVar="-1" Cut="0.0000000000000000e+00" cType="1" res="-9.9000000000000000e+01" rms="0.0000000000000000e+00" purity="4.9142569303512573e-01" nType="-1"/>
              </Node>
              <Node pos="r" depth="2" NCoef="0" IVar="0" Cut="1.1150575256347656e+02" cType="1" res="-9.9000000000000000e+01" rms="0.0000000000000000e+00" purity="4.9852615594863892e-01" nType="0">
                <Node pos="l" depth="3" NCoef="0" IVar="1" Cut="6.2276382446289062e+01" cType="1" res="-9.9000000000000000e+01" rms="0.0000000000000000e+00" purity="5.0465959310531616e-01" nType="0">
                  <Node pos="l" depth="4" NCoef="0" IVar="-1" Cut="0.0000000000000000e+00" cType="1" res="-9.9000000000000000e+01" rms="0.0000000000000000e+00" purity="5.1944476366043091e-01" nType="1"/>
                  <Node pos="r" depth="4" NCoef="0" IVar="-1" Cut="0.0000000000000000e+00" cType="1" res="-9.9000000000000000e+01" rms="0.0000000000000000e+00" purity="4.9865531921386719e-01" nType="-1"/>
                </Node>
                <Node pos="r" depth="3" NCoef="0" IVar="-1" Cut="0.0000000000000000e+00" cType="1" res="-9.9000000000000000e+01" rms="0.0000000000000000e+00" purity="4.7587579488754272e-01" nType="-1"/>
              </Node>
            </Node>
            <Node pos="r" depth="1" NCoef="0" IVar="3" Cut="1.3131236267089844e+02" cType="1" res="-9.9000000000000000e+01" rms="0.0000000000000000e+00" purity="4.9268868565559387e-01" nType="0">
              <Node pos="l" depth="2" NCoef="0" IVar="4" Cut="1.9041100740432739e+00" cType="0" res="-9.9000000000000000e+01" rms="0.0000000000000000e+00" purity="5.0251114368438721e-01" nType="0">
                <Node pos="l" depth="3" NCoef="0" IVar="-1" Cut="0.0000000000000000e+00" cType="1" res="-9.9000000000000000e+01" rms="0.0000000000000000e+00" purity="5.1904851198196411e-01" nType="1"/>
                <Node pos="r" depth="3" NCoef="0" IVar="-1" Cut="0.0000000000000000e+00" cType="1" res="-9.9000000000000000e+01" rms="0.0000000000000000e+00" purity="4.8540419340133667e-01" nType="-1"/>
              </Node>
              <Node pos="r" depth="2" NCoef="0" IVar="-1" Cut="0.0000000000000000e+00" cType="1" res="-9.9000000000000000e+01" rms="0.0000000000000000e+00" purity="4.7739645838737488e-01" nType="-1"/>
            </Node>
          </Node>
        </BinaryTree>
        <BinaryTree type="DecisionTree" boostWeight="4.4298444967381476e-03" itree="182">
          <Node pos="s" depth="0" NCoef="0" IVar="2" Cut="1.2767800140380859e+02" cType="0" res="-9.9000000000000000e+01" rms="0.0000000000000000e+00" purity="5.0084489583969116e-01" nType="0">
            <Node pos="l" depth="1" NCoef="0" IVar="1" Cut="4.6276473999023438e+01" cType="0" res="-9.9000000000000000e+01" rms="0.0000000000000000e+00" purity="5.0203520059585571e-01" nType="0">
              <Node pos="l" depth="2" NCoef="0" IVar="3" Cut="1.5160864257812500e+02" cType="1" res="-9.9000000000000000e+01" rms="0.0000000000000000e+00" purity="5.0311088562011719e-01" nType="0">
                <Node pos="l" depth="3" NCoef="0" IVar="-1" Cut="1.0498690605163574e+00" cType="1" res="-9.9000000000000000e+01" rms="0.0000000000000000e+00" purity="5.1113080978393555e-01" nType="1"/>
                <Node pos="r" depth="3" NCoef="0" IVar="2" Cut="1.5399374389648438e+02" cType="0" res="-9.9000000000000000e+01" rms="0.0000000000000000e+00" purity="5.0136649608612061e-01" nType="0">
                  <Node pos="l" depth="4" NCoef="0" IVar="-1" Cut="0.0000000000000000e+00" cType="1" res="-9.9000000000000000e+01" rms="0.0000000000000000e+00" purity="5.0402009487152100e-01" nType="1"/>
                  <Node pos="r" depth="4" NCoef="0" IVar="-1" Cut="0.0000000000000000e+00" cType="1" res="-9.9000000000000000e+01" rms="0.0000000000000000e+00" purity="4.7548946738243103e-01" nType="-1"/>
                </Node>
              </Node>
              <Node pos="r" depth="2" NCoef="0" IVar="-1" Cut="0.0000000000000000e+00" cType="1" res="-9.9000000000000000e+01" rms="0.0000000000000000e+00" purity="4.9009862542152405e-01" nType="-1"/>
            </Node>
            <Node pos="r" depth="1" NCoef="0" IVar="-1" Cut="0.0000000000000000e+00" cType="1" res="-9.9000000000000000e+01" rms="0.0000000000000000e+00" purity="4.9014529585838318e-01" nType="-1"/>
          </Node>
        </BinaryTree>
        <BinaryTree type="DecisionTree" boostWeight="3.9542930574760051e-03" itree="183">
          <Node pos="s" depth="0" NCoef="0" IVar="2" Cut="2.8294549560546875e+02" cType="1" res="-9.9000000000000000e+01" rms="0.0000000000000000e+00" purity="5.0026488304138184e-01" nType="0">
            <Node pos="l" depth="1" NCoef="0" IVar="2" Cut="1.2342604064941406e+02" cType="0" res="-9.9000000000000000e+01" rms="0.0000000000000000e+00" purity="5.0106483697891235e-01" nType="0">
              <Node pos="l" depth="2" NCoef="0" IVar="3" Cut="1.4384976196289062e+02" cType="1" res="-9.9000000000000000e+01" rms="0.0000000000000000e+00" purity="5.0255423784255981e-01" nType="0">
                <Node pos="l" depth="3" NCoef="0" IVar="-1" Cut="5.4567264556884766e+01" cType="1" res="-9.9000000000000000e+01" rms="0.0000000000000000e+00" purity="5.1183718442916870e-01" nType="1"/>
                <Node pos="r" depth="3" NCoef="0" IVar="2" Cut="1.4712301635742188e+02" cType="0" res="-9.9000000000000000e+01" rms="0.0000000000000000e+00" purity="5.0094622373580933e-01" nType="0">
                  <Node pos="l" depth="4" NCoef="0" IVar="-1" Cut="0.0000000000000000e+00" cType="1" res="-9.9000000000000000e+01" rms="0.0000000000000000e+00" purity="5.0280636548995972e-01" nType="1"/>
                  <Node pos="r" depth="4" NCoef="0" IVar="-1" Cut="0.0000000000000000e+00" cType="1" res="-9.9000000000000000e+01" rms="0.0000000000000000e+00" purity="4.8055788874626160e-01" nType="-1"/>
                </Node>
              </Node>
              <Node pos="r" depth="2" NCoef="0" IVar="-1" Cut="0.0000000000000000e+00" cType="1" res="-9.9000000000000000e+01" rms="0.0000000000000000e+00" purity="4.8333966732025146e-01" nType="-1"/>
            </Node>
            <Node pos="r" depth="1" NCoef="0" IVar="-1" Cut="0.0000000000000000e+00" cType="1" res="-9.9000000000000000e+01" rms="0.0000000000000000e+00" purity="4.8700916767120361e-01" nType="-1"/>
          </Node>
        </BinaryTree>
        <BinaryTree type="DecisionTree" boostWeight="6.6132234199997014e-03" itree="184">
          <Node pos="s" depth="0" NCoef="0" IVar="3" Cut="1.3972355651855469e+02" cType="1" res="-9.9000000000000000e+01" rms="0.0000000000000000e+00" purity="4.9966317415237427e-01" nType="0">
            <Node pos="l" depth="1" NCoef="0" IVar="0" Cut="5.8428237915039062e+01" cType="0" res="-9.9000000000000000e+01" rms="0.0000000000000000e+00" purity="5.0720614194869995e-01" nType="0">
              <Node pos="l" depth="2" NCoef="0" IVar="-1" Cut="0.0000000000000000e+00" cType="1" res="-9.9000000000000000e+01" rms="0.0000000000000000e+00" purity="5.2233695983886719e-01" nType="1"/>
              <Node pos="r" depth="2" NCoef="0" IVar="-1" Cut="0.0000000000000000e+00" cType="1" res="-9.9000000000000000e+01" rms="0.0000000000000000e+00" purity="4.9585306644439697e-01" nType="-1"/>
            </Node>
            <Node pos="r" depth="1" NCoef="0" IVar="2" Cut="1.4626972961425781e+02" cType="0" res="-9.9000000000000000e+01" rms="0.0000000000000000e+00" purity="4.9823197722434998e-01" nType="0">
              <Node pos="l" depth="2" NCoef="0" IVar="1" Cut="8.6458099365234375e+01" cType="1" res="-9.9000000000000000e+01" rms="0.0000000000000000e+00" purity="5.0099146366119385e-01" nType="0">
                <Node pos="l" depth="3" NCoef="0" IVar="1" Cut="7.5878814697265625e+01" cType="0" res="-9.9000000000000000e+01" rms="0.0000000000000000e+00" purity="5.0498688220977783e-01" nType="0">
                  <Node pos="l" depth="4" NCoef="0" IVar="-1" Cut="0.0000000000000000e+00" cType="1" res="-9.9000000000000000e+01" rms="0.0000000000000000e+00" purity="5.2433621883392334e-01" nType="1"/>
                  <Node pos="r" depth="4" NCoef="0" IVar="-1" Cut="0.0000000000000000e+00" cType="1" res="-9.9000000000000000e+01" rms="0.0000000000000000e+00" purity="4.9574899673461914e-01" nType="-1"/>
                </Node>
                <Node pos="r" depth="3" NCoef="0" IVar="5" Cut="1.3287487030029297e+00" cType="1" res="-9.9000000000000000e+01" rms="0.0000000000000000e+00" purity="4.9755540490150452e-01" nType="0">
                  <Node pos="l" depth="4" NCoef="0" IVar="-1" Cut="0.0000000000000000e+00" cType="1" res="-9.9000000000000000e+01" rms="0.0000000000000000e+00" purity="5.0400984287261963e-01" nType="1"/>
                  <Node pos="r" depth="4" NCoef="0" IVar="-1" Cut="0.0000000000000000e+00" cType="1" res="-9.9000000000000000e+01" rms="0.0000000000000000e+00" purity="4.8305481672286987e-01" nType="-1"/>
                </Node>
              </Node>
              <Node pos="r" depth="2" NCoef="0" IVar="-1" Cut="0.0000000000000000e+00" cType="1" res="-9.9000000000000000e+01" rms="0.0000000000000000e+00" purity="4.7698780894279480e-01" nType="-1"/>
            </Node>
          </Node>
        </BinaryTree>
        <BinaryTree type="DecisionTree" boostWeight="5.6073768614722580e-03" itree="185">
          <Node pos="s" depth="0" NCoef="0" IVar="3" Cut="1.3972355651855469e+02" cType="1" res="-9.9000000000000000e+01" rms="0.0000000000000000e+00" purity="4.9982932209968567e-01" nType="0">
            <Node pos="l" depth="1" NCoef="0" IVar="0" Cut="5.8428237915039062e+01" cType="0" res="-9.9000000000000000e+01" rms="0.0000000000000000e+00" purity="5.0744301080703735e-01" nType="0">
              <Node pos="l" depth="2" NCoef="0" IVar="-1" Cut="0.0000000000000000e+00" cType="1" res="-9.9000000000000000e+01" rms="0.0000000000000000e+00" purity="5.2068477869033813e-01" nType="1"/>
              <Node pos="r" depth="2" NCoef="0" IVar="-1" Cut="0.0000000000000000e+00" cType="1" res="-9.9000000000000000e+01" rms="0.0000000000000000e+00" purity="4.9750846624374390e-01" nType="-1"/>
            </Node>
            <Node pos="r" depth="1" NCoef="0" IVar="2" Cut="1.4626972961425781e+02" cType="0" res="-9.9000000000000000e+01" rms="0.0000000000000000e+00" purity="4.9838483333587646e-01" nType="0">
              <Node pos="l" depth="2" NCoef="0" IVar="1" Cut="8.6458099365234375e+01" cType="1" res="-9.9000000000000000e+01" rms="0.0000000000000000e+00" purity="5.0094807147979736e-01" nType="0">
                <Node pos="l" depth="3" NCoef="0" IVar="1" Cut="7.5878814697265625e+01" cType="0" res="-9.9000000000000000e+01" rms="0.0000000000000000e+00" purity="5.0560230016708374e-01" nType="0">
                  <Node pos="l" depth="4" NCoef="0" IVar="-1" Cut="0.0000000000000000e+00" cType="1" res="-9.9000000000000000e+01" rms="0.0000000000000000e+00" purity="5.2268606424331665e-01" nType="1"/>
                  <Node pos="r" depth="4" NCoef="0" IVar="-1" Cut="0.0000000000000000e+00" cType="1" res="-9.9000000000000000e+01" rms="0.0000000000000000e+00" purity="4.9744790792465210e-01" nType="-1"/>
                </Node>
                <Node pos="r" depth="3" NCoef="0" IVar="5" Cut="1.3287487030029297e+00" cType="1" res="-9.9000000000000000e+01" rms="0.0000000000000000e+00" purity="4.9694547057151794e-01" nType="0">
                  <Node pos="l" depth="4" NCoef="0" IVar="-1" Cut="0.0000000000000000e+00" cType="1" res="-9.9000000000000000e+01" rms="0.0000000000000000e+00" purity="5.0235527753829956e-01" nType="1"/>
                  <Node pos="r" depth="4" NCoef="0" IVar="-1" Cut="0.0000000000000000e+00" cType="1" res="-9.9000000000000000e+01" rms="0.0000000000000000e+00" purity="4.8479270935058594e-01" nType="-1"/>
                </Node>
              </Node>
              <Node pos="r" depth="2" NCoef="0" IVar="-1" Cut="0.0000000000000000e+00" cType="1" res="-9.9000000000000000e+01" rms="0.0000000000000000e+00" purity="4.7864878177642822e-01" nType="-1"/>
            </Node>
          </Node>
        </BinaryTree>
        <BinaryTree type="DecisionTree" boostWeight="4.4603854028784197e-03" itree="186">
          <Node pos="s" depth="0" NCoef="0" IVar="3" Cut="1.3972355651855469e+02" cType="1" res="-9.9000000000000000e+01" rms="0.0000000000000000e+00" purity="4.9997010827064514e-01" nType="0">
            <Node pos="l" depth="1" NCoef="0" IVar="0" Cut="5.8428237915039062e+01" cType="0" res="-9.9000000000000000e+01" rms="0.0000000000000000e+00" purity="5.0764381885528564e-01" nType="0">
              <Node pos="l" depth="2" NCoef="0" IVar="-1" Cut="0.0000000000000000e+00" cType="1" res="-9.9000000000000000e+01" rms="0.0000000000000000e+00" purity="5.1928359270095825e-01" nType="1"/>
              <Node pos="r" depth="2" NCoef="0" IVar="-1" Cut="0.0000000000000000e+00" cType="1" res="-9.9000000000000000e+01" rms="0.0000000000000000e+00" purity="4.9891215562820435e-01" nType="-1"/>
            </Node>
            <Node pos="r" depth="1" NCoef="0" IVar="2" Cut="1.4626972961425781e+02" cType="0" res="-9.9000000000000000e+01" rms="0.0000000000000000e+00" purity="4.9851429462432861e-01" nType="0">
              <Node pos="l" depth="2" NCoef="0" IVar="1" Cut="8.6458099365234375e+01" cType="1" res="-9.9000000000000000e+01" rms="0.0000000000000000e+00" purity="5.0091117620468140e-01" nType="0">
                <Node pos="l" depth="3" NCoef="0" IVar="1" Cut="7.5878814697265625e+01" cType="0" res="-9.9000000000000000e+01" rms="0.0000000000000000e+00" purity="5.0612396001815796e-01" nType="0">
                  <Node pos="l" depth="4" NCoef="0" IVar="-1" Cut="0.0000000000000000e+00" cType="1" res="-9.9000000000000000e+01" rms="0.0000000000000000e+00" purity="5.2128642797470093e-01" nType="1"/>
                  <Node pos="r" depth="4" NCoef="0" IVar="-1" Cut="0.0000000000000000e+00" cType="1" res="-9.9000000000000000e+01" rms="0.0000000000000000e+00" purity="4.9888801574707031e-01" nType="-1"/>
                </Node>
                <Node pos="r" depth="3" NCoef="0" IVar="5" Cut="1.5019098520278931e+00" cType="1" res="-9.9000000000000000e+01" rms="0.0000000000000000e+00" purity="4.9642819166183472e-01" nType="0">
                  <Node pos="l" depth="4" NCoef="0" IVar="-1" Cut="0.0000000000000000e+00" cType="1" res="-9.9000000000000000e+01" rms="0.0000000000000000e+00" purity="5.0005811452865601e-01" nType="1"/>
                  <Node pos="r" depth="4" NCoef="0" IVar="-1" Cut="0.0000000000000000e+00" cType="1" res="-9.9000000000000000e+01" rms="0.0000000000000000e+00" purity="4.8264831304550171e-01" nType="-1"/>
                </Node>
              </Node>
              <Node pos="r" depth="2" NCoef="0" IVar="-1" Cut="0.0000000000000000e+00" cType="1" res="-9.9000000000000000e+01" rms="0.0000000000000000e+00" purity="4.8005735874176025e-01" nType="-1"/>
            </Node>
          </Node>
        </BinaryTree>
        <BinaryTree type="DecisionTree" boostWeight="7.7573155494592922e-03" itree="187">
          <Node pos="s" depth="0" NCoef="0" IVar="1" Cut="8.6387664794921875e+01" cType="1" res="-9.9000000000000000e+01" rms="0.0000000000000000e+00" purity="4.9999257922172546e-01" nType="0">
            <Node pos="l" depth="1" NCoef="0" IVar="5" Cut="1.4975349903106689e+00" cType="0" res="-9.9000000000000000e+01" rms="0.0000000000000000e+00" purity="5.0380742549896240e-01" nType="0">
              <Node pos="l" depth="2" NCoef="0" IVar="-1" Cut="0.0000000000000000e+00" cType="1" res="-9.9000000000000000e+01" rms="0.0000000000000000e+00" purity="5.1944440603256226e-01" nType="1"/>
              <Node pos="r" depth="2" NCoef="0" IVar="0" Cut="1.1282681274414062e+02" cType="1" res="-9.9000000000000000e+01" rms="0.0000000000000000e+00" purity="5.0003123283386230e-01" nType="0">
                <Node pos="l" depth="3" NCoef="0" IVar="1" Cut="5.8159221649169922e+01" cType="1" res="-9.9000000000000000e+01" rms="0.0000000000000000e+00" purity="5.0536024570465088e-01" nType="0">
                  <Node pos="l" depth="4" NCoef="0" IVar="-1" Cut="0.0000000000000000e+00" cType="1" res="-9.9000000000000000e+01" rms="0.0000000000000000e+00" purity="5.1731973886489868e-01" nType="1"/>
                  <Node pos="r" depth="4" NCoef="0" IVar="-1" Cut="0.0000000000000000e+00" cType="1" res="-9.9000000000000000e+01" rms="0.0000000000000000e+00" purity="4.9954557418823242e-01" nType="-1"/>
                </Node>
                <Node pos="r" depth="3" NCoef="0" IVar="-1" Cut="0.0000000000000000e+00" cType="1" res="-9.9000000000000000e+01" rms="0.0000000000000000e+00" purity="4.8090589046478271e-01" nType="-1"/>
              </Node>
            </Node>
            <Node pos="r" depth="1" NCoef="0" IVar="5" Cut="8.9584606885910034e-01" cType="0" res="-9.9000000000000000e+01" rms="0.0000000000000000e+00" purity="4.9647033214569092e-01" nType="0">
              <Node pos="l" depth="2" NCoef="0" IVar="1" Cut="1.0209694671630859e+02" cType="0" res="-9.9000000000000000e+01" rms="0.0000000000000000e+00" purity="4.9994319677352905e-01" nType="0">
                <Node pos="l" depth="3" NCoef="0" IVar="5" Cut="1.4962061643600464e+00" cType="1" res="-9.9000000000000000e+01" rms="0.0000000000000000e+00" purity="5.0654214620590210e-01" nType="0">
                  <Node pos="l" depth="4" NCoef="0" IVar="-1" Cut="0.0000000000000000e+00" cType="1" res="-9.9000000000000000e+01" rms="0.0000000000000000e+00" purity="5.1221448183059692e-01" nType="1"/>
                  <Node pos="r" depth="4" NCoef="0" IVar="-1" Cut="0.0000000000000000e+00" cType="1" res="-9.9000000000000000e+01" rms="0.0000000000000000e+00" purity="4.8310813307762146e-01" nType="-1"/>
                </Node>
                <Node pos="r" depth="3" NCoef="0" IVar="4" Cut="1.2749314308166504e+00" cType="1" res="-9.9000000000000000e+01" rms="0.0000000000000000e+00" purity="4.8922041058540344e-01" nType="0">
                  <Node pos="l" depth="4" NCoef="0" IVar="-1" Cut="0.0000000000000000e+00" cType="1" res="-9.9000000000000000e+01" rms="0.0000000000000000e+00" purity="5.0315988063812256e-01" nType="1"/>
                  <Node pos="r" depth="4" NCoef="0" IVar="-1" Cut="0.0000000000000000e+00" cType="1" res="-9.9000000000000000e+01" rms="0.0000000000000000e+00" purity="4.7679248452186584e-01" nType="-1"/>
                </Node>
              </Node>
              <Node pos="r" depth="2" NCoef="0" IVar="-1" Cut="0.0000000000000000e+00" cType="1" res="-9.9000000000000000e+01" rms="0.0000000000000000e+00" purity="4.7727757692337036e-01" nType="-1"/>
            </Node>
          </Node>
        </BinaryTree>
        <BinaryTree type="DecisionTree" boostWeight="7.5228221054643848e-03" itree="188">
          <Node pos="s" depth="0" NCoef="0" IVar="1" Cut="8.6387664794921875e+01" cType="1" res="-9.9000000000000000e+01" rms="0.0000000000000000e+00" purity="5.0003921985626221e-01" nType="0">
            <Node pos="l" depth="1" NCoef="0" IVar="6" Cut="1.4867542982101440e+00" cType="1" res="-9.9000000000000000e+01" rms="0.0000000000000000e+00" purity="5.0420409440994263e-01" nType="0">
              <Node pos="l" depth="2" NCoef="0" IVar="-1" Cut="0.0000000000000000e+00" cType="1" res="-9.9000000000000000e+01" rms="0.0000000000000000e+00" purity="5.1846015453338623e-01" nType="1"/>
              <Node pos="r" depth="2" NCoef="0" IVar="2" Cut="2.0126432800292969e+02" cType="1" res="-9.9000000000000000e+01" rms="0.0000000000000000e+00" purity="5.0053542852401733e-01" nType="0">
                <Node pos="l" depth="3" NCoef="0" IVar="-1" Cut="2.2590414428710938e+02" cType="0" res="-9.9000000000000000e+01" rms="0.0000000000000000e+00" purity="5.0640636682510376e-01" nType="1"/>
                <Node pos="r" depth="3" NCoef="0" IVar="-1" Cut="0.0000000000000000e+00" cType="1" res="-9.9000000000000000e+01" rms="0.0000000000000000e+00" purity="4.6195259690284729e-01" nType="-1"/>
              </Node>
            </Node>
            <Node pos="r" depth="1" NCoef="0" IVar="5" Cut="8.9584606885910034e-01" cType="0" res="-9.9000000000000000e+01" rms="0.0000000000000000e+00" purity="4.9619361758232117e-01" nType="0">
              <Node pos="l" depth="2" NCoef="0" IVar="1" Cut="1.0209694671630859e+02" cType="0" res="-9.9000000000000000e+01" rms="0.0000000000000000e+00" purity="4.9926549196243286e-01" nType="0">
                <Node pos="l" depth="3" NCoef="0" IVar="5" Cut="1.4962061643600464e+00" cType="1" res="-9.9000000000000000e+01" rms="0.0000000000000000e+00" purity="5.0537103414535522e-01" nType="0">
                  <Node pos="l" depth="4" NCoef="0" IVar="-1" Cut="0.0000000000000000e+00" cType="1" res="-9.9000000000000000e+01" rms="0.0000000000000000e+00" purity="5.1027274131774902e-01" nType="1"/>
                  <Node pos="r" depth="4" NCoef="0" IVar="-1" Cut="0.0000000000000000e+00" cType="1" res="-9.9000000000000000e+01" rms="0.0000000000000000e+00" purity="4.8512288928031921e-01" nType="-1"/>
                </Node>
                <Node pos="r" depth="3" NCoef="0" IVar="4" Cut="1.2749314308166504e+00" cType="1" res="-9.9000000000000000e+01" rms="0.0000000000000000e+00" purity="4.8934409022331238e-01" nType="0">
                  <Node pos="l" depth="4" NCoef="0" IVar="-1" Cut="0.0000000000000000e+00" cType="1" res="-9.9000000000000000e+01" rms="0.0000000000000000e+00" purity="5.0121921300888062e-01" nType="1"/>
                  <Node pos="r" depth="4" NCoef="0" IVar="-1" Cut="0.0000000000000000e+00" cType="1" res="-9.9000000000000000e+01" rms="0.0000000000000000e+00" purity="4.7875562310218811e-01" nType="-1"/>
                </Node>
              </Node>
              <Node pos="r" depth="2" NCoef="0" IVar="-1" Cut="0.0000000000000000e+00" cType="1" res="-9.9000000000000000e+01" rms="0.0000000000000000e+00" purity="4.7921580076217651e-01" nType="-1"/>
            </Node>
          </Node>
        </BinaryTree>
        <BinaryTree type="DecisionTree" boostWeight="6.8920765963718699e-03" itree="189">
          <Node pos="s" depth="0" NCoef="0" IVar="1" Cut="1.2293914031982422e+02" cType="1" res="-9.9000000000000000e+01" rms="0.0000000000000000e+00" purity="4.9918758869171143e-01" nType="0">
            <Node pos="l" depth="1" NCoef="0" IVar="6" Cut="3.3182184696197510e+00" cType="1" res="-9.9000000000000000e+01" rms="0.0000000000000000e+00" purity="5.0074946880340576e-01" nType="0">
              <Node pos="l" depth="2" NCoef="0" IVar="4" Cut="2.0300116539001465e+00" cType="0" res="-9.9000000000000000e+01" rms="0.0000000000000000e+00" purity="5.0182795524597168e-01" nType="0">
                <Node pos="l" depth="3" NCoef="0" IVar="0" Cut="6.6532676696777344e+01" cType="1" res="-9.9000000000000000e+01" rms="0.0000000000000000e+00" purity="5.1083546876907349e-01" nType="0">
                  <Node pos="l" depth="4" NCoef="0" IVar="-1" Cut="0.0000000000000000e+00" cType="1" res="-9.9000000000000000e+01" rms="0.0000000000000000e+00" purity="5.2860373258590698e-01" nType="1"/>
                  <Node pos="r" depth="4" NCoef="0" IVar="-1" Cut="0.0000000000000000e+00" cType="1" res="-9.9000000000000000e+01" rms="0.0000000000000000e+00" purity="4.8836240172386169e-01" nType="-1"/>
                </Node>
                <Node pos="r" depth="3" NCoef="0" IVar="5" Cut="1.4297122955322266e+00" cType="0" res="-9.9000000000000000e+01" rms="0.0000000000000000e+00" purity="4.9892878532409668e-01" nType="0">
                  <Node pos="l" depth="4" NCoef="0" IVar="-1" Cut="0.0000000000000000e+00" cType="1" res="-9.9000000000000000e+01" rms="0.0000000000000000e+00" purity="5.1334011554718018e-01" nType="1"/>
                  <Node pos="r" depth="4" NCoef="0" IVar="-1" Cut="0.0000000000000000e+00" cType="1" res="-9.9000000000000000e+01" rms="0.0000000000000000e+00" purity="4.9332812428474426e-01" nType="-1"/>
                </Node>
              </Node>
              <Node pos="r" depth="2" NCoef="0" IVar="-1" Cut="0.0000000000000000e+00" cType="1" res="-9.9000000000000000e+01" rms="0.0000000000000000e+00" purity="4.8489359021186829e-01" nType="-1"/>
            </Node>
            <Node pos="r" depth="1" NCoef="0" IVar="5" Cut="1.0480177402496338e+00" cType="0" res="-9.9000000000000000e+01" rms="0.0000000000000000e+00" purity="4.9053299427032471e-01" nType="0">
              <Node pos="l" depth="2" NCoef="0" IVar="-1" Cut="0.0000000000000000e+00" cType="1" res="-9.9000000000000000e+01" rms="0.0000000000000000e+00" purity="5.0012129545211792e-01" nType="1"/>
              <Node pos="r" depth="2" NCoef="0" IVar="-1" Cut="0.0000000000000000e+00" cType="1" res="-9.9000000000000000e+01" rms="0.0000000000000000e+00" purity="4.7681814432144165e-01" nType="-1"/>
            </Node>
          </Node>
        </BinaryTree>
        <BinaryTree type="DecisionTree" boostWeight="3.6492414329688081e-03" itree="190">
          <Node pos="s" depth="0" NCoef="0" IVar="1" Cut="1.2293914031982422e+02" cType="1" res="-9.9000000000000000e+01" rms="0.0000000000000000e+00" purity="4.9965676665306091e-01" nType="0">
            <Node pos="l" depth="1" NCoef="0" IVar="3" Cut="1.3972355651855469e+02" cType="1" res="-9.9000000000000000e+01" rms="0.0000000000000000e+00" purity="5.0135850906372070e-01" nType="0">
              <Node pos="l" depth="2" NCoef="0" IVar="-1" Cut="5.8428237915039062e+01" cType="0" res="-9.9000000000000000e+01" rms="0.0000000000000000e+00" purity="5.1036709547042847e-01" nType="1"/>
              <Node pos="r" depth="2" NCoef="0" IVar="2" Cut="1.4626972961425781e+02" cType="0" res="-9.9000000000000000e+01" rms="0.0000000000000000e+00" purity="4.9955245852470398e-01" nType="0">
                <Node pos="l" depth="3" NCoef="0" IVar="5" Cut="8.8328260183334351e-01" cType="1" res="-9.9000000000000000e+01" rms="0.0000000000000000e+00" purity="5.0185948610305786e-01" nType="0">
                  <Node pos="l" depth="4" NCoef="0" IVar="-1" Cut="0.0000000000000000e+00" cType="1" res="-9.9000000000000000e+01" rms="0.0000000000000000e+00" purity="5.2079439163208008e-01" nType="1"/>
                  <Node pos="r" depth="4" NCoef="0" IVar="-1" Cut="0.0000000000000000e+00" cType="1" res="-9.9000000000000000e+01" rms="0.0000000000000000e+00" purity="4.9957436323165894e-01" nType="-1"/>
                </Node>
                <Node pos="r" depth="3" NCoef="0" IVar="-1" Cut="0.0000000000000000e+00" cType="1" res="-9.9000000000000000e+01" rms="0.0000000000000000e+00" purity="4.8238235712051392e-01" nType="-1"/>
              </Node>
            </Node>
            <Node pos="r" depth="1" NCoef="0" IVar="4" Cut="1.1603693962097168e+00" cType="0" res="-9.9000000000000000e+01" rms="0.0000000000000000e+00" purity="4.9022737145423889e-01" nType="0">
              <Node pos="l" depth="2" NCoef="0" IVar="-1" Cut="0.0000000000000000e+00" cType="1" res="-9.9000000000000000e+01" rms="0.0000000000000000e+00" purity="5.0011605024337769e-01" nType="1"/>
              <Node pos="r" depth="2" NCoef="0" IVar="-1" Cut="0.0000000000000000e+00" cType="1" res="-9.9000000000000000e+01" rms="0.0000000000000000e+00" purity="4.7840300202369690e-01" nType="-1"/>
            </Node>
          </Node>
        </BinaryTree>
        <BinaryTree type="DecisionTree" boostWeight="4.4073555378377214e-03" itree="191">
          <Node pos="s" depth="0" NCoef="0" IVar="1" Cut="1.2293914031982422e+02" cType="1" res="-9.9000000000000000e+01" rms="0.0000000000000000e+00" purity="5.0005370378494263e-01" nType="0">
            <Node pos="l" depth="1" NCoef="0" IVar="6" Cut="3.3182184696197510e+00" cType="1" res="-9.9000000000000000e+01" rms="0.0000000000000000e+00" purity="5.0184124708175659e-01" nType="0">
              <Node pos="l" depth="2" NCoef="0" IVar="6" Cut="2.8917181491851807e+00" cType="0" res="-9.9000000000000000e+01" rms="0.0000000000000000e+00" purity="5.0287795066833496e-01" nType="0">
                <Node pos="l" depth="3" NCoef="0" IVar="6" Cut="3.0859162807464600e+00" cType="1" res="-9.9000000000000000e+01" rms="0.0000000000000000e+00" purity="5.1353561878204346e-01" nType="0">
                  <Node pos="l" depth="4" NCoef="0" IVar="-1" Cut="0.0000000000000000e+00" cType="1" res="-9.9000000000000000e+01" rms="0.0000000000000000e+00" purity="5.2565491199493408e-01" nType="1"/>
                  <Node pos="r" depth="4" NCoef="0" IVar="-1" Cut="0.0000000000000000e+00" cType="1" res="-9.9000000000000000e+01" rms="0.0000000000000000e+00" purity="4.9903336167335510e-01" nType="-1"/>
                </Node>
                <Node pos="r" depth="3" NCoef="0" IVar="5" Cut="1.4975349903106689e+00" cType="0" res="-9.9000000000000000e+01" rms="0.0000000000000000e+00" purity="5.0078469514846802e-01" nType="0">
                  <Node pos="l" depth="4" NCoef="0" IVar="-1" Cut="0.0000000000000000e+00" cType="1" res="-9.9000000000000000e+01" rms="0.0000000000000000e+00" purity="5.1245909929275513e-01" nType="1"/>
                  <Node pos="r" depth="4" NCoef="0" IVar="-1" Cut="0.0000000000000000e+00" cType="1" res="-9.9000000000000000e+01" rms="0.0000000000000000e+00" purity="4.9734556674957275e-01" nType="-1"/>
                </Node>
              </Node>
              <Node pos="r" depth="2" NCoef="0" IVar="-1" Cut="0.0000000000000000e+00" cType="1" res="-9.9000000000000000e+01" rms="0.0000000000000000e+00" purity="4.8659789562225342e-01" nType="-1"/>
            </Node>
            <Node pos="r" depth="1" NCoef="0" IVar="-1" Cut="1.0480177402496338e+00" cType="0" res="-9.9000000000000000e+01" rms="0.0000000000000000e+00" purity="4.9014854431152344e-01" nType="-1"/>
          </Node>
        </BinaryTree>
        <BinaryTree type="DecisionTree" boostWeight="5.9079152646554414e-03" itree="192">
          <Node pos="s" depth="0" NCoef="0" IVar="1" Cut="1.2293914031982422e+02" cType="1" res="-9.9000000000000000e+01" rms="0.0000000000000000e+00" purity="5.0067275762557983e-01" nType="0">
            <Node pos="l" depth="1" NCoef="0" IVar="6" Cut="3.3182184696197510e+00" cType="1" res="-9.9000000000000000e+01" rms="0.0000000000000000e+00" purity="5.0237178802490234e-01" nType="0">
              <Node pos="l" depth="2" NCoef="0" IVar="4" Cut="2.0300116539001465e+00" cType="0" res="-9.9000000000000000e+01" rms="0.0000000000000000e+00" purity="5.0336951017379761e-01" nType="0">
                <Node pos="l" depth="3" NCoef="0" IVar="0" Cut="6.6532676696777344e+01" cType="1" res="-9.9000000000000000e+01" rms="0.0000000000000000e+00" purity="5.1139408349990845e-01" nType="0">
                  <Node pos="l" depth="4" NCoef="0" IVar="-1" Cut="0.0000000000000000e+00" cType="1" res="-9.9000000000000000e+01" rms="0.0000000000000000e+00" purity="5.2741062641143799e-01" nType="1"/>
                  <Node pos="r" depth="4" NCoef="0" IVar="-1" Cut="0.0000000000000000e+00" cType="1" res="-9.9000000000000000e+01" rms="0.0000000000000000e+00" purity="4.9113690853118896e-01" nType="-1"/>
                </Node>
                <Node pos="r" depth="3" NCoef="0" IVar="2" Cut="1.5552319335937500e+02" cType="0" res="-9.9000000000000000e+01" rms="0.0000000000000000e+00" purity="5.0078696012496948e-01" nType="0">
                  <Node pos="l" depth="4" NCoef="0" IVar="-1" Cut="0.0000000000000000e+00" cType="1" res="-9.9000000000000000e+01" rms="0.0000000000000000e+00" purity="5.0536286830902100e-01" nType="1"/>
                  <Node pos="r" depth="4" NCoef="0" IVar="-1" Cut="0.0000000000000000e+00" cType="1" res="-9.9000000000000000e+01" rms="0.0000000000000000e+00" purity="4.8927339911460876e-01" nType="-1"/>
                </Node>
              </Node>
              <Node pos="r" depth="2" NCoef="0" IVar="-1" Cut="0.0000000000000000e+00" cType="1" res="-9.9000000000000000e+01" rms="0.0000000000000000e+00" purity="4.8770225048065186e-01" nType="-1"/>
            </Node>
            <Node pos="r" depth="1" NCoef="0" IVar="-1" Cut="1.0480177402496338e+00" cType="0" res="-9.9000000000000000e+01" rms="0.0000000000000000e+00" purity="4.9125760793685913e-01" nType="-1"/>
          </Node>
        </BinaryTree>
        <BinaryTree type="DecisionTree" boostWeight="4.4500287977444269e-03" itree="193">
          <Node pos="s" depth="0" NCoef="0" IVar="3" Cut="1.3972355651855469e+02" cType="1" res="-9.9000000000000000e+01" rms="0.0000000000000000e+00" purity="5.0056618452072144e-01" nType="0">
            <Node pos="l" depth="1" NCoef="0" IVar="-1" Cut="5.8428237915039062e+01" cType="0" res="-9.9000000000000000e+01" rms="0.0000000000000000e+00" purity="5.0872445106506348e-01" nType="1"/>
            <Node pos="r" depth="1" NCoef="0" IVar="2" Cut="1.4626972961425781e+02" cType="0" res="-9.9000000000000000e+01" rms="0.0000000000000000e+00" purity="4.9901831150054932e-01" nType="0">
              <Node pos="l" depth="2" NCoef="0" IVar="1" Cut="8.6458099365234375e+01" cType="1" res="-9.9000000000000000e+01" rms="0.0000000000000000e+00" purity="5.0101310014724731e-01" nType="0">
                <Node pos="l" depth="3" NCoef="0" IVar="1" Cut="7.5878814697265625e+01" cType="0" res="-9.9000000000000000e+01" rms="0.0000000000000000e+00" purity="5.0621730089187622e-01" nType="0">
                  <Node pos="l" depth="4" NCoef="0" IVar="-1" Cut="0.0000000000000000e+00" cType="1" res="-9.9000000000000000e+01" rms="0.0000000000000000e+00" purity="5.2062761783599854e-01" nType="1"/>
                  <Node pos="r" depth="4" NCoef="0" IVar="-1" Cut="0.0000000000000000e+00" cType="1" res="-9.9000000000000000e+01" rms="0.0000000000000000e+00" purity="4.9934229254722595e-01" nType="-1"/>
                </Node>
                <Node pos="r" depth="3" NCoef="0" IVar="5" Cut="1.3287487030029297e+00" cType="1" res="-9.9000000000000000e+01" rms="0.0000000000000000e+00" purity="4.9653810262680054e-01" nType="0">
                  <Node pos="l" depth="4" NCoef="0" IVar="-1" Cut="0.0000000000000000e+00" cType="1" res="-9.9000000000000000e+01" rms="0.0000000000000000e+00" purity="5.0111395120620728e-01" nType="1"/>
                  <Node pos="r" depth="4" NCoef="0" IVar="-1" Cut="0.0000000000000000e+00" cType="1" res="-9.9000000000000000e+01" rms="0.0000000000000000e+00" purity="4.8626312613487244e-01" nType="-1"/>
                </Node>
              </Node>
              <Node pos="r" depth="2" NCoef="0" IVar="-1" Cut="0.0000000000000000e+00" cType="1" res="-9.9000000000000000e+01" rms="0.0000000000000000e+00" purity="4.8365378379821777e-01" nType="-1"/>
            </Node>
          </Node>
        </BinaryTree>
        <BinaryTree type="DecisionTree" boostWeight="5.6842820616906427e-03" itree="194">
          <Node pos="s" depth="0" NCoef="0" IVar="1" Cut="1.4304244995117188e+02" cType="1" res="-9.9000000000000000e+01" rms="0.0000000000000000e+00" purity="5.0047355890274048e-01" nType="0">
            <Node pos="l" depth="1" NCoef="0" IVar="6" Cut="1.1367207765579224e+00" cType="1" res="-9.9000000000000000e+01" rms="0.0000000000000000e+00" purity="5.0133550167083740e-01" nType="0">
              <Node pos="l" depth="2" NCoef="0" IVar="4" Cut="7.1914821863174438e-01" cType="0" res="-9.9000000000000000e+01" rms="0.0000000000000000e+00" purity="5.1098930835723877e-01" nType="0">
                <Node pos="l" depth="3" NCoef="0" IVar="-1" Cut="0.0000000000000000e+00" cType="1" res="-9.9000000000000000e+01" rms="0.0000000000000000e+00" purity="5.2177268266677856e-01" nType="1"/>
                <Node pos="r" depth="3" NCoef="0" IVar="-1" Cut="0.0000000000000000e+00" cType="1" res="-9.9000000000000000e+01" rms="0.0000000000000000e+00" purity="4.9595972895622253e-01" nType="-1"/>
              </Node>
              <Node pos="r" depth="2" NCoef="0" IVar="1" Cut="9.9976722717285156e+01" cType="1" res="-9.9000000000000000e+01" rms="0.0000000000000000e+00" purity="4.9980139732360840e-01" nType="0">
                <Node pos="l" depth="3" NCoef="0" IVar="4" Cut="2.6363699436187744e+00" cType="1" res="-9.9000000000000000e+01" rms="0.0000000000000000e+00" purity="5.0222784280776978e-01" nType="0">
                  <Node pos="l" depth="4" NCoef="0" IVar="-1" Cut="0.0000000000000000e+00" cType="1" res="-9.9000000000000000e+01" rms="0.0000000000000000e+00" purity="5.0421583652496338e-01" nType="1"/>
                  <Node pos="r" depth="4" NCoef="0" IVar="-1" Cut="0.0000000000000000e+00" cType="1" res="-9.9000000000000000e+01" rms="0.0000000000000000e+00" purity="4.8339810967445374e-01" nType="-1"/>
                </Node>
                <Node pos="r" depth="3" NCoef="0" IVar="5" Cut="1.1305932998657227e+00" cType="0" res="-9.9000000000000000e+01" rms="0.0000000000000000e+00" purity="4.9380952119827271e-01" nType="0">
                  <Node pos="l" depth="4" NCoef="0" IVar="-1" Cut="0.0000000000000000e+00" cType="1" res="-9.9000000000000000e+01" rms="0.0000000000000000e+00" purity="5.1298117637634277e-01" nType="1"/>
                  <Node pos="r" depth="4" NCoef="0" IVar="-1" Cut="0.0000000000000000e+00" cType="1" res="-9.9000000000000000e+01" rms="0.0000000000000000e+00" purity="4.8246604204177856e-01" nType="-1"/>
                </Node>
              </Node>
            </Node>
            <Node pos="r" depth="1" NCoef="0" IVar="-1" Cut="0.0000000000000000e+00" cType="1" res="-9.9000000000000000e+01" rms="0.0000000000000000e+00" purity="4.8652610182762146e-01" nType="-1"/>
          </Node>
        </BinaryTree>
        <BinaryTree type="DecisionTree" boostWeight="4.8431204622604298e-03" itree="195">
          <Node pos="s" depth="0" NCoef="0" IVar="3" Cut="1.3972355651855469e+02" cType="1" res="-9.9000000000000000e+01" rms="0.0000000000000000e+00" purity="4.9995249509811401e-01" nType="0">
            <Node pos="l" depth="1" NCoef="0" IVar="0" Cut="5.8428237915039062e+01" cType="0" res="-9.9000000000000000e+01" rms="0.0000000000000000e+00" purity="5.0711935758590698e-01" nType="0">
              <Node pos="l" depth="2" NCoef="0" IVar="-1" Cut="0.0000000000000000e+00" cType="1" res="-9.9000000000000000e+01" rms="0.0000000000000000e+00" purity="5.1774549484252930e-01" nType="1"/>
              <Node pos="r" depth="2" NCoef="0" IVar="-1" Cut="0.0000000000000000e+00" cType="1" res="-9.9000000000000000e+01" rms="0.0000000000000000e+00" purity="4.9914491176605225e-01" nType="-1"/>
            </Node>
            <Node pos="r" depth="1" NCoef="0" IVar="2" Cut="1.4626972961425781e+02" cType="0" res="-9.9000000000000000e+01" rms="0.0000000000000000e+00" purity="4.9859279394149780e-01" nType="0">
              <Node pos="l" depth="2" NCoef="0" IVar="1" Cut="8.6458099365234375e+01" cType="1" res="-9.9000000000000000e+01" rms="0.0000000000000000e+00" purity="5.0046288967132568e-01" nType="0">
                <Node pos="l" depth="3" NCoef="0" IVar="1" Cut="7.5878814697265625e+01" cType="0" res="-9.9000000000000000e+01" rms="0.0000000000000000e+00" purity="5.0561594963073730e-01" nType="0">
                  <Node pos="l" depth="4" NCoef="0" IVar="-1" Cut="0.0000000000000000e+00" cType="1" res="-9.9000000000000000e+01" rms="0.0000000000000000e+00" purity="5.1841956377029419e-01" nType="1"/>
                  <Node pos="r" depth="4" NCoef="0" IVar="-1" Cut="0.0000000000000000e+00" cType="1" res="-9.9000000000000000e+01" rms="0.0000000000000000e+00" purity="4.9950852990150452e-01" nType="-1"/>
                </Node>
                <Node pos="r" depth="3" NCoef="0" IVar="6" Cut="2.7540540695190430e+00" cType="0" res="-9.9000000000000000e+01" rms="0.0000000000000000e+00" purity="4.9603164196014404e-01" nType="0">
                  <Node pos="l" depth="4" NCoef="0" IVar="-1" Cut="0.0000000000000000e+00" cType="1" res="-9.9000000000000000e+01" rms="0.0000000000000000e+00" purity="5.0888395309448242e-01" nType="1"/>
                  <Node pos="r" depth="4" NCoef="0" IVar="-1" Cut="0.0000000000000000e+00" cType="1" res="-9.9000000000000000e+01" rms="0.0000000000000000e+00" purity="4.9257892370223999e-01" nType="-1"/>
                </Node>
              </Node>
              <Node pos="r" depth="2" NCoef="0" IVar="-1" Cut="0.0000000000000000e+00" cType="1" res="-9.9000000000000000e+01" rms="0.0000000000000000e+00" purity="4.8418718576431274e-01" nType="-1"/>
            </Node>
          </Node>
        </BinaryTree>
        <BinaryTree type="DecisionTree" boostWeight="4.6107226834521163e-03" itree="196">
          <Node pos="s" depth="0" NCoef="0" IVar="3" Cut="1.3972355651855469e+02" cType="1" res="-9.9000000000000000e+01" rms="0.0000000000000000e+00" purity="5.0053960084915161e-01" nType="0">
            <Node pos="l" depth="1" NCoef="0" IVar="4" Cut="1.9027290344238281e+00" cType="0" res="-9.9000000000000000e+01" rms="0.0000000000000000e+00" purity="5.0729250907897949e-01" nType="0">
              <Node pos="l" depth="2" NCoef="0" IVar="-1" Cut="0.0000000000000000e+00" cType="1" res="-9.9000000000000000e+01" rms="0.0000000000000000e+00" purity="5.1604264974594116e-01" nType="1"/>
              <Node pos="r" depth="2" NCoef="0" IVar="-1" Cut="0.0000000000000000e+00" cType="1" res="-9.9000000000000000e+01" rms="0.0000000000000000e+00" purity="4.9884754419326782e-01" nType="-1"/>
            </Node>
            <Node pos="r" depth="1" NCoef="0" IVar="2" Cut="1.4626972961425781e+02" cType="0" res="-9.9000000000000000e+01" rms="0.0000000000000000e+00" purity="4.9925845861434937e-01" nType="0">
              <Node pos="l" depth="2" NCoef="0" IVar="1" Cut="8.6458099365234375e+01" cType="1" res="-9.9000000000000000e+01" rms="0.0000000000000000e+00" purity="5.0105684995651245e-01" nType="0">
                <Node pos="l" depth="3" NCoef="0" IVar="6" Cut="1.9617999792098999e+00" cType="1" res="-9.9000000000000000e+01" rms="0.0000000000000000e+00" purity="5.0606572628021240e-01" nType="0">
                  <Node pos="l" depth="4" NCoef="0" IVar="-1" Cut="0.0000000000000000e+00" cType="1" res="-9.9000000000000000e+01" rms="0.0000000000000000e+00" purity="5.1520341634750366e-01" nType="1"/>
                  <Node pos="r" depth="4" NCoef="0" IVar="-1" Cut="0.0000000000000000e+00" cType="1" res="-9.9000000000000000e+01" rms="0.0000000000000000e+00" purity="4.9770310521125793e-01" nType="-1"/>
                </Node>
                <Node pos="r" depth="3" NCoef="0" IVar="1" Cut="1.0215527343750000e+02" cType="0" res="-9.9000000000000000e+01" rms="0.0000000000000000e+00" purity="4.9674966931343079e-01" nType="0">
                  <Node pos="l" depth="4" NCoef="0" IVar="-1" Cut="0.0000000000000000e+00" cType="1" res="-9.9000000000000000e+01" rms="0.0000000000000000e+00" purity="5.0140434503555298e-01" nType="1"/>
                  <Node pos="r" depth="4" NCoef="0" IVar="-1" Cut="0.0000000000000000e+00" cType="1" res="-9.9000000000000000e+01" rms="0.0000000000000000e+00" purity="4.8866811394691467e-01" nType="-1"/>
                </Node>
              </Node>
              <Node pos="r" depth="2" NCoef="0" IVar="-1" Cut="0.0000000000000000e+00" cType="1" res="-9.9000000000000000e+01" rms="0.0000000000000000e+00" purity="4.8540419340133667e-01" nType="-1"/>
            </Node>
          </Node>
        </BinaryTree>
        <BinaryTree type="DecisionTree" boostWeight="4.4336140541572202e-03" itree="197">
          <Node pos="s" depth="0" NCoef="0" IVar="1" Cut="1.2293914031982422e+02" cType="1" res="-9.9000000000000000e+01" rms="0.0000000000000000e+00" purity="5.0055485963821411e-01" nType="0">
            <Node pos="l" depth="1" NCoef="0" IVar="6" Cut="1.2175170183181763e+00" cType="1" res="-9.9000000000000000e+01" rms="0.0000000000000000e+00" purity="5.0192201137542725e-01" nType="0">
              <Node pos="l" depth="2" NCoef="0" IVar="5" Cut="1.6921553611755371e+00" cType="0" res="-9.9000000000000000e+01" rms="0.0000000000000000e+00" purity="5.1007235050201416e-01" nType="0">
                <Node pos="l" depth="3" NCoef="0" IVar="-1" Cut="0.0000000000000000e+00" cType="1" res="-9.9000000000000000e+01" rms="0.0000000000000000e+00" purity="5.2689975500106812e-01" nType="1"/>
                <Node pos="r" depth="3" NCoef="0" IVar="-1" Cut="0.0000000000000000e+00" cType="1" res="-9.9000000000000000e+01" rms="0.0000000000000000e+00" purity="4.9860340356826782e-01" nType="-1"/>
              </Node>
              <Node pos="r" depth="2" NCoef="0" IVar="2" Cut="2.2800282287597656e+02" cType="1" res="-9.9000000000000000e+01" rms="0.0000000000000000e+00" purity="5.0046765804290771e-01" nType="0">
                <Node pos="l" depth="3" NCoef="0" IVar="1" Cut="8.5571716308593750e+01" cType="1" res="-9.9000000000000000e+01" rms="0.0000000000000000e+00" purity="5.0202035903930664e-01" nType="0">
                  <Node pos="l" depth="4" NCoef="0" IVar="-1" Cut="0.0000000000000000e+00" cType="1" res="-9.9000000000000000e+01" rms="0.0000000000000000e+00" purity="5.0645542144775391e-01" nType="1"/>
                  <Node pos="r" depth="4" NCoef="0" IVar="-1" Cut="0.0000000000000000e+00" cType="1" res="-9.9000000000000000e+01" rms="0.0000000000000000e+00" purity="4.9614351987838745e-01" nType="-1"/>
                </Node>
                <Node pos="r" depth="3" NCoef="0" IVar="-1" Cut="0.0000000000000000e+00" cType="1" res="-9.9000000000000000e+01" rms="0.0000000000000000e+00" purity="4.8067760467529297e-01" nType="-1"/>
              </Node>
            </Node>
            <Node pos="r" depth="1" NCoef="0" IVar="5" Cut="1.0480177402496338e+00" cType="0" res="-9.9000000000000000e+01" rms="0.0000000000000000e+00" purity="4.9297875165939331e-01" nType="0">
              <Node pos="l" depth="2" NCoef="0" IVar="-1" Cut="0.0000000000000000e+00" cType="1" res="-9.9000000000000000e+01" rms="0.0000000000000000e+00" purity="5.0134515762329102e-01" nType="1"/>
              <Node pos="r" depth="2" NCoef="0" IVar="-1" Cut="0.0000000000000000e+00" cType="1" res="-9.9000000000000000e+01" rms="0.0000000000000000e+00" purity="4.8100826144218445e-01" nType="-1"/>
            </Node>
          </Node>
        </BinaryTree>
        <BinaryTree type="DecisionTree" boostWeight="3.9174625087608677e-03" itree="198">
          <Node pos="s" depth="0" NCoef="0" IVar="1" Cut="1.2293914031982422e+02" cType="1" res="-9.9000000000000000e+01" rms="0.0000000000000000e+00" purity="5.0051140785217285e-01" nType="0">
            <Node pos="l" depth="1" NCoef="0" IVar="6" Cut="1.2175170183181763e+00" cType="1" res="-9.9000000000000000e+01" rms="0.0000000000000000e+00" purity="5.0190615653991699e-01" nType="0">
              <Node pos="l" depth="2" NCoef="0" IVar="5" Cut="1.6921553611755371e+00" cType="0" res="-9.9000000000000000e+01" rms="0.0000000000000000e+00" purity="5.1028949022293091e-01" nType="0">
                <Node pos="l" depth="3" NCoef="0" IVar="-1" Cut="0.0000000000000000e+00" cType="1" res="-9.9000000000000000e+01" rms="0.0000000000000000e+00" purity="5.2579438686370850e-01" nType="1"/>
                <Node pos="r" depth="3" NCoef="0" IVar="-1" Cut="0.0000000000000000e+00" cType="1" res="-9.9000000000000000e+01" rms="0.0000000000000000e+00" purity="4.9972334504127502e-01" nType="-1"/>
              </Node>
              <Node pos="r" depth="2" NCoef="0" IVar="2" Cut="2.2800282287597656e+02" cType="1" res="-9.9000000000000000e+01" rms="0.0000000000000000e+00" purity="5.0041025876998901e-01" nType="0">
                <Node pos="l" depth="3" NCoef="0" IVar="1" Cut="8.5571716308593750e+01" cType="1" res="-9.9000000000000000e+01" rms="0.0000000000000000e+00" purity="5.0186789035797119e-01" nType="0">
                  <Node pos="l" depth="4" NCoef="0" IVar="-1" Cut="0.0000000000000000e+00" cType="1" res="-9.9000000000000000e+01" rms="0.0000000000000000e+00" purity="5.0534510612487793e-01" nType="1"/>
                  <Node pos="r" depth="4" NCoef="0" IVar="-1" Cut="0.0000000000000000e+00" cType="1" res="-9.9000000000000000e+01" rms="0.0000000000000000e+00" purity="4.9726039171218872e-01" nType="-1"/>
                </Node>
                <Node pos="r" depth="3" NCoef="0" IVar="-1" Cut="0.0000000000000000e+00" cType="1" res="-9.9000000000000000e+01" rms="0.0000000000000000e+00" purity="4.8183250427246094e-01" nType="-1"/>
              </Node>
            </Node>
            <Node pos="r" depth="1" NCoef="0" IVar="4" Cut="1.1603693962097168e+00" cType="0" res="-9.9000000000000000e+01" rms="0.0000000000000000e+00" purity="4.9278211593627930e-01" nType="0">
              <Node pos="l" depth="2" NCoef="0" IVar="-1" Cut="0.0000000000000000e+00" cType="1" res="-9.9000000000000000e+01" rms="0.0000000000000000e+00" purity="5.0178563594818115e-01" nType="1"/>
              <Node pos="r" depth="2" NCoef="0" IVar="-1" Cut="0.0000000000000000e+00" cType="1" res="-9.9000000000000000e+01" rms="0.0000000000000000e+00" purity="4.8201382160186768e-01" nType="-1"/>
            </Node>
          </Node>
        </BinaryTree>
        <BinaryTree type="DecisionTree" boostWeight="3.8319473568470749e-03" itree="199">
          <Node pos="s" depth="0" NCoef="0" IVar="1" Cut="1.2293914031982422e+02" cType="1" res="-9.9000000000000000e+01" rms="0.0000000000000000e+00" purity="5.0048661231994629e-01" nType="0">
            <Node pos="l" depth="1" NCoef="0" IVar="6" Cut="1.2175170183181763e+00" cType="1" res="-9.9000000000000000e+01" rms="0.0000000000000000e+00" purity="5.0189214944839478e-01" nType="0">
              <Node pos="l" depth="2" NCoef="0" IVar="-1" Cut="9.3912796020507812e+01" cType="0" res="-9.9000000000000000e+01" rms="0.0000000000000000e+00" purity="5.1048135757446289e-01" nType="1"/>
              <Node pos="r" depth="2" NCoef="0" IVar="2" Cut="2.2800282287597656e+02" cType="1" res="-9.9000000000000000e+01" rms="0.0000000000000000e+00" purity="5.0035953521728516e-01" nType="0">
                <Node pos="l" depth="3" NCoef="0" IVar="6" Cut="1.5615173578262329e+00" cType="0" res="-9.9000000000000000e+01" rms="0.0000000000000000e+00" purity="5.0173312425613403e-01" nType="0">
                  <Node pos="l" depth="4" NCoef="0" IVar="-1" Cut="0.0000000000000000e+00" cType="1" res="-9.9000000000000000e+01" rms="0.0000000000000000e+00" purity="5.0304478406906128e-01" nType="1"/>
                  <Node pos="r" depth="4" NCoef="0" IVar="-1" Cut="0.0000000000000000e+00" cType="1" res="-9.9000000000000000e+01" rms="0.0000000000000000e+00" purity="4.8970690369606018e-01" nType="-1"/>
                </Node>
                <Node pos="r" depth="3" NCoef="0" IVar="-1" Cut="0.0000000000000000e+00" cType="1" res="-9.9000000000000000e+01" rms="0.0000000000000000e+00" purity="4.8285278677940369e-01" nType="-1"/>
              </Node>
            </Node>
            <Node pos="r" depth="1" NCoef="0" IVar="2" Cut="1.8797474670410156e+02" cType="0" res="-9.9000000000000000e+01" rms="0.0000000000000000e+00" purity="4.9269732832908630e-01" nType="0">
              <Node pos="l" depth="2" NCoef="0" IVar="-1" Cut="0.0000000000000000e+00" cType="1" res="-9.9000000000000000e+01" rms="0.0000000000000000e+00" purity="5.0425845384597778e-01" nType="1"/>
              <Node pos="r" depth="2" NCoef="0" IVar="-1" Cut="0.0000000000000000e+00" cType="1" res="-9.9000000000000000e+01" rms="0.0000000000000000e+00" purity="4.8490893840789795e-01" nType="-1"/>
            </Node>
          </Node>
        </BinaryTree>
      </Weights>
    </SubMethod>
  </Weights>
</MethodSetup>
