{
  "defaults": {}, 
  "inputs": [
    {
      "name": "jet_log_E", 
      "offset": 0, 
      "scale": 1
    }, 
    {
      "name": "jet_log_pT", 
      "offset": 0, 
      "scale": 1
    }, 
    {
      "name": "jet_abs_eta", 
      "offset": 0, 
      "scale": 1
    }, 
    {
      "name": "jet_abs_delta_phi_in_rad", 
      "offset": 0, 
      "scale": 1
    }, 
    {
      "name": "jet_MV2c10bin", 
      "offset": 0, 
      "scale": 1
    }
  ], 
  "layers": [
    {
      "activation": "rectified", 
      "architecture": "dense", 
      "bias": [
        -1.0832411050796509, 
        -1.3155021667480469, 
        -1.1813039779663086, 
        -1.6696827411651611, 
        -1.5665208101272583, 
        -1.4423139095306396, 
        -0.6275328993797302, 
        -0.6430742740631104, 
        -1.0352783203125, 
        -0.346330463886261, 
        -1.7239147424697876, 
        -1.0816972255706787, 
        -0.6134175658226013, 
        -0.5010747909545898, 
        -0.7146682739257812, 
        -1.7225905656814575, 
        -2.4260365962982178, 
        -0.8935577273368835, 
        -1.1402194499969482, 
        -1.1064783334732056, 
        -2.430565595626831, 
        -0.3886112570762634, 
        -0.44294703006744385, 
        -0.6270588636398315, 
        -1.372248888015747, 
        -1.062059760093689, 
        -0.581756591796875, 
        -1.4596638679504395, 
        -0.955744206905365, 
        1.1601799726486206, 
        -0.5636100172996521, 
        -0.49088984727859497, 
        -1.5662957429885864, 
        -2.240514039993286, 
        -0.6540666222572327, 
        -0.30960822105407715, 
        -0.4686615467071533, 
        -0.5286589860916138, 
        -0.4851529896259308, 
        -1.277474045753479, 
        -1.4327733516693115, 
        -1.055206060409546, 
        -0.26795199513435364, 
        -1.860724687576294, 
        -0.6009029150009155, 
        -1.138269305229187, 
        -0.4308823049068451, 
        -1.016541600227356, 
        -0.2761182188987732, 
        -0.947794497013092, 
        -1.5802773237228394, 
        -2.6884822845458984, 
        -0.5574984550476074, 
        -0.45056256651878357, 
        -1.492902398109436, 
        -1.8393174409866333, 
        -0.4838391840457916, 
        0.018312769010663033, 
        -0.9837599396705627, 
        -0.2980625331401825, 
        -0.3144162595272064, 
        -0.7573879361152649, 
        -1.3797184228897095, 
        1.054692268371582, 
        -0.17004317045211792, 
        -0.8709373474121094, 
        -1.6294715404510498, 
        0.07754549384117126, 
        -0.49400100111961365, 
        0.3477901220321655, 
        -0.46527478098869324, 
        1.1522434949874878, 
        -1.5520638227462769, 
        -1.3450151681900024, 
        -1.2546687126159668, 
        -1.485296368598938, 
        -1.171081781387329, 
        -0.8326748013496399, 
        -1.764334797859192, 
        -1.2905149459838867, 
        -1.1372673511505127, 
        -0.4960553050041199, 
        -1.1569072008132935, 
        -3.0607094764709473, 
        0.08362986892461777, 
        -1.0812883377075195, 
        -0.8849479556083679, 
        -1.7801767587661743, 
        -0.03746429458260536, 
        -1.2098569869995117, 
        -0.5633905529975891, 
        -1.1565628051757812, 
        1.1291462182998657, 
        -1.175575852394104, 
        -2.654304265975952, 
        -0.8226268291473389, 
        -0.7193742394447327, 
        -0.8443499207496643, 
        -1.9156467914581299, 
        -2.086768627166748, 
        -0.4543059766292572, 
        -2.4491653442382812, 
        -0.6692050099372864, 
        -1.6715519428253174, 
        -0.9685978293418884, 
        -0.570763349533081, 
        -0.640916645526886, 
        -0.4208530783653259, 
        -1.8682957887649536, 
        -1.7587486505508423, 
        -0.9674875140190125, 
        -1.2909224033355713, 
        -0.8161026239395142, 
        -0.45365995168685913, 
        -1.0163637399673462, 
        1.0326569080352783, 
        -1.1402275562286377, 
        -0.8145002126693726, 
        -1.0316740274429321, 
        -0.9834667444229126, 
        -0.3046821355819702, 
        -0.6099456548690796, 
        -1.6613858938217163, 
        -0.5531354546546936, 
        -1.1160809993743896, 
        -1.6222014427185059, 
        -1.1677979230880737, 
        -1.1327242851257324
      ], 
      "weights": [
        -0.04306972026824951, 
        -0.015985481441020966, 
        0.06570977717638016, 
        -0.008882585912942886, 
        0.6149686574935913, 
        -0.3228246569633484, 
        0.208754763007164, 
        -0.2283715158700943, 
        0.6585960984230042, 
        -1.2286372184753418, 
        -0.2766185402870178, 
        0.3572036027908325, 
        0.17002007365226746, 
        0.062076810747385025, 
        1.452115535736084, 
        0.25637584924697876, 
        0.9900530576705933, 
        -0.37039995193481445, 
        -0.2544301450252533, 
        0.33262333273887634, 
        -0.05762090906500816, 
        -0.6281797289848328, 
        0.1912560760974884, 
        -0.03505603224039078, 
        -0.16369853913784027, 
        -0.1529776006937027, 
        -1.4611172676086426, 
        -0.04117978364229202, 
        -0.3157495856285095, 
        0.3836582899093628, 
        0.021283183246850967, 
        -0.025396255776286125, 
        -0.028620034456253052, 
        0.1386791318655014, 
        0.23484939336776733, 
        0.008784119971096516, 
        0.012983721680939198, 
        0.06052546203136444, 
        0.13530205190181732, 
        -0.18001922965049744, 
        -0.20902657508850098, 
        0.133739173412323, 
        -0.020981846377253532, 
        -0.03446183726191521, 
        0.5447395443916321, 
        -0.008273819461464882, 
        -0.003091853577643633, 
        -0.006154180970042944, 
        0.06404175609350204, 
        0.16156740486621857, 
        0.48162326216697693, 
        0.8098703026771545, 
        -0.6158737540245056, 
        -0.35099026560783386, 
        0.3325760066509247, 
        -0.1540144383907318, 
        0.12365297228097916, 
        0.13419894874095917, 
        -0.02703181467950344, 
        0.7849111557006836, 
        -0.32525843381881714, 
        0.31005859375, 
        0.053363945335149765, 
        -0.040335871279239655, 
        0.29915809631347656, 
        -0.1772308200597763, 
        0.1688479781150818, 
        0.04296049103140831, 
        0.029505912214517593, 
        0.28259962797164917, 
        0.1832461655139923, 
        -0.19264326989650726, 
        -0.19217868149280548, 
        0.1885373443365097, 
        -0.13903053104877472, 
        -0.1948070526123047, 
        0.03618232533335686, 
        -0.029437286779284477, 
        0.1615637242794037, 
        0.5801759958267212, 
        0.21531854569911957, 
        0.8494547009468079, 
        0.08676265180110931, 
        -0.37622612714767456, 
        0.3315739631652832, 
        -0.29364633560180664, 
        0.2135581225156784, 
        0.1496926248073578, 
        0.09597764909267426, 
        0.34965693950653076, 
        -0.3443918228149414, 
        0.2459874153137207, 
        0.19759292900562286, 
        0.44435915350914, 
        0.13687975704669952, 
        -0.1410062164068222, 
        0.12377031147480011, 
        -0.09831030666828156, 
        0.11002398282289505, 
        0.5661281943321228, 
        -0.6649971604347229, 
        0.290498822927475, 
        -0.40682142972946167, 
        0.6051061749458313, 
        1.0667097568511963, 
        -0.07922739535570145, 
        -0.0030179540626704693, 
        0.07403911650180817, 
        -0.015555687248706818, 
        0.1588127315044403, 
        -0.16865786910057068, 
        0.15044763684272766, 
        0.03276359289884567, 
        0.042656149715185165, 
        0.13408352434635162, 
        -0.07513826340436935, 
        -0.09154844284057617, 
        0.10608968138694763, 
        -0.0028844622429460287, 
        -0.2563546299934387, 
        -0.33077526092529297, 
        0.2836882472038269, 
        0.19909363985061646, 
        0.6747971177101135, 
        0.06379944086074829, 
        0.46002814173698425, 
        -0.9550747275352478, 
        -0.04612988978624344, 
        -1.415234088897705, 
        -0.208028182387352, 
        -0.09658508747816086, 
        0.08067063242197037, 
        0.02225084789097309, 
        0.17338469624519348, 
        0.03414588421583176, 
        -0.060020361095666885, 
        -0.18088644742965698, 
        -0.0748387798666954, 
        -0.2970585823059082, 
        0.4057796001434326, 
        -0.18471947312355042, 
        -0.07207395881414413, 
        0.19021452963352203, 
        -0.05909029766917229, 
        -0.31503990292549133, 
        -0.07244229316711426, 
        0.1478278785943985, 
        0.05479341000318527, 
        -0.03505631908774376, 
        1.2521339654922485, 
        -0.29063597321510315, 
        0.26948776841163635, 
        0.11221885681152344, 
        0.05616568401455879, 
        0.27002447843551636, 
        -0.25371599197387695, 
        0.21610601246356964, 
        0.12248403578996658, 
        0.1479545384645462, 
        0.14604945480823517, 
        0.6336114406585693, 
        0.23188966512680054, 
        0.6283931136131287, 
        0.3344886004924774, 
        -0.3491440713405609, 
        -0.11106516420841217, 
        0.12760977447032928, 
        0.6579161286354065, 
        0.19750356674194336, 
        0.0025251128245145082, 
        -0.06847099959850311, 
        0.03214842453598976, 
        0.06984221190214157, 
        0.08837343752384186, 
        0.011944829486310482, 
        -0.2125799059867859, 
        0.05973106250166893, 
        0.0741128996014595, 
        -0.014331657439470291, 
        0.032572489231824875, 
        0.1296227127313614, 
        -0.16667024791240692, 
        -0.07319052517414093, 
        0.09515380859375, 
        -0.1812141388654709, 
        -0.23220360279083252, 
        0.2022922784090042, 
        0.04617823287844658, 
        -0.08797720074653625, 
        0.24472065269947052, 
        -0.10679833590984344, 
        0.13534864783287048, 
        0.05734628066420555, 
        -0.05366011708974838, 
        0.17438091337680817, 
        0.13006451725959778, 
        -0.4267427921295166, 
        -0.08890356868505478, 
        -0.16690394282341003, 
        -0.35045289993286133, 
        -0.2781783938407898, 
        -1.1230921745300293, 
        0.3455793857574463, 
        -0.34230583906173706, 
        -0.5371131300926208, 
        -0.03607236593961716, 
        -0.2782081961631775, 
        -0.12526345252990723, 
        -0.18083900213241577, 
        -0.09842297434806824, 
        -0.08072859048843384, 
        0.06877652555704117, 
        0.0001177419035229832, 
        -0.01792745105922222, 
        0.14345501363277435, 
        0.02735367976129055, 
        0.21249215304851532, 
        0.12378361821174622, 
        -0.06745648384094238, 
        0.2511703372001648, 
        -0.13380120694637299, 
        0.12158472090959549, 
        0.06272144615650177, 
        -0.0005719215841963887, 
        0.43203163146972656, 
        -0.4450300931930542, 
        0.4579834043979645, 
        0.3627009391784668, 
        0.06764141470193863, 
        1.6134644746780396, 
        0.03222057968378067, 
        -0.03382290154695511, 
        -0.051518913358449936, 
        -0.00381094915792346, 
        0.2708008289337158, 
        0.03154942765831947, 
        -0.1104472354054451, 
        -0.007468867115676403, 
        0.17307311296463013, 
        0.2981310188770294, 
        -0.04546668007969856, 
        0.035603124648332596, 
        0.010992604307830334, 
        -0.005716604180634022, 
        0.09644786268472672, 
        -0.013735362328588963, 
        0.027494754642248154, 
        0.06491389870643616, 
        0.02798827923834324, 
        0.5484700798988342, 
        -0.5193049907684326, 
        -0.360321581363678, 
        0.3609592914581299, 
        -0.15475547313690186, 
        -0.040679775178432465, 
        0.3340592682361603, 
        0.6816182136535645, 
        -0.7004660964012146, 
        0.6658141613006592, 
        0.4717584252357483, 
        -0.06033661589026451, 
        0.15030980110168457, 
        0.020842451602220535, 
        0.057700060307979584, 
        0.06654950231313705, 
        0.0034359528217464685, 
        -0.0019426404032856226, 
        -0.02171204797923565, 
        -0.03282781317830086, 
        0.2429962009191513, 
        -0.2107969969511032, 
        0.29632535576820374, 
        0.18772003054618835, 
        0.0413716696202755, 
        0.9418225884437561, 
        -0.3157857358455658, 
        -0.5533407330513, 
        -0.1808311492204666, 
        -0.8221516013145447, 
        -0.4908926486968994, 
        -0.12120755761861801, 
        0.9418347477912903, 
        -0.15921176970005035, 
        -0.5868419408798218, 
        -0.07426348328590393, 
        -0.18592052161693573, 
        -0.028199050575494766, 
        0.03327829763293266, 
        -0.05741523578763008, 
        1.0180472135543823, 
        0.3725900650024414, 
        0.6979873776435852, 
        -0.2870013117790222, 
        0.5295012593269348, 
        0.12868449091911316, 
        -0.1271355003118515, 
        0.10126473754644394, 
        0.09685541689395905, 
        0.016531124711036682, 
        0.1586858183145523, 
        -0.03673010692000389, 
        -0.003497375175356865, 
        0.06083759665489197, 
        0.09352148324251175, 
        0.008292966522276402, 
        -0.09126558154821396, 
        0.014381061308085918, 
        -0.040236905217170715, 
        0.25819510221481323, 
        -0.05799689143896103, 
        0.3920168876647949, 
        0.6424152851104736, 
        -0.12467782199382782, 
        0.7813936471939087, 
        0.20805548131465912, 
        -0.053480781614780426, 
        0.10909560322761536, 
        0.033059295266866684, 
        0.024845974519848824, 
        1.2035893201828003, 
        0.12399441003799438, 
        -0.1015249714255333, 
        -0.07460175454616547, 
        -0.05718686804175377, 
        0.019801467657089233, 
        0.00044506939593702555, 
        -0.023117443546652794, 
        -0.025972774252295494, 
        0.1127578392624855, 
        0.3793084919452667, 
        0.3922094404697418, 
        -0.8541482090950012, 
        0.06466282159090042, 
        -0.0003022450255230069, 
        -0.105632483959198, 
        -0.44324514269828796, 
        0.4180738627910614, 
        0.10385926067829132, 
        -0.6514513492584229, 
        0.8760212063789368, 
        -0.00994858331978321, 
        -0.030498912557959557, 
        0.0058242869563400745, 
        0.010909398086369038, 
        0.31846505403518677, 
        -0.3136615455150604, 
        0.44160231947898865, 
        -0.0398617647588253, 
        -0.14939390122890472, 
        0.8492187261581421, 
        0.05981975048780441, 
        -0.04741280525922775, 
        0.0026432652957737446, 
        0.03620709851384163, 
        0.18182891607284546, 
        -0.16028057038784027, 
        0.1901012361049652, 
        0.11413059383630753, 
        -0.06368063390254974, 
        1.2453274726867676, 
        -0.3179124891757965, 
        0.2593470513820648, 
        0.155990868806839, 
        0.12225392460823059, 
        1.0473573207855225, 
        -0.19430023431777954, 
        -1.0440785884857178, 
        0.17075331509113312, 
        -0.1854812055826187, 
        -0.7086803913116455, 
        0.07847973704338074, 
        -0.006723849568516016, 
        0.10803215950727463, 
        0.009131917729973793, 
        0.5921556353569031, 
        -0.14779971539974213, 
        0.3861885070800781, 
        0.7751370668411255, 
        0.33198586106300354, 
        0.9321427345275879, 
        0.08918288350105286, 
        0.08326008170843124, 
        -0.10623370856046677, 
        0.14418268203735352, 
        -0.05949444696307182, 
        -0.05243506655097008, 
        -0.05610883980989456, 
        0.05755063146352768, 
        0.030684687197208405, 
        0.4337514638900757, 
        -0.03832509368658066, 
        0.599251389503479, 
        -0.20393221080303192, 
        -0.605391800403595, 
        1.315064787864685, 
        0.03608134388923645, 
        -0.07407146692276001, 
        -0.04784348979592323, 
        -0.599891722202301, 
        -0.0006974111893214285, 
        -0.366498202085495, 
        0.3462638258934021, 
        0.14866408705711365, 
        0.9968538284301758, 
        0.09678568691015244, 
        0.05304087698459625, 
        -0.06618322432041168, 
        -0.12626735866069794, 
        0.018011372536420822, 
        0.15916197001934052, 
        0.023455647751688957, 
        0.7448192238807678, 
        -0.3373853266239166, 
        -0.6647363305091858, 
        0.9893447756767273, 
        0.6456435322761536, 
        0.8814666867256165, 
        0.08783561736345291, 
        -0.18092180788516998, 
        0.27569079399108887, 
        -0.3164840638637543, 
        0.4668774902820587, 
        0.0006670294678770006, 
        -0.24284304678440094, 
        0.943576991558075, 
        0.032088495790958405, 
        0.0342019647359848, 
        -0.22352252900600433, 
        0.09097221493721008, 
        0.32151320576667786, 
        -0.0338478647172451, 
        0.04192274808883667, 
        0.11290524899959564, 
        -0.011203068308532238, 
        0.44583481550216675, 
        -0.43083035945892334, 
        -0.8037837743759155, 
        0.36363211274147034, 
        -0.3394973874092102, 
        -0.42011263966560364, 
        0.06505506485700607, 
        0.6502740979194641, 
        -0.39759954810142517, 
        -0.4944944977760315, 
        0.673306405544281, 
        -0.6180108785629272, 
        0.4645201861858368, 
        0.4440825283527374, 
        0.19645987451076508, 
        1.384106159210205, 
        -0.2120809704065323, 
        0.16942435503005981, 
        0.0553063340485096, 
        -0.010851539671421051, 
        0.30131322145462036, 
        0.5728750228881836, 
        0.5273569226264954, 
        -0.1397792100906372, 
        0.7555389404296875, 
        0.12636858224868774, 
        -0.0806993842124939, 
        0.14116545021533966, 
        0.08530918508768082, 
        0.025114217773079872, 
        1.2617053985595703, 
        0.24952468276023865, 
        -0.03232342004776001, 
        0.048885028809309006, 
        0.025232965126633644, 
        0.10538743436336517, 
        0.2000548243522644, 
        0.6840565800666809, 
        -0.6139805912971497, 
        0.44980666041374207, 
        0.4774191379547119, 
        -0.018241887912154198, 
        0.9123551845550537, 
        -0.2710210978984833, 
        -0.8995394110679626, 
        -0.559218168258667, 
        -0.1670989692211151, 
        -0.942587673664093, 
        0.3075806200504303, 
        -0.03205450251698494, 
        -0.7317427396774292, 
        0.5590064525604248, 
        0.3607785403728485, 
        0.14281614124774933, 
        0.6539166569709778, 
        -0.7599416971206665, 
        0.17312225699424744, 
        0.1586625874042511, 
        0.7447686791419983, 
        0.4963291883468628, 
        -0.3380209803581238, 
        0.2389533519744873, 
        0.5101501941680908, 
        -0.6682397127151489, 
        -0.5497646331787109, 
        0.7110415697097778, 
        -0.12592533230781555, 
        0.13620887696743011, 
        0.04573046416044235, 
        -0.024717004969716072, 
        0.2656363248825073, 
        0.2798181176185608, 
        0.5723329782485962, 
        -0.5779446363449097, 
        0.518465518951416, 
        0.5513128042221069, 
        -0.11415863037109375, 
        0.04071956127882004, 
        0.05285509675741196, 
        0.0025369375944137573, 
        0.4452114701271057, 
        -0.11141747981309891, 
        -0.23904936015605927, 
        0.562592625617981, 
        -0.5256161093711853, 
        0.9259392619132996, 
        -0.2707273066043854, 
        0.18510518968105316, 
        0.1614808589220047, 
        0.03764113783836365, 
        0.6506224274635315, 
        -0.2870420813560486, 
        0.2524729073047638, 
        0.03868365287780762, 
        -0.025100665166974068, 
        0.3140123784542084, 
        -0.08386687934398651, 
        0.07458419352769852, 
        0.09422986209392548, 
        -0.05719335004687309, 
        0.34890395402908325, 
        0.08532516658306122, 
        -0.03841656818985939, 
        -0.19833706319332123, 
        0.00154622714035213, 
        0.04064372926950455, 
        -0.762201189994812, 
        -0.7680801153182983, 
        0.7691972851753235, 
        -0.3644915819168091, 
        -0.37220850586891174, 
        -0.23090729117393494, 
        0.5507377982139587, 
        0.4965653717517853, 
        0.6789606809616089, 
        0.924320638179779, 
        0.07513691484928131, 
        -0.09676586836576462, 
        -0.06848447024822235, 
        0.27630093693733215, 
        0.21903057396411896, 
        0.2844519317150116, 
        -0.4864036440849304, 
        0.026708664372563362, 
        -1.190752387046814, 
        -0.6918055415153503, 
        -0.4758656919002533, 
        0.3998606503009796, 
        -0.044605743139982224, 
        -0.1439749151468277, 
        1.0670926570892334, 
        -0.13929744064807892, 
        0.11419907957315445, 
        -0.09569218754768372, 
        -0.05229628086090088, 
        0.09746623039245605, 
        -0.26021045446395874, 
        0.1855684071779251, 
        0.2663920819759369, 
        -0.03669426962733269, 
        0.5721872448921204, 
        -0.10574926435947418, 
        0.16839441657066345, 
        0.07172661274671555, 
        0.046074144542217255, 
        1.1833864450454712, 
        -0.5091106295585632, 
        0.6794610023498535, 
        0.03432176262140274, 
        -0.3837100565433502, 
        1.5539487600326538, 
        -0.08715613931417465, 
        -0.07829554378986359, 
        0.03290345519781113, 
        -0.1495738923549652, 
        0.22383920848369598, 
        -0.1699756234884262, 
        0.1490119993686676, 
        0.17581617832183838, 
        0.012684487737715244, 
        0.6219760179519653, 
        -0.06631942093372345, 
        0.0075148968026041985, 
        0.022677592933177948, 
        0.03195292875170708, 
        0.5158507823944092, 
        -0.08006209880113602, 
        0.04317334294319153, 
        -0.1408492624759674, 
        -0.000764974276535213, 
        0.004155030939728022, 
        0.13883140683174133, 
        -0.3560587465763092, 
        0.480063796043396, 
        0.1374693363904953, 
        -0.4579157531261444, 
        -0.15917561948299408, 
        0.38081249594688416, 
        -0.08542288094758987, 
        0.0654265433549881, 
        0.48954662680625916, 
        0.0663200318813324, 
        -0.09160200506448746, 
        -0.09423793107271194, 
        0.10262280702590942, 
        -0.20722247660160065, 
        -0.41200992465019226, 
        0.3614330589771271, 
        0.46033546328544617, 
        -0.01568969339132309, 
        0.5682657957077026, 
        0.30466124415397644, 
        -0.15014129877090454, 
        -0.22313110530376434, 
        0.2487962245941162, 
        -0.36124148964881897, 
        0.015375830233097076, 
        0.034138619899749756, 
        -0.08213020861148834, 
        0.28374654054641724, 
        -0.23800691962242126, 
        -0.056323811411857605, 
        0.05455509573221207, 
        0.15654462575912476, 
        0.19519974291324615, 
        0.14396655559539795
      ]
    }, 
    {
      "activation": "softmax", 
      "architecture": "dense", 
      "bias": [
        2.5742170810699463, 
        3.0963919162750244, 
        -0.25953033566474915, 
        1.4848183393478394, 
        2.3371763229370117, 
        0.25931715965270996, 
        2.5888478755950928, 
        0.8582976460456848, 
        -1.555202603340149, 
        0.5868507623672485, 
        1.392607569694519, 
        0.24274249374866486, 
        3.1656720638275146, 
        1.5562604665756226, 
        0.5337800979614258, 
        2.1018290519714355, 
        0.8503449559211731, 
        2.6977379322052, 
        2.643836736679077, 
        0.6473329067230225, 
        0.8872435092926025, 
        3.1596057415008545, 
        0.13514631986618042, 
        0.8756222724914551, 
        0.6758191585540771, 
        1.90072762966156, 
        0.5746588110923767, 
        2.5933480262756348, 
        -0.2939298450946808, 
        0.7841903567314148, 
        0.2454683780670166, 
        2.1880288124084473, 
        0.8808176517486572, 
        1.3554105758666992, 
        1.8163502216339111, 
        0.46228355169296265, 
        2.826678991317749, 
        1.0429129600524902, 
        1.8722755908966064, 
        0.44332119822502136, 
        1.9973832368850708, 
        -0.3516194820404053, 
        0.5235317945480347, 
        3.2462730407714844, 
        0.025209978222846985, 
        1.3876734972000122, 
        0.44203925132751465, 
        2.518638849258423, 
        2.519663095474243, 
        2.74769926071167, 
        3.288499593734741, 
        3.2608752250671387, 
        -0.0027495797257870436, 
        0.4689177870750427, 
        0.22043965756893158, 
        0.6550149917602539, 
        0.6214829683303833, 
        0.6837369799613953, 
        0.23955221474170685, 
        -0.2171950340270996, 
        -1.4643609523773193, 
        0.3042510151863098, 
        1.1898499727249146, 
        0.7256039381027222, 
        3.0106263160705566, 
        3.3923304080963135, 
        0.762972354888916, 
        0.3516419231891632, 
        2.581031560897827, 
        1.2376439571380615, 
        -0.39024654030799866, 
        2.1896450519561768, 
        1.6802424192428589, 
        0.8397313952445984, 
        0.6193593144416809, 
        2.0789589881896973, 
        -0.10823903977870941, 
        1.396235466003418, 
        1.3966031074523926, 
        0.324191689491272, 
        2.6391780376434326, 
        1.0108650922775269, 
        1.521234393119812, 
        1.6892364025115967, 
        0.5167990326881409, 
        1.7532737255096436, 
        2.1683692932128906, 
        1.6874717473983765, 
        0.6446617245674133, 
        0.20046550035476685, 
        2.5912137031555176, 
        0.47057339549064636, 
        0.6259980201721191, 
        1.4835326671600342, 
        2.7572216987609863, 
        0.8123377561569214, 
        3.0019843578338623, 
        1.2671295404434204, 
        2.7317588329315186, 
        2.5776548385620117, 
        2.5704739093780518, 
        2.2241294384002686, 
        0.25121667981147766, 
        -0.04550852254033089, 
        1.4384825229644775, 
        0.26272404193878174, 
        1.6804111003875732, 
        0.5855850577354431, 
        0.782081127166748, 
        3.1282339096069336, 
        2.0343382358551025, 
        -0.2709047794342041, 
        0.7499905228614807, 
        0.6305656433105469, 
        1.2647120952606201, 
        0.8765146732330322, 
        1.3173463344573975, 
        2.8937931060791016, 
        1.098139762878418, 
        2.992882251739502, 
        1.2661690711975098, 
        1.005778193473816, 
        2.354132652282715, 
        0.6296453475952148, 
        0.7043741345405579, 
        0.24373719096183777, 
        2.216226577758789, 
        0.8289878368377686
      ], 
      "weights": [
        -0.02634374611079693, 
        2.248713254928589, 
        -0.06351505219936371, 
        0.6330663561820984, 
        0.3560972511768341, 
        1.019575834274292, 
        -0.14084018766880035, 
        0.12516197562217712, 
        -0.12577509880065918, 
        -0.11163738369941711, 
        -0.07849065959453583, 
        -0.11417007446289062, 
        -0.2153535783290863, 
        -0.048725735396146774, 
        0.004804970696568489, 
        0.0306853037327528, 
        -0.2212083637714386, 
        -0.00904884748160839, 
        0.10597550868988037, 
        -0.11066170781850815, 
        0.012172965332865715, 
        -0.13720524311065674, 
        0.004811234772205353, 
        0.1600610762834549, 
        0.5584894418716431, 
        1.0392998456954956, 
        0.0387735478579998, 
        -0.11946839839220047, 
        0.4206642210483551, 
        -2.488234281539917, 
        -0.06805458664894104, 
        0.011060266755521297, 
        1.6841373443603516, 
        0.6380617022514343, 
        -0.04198390245437622, 
        0.06929329037666321, 
        -0.018335910513997078, 
        -0.021250540390610695, 
        -0.01849321834743023, 
        0.6932359337806702, 
        1.473806381225586, 
        0.06403600424528122, 
        -0.13844731450080872, 
        0.13266438245773315, 
        -0.16511403024196625, 
        0.07238822430372238, 
        0.05497634410858154, 
        -0.18664401769638062, 
        -0.2402932494878769, 
        0.031333498656749725, 
        -0.0654190182685852, 
        0.539665937423706, 
        -0.09110287576913834, 
        -0.1823682188987732, 
        -0.14895223081111908, 
        0.4200580418109894, 
        1.0259575843811035, 
        -0.274753212928772, 
        1.5929062366485596, 
        -0.16922403872013092, 
        -0.014727459289133549, 
        0.1494436264038086, 
        1.3491343259811401, 
        -1.9248405694961548, 
        0.0652223452925682, 
        -0.07515957951545715, 
        0.2514026463031769, 
        0.165209099650383, 
        -0.006562258116900921, 
        -0.5608094930648804, 
        -0.10216382890939713, 
        -2.3558757305145264, 
        -0.05771446228027344, 
        1.6501708030700684, 
        0.0702764093875885, 
        -0.1434052437543869, 
        -0.20696565508842468, 
        0.10298383980989456, 
        0.37579959630966187, 
        0.6106359362602234, 
        0.21990296244621277, 
        -0.12174414843320847, 
        0.09857811033725739, 
        0.62356036901474, 
        -0.8259336352348328, 
        -0.05343359336256981, 
        -0.017196692526340485, 
        0.8198919296264648, 
        0.0348191000521183, 
        -0.037275541573762894, 
        0.0857531949877739, 
        2.092611312866211, 
        -2.1511287689208984, 
        0.6883237361907959, 
        0.0037482944317162037, 
        1.2721253633499146, 
        2.097229242324829, 
        1.9505729675292969, 
        1.3186079263687134, 
        0.21821878850460052, 
        -0.02822527289390564, 
        0.06652907282114029, 
        -0.06817207485437393, 
        -0.12081430107355118, 
        -0.178414985537529, 
        -0.09383738040924072, 
        0.04832300916314125, 
        -0.096474289894104, 
        0.15676452219486237, 
        -0.02350863628089428, 
        -0.17741139233112335, 
        1.2960524559020996, 
        -0.17079639434814453, 
        -0.12698549032211304, 
        -0.020103611052036285, 
        -2.5239503383636475, 
        -0.11399267613887787, 
        -0.06614507734775543, 
        0.020432312041521072, 
        -0.004060234874486923, 
        0.13708025217056274, 
        1.9780417680740356, 
        -0.05285065248608589, 
        -0.03702416643500328, 
        -0.038585115224123, 
        1.6461416482925415, 
        -0.09656057506799698, 
        -0.1629815697669983, 
        -0.042219504714012146, 
        2.3272054195404053, 
        -0.15325391292572021, 
        0.3697260916233063, 
        0.06582427024841309, 
        0.8243222832679749, 
        -0.12385053187608719, 
        -0.10931086540222168, 
        -0.16539542376995087, 
        -0.06852984428405762, 
        -0.17173224687576294, 
        0.08007257431745529, 
        -0.12034745514392853, 
        -0.08752439171075821, 
        0.21383355557918549, 
        0.013861717656254768, 
        -0.013707575388252735, 
        -0.14128300547599792, 
        0.33045026659965515, 
        -0.230670765042305, 
        -0.07896064221858978, 
        -0.028144026175141335, 
        -0.2113010138273239, 
        0.32762768864631653, 
        0.11752579361200333, 
        0.9529240131378174, 
        -0.19358374178409576, 
        -0.24575605988502502, 
        0.3420315682888031, 
        -2.4228367805480957, 
        -0.02429307997226715, 
        -0.14993780851364136, 
        1.5374221801757812, 
        0.13779479265213013, 
        -0.024026263505220413, 
        0.09257914870977402, 
        -0.08856469392776489, 
        -0.040398210287094116, 
        -0.08372433483600616, 
        0.6710239052772522, 
        1.2587308883666992, 
        -0.1152905821800232, 
        0.06187836080789566, 
        0.20815697312355042, 
        0.012613514438271523, 
        0.049221061170101166, 
        -0.2281571477651596, 
        0.018152963370084763, 
        -0.0626283809542656, 
        0.05477210134267807, 
        -0.09728094190359116, 
        -0.12358418852090836, 
        -0.10242439061403275, 
        -0.20047514140605927, 
        -0.17789804935455322, 
        0.18238291144371033, 
        1.476163387298584, 
        -0.2515988349914551, 
        0.8363887667655945, 
        0.02057901956140995, 
        -0.16396954655647278, 
        0.09569206088781357, 
        -0.34306469559669495, 
        -1.8907926082611084, 
        -0.1138790175318718, 
        0.09144198894500732, 
        0.3253094553947449, 
        0.3746613562107086, 
        -0.07203979045152664, 
        -1.7459408044815063, 
        -0.27261635661125183, 
        -1.8988693952560425, 
        0.028611743822693825, 
        1.9045077562332153, 
        0.13189177215099335, 
        -0.20517200231552124, 
        -0.18183095753192902, 
        0.07096364349126816, 
        0.6298496723175049, 
        0.6685435771942139, 
        0.05056304484605789, 
        -0.17131216824054718, 
        -0.2078133374452591, 
        0.35376355051994324, 
        -1.2517527341842651, 
        -0.08979717642068863, 
        -0.11729072034358978, 
        0.6970580220222473, 
        -0.024513622745871544, 
        0.07417867332696915, 
        -0.17112292349338531, 
        1.0210851430892944, 
        -2.450873374938965, 
        0.2246428281068802, 
        0.0803394690155983, 
        2.073511838912964, 
        2.413869857788086, 
        1.880807638168335, 
        0.29931947588920593, 
        0.7172058820724487, 
        -0.005098614376038313, 
        0.02530037797987461, 
        -0.08210622519254684, 
        -0.043051254004240036, 
        -0.039745841175317764, 
        0.09714236110448837, 
        -0.047098420560359955, 
        0.04336601495742798, 
        -0.04936577007174492, 
        0.0346987210214138, 
        -0.3020629584789276, 
        1.5705006122589111, 
        0.030292702838778496, 
        -0.037982672452926636, 
        0.3020358681678772, 
        -2.4436283111572266, 
        0.1002681776881218, 
        -0.13428470492362976, 
        0.04655944183468819, 
        0.0440988764166832, 
        -0.024917200207710266, 
        1.7239458560943604, 
        -0.07717914879322052, 
        -0.02943205088376999, 
        0.15309739112854004, 
        2.3886773586273193, 
        -0.15225271880626678, 
        -0.10477340966463089, 
        -0.16367538273334503, 
        0.20095786452293396, 
        -0.10618157684803009, 
        0.1596447229385376, 
        -0.11225569248199463, 
        -0.20273055136203766, 
        -0.006164766848087311, 
        -0.21413953602313995, 
        0.05693970248103142, 
        -0.10641941428184509, 
        0.17030201852321625, 
        0.09807083755731583, 
        0.005311696324497461, 
        -0.1669672578573227, 
        0.07153830677270889, 
        -0.15263007581233978, 
        0.06770042330026627, 
        -0.11844797432422638, 
        0.0769549012184143, 
        -0.06727135926485062, 
        -0.027713987976312637, 
        0.08888287842273712, 
        0.031691789627075195, 
        0.16208972036838531, 
        -0.09399953484535217, 
        0.2166622281074524, 
        -0.10089781135320663, 
        -0.06774675846099854, 
        0.023818878456950188, 
        -0.2759885787963867, 
        -0.028338396921753883, 
        0.127814382314682, 
        0.03792434558272362, 
        0.08654157817363739, 
        0.0317467637360096, 
        -0.05195030942559242, 
        0.08530649542808533, 
        0.10759729146957397, 
        -0.11740586906671524, 
        0.08454442024230957, 
        -0.3017772436141968, 
        -0.1564376801252365, 
        0.05579475685954094, 
        0.0623418465256691, 
        -0.07959341257810593, 
        0.03443877026438713, 
        -0.08901368826627731, 
        0.07331202924251556, 
        0.12173053622245789, 
        -0.12707966566085815, 
        -0.05449578911066055, 
        0.049435392022132874, 
        0.012250285595655441, 
        0.08062239736318588, 
        -0.10829608887434006, 
        -0.007397923152893782, 
        0.6887311935424805, 
        0.10559336096048355, 
        -0.2182806432247162, 
        0.004271312616765499, 
        -0.19926711916923523, 
        -0.0034363470040261745, 
        0.023680204525589943, 
        -0.13020950555801392, 
        0.12208214402198792, 
        -0.13938671350479126, 
        -0.22819064557552338, 
        0.23288841545581818, 
        -0.003621764248237014, 
        -0.2586697041988373, 
        0.06357623636722565, 
        -0.05130733549594879, 
        -0.14451906085014343, 
        0.5868480801582336, 
        0.08053169399499893, 
        -0.09623540192842484, 
        -0.19041872024536133, 
        0.03733791038393974, 
        0.41487327218055725, 
        0.22377030551433563, 
        -0.01805761456489563, 
        0.0070173717103898525, 
        0.33754798769950867, 
        -0.1296871453523636, 
        -0.023055190220475197, 
        -0.07367478311061859, 
        -0.009718644432723522, 
        -0.3278977572917938, 
        0.3077816069126129, 
        -0.13481712341308594, 
        0.021053165197372437, 
        -0.18230484426021576, 
        -0.1974577158689499, 
        -0.07034242153167725, 
        0.03596944361925125, 
        0.8344245553016663, 
        -0.035873014479875565, 
        -0.3953790068626404, 
        -0.1010429635643959, 
        0.143621563911438, 
        -0.03398675471544266, 
        -0.09127918630838394, 
        -0.07754824310541153, 
        -0.08079231530427933, 
        -0.09994962811470032, 
        0.16773661971092224, 
        0.027045011520385742, 
        -0.11096740514039993, 
        -0.3481185734272003, 
        -0.1266726553440094, 
        -0.2428581565618515, 
        0.0028438419103622437, 
        0.17740093171596527, 
        0.012872807681560516, 
        0.20014820992946625, 
        -0.04006562754511833, 
        0.11928852647542953, 
        -0.18639996647834778, 
        0.023026693612337112, 
        -0.10901569575071335, 
        -0.04247581958770752, 
        0.06009560450911522, 
        -0.0879388079047203, 
        0.01616719551384449, 
        0.010895725339651108, 
        -0.31571128964424133, 
        -0.4421396553516388, 
        0.07406161725521088, 
        0.2213049978017807, 
        1.263020396232605, 
        -0.2476208209991455, 
        -0.7012145519256592, 
        1.6396368741989136, 
        1.3166815042495728, 
        -0.5610253214836121, 
        0.6649587154388428, 
        0.5265328288078308, 
        -0.052787989377975464, 
        -0.10244531184434891, 
        -0.04435902461409569, 
        -1.0288965702056885, 
        0.15710172057151794, 
        0.41397008299827576, 
        0.36565691232681274, 
        0.08592193573713303, 
        -0.697848916053772, 
        0.43332207202911377, 
        -0.21565745770931244, 
        -1.0920031070709229, 
        0.16825182735919952, 
        -0.6455764174461365, 
        0.5536311268806458, 
        0.06842111051082611, 
        1.393268346786499, 
        0.2386489063501358, 
        0.48398062586784363, 
        0.8374750018119812, 
        -2.323401927947998, 
        0.07494651526212692, 
        -0.06450671702623367, 
        1.7511916160583496, 
        0.8512158393859863, 
        0.35014277696609497, 
        -0.06147775053977966, 
        0.4291234314441681, 
        -0.20880405604839325, 
        -0.08578704297542572, 
        0.655808687210083, 
        2.3439829349517822, 
        0.48289376497268677, 
        0.20580394566059113, 
        1.0716133117675781, 
        -0.07685696333646774, 
        0.7008666396141052, 
        -0.748725414276123, 
        -0.08543702960014343, 
        -0.2173592895269394, 
        -0.16807998716831207, 
        0.7321092486381531, 
        -0.8060229420661926, 
        0.21041271090507507, 
        -0.22668734192848206, 
        -0.16415400803089142, 
        0.7958273887634277, 
        -0.20954301953315735, 
        -0.6640058159828186, 
        2.8334388732910156, 
        -0.3163436949253082, 
        0.3114527463912964, 
        0.09169524908065796, 
        2.1540961265563965, 
        -2.636967897415161, 
        0.12544706463813782, 
        -0.07614963501691818, 
        1.531163215637207, 
        -0.9883455634117126, 
        0.27137261629104614, 
        -1.2273160219192505, 
        -0.19550320506095886, 
        -2.501727819442749, 
        -0.0834534540772438, 
        2.2588870525360107, 
        0.24345380067825317, 
        -0.29756397008895874, 
        0.6425195336341858, 
        -0.13095825910568237, 
        -0.3518187403678894, 
        1.037494421005249, 
        -0.1326897293329239, 
        0.06203269213438034, 
        -1.2531224489212036, 
        1.946020245552063, 
        -1.160155177116394, 
        -0.08831163495779037, 
        -0.04041070491075516, 
        1.3814879655838013, 
        -0.8681700825691223, 
        0.05662836134433746, 
        0.491416335105896, 
        2.1790759563446045, 
        -2.377866506576538, 
        1.0052847862243652, 
        -0.9005972146987915, 
        0.686815083026886, 
        1.949289083480835, 
        2.060492992401123, 
        1.7520467042922974, 
        -0.4332176148891449, 
        -0.1403789520263672, 
        0.0552733950316906, 
        0.11267561465501785, 
        -0.17920894920825958, 
        -0.1691899448633194, 
        -0.45126450061798096, 
        0.23795342445373535, 
        0.21050573885440826, 
        1.583521842956543, 
        -0.30870896577835083, 
        0.8668535947799683, 
        1.4715793132781982, 
        -0.8287497162818909, 
        0.36375194787979126, 
        -0.8825454115867615, 
        -2.2209794521331787, 
        -0.1292724460363388, 
        0.1600552350282669, 
        -0.266374796628952, 
        0.3710607886314392, 
        0.20666906237602234, 
        2.166058301925659, 
        -0.020542306825518608, 
        0.24058906733989716, 
        -0.7035149931907654, 
        1.879699945449829, 
        0.9746705293655396, 
        0.41849297285079956, 
        -0.052504658699035645, 
        0.84352707862854, 
        0.006123089697211981, 
        0.5103889107704163, 
        -0.15742550790309906, 
        0.1348082721233368, 
        0.044074732810258865, 
        -0.015990762040019035, 
        -0.05268552526831627, 
        -0.13094013929367065, 
        0.44884464144706726, 
        -0.12086352705955505, 
        -0.16060006618499756, 
        0.03825806453824043, 
        0.13246622681617737, 
        -0.1364435851573944, 
        -0.16172730922698975, 
        -0.20467862486839294, 
        -0.07756434381008148, 
        -0.00477254344150424, 
        0.11615698039531708, 
        -0.07851152122020721, 
        -0.0841294601559639, 
        0.2780563533306122, 
        0.4422447681427002, 
        0.7391043901443481, 
        0.15455637872219086, 
        0.10307326167821884, 
        0.29948967695236206, 
        -1.9453407526016235, 
        0.06625140458345413, 
        -0.01660655252635479, 
        0.5845322012901306, 
        0.27452608942985535, 
        0.07086846232414246, 
        -0.03577357530593872, 
        0.12063861638307571, 
        -0.10775826126337051, 
        -0.16432712972164154, 
        0.3017110526561737, 
        1.2490943670272827, 
        -0.16530302166938782, 
        -0.07009989023208618, 
        0.3374467194080353, 
        -0.11518345773220062, 
        -0.10144852101802826, 
        0.04004071652889252, 
        0.06364591419696808, 
        -0.1859106868505478, 
        -0.08215441554784775, 
        -0.20708982646465302, 
        -0.17311760783195496, 
        -0.19898401200771332, 
        -0.1812831163406372, 
        -0.016475113108754158, 
        0.6836082339286804, 
        1.5922725200653076, 
        -0.01903245784342289, 
        0.7004680633544922, 
        -0.016174858435988426, 
        -0.020836519077420235, 
        -0.13017699122428894, 
        0.3310042917728424, 
        -1.189931035041809, 
        -0.08486092835664749, 
        -0.16763021051883698, 
        -0.09167878329753876, 
        -0.11118146777153015, 
        -0.21057958900928497, 
        -0.6805565357208252, 
        -0.11420215666294098, 
        -1.4759162664413452, 
        -0.04693979397416115, 
        1.7404968738555908, 
        -0.024952774867415428, 
        0.0019625485874712467, 
        -0.21503420174121857, 
        -0.03268688544631004, 
        0.576384961605072, 
        0.447053998708725, 
        0.5445519089698792, 
        -0.17502547800540924, 
        0.3045686185359955, 
        0.5664011836051941, 
        -0.4590729773044586, 
        -0.08223788440227509, 
        -0.14277471601963043, 
        0.4503672122955322, 
        0.5675091743469238, 
        0.16051985323429108, 
        -0.15133972465991974, 
        1.8220301866531372, 
        -1.472296118736267, 
        0.3725990951061249, 
        0.06120894476771355, 
        1.7887881994247437, 
        1.988390326499939, 
        1.0781952142715454, 
        0.4433766305446625, 
        0.8051232099533081, 
        -0.17618201673030853, 
        0.016660591587424278, 
        -0.09142988920211792, 
        -0.07975547015666962, 
        -0.1355086863040924, 
        0.09711293876171112, 
        -0.09042920917272568, 
        -0.04593813791871071, 
        -0.008865972980856895, 
        -0.19505077600479126, 
        -0.035949379205703735, 
        1.2418144941329956, 
        0.14986743032932281, 
        -0.13989949226379395, 
        0.17298172414302826, 
        -1.7392228841781616, 
        -0.07835188508033752, 
        -0.24129657447338104, 
        -0.0901353731751442, 
        0.14214450120925903, 
        -0.12787795066833496, 
        1.7766648530960083, 
        0.1396956741809845, 
        0.12621423602104187, 
        -0.04008636623620987, 
        1.1785738468170166, 
        -0.2765813171863556, 
        -0.1189052015542984, 
        0.11749599128961563, 
        0.15099398791790009, 
        -0.05238785594701767, 
        0.39071837067604065, 
        -0.3427397906780243, 
        0.04321955889463425, 
        0.08874046802520752, 
        -0.060894452035427094, 
        -0.021741319447755814, 
        -0.11729162186384201, 
        0.4824790358543396, 
        -0.003537458600476384, 
        0.1795235276222229, 
        -0.12834802269935608, 
        0.12679040431976318, 
        -0.11822044849395752, 
        -0.03448812663555145, 
        -0.013238410465419292, 
        0.010758359916508198, 
        -0.026651473715901375, 
        -0.04721621051430702, 
        0.12686486542224884, 
        -0.061196114867925644, 
        0.1980862319469452, 
        0.1324029117822647, 
        0.2939794361591339, 
        -0.11235815286636353, 
        -0.003411840880289674, 
        0.028318792581558228, 
        -0.4489220678806305, 
        0.36879923939704895, 
        0.11234218627214432, 
        0.5216725468635559, 
        0.16482524573802948, 
        -0.09415428340435028, 
        -0.10357242822647095, 
        -0.13809040188789368, 
        -0.13919304311275482, 
        -0.09665103256702423, 
        -0.079887755215168, 
        -0.008526436984539032, 
        -0.24781188368797302, 
        0.05977994576096535, 
        0.1154061034321785, 
        -0.0013716956600546837, 
        0.04821762070059776, 
        0.24764148890972137, 
        -0.05586058273911476, 
        -0.10569872707128525, 
        0.05036797747015953, 
        -0.17362695932388306, 
        -0.012571731582283974, 
        0.03193523734807968, 
        0.12422572821378708, 
        -0.1726590394973755, 
        -0.17197176814079285, 
        0.9305988550186157, 
        0.47345519065856934, 
        -0.16567173600196838, 
        -0.16022330522537231, 
        -0.02888627164065838, 
        -0.07540737092494965, 
        -0.17091171443462372, 
        0.028658974915742874, 
        0.019638970494270325, 
        -0.039217591285705566, 
        -0.4338691830635071, 
        0.24772994220256805, 
        0.11409445106983185, 
        -0.21321070194244385, 
        -0.15855270624160767, 
        -0.34919285774230957, 
        -0.056726373732089996, 
        0.8169665932655334, 
        0.08879568427801132, 
        0.01567075215280056, 
        -0.4428780972957611, 
        -0.07042437791824341, 
        0.3085172772407532, 
        0.22589659690856934, 
        0.07801499217748642, 
        0.01624242216348648, 
        0.36706697940826416, 
        0.052122797816991806, 
        0.10497710853815079, 
        0.0893358439207077, 
        -0.08238586783409119, 
        -0.21026611328125, 
        0.5375628471374512, 
        0.0995832160115242, 
        0.04958769306540489, 
        0.26124414801597595, 
        -0.21628506481647491, 
        0.02899964153766632, 
        0.04208604246377945, 
        1.2668741941452026, 
        0.3050268590450287, 
        -0.16045479476451874, 
        0.1171238124370575, 
        0.516474187374115, 
        -0.0684727355837822, 
        0.18706627190113068, 
        0.138824000954628, 
        0.005041895899921656, 
        0.006003666203469038, 
        0.17226076126098633, 
        -0.09757329523563385, 
        -0.037682220339775085, 
        -0.17673420906066895, 
        0.02481302246451378, 
        -0.029828382655978203, 
        0.1923578828573227, 
        0.3141275942325592, 
        0.04120452702045441, 
        0.29618921875953674, 
        -0.14942479133605957, 
        0.021157527342438698, 
        -0.021853754296898842, 
        0.17754970490932465, 
        -0.042799610644578934, 
        -0.15988320112228394, 
        0.588198184967041, 
        0.14566799998283386, 
        -0.14420349895954132, 
        0.013544486835598946, 
        0.009904210455715656, 
        -0.4321622848510742, 
        -0.14724913239479065, 
        -0.029064638540148735, 
        1.3874237537384033, 
        0.020756086334586143, 
        -0.3375982344150543, 
        0.5646889209747314, 
        1.6175233125686646, 
        -0.22544163465499878, 
        0.3461576998233795, 
        0.040005650371313095, 
        0.07339715212583542, 
        -0.049346908926963806, 
        0.02850128524005413, 
        -0.9881138205528259, 
        0.009553033858537674, 
        0.8060860633850098, 
        -0.04479557275772095, 
        -0.2406935840845108, 
        -0.35003527998924255, 
        0.07235296815633774, 
        -0.01555808074772358, 
        -0.017876718193292618, 
        -0.2384498119354248, 
        -0.09995321184396744, 
        0.9018666744232178, 
        0.566369891166687, 
        1.5191987752914429, 
        -0.07553604990243912, 
        -0.13896547257900238, 
        0.9539943337440491, 
        -2.756216049194336, 
        -0.20807527005672455, 
        -0.30057430267333984, 
        1.557074785232544, 
        0.8383877277374268, 
        -0.08774235099554062, 
        -0.037539828568696976, 
        0.15496785938739777, 
        -0.14424122869968414, 
        -0.18129479885101318, 
        0.22927163541316986, 
        1.8268948793411255, 
        0.4345299303531647, 
        -0.09599493443965912, 
        0.04560844227671623, 
        -0.020463043823838234, 
        -0.05860653147101402, 
        -0.520051121711731, 
        -0.1549280732870102, 
        -0.2908976078033447, 
        0.02589152567088604, 
        0.1557769626379013, 
        0.3319918215274811, 
        -0.442876398563385, 
        -0.1570112407207489, 
        -0.04716199263930321, 
        1.014395833015442, 
        0.3754226565361023, 
        -1.209053635597229, 
        1.8734482526779175, 
        -0.058610133826732635, 
        -0.018221551552414894, 
        0.6181304454803467, 
        1.2012240886688232, 
        -2.3137333393096924, 
        0.1628568470478058, 
        0.06624367833137512, 
        0.607021689414978, 
        -0.850481390953064, 
        -0.35872673988342285, 
        -1.4725866317749023, 
        -0.052658580243587494, 
        -2.337836980819702, 
        -0.047094449400901794, 
        2.008496046066284, 
        -0.035460177809000015, 
        -0.18402770161628723, 
        -0.07901317626237869, 
        0.14204207062721252, 
        0.2059868574142456, 
        0.516895055770874, 
        -0.9294300675392151, 
        -0.14630410075187683, 
        -0.36159929633140564, 
        0.5657100081443787, 
        -0.7444854974746704, 
        -0.23123204708099365, 
        -0.1528715342283249, 
        1.0064421892166138, 
        -0.4283622205257416, 
        0.2106308937072754, 
        -0.14484916627407074, 
        1.7148923873901367, 
        -2.5963797569274902, 
        0.4968678951263428, 
        0.13673260807991028, 
        1.1600948572158813, 
        2.1402270793914795, 
        2.3084006309509277, 
        1.26654851436615, 
        0.34910404682159424, 
        -0.047489579766988754, 
        0.02147682011127472, 
        0.022709712386131287, 
        0.03457533195614815, 
        -0.19967851042747498, 
        -0.2572595775127411, 
        0.04303388297557831, 
        0.07892491668462753, 
        1.1559127569198608, 
        0.09047060459852219, 
        -0.29943323135375977, 
        1.4967796802520752, 
        -0.5645961761474609, 
        -0.07476813346147537, 
        0.251496821641922, 
        -2.969715118408203, 
        0.15204063057899475, 
        -0.11623968929052353, 
        -0.06334423273801804, 
        -0.17968593537807465, 
        -0.030655384063720703, 
        1.710158109664917, 
        -0.12041129171848297, 
        0.3337410092353821, 
        0.1871505081653595, 
        1.5049138069152832, 
        0.5452581644058228, 
        0.2615533769130707, 
        0.06021978333592415, 
        0.5051562786102295, 
        0.03561779484152794, 
        0.5138055682182312, 
        -0.20350471138954163, 
        -0.38328492641448975, 
        -0.03974609449505806, 
        -0.15147650241851807, 
        0.12967897951602936, 
        -0.004311236087232828, 
        0.47645244002342224, 
        0.03571309149265289, 
        -0.19973227381706238, 
        0.0066432892344892025, 
        0.03602683171629906, 
        0.024951981380581856, 
        -0.07747447490692139, 
        -0.20203445851802826, 
        -0.10737816989421844, 
        -0.17874884605407715, 
        0.04172239080071449, 
        -0.046830419450998306, 
        -0.16522152721881866, 
        0.32054847478866577, 
        0.07765956968069077, 
        0.458508163690567, 
        0.02023344859480858, 
        -0.17686571180820465, 
        0.21053530275821686, 
        -0.9161593317985535, 
        0.1758129596710205, 
        0.022015638649463654, 
        0.5784504413604736, 
        0.09568743407726288, 
        0.07375223934650421, 
        -0.15148688852787018, 
        0.030157307162880898, 
        -0.22492767870426178, 
        -0.0251904409378767, 
        0.09549731761217117, 
        -0.10249276459217072, 
        -0.11981069296598434, 
        -0.0246488768607378, 
        0.18675842881202698, 
        -0.0026478387881070375, 
        0.0775379166007042, 
        -0.05842223018407822, 
        -0.15654507279396057, 
        -0.014316174201667309, 
        0.04821082949638367, 
        -0.09656776487827301, 
        -0.07977602630853653, 
        -0.21375508606433868, 
        -0.03774610906839371, 
        -0.17021439969539642, 
        -0.09915308654308319, 
        1.484819769859314, 
        0.08342302590608597, 
        -0.5340121388435364, 
        0.00726174283772707, 
        -0.12215384840965271, 
        -0.04947679117321968, 
        -0.10237181186676025, 
        -0.4969697892665863, 
        0.037777405232191086, 
        0.09330274909734726, 
        -0.252084881067276, 
        0.3299599885940552, 
        -0.07196907699108124, 
        -0.354627400636673, 
        -0.17766119539737701, 
        -0.7471769452095032, 
        0.0005857704672962427, 
        1.0092928409576416, 
        0.06375168263912201, 
        -0.1887434422969818, 
        -0.1525021642446518, 
        -0.030899493023753166, 
        0.6252089738845825, 
        0.3890010118484497, 
        -0.029965566471219063, 
        -0.08009921759366989, 
        0.4327467381954193, 
        0.3608902096748352, 
        -0.2941499650478363, 
        -0.134588822722435, 
        -0.11938565969467163, 
        -0.3434795141220093, 
        0.6415345668792725, 
        -0.11772380769252777, 
        -0.002514234045520425, 
        -0.08694670349359512, 
        -0.6662827134132385, 
        0.07454463094472885, 
        0.09222254157066345, 
        1.6207534074783325, 
        0.4452970623970032, 
        0.04545673355460167, 
        0.18792833387851715, 
        0.3804761469364166, 
        -0.0759013295173645, 
        -0.16521264612674713, 
        -0.07834625244140625, 
        -0.010526211000978947, 
        0.04222701117396355, 
        -0.0184096097946167, 
        -0.06318262219429016, 
        -0.061653394252061844, 
        -0.4836623966693878, 
        -0.050862621515989304, 
        -0.07343516498804092, 
        0.6300008893013, 
        0.11104031652212143, 
        -0.23813126981258392, 
        0.2753283381462097, 
        -0.6280491948127747, 
        -0.06992553174495697, 
        -0.16378751397132874, 
        -0.17450657486915588, 
        -0.06774615496397018, 
        -0.1493721902370453, 
        0.7183574438095093, 
        0.041312310844659805, 
        0.17219208180904388, 
        0.17378312349319458, 
        0.027204660698771477, 
        -0.385659396648407, 
        -0.14392665028572083, 
        0.014046509750187397, 
        0.5692155361175537, 
        0.3801671862602234, 
        1.1523791551589966, 
        -1.265245795249939, 
        -0.4039415121078491, 
        0.1920769214630127, 
        -0.14740926027297974, 
        0.29339873790740967, 
        0.20125342905521393, 
        1.37271249294281, 
        0.13974586129188538, 
        0.7590419054031372, 
        0.1813528835773468, 
        -0.08313873410224915, 
        0.1227235198020935, 
        0.658287525177002, 
        0.46183475852012634, 
        0.5901433229446411, 
        0.4626061022281647, 
        1.685818076133728, 
        0.4127280116081238, 
        0.5197358131408691, 
        -0.18359410762786865, 
        0.8628875017166138, 
        -0.18732747435569763, 
        -0.07177435606718063, 
        0.5536137819290161, 
        -1.0192595720291138, 
        1.6756014823913574, 
        0.6887788772583008, 
        0.4927347004413605, 
        -1.823815107345581, 
        0.0790267065167427, 
        -0.04478738084435463, 
        0.19106259942054749, 
        0.11406408250331879, 
        0.33909446001052856, 
        0.3878534436225891, 
        -0.7194501757621765, 
        -0.6513901352882385, 
        -0.43908581137657166, 
        0.16783036291599274, 
        -0.16790933907032013, 
        0.24698776006698608, 
        0.5528897643089294, 
        0.45768558979034424, 
        0.19341164827346802, 
        0.285358190536499, 
        0.1546131670475006, 
        0.4403568208217621, 
        1.9024405479431152, 
        -0.027313049882650375, 
        0.3224518299102783, 
        0.12442547082901001, 
        0.4869450032711029, 
        1.2312074899673462, 
        1.4393788576126099, 
        0.561738908290863, 
        0.383525550365448, 
        0.24269336462020874, 
        0.6261170506477356, 
        0.5486416220664978, 
        1.7799427509307861, 
        -0.015278962440788746, 
        0.24272896349430084, 
        0.12656109035015106, 
        1.1851576566696167, 
        0.5311281085014343, 
        1.5692524909973145, 
        0.36697161197662354, 
        1.5682992935180664, 
        0.40458738803863525, 
        -0.7776167392730713, 
        0.3917485177516937, 
        -0.07445984333753586, 
        -0.056606683880090714, 
        0.31542259454727173, 
        1.2455624341964722, 
        -0.26179197430610657, 
        0.9081100225448608, 
        0.3643336296081543, 
        0.921254575252533, 
        0.7405306100845337, 
        1.6051054000854492, 
        0.1258382797241211, 
        0.06207079440355301, 
        -0.28607264161109924, 
        1.2582311630249023, 
        0.6690946817398071, 
        0.5120747089385986, 
        0.24118348956108093, 
        1.6935006380081177, 
        -0.11677123606204987, 
        2.3213376998901367, 
        0.5363609790802002, 
        -1.1751664876937866, 
        -0.8487305045127869, 
        0.619845986366272, 
        1.540476679801941, 
        0.4416075646877289, 
        2.5944676399230957, 
        0.3818362057209015, 
        0.434283047914505, 
        0.017206620424985886, 
        0.4017733633518219, 
        0.36201778054237366, 
        0.10236579924821854, 
        0.39844053983688354, 
        0.14726147055625916, 
        0.21488039195537567, 
        -1.025317907333374, 
        1.1452264785766602, 
        0.19604144990444183, 
        0.4562843441963196, 
        1.7617465257644653, 
        0.45706143975257874, 
        0.21572987735271454, 
        0.6099830865859985, 
        0.27928394079208374, 
        0.03378935903310776, 
        -1.0282596349716187, 
        0.243605837225914, 
        0.2633373439311981, 
        0.4903794825077057, 
        0.058376245200634, 
        -0.5924066305160522, 
        0.02963452786207199, 
        0.10152597725391388, 
        -0.2604583501815796, 
        0.1735536754131317, 
        2.257016181945801, 
        -0.8224841356277466, 
        -0.5767059326171875, 
        0.01281940657645464, 
        -0.32262730598449707, 
        -0.18302343785762787, 
        -0.007870529778301716, 
        2.342496633529663, 
        0.027631567791104317, 
        -0.43543899059295654, 
        -0.12832006812095642, 
        0.014420030638575554, 
        0.21618574857711792, 
        -0.2075340747833252, 
        -0.22427789866924286, 
        0.19596603512763977, 
        -0.06031065434217453, 
        0.0041877334006130695, 
        -0.10043053328990936, 
        -0.20693068206310272, 
        0.34650397300720215, 
        -0.27251678705215454, 
        -1.949053168296814, 
        -0.16055163741111755, 
        0.39705392718315125, 
        0.14969086647033691, 
        -1.7055160999298096, 
        0.009501609019935131, 
        -0.19837845861911774, 
        -0.14887617528438568, 
        -1.0735653638839722, 
        0.1374957114458084, 
        -0.008924541063606739, 
        0.21730093657970428, 
        -0.14369551837444305, 
        0.039671383798122406, 
        -0.7870903611183167, 
        -1.5109045505523682, 
        -0.6859021186828613, 
        0.3294694721698761, 
        -0.6337087750434875, 
        0.148122176527977, 
        0.028617005795240402, 
        0.01984325796365738, 
        0.0009122221381403506, 
        0.08103668689727783, 
        0.2401983141899109, 
        -0.3511519134044647, 
        -0.8330520987510681, 
        0.2504130005836487, 
        -0.003807973815128207, 
        0.010200604796409607, 
        -1.1240243911743164, 
        1.9020161628723145, 
        -0.4870389997959137, 
        0.6522080302238464, 
        0.07099819928407669, 
        0.024241620674729347, 
        -0.2315579056739807, 
        -0.24453118443489075, 
        -2.3085951805114746, 
        0.0948682427406311, 
        0.12399235367774963, 
        -1.1352699995040894, 
        0.42098215222358704, 
        -0.0991377979516983, 
        -1.1349140405654907, 
        -0.19726355373859406, 
        -2.5098493099212646, 
        0.22977837920188904, 
        -0.5028066039085388, 
        0.002353165065869689, 
        0.16321326792240143, 
        -0.6432116627693176, 
        -0.015493226237595081, 
        1.9856072664260864, 
        -0.7495827674865723, 
        -0.03824750334024429, 
        0.13326144218444824, 
        1.613071322441101, 
        -1.7297255992889404, 
        -0.44389551877975464, 
        0.1594575196504593, 
        -0.1334386020898819, 
        -0.8503782749176025, 
        0.42715176939964294, 
        0.31230130791664124, 
        0.1460757851600647, 
        0.6866664290428162, 
        -1.9420844316482544, 
        -0.024274660274386406, 
        -0.012144028209149837, 
        2.6514785289764404, 
        -1.0872269868850708, 
        -0.6864305138587952, 
        -0.8434683680534363, 
        2.1889657974243164, 
        0.220316544175148, 
        -0.1311822235584259, 
        0.19429245591163635, 
        0.131233349442482, 
        -0.12576593458652496, 
        -0.29161059856414795, 
        0.017545003443956375, 
        0.03545432910323143, 
        -0.6813288927078247, 
        0.12554946541786194, 
        0.08621030300855637, 
        -1.7505885362625122, 
        0.6514503359794617, 
        0.008245383389294147, 
        0.5780489444732666, 
        -1.8896535634994507, 
        0.23247838020324707, 
        -0.1082151010632515, 
        -0.04690932482481003, 
        0.5273114442825317, 
        0.04613743722438812, 
        -0.4666151702404022, 
        0.39195194840431213, 
        0.16374841332435608, 
        0.16436775028705597, 
        -1.0224486589431763, 
        -0.5809000134468079, 
        -0.25090354681015015, 
        -0.3764689266681671, 
        0.9097535014152527, 
        -0.7091984152793884, 
        1.1384210586547852, 
        0.3016003966331482, 
        0.6152296662330627, 
        0.2891973555088043, 
        0.16324159502983093, 
        -0.27011045813560486, 
        0.049867115914821625, 
        1.6514915227890015, 
        0.025694727897644043, 
        -1.0230063199996948, 
        -0.25361648201942444, 
        0.17835964262485504, 
        -0.10058771073818207, 
        -2.1374785900115967, 
        -0.2534310221672058, 
        0.8537442088127136, 
        -0.7226012945175171, 
        -0.2254514843225479, 
        0.21229995787143707, 
        0.01899646408855915, 
        -0.16925324499607086, 
        -0.48674023151397705, 
        0.8614243268966675, 
        0.3648677468299866, 
        0.07631979137659073, 
        -0.2936129868030548, 
        -3.29864239692688, 
        -0.2990785241127014, 
        0.37668555974960327, 
        -0.8253008127212524, 
        -1.095130205154419, 
        0.4776042103767395, 
        0.16962774097919464, 
        0.3440989851951599, 
        -0.321300745010376, 
        0.1940465122461319, 
        0.5195278525352478, 
        0.7699816823005676, 
        0.45108646154403687, 
        0.2497972846031189, 
        0.6310740113258362, 
        -0.14113053679466248, 
        -0.29463812708854675, 
        0.7950764298439026, 
        0.4417209029197693, 
        -0.05669574439525604, 
        -0.8291988372802734, 
        0.8205628395080566, 
        1.1146953105926514, 
        0.28064554929733276, 
        0.2319050133228302, 
        -0.46564164757728577, 
        0.5417916178703308, 
        1.3749386072158813, 
        0.5494570732116699, 
        2.4267752170562744, 
        0.5349501371383667, 
        0.07625671476125717, 
        0.3730035722255707, 
        2.559906005859375, 
        -3.103853702545166, 
        -0.030644729733467102, 
        0.19384334981441498, 
        0.6983622908592224, 
        -1.2056951522827148, 
        0.5637636780738831, 
        -1.7713372707366943, 
        0.22310474514961243, 
        -2.3652150630950928, 
        0.04560917615890503, 
        0.7212601900100708, 
        0.26504430174827576, 
        -0.15165704488754272, 
        0.8959869742393494, 
        0.2883203327655792, 
        1.3493014574050903, 
        0.7715191841125488, 
        -0.07216694205999374, 
        0.20122785866260529, 
        -0.3131532371044159, 
        -2.407606363296509, 
        -1.0717512369155884, 
        -0.4531257450580597, 
        -0.16574667394161224, 
        0.4185657203197479, 
        0.5385506749153137, 
        0.4115312695503235, 
        0.16558414697647095, 
        2.443840742111206, 
        -2.7510106563568115, 
        -0.024945152923464775, 
        0.4217386841773987, 
        1.6309770345687866, 
        0.4843617081642151, 
        2.0550920963287354, 
        -0.894010066986084, 
        1.4088988304138184, 
        0.10769075155258179, 
        1.2013972997665405, 
        0.16174225509166718, 
        -0.592159628868103, 
        -0.3898560702800751, 
        -0.21521936357021332, 
        0.1321801245212555, 
        0.018484126776456833, 
        0.554384171962738, 
        -0.3959464728832245, 
        0.8728653192520142, 
        1.1973015069961548, 
        -0.7379473447799683, 
        0.2855284512042999, 
        -0.41631272435188293, 
        -3.069596767425537, 
        -0.5235440731048584, 
        0.13903266191482544, 
        0.7061393857002258, 
        -0.005193832330405712, 
        0.18453814089298248, 
        -0.19692832231521606, 
        -0.9556931257247925, 
        0.42600250244140625, 
        -0.09959225356578827, 
        2.16036057472229, 
        1.1707419157028198, 
        -0.09417714178562164, 
        0.08785440772771835, 
        0.0832863301038742, 
        0.3088768422603607, 
        0.6823870539665222, 
        -0.24454465508460999, 
        -0.18664765357971191, 
        0.006525533273816109, 
        -0.21016061305999756, 
        0.18588176369667053, 
        0.08075723052024841, 
        0.6810618042945862, 
        0.08957482874393463, 
        0.06499439477920532, 
        -0.1859823614358902, 
        0.015138617716729641, 
        0.08529152721166611, 
        -0.041658032685518265, 
        -0.12117990851402283, 
        0.15267400443553925, 
        0.04794476553797722, 
        0.10823503881692886, 
        0.2388826459646225, 
        0.07372589409351349, 
        0.1267697811126709, 
        0.2031775265932083, 
        0.0835435688495636, 
        0.01674755848944187, 
        0.13597895205020905, 
        0.04248499125242233, 
        -0.1786504089832306, 
        0.2057792693376541, 
        0.10963255912065506, 
        0.16279858350753784, 
        0.1267004758119583, 
        0.06315744668245316, 
        -0.07497234642505646, 
        -0.18513761460781097, 
        -0.020442761480808258, 
        0.15174277126789093, 
        -0.20276504755020142, 
        -0.4003119170665741, 
        -0.19521141052246094, 
        0.08314789086580276, 
        0.22827041149139404, 
        -0.08341275155544281, 
        -0.003886030288413167, 
        0.12724469602108002, 
        -0.0329475961625576, 
        0.031463343650102615, 
        0.21562080085277557, 
        -0.051971159875392914, 
        -0.018919870257377625, 
        -0.05167905613780022, 
        0.03684940189123154, 
        -0.01652371883392334, 
        -0.2109198123216629, 
        1.451641321182251, 
        0.3367781937122345, 
        -0.29701653122901917, 
        -0.058640025556087494, 
        0.020203137770295143, 
        -0.17832691967487335, 
        0.08152441680431366, 
        0.2268461436033249, 
        -0.02748255245387554, 
        -0.0773974061012268, 
        -0.3019431531429291, 
        0.41250815987586975, 
        0.19214986264705658, 
        -0.07622412592172623, 
        0.11230601370334625, 
        -0.1403724104166031, 
        0.14184823632240295, 
        0.3626096248626709, 
        0.013621779158711433, 
        -0.06233184412121773, 
        -0.28845053911209106, 
        0.08482161909341812, 
        0.5519959926605225, 
        0.15362657606601715, 
        0.031093044206500053, 
        0.016584837809205055, 
        0.639481246471405, 
        0.2233821600675583, 
        0.273555189371109, 
        0.009235597215592861, 
        -0.10235080868005753, 
        -0.18683187663555145, 
        1.2870200872421265, 
        -0.04551895707845688, 
        -0.027488762512803078, 
        -0.12674149870872498, 
        0.013141009025275707, 
        0.36871573328971863, 
        0.053459133952856064, 
        0.9806292653083801, 
        -0.13870133459568024, 
        -0.4359438121318817, 
        0.07990958541631699, 
        0.6679047346115112, 
        0.125746488571167, 
        0.12456214427947998, 
        0.022066492587327957, 
        -0.048313744366168976, 
        -0.09063395857810974, 
        0.2766326367855072, 
        0.13924436271190643, 
        -0.14010806381702423, 
        -0.38631510734558105, 
        -0.12710677087306976, 
        0.07298946380615234, 
        -0.0295911505818367, 
        0.36445268988609314, 
        0.08272333443164825, 
        0.20330490171909332, 
        0.15489718317985535, 
        -0.07225305587053299, 
        -0.04957769066095352, 
        -0.039914824068546295, 
        0.029300132766366005, 
        -0.022376831620931625, 
        0.3435535430908203, 
        0.10515417158603668, 
        -0.10193782299757004, 
        -0.00810976792126894, 
        -0.315356969833374, 
        -0.21359889209270477, 
        -0.018406802788376808, 
        -0.15161755681037903, 
        2.2642459869384766, 
        -0.10307306051254272, 
        0.059825677424669266, 
        0.20554302632808685, 
        1.2472409009933472, 
        -0.17865219712257385, 
        0.15547814965248108, 
        -0.12671804428100586, 
        0.08141393959522247, 
        -0.4911355972290039, 
        -0.050152312964200974, 
        -0.33149537444114685, 
        -0.18283554911613464, 
        0.18365563452243805, 
        -0.1377285122871399, 
        -0.2974068522453308, 
        -0.012868382036685944, 
        -0.03324073925614357, 
        0.005217482801526785, 
        -0.12461622059345245, 
        -0.10494695603847504, 
        -0.2103348970413208, 
        0.5091590285301208, 
        0.6491588354110718, 
        1.427178978919983, 
        0.05140725523233414, 
        -0.15277604758739471, 
        0.7093824148178101, 
        -2.460383176803589, 
        -0.12529505789279938, 
        -0.13699884712696075, 
        1.422010898590088, 
        0.9432118535041809, 
        -0.24452121555805206, 
        0.11189071834087372, 
        -0.06267140060663223, 
        -0.2158239483833313, 
        -0.030632464215159416, 
        0.3616011142730713, 
        1.6572742462158203, 
        0.3379956781864166, 
        0.03470759466290474, 
        0.5641966462135315, 
        -0.07944530993700027, 
        -0.1668543964624405, 
        -0.07759987562894821, 
        -0.16505151987075806, 
        -0.15444141626358032, 
        -0.06381881237030029, 
        -0.026382800191640854, 
        0.1633300632238388, 
        -0.26466718316078186, 
        -0.22508899867534637, 
        0.05831397324800491, 
        0.32237786054611206, 
        1.293022632598877, 
        -0.5898370742797852, 
        1.7054286003112793, 
        -0.20087848603725433, 
        -0.07591743022203445, 
        0.2812759280204773, 
        1.0260899066925049, 
        -2.1423516273498535, 
        -0.11308327317237854, 
        0.10252106934785843, 
        0.899811863899231, 
        -0.08268801122903824, 
        -0.25449949502944946, 
        -1.0299818515777588, 
        -0.08492697030305862, 
        -2.206878185272217, 
        -0.1477200984954834, 
        1.7929372787475586, 
        -0.02688107080757618, 
        -0.08058423548936844, 
        -0.25572431087493896, 
        0.13335974514484406, 
        0.7533843517303467, 
        0.9238905310630798, 
        0.12362837791442871, 
        -0.12070375680923462, 
        -1.1688188314437866, 
        1.2194468975067139, 
        -1.9506250619888306, 
        -0.12490013241767883, 
        0.04023430496454239, 
        1.1660958528518677, 
        0.11658339947462082, 
        -0.07886160165071487, 
        -0.008879394270479679, 
        1.6049047708511353, 
        -2.5297679901123047, 
        0.8947627544403076, 
        0.12231303006410599, 
        1.7930529117584229, 
        2.3354012966156006, 
        1.8459604978561401, 
        1.3045940399169922, 
        0.5782744884490967, 
        -0.00025784462923184037, 
        0.24586063623428345, 
        -0.15832138061523438, 
        -0.06028332933783531, 
        -0.2063826322555542, 
        -0.16353577375411987, 
        -0.1712440699338913, 
        -0.08101065456867218, 
        0.09124469757080078, 
        -0.009197392500936985, 
        -0.14900536835193634, 
        1.2727173566818237, 
        0.31580880284309387, 
        -0.08621025085449219, 
        0.11736024171113968, 
        -3.0276622772216797, 
        0.1254517287015915, 
        -0.2467309832572937, 
        -0.5402551293373108, 
        -0.130394846200943, 
        -0.03179696574807167, 
        1.7289187908172607, 
        0.13947585225105286, 
        0.231498122215271, 
        0.005238951649516821, 
        2.0537023544311523, 
        0.33352088928222656, 
        -0.052517395466566086, 
        0.13618104159832, 
        0.7416617274284363, 
        -0.852186381816864, 
        -2.1328935623168945, 
        1.1892350912094116, 
        2.0298991203308105, 
        0.009109050035476685, 
        0.6781195998191833, 
        0.49785542488098145, 
        -0.12453345954418182, 
        -0.7633194327354431, 
        -0.11548717319965363, 
        -0.6140800714492798, 
        0.10496649146080017, 
        0.501268208026886, 
        -0.25825035572052, 
        0.12098183482885361, 
        -0.19586095213890076, 
        0.3751855194568634, 
        -0.17001202702522278, 
        -0.9161152243614197, 
        -0.18078820407390594, 
        -0.22577977180480957, 
        0.4155077636241913, 
        -1.4781005382537842, 
        1.48814857006073, 
        0.1258835345506668, 
        0.24400421977043152, 
        0.9576974511146545, 
        -2.5752294063568115, 
        -0.599625289440155, 
        -0.15177632868289948, 
        2.0666871070861816, 
        1.4384819269180298, 
        0.02592897042632103, 
        -0.08618053048849106, 
        0.3723066747188568, 
        -0.09213279187679291, 
        0.11392863839864731, 
        0.23115484416484833, 
        2.0620975494384766, 
        0.8018574714660645, 
        0.0012867203913629055, 
        0.44178634881973267, 
        -0.10647601634263992, 
        -0.11413445323705673, 
        -0.4678538143634796, 
        0.1728210300207138, 
        -0.20089665055274963, 
        -0.1047564223408699, 
        0.3373795449733734, 
        -0.6314917802810669, 
        0.07834570854902267, 
        -0.09238222986459732, 
        -0.0844285860657692, 
        1.7159423828125, 
        -0.7368267774581909, 
        -0.9973360896110535, 
        2.476386785507202, 
        -0.3855114281177521, 
        0.1182096004486084, 
        0.6078099012374878, 
        2.5102310180664062, 
        -2.141443967819214, 
        0.1504530906677246, 
        -0.06498491019010544, 
        1.0848528146743774, 
        -1.0308244228363037, 
        0.16323021054267883, 
        -1.335681438446045, 
        -0.06714971363544464, 
        -2.074901819229126, 
        0.0047181397676467896, 
        1.7286535501480103, 
        0.10955753922462463, 
        -0.24572141468524933, 
        1.0002232789993286, 
        -0.17559970915317535, 
        -1.104785442352295, 
        0.6343466639518738, 
        -0.8242533802986145, 
        -0.21260488033294678, 
        -1.2789044380187988, 
        1.4945474863052368, 
        -1.3917617797851562, 
        -0.054886236786842346, 
        0.033414389938116074, 
        1.5732474327087402, 
        -1.0716058015823364, 
        0.0007610039319843054, 
        0.2669196128845215, 
        1.8783396482467651, 
        -3.161965847015381, 
        0.9553748369216919, 
        -0.8614039421081543, 
        0.19526827335357666, 
        1.5228080749511719, 
        2.3981616497039795, 
        2.09145188331604, 
        -0.4312898814678192, 
        -0.2825496792793274, 
        -0.8280782103538513, 
        0.03840847313404083, 
        -0.0401553176343441, 
        -0.2512577772140503, 
        -0.4475637972354889, 
        -0.12457432597875595, 
        0.12215219438076019, 
        1.2856203317642212, 
        0.04647306725382805, 
        0.7786370515823364, 
        1.3231734037399292, 
        -0.7720752954483032, 
        0.362261027097702, 
        -0.5783169865608215, 
        -2.737459421157837, 
        0.03734073415398598, 
        0.019996317103505135, 
        -0.016262473538517952, 
        0.474237859249115, 
        0.017493274062871933, 
        1.975569486618042, 
        0.05838988721370697, 
        0.6344573497772217, 
        -0.5385937690734863, 
        1.4207290410995483, 
        0.9523855447769165, 
        -0.15257370471954346, 
        -0.11875998973846436, 
        -0.10583235323429108, 
        0.153967022895813, 
        1.8022242784500122, 
        -0.5940513014793396, 
        -0.6014796495437622, 
        0.013949412852525711, 
        -0.023665757849812508, 
        0.15720660984516144, 
        0.09185618162155151, 
        2.1648402214050293, 
        0.14533722400665283, 
        -0.5904369354248047, 
        -0.022513413801789284, 
        -0.09919343888759613, 
        0.2537766396999359, 
        -1.1855264902114868, 
        -0.17832648754119873, 
        -0.016578461974859238, 
        -0.0644482895731926, 
        0.04125313088297844, 
        0.1651635318994522, 
        0.07545112818479538, 
        0.07734277844429016, 
        0.01673748902976513, 
        -1.6526225805282593, 
        0.2162652164697647, 
        0.04530856013298035, 
        0.17498257756233215, 
        -1.6893606185913086, 
        0.20366552472114563, 
        0.041502151638269424, 
        -0.45983052253723145, 
        -0.7860772609710693, 
        0.16637414693832397, 
        0.07787453383207321, 
        0.19742099940776825, 
        0.12288341671228409, 
        0.06478910148143768, 
        -0.6958237290382385, 
        -1.1917283535003662, 
        -0.40891119837760925, 
        0.08195362240076065, 
        -0.26757481694221497, 
        -0.04597345367074013, 
        -0.13304856419563293, 
        0.1867274045944214, 
        0.028494326397776604, 
        0.15075427293777466, 
        0.15779510140419006, 
        -0.0715714693069458, 
        -0.0004544986877590418, 
        0.14589768648147583, 
        0.042397502809762955, 
        0.1413755863904953, 
        -0.8548959493637085, 
        2.1037845611572266, 
        -0.3521667718887329, 
        0.5914084315299988, 
        0.11638294905424118, 
        -0.07572546601295471, 
        -0.1769178956747055, 
        0.3987276256084442, 
        -2.5326311588287354, 
        0.03423094004392624, 
        0.09913675487041473, 
        -0.7704142928123474, 
        0.19452033936977386, 
        -0.1461891382932663, 
        -0.8768903017044067, 
        0.1414681226015091, 
        -2.324596643447876, 
        -0.04914747551083565, 
        -0.7622952461242676, 
        -0.004751747939735651, 
        -0.007082440424710512, 
        -0.31209054589271545, 
        0.1890823096036911, 
        1.210190773010254, 
        -0.5016721487045288, 
        -0.13293671607971191, 
        0.2111731320619583, 
        1.6320886611938477, 
        -1.00357186794281, 
        -0.30652275681495667, 
        0.13950490951538086, 
        0.06408243626356125, 
        -0.5708089470863342, 
        0.6392913460731506, 
        0.21077057719230652, 
        0.058671366423368454, 
        0.5927517414093018, 
        -2.201472759246826, 
        0.12280149757862091, 
        -0.22175750136375427, 
        2.921459197998047, 
        -1.0527076721191406, 
        -0.18238434195518494, 
        -0.3404739201068878, 
        1.7927807569503784, 
        0.1233275979757309, 
        0.012373358011245728, 
        0.11487036198377609, 
        0.19443605840206146, 
        -0.13811513781547546, 
        -0.15044784545898438, 
        -0.029830442741513252, 
        -0.008685821667313576, 
        -0.6148216128349304, 
        0.056504156440496445, 
        0.05881962925195694, 
        -1.70035982131958, 
        -0.0012021840084344149, 
        0.10017317533493042, 
        0.3814692199230194, 
        -1.9110480546951294, 
        0.04219992086291313, 
        -0.15399381518363953, 
        0.22445030510425568, 
        0.1370847374200821, 
        0.08565646409988403, 
        -0.3807351887226105, 
        0.2696755826473236, 
        -0.001640590839087963, 
        -0.20157387852668762, 
        -1.3630762100219727, 
        -0.3133104145526886, 
        -0.03356264904141426, 
        0.027118409052491188, 
        1.1541109085083008, 
        0.3151758015155792, 
        -0.5900996923446655, 
        0.9226747155189514, 
        1.4840130805969238, 
        -0.24046455323696136, 
        0.0032350521069020033, 
        0.10580887645483017, 
        -0.07343079894781113, 
        -0.5810686945915222, 
        -0.06581556797027588, 
        -0.3177919089794159, 
        -0.14984475076198578, 
        0.37713631987571716, 
        -0.025277072563767433, 
        -0.19385799765586853, 
        -0.3379661738872528, 
        0.05556248128414154, 
        -0.2403024137020111, 
        -0.1294519305229187, 
        -0.15431056916713715, 
        -0.1035659983754158, 
        0.8295421004295349, 
        0.40594229102134705, 
        1.5692672729492188, 
        -0.06668510288000107, 
        -0.2999388575553894, 
        0.9547463059425354, 
        -2.8603217601776123, 
        0.009021532721817493, 
        -0.011714719235897064, 
        1.5439326763153076, 
        0.5924917459487915, 
        -0.1535910815000534, 
        -0.14397427439689636, 
        0.11253440380096436, 
        -0.25377631187438965, 
        0.0062120771035552025, 
        0.7530847787857056, 
        2.040374279022217, 
        0.26839232444763184, 
        -0.11085351556539536, 
        0.5735917687416077, 
        -0.22665871679782867, 
        0.1210240051150322, 
        -0.6759319305419922, 
        -0.3029995262622833, 
        -0.06994777172803879, 
        0.08575098216533661, 
        -0.08708532899618149, 
        0.26203829050064087, 
        -0.33854591846466064, 
        -0.00024149315140675753, 
        -0.08947356790304184, 
        0.8050007224082947, 
        -0.3195760250091553, 
        -0.9301093816757202, 
        2.0775229930877686, 
        -0.06103572994470596, 
        -0.17047874629497528, 
        0.3084089457988739, 
        2.338195562362671, 
        -2.445815324783325, 
        -0.04476524516940117, 
        0.09685611724853516, 
        1.0605604648590088, 
        -0.4184983968734741, 
        -0.1182127371430397, 
        -1.6735377311706543, 
        -0.09819364547729492, 
        -2.190761089324951, 
        -0.010631735436618328, 
        1.7189379930496216, 
        -0.10291343182325363, 
        0.012609276920557022, 
        -0.09744668751955032, 
        -0.06132077798247337, 
        0.8260715007781982, 
        0.5813360214233398, 
        -0.47242990136146545, 
        0.0012257443740963936, 
        -0.5965394377708435, 
        1.300534725189209, 
        -1.4419115781784058, 
        0.028572928160429, 
        -0.008186209946870804, 
        1.326256513595581, 
        -1.0666338205337524, 
        0.14355243742465973, 
        -0.21175117790699005, 
        2.230734348297119, 
        -2.435666799545288, 
        0.5007929801940918, 
        -0.27931496500968933, 
        0.3512979745864868, 
        2.239830732345581, 
        1.7798161506652832, 
        1.5207741260528564, 
        -0.22955699265003204, 
        -0.038661908358335495, 
        0.13208763301372528, 
        -0.022480085492134094, 
        -0.09794176369905472, 
        0.05423790588974953, 
        -0.026954088360071182, 
        -0.11041364073753357, 
        -0.09908727556467056, 
        1.268020510673523, 
        -0.03864813596010208, 
        -0.2655869126319885, 
        1.7170424461364746, 
        -0.20865195989608765, 
        -0.11465641856193542, 
        0.30835962295532227, 
        -2.960441827774048, 
        -0.04348313435912132, 
        -0.2449149787425995, 
        -0.16413620114326477, 
        -0.16149285435676575, 
        0.07793199270963669, 
        2.1516945362091064, 
        0.02343645505607128, 
        0.18534809350967407, 
        0.3275804817676544, 
        1.997961163520813, 
        0.3860549330711365, 
        -0.02379649691283703, 
        -0.8553902506828308, 
        -1.4167449474334717, 
        -1.0860627889633179, 
        0.8959086537361145, 
        0.07348878681659698, 
        1.5299311876296997, 
        -0.1573657989501953, 
        0.20537027716636658, 
        -0.40430939197540283, 
        0.1882694512605667, 
        1.0734890699386597, 
        -0.819485068321228, 
        0.6061680912971497, 
        0.03922490030527115, 
        0.3987090289592743, 
        -0.643390953540802, 
        -2.726529359817505, 
        0.3808547556400299, 
        0.12606823444366455, 
        -0.3536124527454376, 
        0.20277222990989685, 
        0.3072693347930908, 
        0.3533109724521637, 
        0.14400210976600647, 
        0.9315001368522644, 
        0.9432095885276794, 
        0.23386970162391663, 
        0.21109220385551453, 
        0.003996104467660189, 
        1.722921371459961, 
        0.9606982469558716, 
        0.5042006373405457, 
        0.08559271693229675, 
        0.7747445702552795, 
        0.16930820047855377, 
        0.2077925205230713, 
        0.1598936766386032, 
        0.4121173620223999, 
        0.008134596981108189, 
        0.21695217490196228, 
        -0.1416131854057312, 
        0.36379241943359375, 
        0.21209119260311127, 
        0.9365829825401306, 
        0.1508045196533203, 
        -2.121326208114624, 
        0.42476123571395874, 
        0.3920747935771942, 
        0.04660000279545784, 
        -0.37227925658226013, 
        0.4808618128299713, 
        1.2312171459197998, 
        0.3408122658729553, 
        0.20640462636947632, 
        -1.135534644126892, 
        -0.01921188272535801, 
        1.7300001382827759, 
        1.044373869895935, 
        1.72150456905365, 
        0.3261982798576355, 
        0.3099573254585266, 
        0.2406839281320572, 
        1.5072309970855713, 
        1.5744192600250244, 
        -0.01033030729740858, 
        -0.22716936469078064, 
        0.7882735133171082, 
        0.8672075867652893, 
        0.6394086480140686, 
        1.2028887271881104, 
        0.2989097237586975, 
        1.5602068901062012, 
        -2.1504178047180176, 
        0.21192100644111633, 
        -0.4510117173194885, 
        -0.8116364479064941, 
        0.7190499305725098, 
        -0.22753289341926575, 
        -0.018737901002168655, 
        1.0118639469146729, 
        0.5573704838752747, 
        0.31077489256858826, 
        0.05082093924283981, 
        -0.09371918439865112, 
        1.20204758644104, 
        -0.6075568795204163, 
        -0.46804359555244446, 
        0.11605130136013031, 
        1.2548729181289673, 
        -1.619257926940918, 
        0.5050671696662903, 
        1.4240481853485107, 
        1.575416922569275, 
        0.06066387891769409, 
        0.9505077004432678, 
        0.50422602891922, 
        0.9602774381637573, 
        1.37587308883667, 
        1.428239107131958, 
        0.6027745008468628, 
        0.2526293992996216, 
        1.5333645343780518, 
        0.027249155566096306, 
        -0.7480226159095764, 
        -0.3572825491428375, 
        0.39851707220077515, 
        -0.4044509530067444, 
        0.2517482042312622, 
        0.45281559228897095, 
        -1.67832612991333, 
        0.6524606943130493, 
        0.9015856385231018, 
        0.6536926031112671, 
        0.38350942730903625, 
        0.21658150851726532, 
        1.6598145961761475, 
        -3.4704842567443848, 
        0.23350496590137482, 
        0.6944505572319031, 
        -0.11145656555891037, 
        -0.03824761509895325, 
        1.021355152130127, 
        -0.9567307829856873, 
        -0.22761672735214233, 
        -0.7644864916801453, 
        -0.009280432015657425, 
        0.5150594711303711, 
        -0.315371572971344, 
        -0.10038261860609055, 
        1.7848429679870605, 
        0.5003921985626221, 
        0.58428955078125, 
        0.7979006171226501, 
        1.1248829364776611, 
        0.0244726724922657, 
        0.11558067798614502, 
        0.4836218059062958, 
        -0.07322941720485687, 
        -0.3641611635684967, 
        -0.06491345167160034, 
        -0.3511125445365906, 
        0.031501151621341705, 
        0.3259984254837036, 
        0.031009310856461525, 
        0.243500217795372, 
        -0.27476587891578674, 
        0.6592182517051697, 
        -0.097073495388031, 
        0.18490052223205566, 
        0.037774451076984406, 
        -0.1965217888355255, 
        0.5466166734695435, 
        0.43643975257873535, 
        1.0205187797546387, 
        0.09063435345888138, 
        -0.12546159327030182, 
        0.915972888469696, 
        -2.763554334640503, 
        0.02433420717716217, 
        -0.13892488181591034, 
        1.1772496700286865, 
        0.9055865406990051, 
        -0.22448527812957764, 
        -0.10740472376346588, 
        0.039597708731889725, 
        -0.02311110869050026, 
        -0.29191306233406067, 
        0.9506606459617615, 
        1.8279625177383423, 
        0.40556833148002625, 
        0.034072913229465485, 
        0.8279937505722046, 
        -0.03746914863586426, 
        -0.013687911443412304, 
        -0.4879203140735626, 
        -0.04418747499585152, 
        -0.13511088490486145, 
        0.0942615270614624, 
        -0.07562080025672913, 
        0.0022185530979186296, 
        -0.09114749729633331, 
        -0.16640982031822205, 
        0.16430926322937012, 
        0.5219385623931885, 
        1.0867136716842651, 
        -0.9949896931648254, 
        2.0860607624053955, 
        -0.2561211585998535, 
        -0.0709102600812912, 
        0.2142592966556549, 
        2.5289981365203857, 
        -1.9113982915878296, 
        0.07080669701099396, 
        -0.15408216416835785, 
        1.0748231410980225, 
        -0.749005138874054, 
        -0.08170294016599655, 
        -1.292595624923706, 
        -0.28211066126823425, 
        -2.3573787212371826, 
        -0.1794632077217102, 
        1.727548599243164, 
        0.1100146546959877, 
        -0.09029699116945267, 
        0.9100576639175415, 
        -0.051741816103458405, 
        0.4745084047317505, 
        0.05572980269789696, 
        0.3661046028137207, 
        -0.004262641072273254, 
        -1.4673184156417847, 
        1.849916934967041, 
        -1.9478713274002075, 
        -0.1415117084980011, 
        0.10372573137283325, 
        1.0492832660675049, 
        -0.009371427819132805, 
        0.2073475420475006, 
        -0.2238759994506836, 
        2.362671136856079, 
        -2.985752820968628, 
        0.7172297239303589, 
        0.3472272753715515, 
        1.7544426918029785, 
        2.201594829559326, 
        2.1835904121398926, 
        1.5742310285568237, 
        -0.08969037234783173, 
        -0.06159190461039543, 
        0.6041135787963867, 
        -0.12908121943473816, 
        -0.21415312588214874, 
        -0.21950314939022064, 
        -0.06334814429283142, 
        -0.14454595744609833, 
        0.0823087990283966, 
        0.17077432572841644, 
        0.074577197432518, 
        0.22061382234096527, 
        1.2082364559173584, 
        -0.7880808711051941, 
        -0.21279731392860413, 
        -0.32968154549598694, 
        -2.2527780532836914, 
        0.04783112183213234, 
        -0.21529415249824524, 
        -0.23641850054264069, 
        -0.06665755808353424, 
        0.15691576898097992, 
        1.1798114776611328, 
        0.12758970260620117, 
        0.1490452140569687, 
        0.5191989541053772, 
        1.5274169445037842, 
        0.5883165001869202, 
        0.07619176805019379, 
        -0.08453308790922165, 
        1.1650906801223755, 
        -0.061647336930036545, 
        -0.6565437912940979, 
        0.9669433832168579, 
        1.8690377473831177, 
        -0.11816141754388809, 
        -0.029452113434672356, 
        0.09011927992105484, 
        0.11113215237855911, 
        -0.46940094232559204, 
        -0.022184116765856743, 
        -0.6757789254188538, 
        -0.17224204540252686, 
        0.6428622603416443, 
        -0.0079398388043046, 
        -0.6095077395439148, 
        -0.07848743349313736, 
        -0.30471619963645935, 
        -0.13897503912448883, 
        0.003907538950443268, 
        0.041892170906066895, 
        -0.25798696279525757, 
        0.9026110768318176, 
        -0.0878855362534523, 
        1.2812522649765015, 
        -0.16788655519485474, 
        -0.24015942215919495, 
        0.8600804209709167, 
        -2.3477134704589844, 
        0.17720864713191986, 
        -0.2178642302751541, 
        0.9161067008972168, 
        0.5983982086181641, 
        -0.09683921933174133, 
        0.03012464940547943, 
        0.030651617795228958, 
        -0.09861036390066147, 
        -0.1882130652666092, 
        0.8540249466896057, 
        1.983185887336731, 
        0.23466457426548004, 
        -0.14347060024738312, 
        0.05632777884602547, 
        -0.010139890015125275, 
        0.04245486482977867, 
        -0.5869052410125732, 
        -0.02932022698223591, 
        -0.06354701519012451, 
        -0.17739087343215942, 
        -0.19275858998298645, 
        0.08471599221229553, 
        -0.10138048231601715, 
        -0.19835969805717468, 
        0.04754875972867012, 
        0.9016429781913757, 
        0.9460577368736267, 
        -1.2484828233718872, 
        1.9289041757583618, 
        -0.22568345069885254, 
        0.08680222928524017, 
        0.5150741338729858, 
        1.221072793006897, 
        -2.393113613128662, 
        0.030055856332182884, 
        -0.04708858206868172, 
        0.923410177230835, 
        -0.6972170472145081, 
        -0.4318995475769043, 
        -1.7222222089767456, 
        -0.31223902106285095, 
        -1.90142822265625, 
        -0.18761909008026123, 
        2.0507006645202637, 
        0.155938059091568, 
        -0.00820874236524105, 
        0.04177987575531006, 
        -0.02010514587163925, 
        0.4137282073497772, 
        0.8230062127113342, 
        -0.5306163430213928, 
        0.034402843564748764, 
        -0.8800492286682129, 
        0.16422110795974731, 
        -1.4072798490524292, 
        -0.24533401429653168, 
        0.0930313840508461, 
        1.4400641918182373, 
        -0.39221155643463135, 
        -0.10790836066007614, 
        -0.11417243629693985, 
        1.6203062534332275, 
        -2.704350471496582, 
        0.445160835981369, 
        0.18103475868701935, 
        1.2402722835540771, 
        2.2797229290008545, 
        2.360682487487793, 
        0.6038656830787659, 
        0.4509686231613159, 
        -0.21307431161403656, 
        0.5665856003761292, 
        0.05314972624182701, 
        -0.08237896859645844, 
        -0.2072412669658661, 
        -0.22929149866104126, 
        -0.06088884919881821, 
        0.08552101254463196, 
        1.1973918676376343, 
        0.03154781460762024, 
        -0.3600939214229584, 
        1.3533341884613037, 
        -0.44766658544540405, 
        -0.11230131983757019, 
        0.03631187602877617, 
        -3.128969669342041, 
        0.1345072239637375, 
        -0.35511133074760437, 
        -0.3826310634613037, 
        -0.063168965280056, 
        -0.12486699223518372, 
        2.073423147201538, 
        0.14460836350917816, 
        0.2486734837293625, 
        0.1205291673541069, 
        1.6104645729064941, 
        0.7587250471115112, 
        0.08986213058233261, 
        -0.03003266640007496, 
        0.35579749941825867, 
        0.16325044631958008, 
        0.7465607523918152, 
        -0.22735220193862915, 
        -0.34249982237815857, 
        -0.00977357104420662, 
        0.016974907368421555, 
        -0.07650832086801529, 
        -0.09713325649499893, 
        0.6676877737045288, 
        0.08446241915225983, 
        0.06068586930632591, 
        -0.1772896945476532, 
        0.006683997809886932, 
        0.14132237434387207, 
        -0.030537618324160576, 
        -0.15729491412639618, 
        0.17017492651939392, 
        0.022728346288204193, 
        0.07681280374526978, 
        0.0993124395608902, 
        0.16398467123508453, 
        0.24225549399852753, 
        0.036655597388744354, 
        0.1737186759710312, 
        -0.034643158316612244, 
        0.08116284012794495, 
        -0.056817326694726944, 
        -0.6230243444442749, 
        0.1085357517004013, 
        -0.10484956204891205, 
        0.16777771711349487, 
        -0.04661891609430313, 
        -0.01538719329982996, 
        0.08021701127290726, 
        -0.18858033418655396, 
        -0.07655796408653259, 
        -0.07633697986602783, 
        -0.2473626583814621, 
        -0.3793838918209076, 
        -0.18892531096935272, 
        0.020957276225090027, 
        0.2551538646221161, 
        0.09150794893503189, 
        0.10615868121385574, 
        0.021554844453930855, 
        0.09413225948810577, 
        0.09307914972305298, 
        0.15109214186668396, 
        -0.05291443690657616, 
        -0.09684952348470688, 
        -0.08394213020801544, 
        -0.10118335485458374, 
        0.000281309214187786, 
        -0.35598620772361755, 
        1.8023872375488281, 
        -0.0012147317174822092, 
        -0.5770725011825562, 
        -0.0639701560139656, 
        -0.1184515729546547, 
        -0.2315405309200287, 
        -0.14827436208724976, 
        -0.2180885374546051, 
        0.10667435079813004, 
        -0.018873782828450203, 
        -0.3022390902042389, 
        0.3466431498527527, 
        -0.05807827413082123, 
        -0.21736900508403778, 
        -0.03580093756318092, 
        -0.43352392315864563, 
        0.025368675589561462, 
        0.531445324420929, 
        -0.06370501220226288, 
        -0.05166066437959671, 
        -0.24855360388755798, 
        0.13954904675483704, 
        0.4927176833152771, 
        0.2271556854248047, 
        0.18828333914279938, 
        -0.049450743943452835, 
        0.6074272990226746, 
        0.1104365661740303, 
        0.1335420161485672, 
        -0.010304620489478111, 
        -0.014535904861986637, 
        -0.22696301341056824, 
        1.0471948385238647, 
        -0.01586650125682354, 
        0.17135734856128693, 
        -0.262096643447876, 
        -0.46575313806533813, 
        0.22871913015842438, 
        0.11022777110338211, 
        1.3356248140335083, 
        0.04861650615930557, 
        -0.37416699528694153, 
        0.22012914717197418, 
        0.5438633561134338, 
        -0.09459353238344193, 
        0.2173652946949005, 
        0.028126580640673637, 
        0.024608397856354713, 
        0.059342194348573685, 
        0.2782329320907593, 
        -0.14113889634609222, 
        0.06613411754369736, 
        -0.47307708859443665, 
        -0.11280442774295807, 
        -0.20770537853240967, 
        0.252896249294281, 
        0.45202019810676575, 
        -0.13122129440307617, 
        0.43068206310272217, 
        -0.45813220739364624, 
        -0.08173485845327377, 
        -0.10342933982610703, 
        -0.0912143662571907, 
        -0.08646105229854584, 
        -0.11867920309305191, 
        0.14084790647029877, 
        -0.01714097149670124, 
        0.06931305676698685, 
        0.22629395127296448, 
        -0.19700658321380615, 
        -0.3203318119049072, 
        -0.06781361252069473, 
        0.019782278686761856, 
        0.3816319406032562, 
        -0.032789357006549835, 
        0.5909764170646667, 
        -0.01770123466849327, 
        -0.07422573119401932, 
        -0.13089913129806519, 
        -0.0580497644841671, 
        -0.0611661896109581, 
        -0.13481557369232178, 
        0.6433101892471313, 
        -0.08067023754119873, 
        -0.031892988830804825, 
        -0.14424683153629303, 
        0.1910800039768219, 
        0.08979633450508118, 
        -0.22067786753177643, 
        -0.051635921001434326, 
        -0.06798703223466873, 
        -0.07150296121835709, 
        0.059677254408597946, 
        0.1442919820547104, 
        -0.12752273678779602, 
        0.10673023015260696, 
        -0.1679225116968155, 
        0.4047861397266388, 
        -0.0845838114619255, 
        -0.18824036419391632, 
        0.2890174984931946, 
        -0.8182788491249084, 
        0.10640416294336319, 
        -0.07128547132015228, 
        0.5647068619728088, 
        0.2694835066795349, 
        0.07212410867214203, 
        0.03874002397060394, 
        -0.0700242891907692, 
        -0.12989996373653412, 
        -0.11241182684898376, 
        0.05671602860093117, 
        0.18984463810920715, 
        -0.19090847671031952, 
        -0.0681508406996727, 
        0.3968767821788788, 
        -0.19415348768234253, 
        -0.04953527823090553, 
        -0.11257336288690567, 
        0.053741950541734695, 
        -0.14977213740348816, 
        -0.1312008798122406, 
        -0.08049197494983673, 
        0.10280771553516388, 
        0.032088905572891235, 
        -0.14535437524318695, 
        -0.1840774565935135, 
        0.0472525916993618, 
        1.4153271913528442, 
        0.17289714515209198, 
        0.025909414514899254, 
        -0.17566156387329102, 
        -0.12388073652982712, 
        -0.06767664849758148, 
        0.15141135454177856, 
        -0.31714901328086853, 
        0.11440188437700272, 
        -0.05410640314221382, 
        -0.15321840345859528, 
        0.2263791412115097, 
        0.0760355144739151, 
        -0.2816888391971588, 
        -0.22036509215831757, 
        -0.6027578711509705, 
        -0.0025621559470891953, 
        0.9287717342376709, 
        -0.02188372053205967, 
        -0.18430420756340027, 
        -0.31827569007873535, 
        -0.04879196360707283, 
        0.4893876612186432, 
        0.2535615861415863, 
        0.17424409091472626, 
        0.05067293718457222, 
        0.5715206861495972, 
        0.35359346866607666, 
        0.024659104645252228, 
        -0.018640195950865746, 
        0.09519433975219727, 
        -0.15192346274852753, 
        0.8916885852813721, 
        -0.044666312634944916, 
        0.012226710096001625, 
        0.37694358825683594, 
        -0.5260494351387024, 
        0.4154980778694153, 
        -0.194807767868042, 
        1.5691367387771606, 
        0.6098885536193848, 
        0.23258794844150543, 
        0.3221438527107239, 
        0.38660386204719543, 
        -0.051971547305583954, 
        0.10072861611843109, 
        -0.1260950118303299, 
        0.025594348087906837, 
        -0.10152284055948257, 
        -0.01932438649237156, 
        -0.15119566023349762, 
        -0.05390814319252968, 
        -0.43754106760025024, 
        -0.07405626028776169, 
        -0.1153838261961937, 
        0.6238200664520264, 
        0.10856526345014572, 
        0.0035210433416068554, 
        0.2507537305355072, 
        -0.5477468371391296, 
        -0.09503132849931717, 
        -0.02891177125275135, 
        -0.029054798185825348, 
        0.09165322780609131, 
        0.03980281949043274, 
        0.925209641456604, 
        0.11576247960329056, 
        -0.14767785370349884, 
        0.0596081018447876, 
        0.2657862603664398, 
        -0.1909678429365158, 
        0.0061471532098948956, 
        0.09302172064781189, 
        2.6595284938812256, 
        0.19464392960071564, 
        0.031776655465364456, 
        -0.5155017971992493, 
        -0.9743234515190125, 
        0.08774883300065994, 
        0.78704833984375, 
        -0.05460231006145477, 
        -0.032282691448926926, 
        0.1590915471315384, 
        -0.057331714779138565, 
        -0.888809859752655, 
        -0.04593334719538689, 
        0.874660074710846, 
        0.01538296602666378, 
        -0.389242023229599, 
        -0.4160870909690857, 
        -0.16165606677532196, 
        -0.005950856022536755, 
        -0.07493587583303452, 
        -0.21776095032691956, 
        -0.3630141615867615, 
        0.6605812311172485, 
        1.3980069160461426, 
        0.9337841272354126, 
        -0.09105255454778671, 
        0.04895927757024765, 
        0.8734972476959229, 
        -2.745051860809326, 
        0.024720054119825363, 
        0.23155614733695984, 
        0.29552045464515686, 
        -0.24621795117855072, 
        -0.5965696573257446, 
        -0.01985243149101734, 
        0.17474256455898285, 
        -0.2250072956085205, 
        -0.294993132352829, 
        0.6559298634529114, 
        -0.3207804560661316, 
        0.46678298711776733, 
        -0.09208036959171295, 
        0.0020737890154123306, 
        -0.007870238274335861, 
        0.09009632468223572, 
        -0.9522276520729065, 
        -0.10554228723049164, 
        0.03842867538332939, 
        -0.08592227101325989, 
        -0.5149374604225159, 
        0.11065205931663513, 
        -0.7372837662696838, 
        -0.07088937610387802, 
        -0.032237708568573, 
        -0.5015256404876709, 
        1.8019770383834839, 
        -1.4075205326080322, 
        -0.0628335028886795, 
        -0.32106566429138184, 
        0.02533069998025894, 
        0.743697464466095, 
        -1.6466445922851562, 
        -2.7973270416259766, 
        -0.0448659285902977, 
        0.07921236008405685, 
        0.302723228931427, 
        -0.686598539352417, 
        -0.23931048810482025, 
        -1.774451494216919, 
        -0.32175782322883606, 
        -2.7407305240631104, 
        -0.04669419676065445, 
        0.27093037962913513, 
        0.05973304435610771, 
        -0.077333964407444, 
        0.08970174193382263, 
        0.0541779063642025, 
        0.5921825170516968, 
        1.3721566200256348, 
        0.5938169360160828, 
        0.0008567968616262078, 
        0.05942977964878082, 
        0.42437946796417236, 
        -1.5716739892959595, 
        -0.08241716772317886, 
        0.07045859098434448, 
        -0.8036196827888489, 
        -0.8643423318862915, 
        0.17565487325191498, 
        -0.055753689259290695, 
        -0.6659688353538513, 
        -3.343859910964966, 
        0.7059503197669983, 
        0.015412483364343643, 
        1.401804804801941, 
        1.4416415691375732, 
        1.4088696241378784, 
        -0.7269797921180725, 
        0.4073561728000641, 
        -0.019917624071240425, 
        0.49346110224723816, 
        -0.5481455326080322, 
        -0.1673050969839096, 
        -0.12415556609630585, 
        -0.6838980913162231, 
        -0.07257268577814102, 
        -0.044406477361917496, 
        -1.5484051704406738, 
        0.11966913193464279, 
        -1.4017448425292969, 
        1.1235612630844116, 
        -0.21606779098510742, 
        -0.06475336849689484, 
        -0.03201817348599434, 
        -3.2308225631713867, 
        -0.07694187760353088, 
        -0.36980199813842773, 
        -0.7265808582305908, 
        -0.08747333288192749, 
        0.1508050113916397, 
        1.1845437288284302, 
        0.015822000801563263, 
        0.6317108273506165, 
        0.26503270864486694, 
        2.6122350692749023, 
        0.9372602701187134, 
        -0.44154781103134155, 
        -0.02636147104203701, 
        0.30210888385772705, 
        0.25653550028800964, 
        1.1503840684890747, 
        -0.6450225710868835, 
        0.4203532338142395, 
        -0.39354628324508667, 
        0.2751865088939667, 
        -0.23171263933181763, 
        0.12370181828737259, 
        1.2155276536941528, 
        -0.4930095970630646, 
        0.8338506817817688, 
        0.07496737688779831, 
        0.5410812497138977, 
        0.5622267723083496, 
        -0.0599040761590004, 
        0.10282840579748154, 
        0.19818535447120667, 
        0.29099059104919434, 
        0.5158509016036987, 
        0.3039003908634186, 
        0.22058247029781342, 
        0.06325734406709671, 
        0.6977383494377136, 
        0.04353684186935425, 
        0.32710155844688416, 
        0.6559301614761353, 
        -0.12652535736560822, 
        1.576263666152954, 
        0.7440502047538757, 
        0.631861686706543, 
        -0.8228101134300232, 
        0.16987480223178864, 
        0.05890294164419174, 
        0.1414780467748642, 
        0.020617423579096794, 
        0.43139979243278503, 
        0.4648075997829437, 
        -0.17139846086502075, 
        0.04415362328290939, 
        0.11324528604745865, 
        0.12646299600601196, 
        0.2544881999492645, 
        -0.27713891863822937, 
        0.08696720749139786, 
        0.6303877830505371, 
        0.7607621550559998, 
        0.36031627655029297, 
        0.11376020312309265, 
        0.33376896381378174, 
        1.594148874282837, 
        0.1691787987947464, 
        0.35660848021507263, 
        -0.2601272463798523, 
        -0.27338820695877075, 
        1.0276358127593994, 
        1.4581174850463867, 
        1.206020474433899, 
        0.37041497230529785, 
        0.2210429161787033, 
        0.5725741386413574, 
        1.1530165672302246, 
        1.6217765808105469, 
        0.18242184817790985, 
        0.2597869336605072, 
        0.24242818355560303, 
        0.9696179628372192, 
        0.662294864654541, 
        1.5905108451843262, 
        0.4772892892360687, 
        1.625016212463379, 
        0.24729715287685394, 
        -0.7322608232498169, 
        0.1931423395872116, 
        0.03216630965471268, 
        0.49751147627830505, 
        -0.1322079747915268, 
        1.045089602470398, 
        0.1369234323501587, 
        0.7927119731903076, 
        0.42512327432632446, 
        1.074724793434143, 
        0.5670179724693298, 
        1.4126394987106323, 
        -0.3976266086101532, 
        -0.32555049657821655, 
        0.11797497421503067, 
        1.1497678756713867, 
        0.4149583578109741, 
        0.4128938913345337, 
        1.260674238204956, 
        1.520625114440918, 
        -0.03517049178481102, 
        1.485566258430481, 
        0.8697651624679565, 
        0.3229576349258423, 
        0.5535548329353333, 
        0.8322494029998779, 
        1.0659301280975342, 
        0.07214944809675217, 
        2.0403192043304443, 
        0.02907378599047661, 
        0.28432345390319824, 
        -0.3163066506385803, 
        0.3568556308746338, 
        0.23357349634170532, 
        0.12067870050668716, 
        0.6025112867355347, 
        0.2817915678024292, 
        0.4287102222442627, 
        -0.7366238832473755, 
        0.9950816631317139, 
        0.050861846655607224, 
        0.599740207195282, 
        1.5630460977554321, 
        0.06515858322381973, 
        0.4660079777240753, 
        0.7640001177787781, 
        0.19552381336688995, 
        0.13068459928035736, 
        0.0004899550694972277, 
        0.1747014820575714, 
        0.13566677272319794, 
        0.3591213822364807, 
        0.921697199344635, 
        0.46538257598876953, 
        0.23001524806022644, 
        0.0937846377491951, 
        0.6393119096755981, 
        -0.656493067741394, 
        -0.076407790184021, 
        1.1414237022399902, 
        2.1386475563049316, 
        0.27024856209754944, 
        0.5982462167739868, 
        -0.10169032216072083, 
        -0.10749556124210358, 
        -1.224619746208191, 
        0.04306776821613312, 
        -0.3682898283004761, 
        0.12948398292064667, 
        0.23624396324157715, 
        0.19682511687278748, 
        0.4079315662384033, 
        -0.17055532336235046, 
        -0.3509390354156494, 
        -0.16766807436943054, 
        -0.4454706013202667, 
        0.1735057234764099, 
        -0.09169254451990128, 
        0.8412010073661804, 
        -0.6800004839897156, 
        1.739858865737915, 
        0.44944265484809875, 
        -0.20117239654064178, 
        1.1708078384399414, 
        -2.374391794204712, 
        -0.7781558036804199, 
        0.18396583199501038, 
        1.9822839498519897, 
        1.5019866228103638, 
        0.38526976108551025, 
        0.10428658127784729, 
        0.3863010108470917, 
        -0.39070335030555725, 
        5.264834544504993e-05, 
        0.6382076144218445, 
        2.0359227657318115, 
        0.40499886870384216, 
        -0.08484391868114471, 
        1.2987792491912842, 
        -0.06997812539339066, 
        -0.44773754477500916, 
        -0.33025652170181274, 
        -0.1774427741765976, 
        0.1303197741508484, 
        0.17887263000011444, 
        0.9573007225990295, 
        -1.2271311283111572, 
        0.28936153650283813, 
        -0.3200175166130066, 
        -0.37599194049835205, 
        1.250749111175537, 
        -0.3357120156288147, 
        -0.482852965593338, 
        2.536874532699585, 
        0.1787409782409668, 
        0.3026166558265686, 
        0.5797747373580933, 
        2.512373447418213, 
        -2.619586229324341, 
        -0.034696053713560104, 
        -0.1461644321680069, 
        1.338134527206421, 
        -0.1321839988231659, 
        -0.4032473564147949, 
        -1.73707914352417, 
        -0.0026208588387817144, 
        -2.2853028774261475, 
        -0.11999507248401642, 
        2.270549774169922, 
        0.1490977555513382, 
        -0.4619384706020355, 
        0.9515959024429321, 
        -0.5727744698524475, 
        -0.02335219644010067, 
        0.8566299080848694, 
        0.28794988989830017, 
        -0.1736024171113968, 
        -0.6659331321716309, 
        3.627283811569214, 
        -0.4266965687274933, 
        -0.1468975991010666, 
        -0.1788916438817978, 
        1.796326994895935, 
        -1.0133593082427979, 
        0.23534785211086273, 
        -0.06359467655420303, 
        2.1087732315063477, 
        -2.911405563354492, 
        0.9455283880233765, 
        -0.9208950400352478, 
        0.42656534910202026, 
        2.1161386966705322, 
        2.3394405841827393, 
        1.9410353899002075, 
        -0.9016630053520203, 
        0.0641133040189743, 
        -0.606705904006958, 
        -0.525914192199707, 
        -0.053316809237003326, 
        0.1395486742258072, 
        -0.28001704812049866, 
        0.15443462133407593, 
        -0.01679372787475586, 
        1.7890855073928833, 
        -0.22845661640167236, 
        0.5162046551704407, 
        1.666625738143921, 
        -0.40269792079925537, 
        0.13188409805297852, 
        -0.6526961326599121, 
        -2.973936080932617, 
        0.05933810770511627, 
        0.31328442692756653, 
        0.4770781993865967, 
        0.02148393914103508, 
        0.23562081158161163, 
        2.2324347496032715, 
        -0.5390360951423645, 
        0.30749160051345825, 
        -0.5338317155838013, 
        1.649804711341858, 
        0.9575268030166626, 
        0.3030695915222168, 
        -0.15848879516124725, 
        0.45435404777526855, 
        -0.10012306272983551, 
        0.7317906022071838, 
        -0.23183538019657135, 
        -0.12189356982707977, 
        -0.22503873705863953, 
        -0.02921276167035103, 
        -0.05660786107182503, 
        0.02316596545279026, 
        0.5832637548446655, 
        -0.07051940262317657, 
        0.07485461235046387, 
        -0.08348363637924194, 
        0.03591267019510269, 
        -0.06641822308301926, 
        0.02068094164133072, 
        0.01530366763472557, 
        0.09377362579107285, 
        -0.23261407017707825, 
        0.06577017903327942, 
        0.12529884278774261, 
        0.04574498161673546, 
        0.19145184755325317, 
        -0.19101180136203766, 
        0.32869723439216614, 
        0.021624695509672165, 
        0.009573946706950665, 
        0.002559320069849491, 
        -0.5736405849456787, 
        0.24313078820705414, 
        -0.07229229807853699, 
        0.29418739676475525, 
        0.0054814512841403484, 
        -0.170603409409523, 
        -0.09293988347053528, 
        -0.0018167163943871856, 
        -0.20510151982307434, 
        0.06835171580314636, 
        -0.08575338870286942, 
        -0.22512802481651306, 
        -0.05489339679479599, 
        -0.019282281398773193, 
        0.1205211877822876, 
        0.06167851760983467, 
        -0.1382540911436081, 
        -0.013239881955087185, 
        -0.15455077588558197, 
        -0.08472760766744614, 
        0.0356338731944561, 
        -0.03356114774942398, 
        -0.03484867140650749, 
        -0.07411710172891617, 
        0.04169902205467224, 
        -0.19235879182815552, 
        -0.1893833875656128, 
        1.5993120670318604, 
        0.15150083601474762, 
        -0.7265673875808716, 
        -0.15944838523864746, 
        0.058781400322914124, 
        -0.19977670907974243, 
        -0.2721133232116699, 
        -0.25098803639411926, 
        -0.012279482558369637, 
        -0.15576857328414917, 
        -0.3410525918006897, 
        0.23127517104148865, 
        -0.15045742690563202, 
        -0.40852782130241394, 
        -0.018771613016724586, 
        -0.5821248888969421, 
        -0.03444189950823784, 
        0.6225852966308594, 
        -0.031092094257473946, 
        -0.15644493699073792, 
        -0.3920968770980835, 
        -0.01119286846369505, 
        0.4555264413356781, 
        0.16880567371845245, 
        -0.06214653328061104, 
        0.04957568645477295, 
        0.663486123085022, 
        0.16187147796154022, 
        -0.26690617203712463, 
        0.02766159363090992, 
        -0.09090100973844528, 
        -0.23609162867069244, 
        0.640475869178772, 
        0.04986466467380524, 
        -0.12489805370569229, 
        -0.0895884707570076, 
        -0.5124168992042542, 
        0.22219187021255493, 
        -0.07384076714515686, 
        1.3842295408248901, 
        0.24671530723571777, 
        -0.13977330923080444, 
        -0.020117707550525665, 
        0.5010824799537659, 
        -0.21830616891384125, 
        0.13509157299995422, 
        0.06340646743774414, 
        0.03054206073284149, 
        0.015830790624022484, 
        0.174630269408226, 
        0.01159102376550436, 
        -0.12620577216148376, 
        -0.39647597074508667, 
        -0.1899683028459549, 
        -0.18405909836292267, 
        0.42321041226387024, 
        0.30957043170928955, 
        -0.05306491255760193, 
        0.05023561045527458, 
        -0.44616758823394775, 
        0.10619919747114182, 
        -0.20027674734592438, 
        0.06217966228723526, 
        -0.13109491765499115, 
        0.08846952021121979, 
        0.3309049904346466, 
        0.15719199180603027, 
        0.019829897210001945, 
        0.012735361233353615, 
        -0.16560612618923187, 
        -0.3699643909931183, 
        -0.026586182415485382, 
        0.05982324853539467, 
        1.3883215188980103, 
        -0.0936957523226738, 
        -0.0755237564444542, 
        0.9852458238601685, 
        1.8533600568771362, 
        -0.25193044543266296, 
        0.7427334785461426, 
        -0.2409873604774475, 
        -0.31872794032096863, 
        -0.6409443616867065, 
        -0.047459185123443604, 
        -0.5882741808891296, 
        0.15078133344650269, 
        0.8512237071990967, 
        0.1687590330839157, 
        1.2065298557281494, 
        -0.4281967580318451, 
        0.33805790543556213, 
        0.010515840724110603, 
        -0.7537439465522766, 
        -0.36515170335769653, 
        -0.307889848947525, 
        0.5855156779289246, 
        0.45691975951194763, 
        1.680564284324646, 
        0.15665827691555023, 
        -0.2639854848384857, 
        0.5040287375450134, 
        -2.7515838146209717, 
        -0.28581032156944275, 
        -0.24269148707389832, 
        1.7180222272872925, 
        1.6086210012435913, 
        -0.019739903509616852, 
        -0.11130975186824799, 
        0.5302921533584595, 
        -0.3455316126346588, 
        0.08384854346513748, 
        0.782882809638977, 
        1.8489711284637451, 
        0.8197259902954102, 
        -0.03782747685909271, 
        1.020447015762329, 
        -0.12033435702323914, 
        0.14008578658103943, 
        -0.5213071703910828, 
        -0.07877617329359055, 
        -0.00737306522205472, 
        0.100423663854599, 
        0.5415400862693787, 
        -0.25995931029319763, 
        -0.5565688610076904, 
        -0.3215593099594116, 
        -0.029096519574522972, 
        1.6927610635757446, 
        0.25373080372810364, 
        0.14713874459266663, 
        2.3143346309661865, 
        -0.6523507237434387, 
        0.43784353137016296, 
        0.5070998072624207, 
        2.2635529041290283, 
        -1.9376513957977295, 
        -0.10534500330686569, 
        -0.1914033591747284, 
        1.3510862588882446, 
        -1.0905182361602783, 
        -0.22762459516525269, 
        -0.9415645599365234, 
        -0.26425787806510925, 
        -2.270413398742676, 
        -0.05720125511288643, 
        1.5923584699630737, 
        -0.20752398669719696, 
        0.008801576681435108, 
        0.6299765110015869, 
        -0.3575383424758911, 
        0.32217711210250854, 
        1.025191068649292, 
        -0.361388623714447, 
        -0.1551600694656372, 
        -1.111617922782898, 
        2.8842689990997314, 
        -1.0186641216278076, 
        -0.10262084007263184, 
        -0.1264558732509613, 
        1.8498725891113281, 
        -0.5357251763343811, 
        0.12890571355819702, 
        0.19932805001735687, 
        2.253718852996826, 
        -2.6694135665893555, 
        0.7421470880508423, 
        -0.35457322001457214, 
        0.792597234249115, 
        2.3990371227264404, 
        2.2333333492279053, 
        2.015277862548828, 
        0.31378814578056335, 
        -0.4115475118160248, 
        0.13756383955478668, 
        -0.05988893657922745, 
        -0.1464337557554245, 
        0.08950181305408478, 
        -0.4378787577152252, 
        0.13344360888004303, 
        -0.10029161721467972, 
        1.2311499118804932, 
        -0.200991690158844, 
        0.2815365195274353, 
        1.3850611448287964, 
        -0.20928795635700226, 
        0.12714509665966034, 
        -0.4248647391796112, 
        -1.9325321912765503, 
        -0.11803534626960754, 
        -0.49333804845809937, 
        -0.07760947942733765, 
        0.17863264679908752, 
        0.18644794821739197, 
        1.8068573474884033, 
        -0.20631751418113708, 
        0.4233783781528473, 
        -0.4704587757587433, 
        1.6505087614059448, 
        0.8539870977401733, 
        0.008978922851383686, 
        -0.1355070322751999, 
        0.2887742817401886, 
        0.22896231710910797, 
        0.5013748407363892, 
        -0.16794727742671967, 
        -0.11537063866853714, 
        -0.09649021923542023, 
        -0.11159298568964005, 
        -0.042948249727487564, 
        0.07105893641710281, 
        0.5239302515983582, 
        -0.12201768159866333, 
        0.13827946782112122, 
        0.09764639288187027, 
        -0.20330598950386047, 
        -0.011506681330502033, 
        -0.12328372895717621, 
        0.08521349728107452, 
        0.1690666824579239, 
        -0.10303601622581482, 
        -0.031077323481440544, 
        -0.005856789648532867, 
        0.02219879813492298, 
        -0.05595449358224869, 
        0.1637236624956131, 
        0.2930052578449249, 
        0.12753166258335114, 
        0.019829992204904556, 
        0.05471125245094299, 
        -0.5072958469390869, 
        0.2811378538608551, 
        0.05026644468307495, 
        0.21136872470378876, 
        0.1270238161087036, 
        0.11518755555152893, 
        -0.0025713020004332066, 
        -0.09985177963972092, 
        0.11338336020708084, 
        -0.11887648701667786, 
        -0.033528637140989304, 
        -0.23468266427516937, 
        -0.2956164479255676, 
        -0.05086633935570717, 
        0.5142989754676819, 
        -0.1551087349653244, 
        0.07229737192392349, 
        0.02797415293753147, 
        0.09416254609823227, 
        -0.049771636724472046, 
        -0.05281383916735649, 
        -0.06926266849040985, 
        0.09943115711212158, 
        -0.025041213259100914, 
        0.13888239860534668, 
        -0.18416151404380798, 
        -0.03512914106249809, 
        1.5629222393035889, 
        0.09674715250730515, 
        -0.3424704372882843, 
        0.12154587358236313, 
        0.0015432812506332994, 
        -0.01818753033876419, 
        0.13229499757289886, 
        -0.28239133954048157, 
        -0.12263396382331848, 
        -0.12831975519657135, 
        -0.2097233384847641, 
        0.21876056492328644, 
        -0.06079501286149025, 
        -0.30516213178634644, 
        -0.15695850551128387, 
        -0.35415205359458923, 
        0.12538887560367584, 
        0.3830000162124634, 
        -0.12402262538671494, 
        0.13942043483257294, 
        -0.31005316972732544, 
        0.16400820016860962, 
        0.513853132724762, 
        -0.002645720262080431, 
        -0.04087400436401367, 
        -0.14159569144248962, 
        0.5134379267692566, 
        0.08034006506204605, 
        0.030448175966739655, 
        0.1123802587389946, 
        0.12680014967918396, 
        -0.17163993418216705, 
        0.8171853423118591, 
        -0.015223737806081772, 
        -0.01715676300227642, 
        -0.1001775786280632, 
        -0.33199700713157654, 
        0.37412717938423157, 
        0.1688065230846405, 
        1.5248161554336548, 
        -0.020128881558775902, 
        -0.18052273988723755, 
        0.24526260793209076, 
        0.33971405029296875, 
        0.117721788585186, 
        0.04271616041660309, 
        -0.06896387040615082, 
        -0.053970757871866226, 
        0.057865921407938004, 
        0.14236555993556976, 
        0.02631458267569542, 
        -0.11953160166740417, 
        -0.39848655462265015, 
        0.08090891689062119, 
        0.0394224114716053, 
        0.27506470680236816, 
        0.38213568925857544, 
        0.07500378042459488, 
        0.24409973621368408, 
        -0.2847529947757721, 
        -0.09913624078035355, 
        -0.19632038474082947, 
        -0.06439192593097687, 
        0.16007868945598602, 
        0.12218388170003891, 
        0.6045600175857544, 
        -0.0013401168398559093, 
        -0.0021205225493758917, 
        0.0422094389796257, 
        -0.2872297167778015, 
        -0.3998124599456787, 
        0.10760565847158432, 
        -0.0029612667858600616, 
        1.542343258857727, 
        -0.06709745526313782, 
        -0.2467813789844513, 
        0.783519983291626, 
        1.6218661069869995, 
        -0.08674430102109909, 
        0.1397414654493332, 
        -0.0032200326677411795, 
        -0.17848043143749237, 
        -0.5069568753242493, 
        -0.011189441196620464, 
        -0.6227348446846008, 
        -0.06124958395957947, 
        0.49708622694015503, 
        0.11348225176334381, 
        -0.24435392022132874, 
        -0.2601814568042755, 
        0.3672410845756531, 
        -0.20973479747772217, 
        -0.028066907078027725, 
        0.08740044385194778, 
        -0.05091769993305206, 
        0.9803937077522278, 
        0.3636033535003662, 
        1.5950250625610352, 
        -0.008453813381493092, 
        -0.22146427631378174, 
        1.1156030893325806, 
        -2.758143663406372, 
        -0.23671038448810577, 
        -0.06071700155735016, 
        1.6590640544891357, 
        0.10079494118690491, 
        -0.20424148440361023, 
        0.019356906414031982, 
        0.09531792998313904, 
        -0.16063717007637024, 
        -0.2429407387971878, 
        0.1301054060459137, 
        1.9577841758728027, 
        0.2936916947364807, 
        -0.01754903234541416, 
        0.33424872159957886, 
        -0.08168891817331314, 
        -0.01474341843277216, 
        -0.18125247955322266, 
        -0.2907073199748993, 
        -0.0011568954214453697, 
        -0.028291737660765648, 
        0.12965303659439087, 
        0.8138548731803894, 
        -0.263818621635437, 
        -0.0448949821293354, 
        -0.011195837520062923, 
        0.7984596490859985, 
        -0.018352363258600235, 
        -0.9138849973678589, 
        2.262507438659668, 
        -0.25119340419769287, 
        0.11126377433538437, 
        0.2481280267238617, 
        1.8282743692398071, 
        -2.128838539123535, 
        0.05556130409240723, 
        0.08295171707868576, 
        0.9328722357749939, 
        0.10590408742427826, 
        -0.17114059627056122, 
        -1.4501968622207642, 
        -0.20143042504787445, 
        -2.6261439323425293, 
        -0.22463634610176086, 
        2.2635068893432617, 
        -0.11599597334861755, 
        -0.05234876647591591, 
        0.029890818521380424, 
        0.0003359010152053088, 
        -0.051568303257226944, 
        0.003986541647464037, 
        -0.2355397790670395, 
        0.03931346908211708, 
        -0.3658235967159271, 
        0.9598712921142578, 
        -1.409233808517456, 
        -0.06140619143843651, 
        -0.11763045936822891, 
        1.2218658924102783, 
        -0.8761234283447266, 
        -0.1441592127084732, 
        -0.049490656703710556, 
        2.161111831665039, 
        -2.694279909133911, 
        0.6455060243606567, 
        0.09455296397209167, 
        0.947518527507782, 
        1.8542782068252563, 
        2.1389386653900146, 
        1.5687527656555176, 
        0.028096938505768776, 
        -0.10881689935922623, 
        0.5228498578071594, 
        -0.14051255583763123, 
        -0.10633556544780731, 
        -0.20018579065799713, 
        -0.14444786310195923, 
        -0.16462646424770355, 
        -0.14157775044441223, 
        1.2611438035964966, 
        0.0822039246559143, 
        -0.1637152135372162, 
        1.757305383682251, 
        -0.7335082292556763, 
        -0.2365313172340393, 
        -0.3667510151863098, 
        -2.4885504245758057, 
        0.07853958010673523, 
        -0.15410088002681732, 
        -0.023430071771144867, 
        -0.10497500747442245, 
        0.1229029968380928, 
        2.0758612155914307, 
        0.027028750628232956, 
        0.050345975905656815, 
        0.041975561529397964, 
        1.489039421081543, 
        0.42777785658836365, 
        0.22148685157299042, 
        -0.03946541249752045, 
        0.10156640410423279, 
        0.17714738845825195, 
        0.28242480754852295, 
        -0.21479716897010803, 
        -0.08200911432504654, 
        -0.10429733991622925, 
        -0.018022440373897552, 
        -0.08990080654621124, 
        -0.17175520956516266, 
        0.5645396113395691, 
        -0.07804883271455765, 
        -0.05937279760837555, 
        -0.14299684762954712, 
        -0.23694483935832977, 
        -0.019096309319138527, 
        -0.1780620664358139, 
        -0.1734025627374649, 
        0.04835774376988411, 
        0.017476344481110573, 
        0.02517193742096424, 
        0.10236099362373352, 
        0.13899417221546173, 
        -0.08841517567634583, 
        -0.06399025768041611, 
        0.04918452352285385, 
        0.1608266532421112, 
        -0.13038083910942078, 
        -0.11082426458597183, 
        -0.06768151372671127, 
        0.290844589471817, 
        0.11152175813913345, 
        0.03231970965862274, 
        -0.04081331565976143, 
        -0.16616035997867584, 
        -0.13185817003250122, 
        0.029928162693977356, 
        -0.05100594833493233, 
        -0.04924802482128143, 
        -0.02462592162191868, 
        -0.16749785840511322, 
        -0.052740562707185745, 
        -0.040203820914030075, 
        0.28208571672439575, 
        -0.042293399572372437, 
        0.15756872296333313, 
        0.09396956861019135, 
        -0.05460590496659279, 
        0.01074988767504692, 
        -0.11741077899932861, 
        -0.06224808096885681, 
        0.04121189936995506, 
        -0.000516778789460659, 
        0.03752057999372482, 
        0.072374127805233, 
        -0.1151132732629776, 
        0.8529397249221802, 
        0.2018050104379654, 
        -0.15090858936309814, 
        0.002381635829806328, 
        -0.20837774872779846, 
        -0.0705825611948967, 
        0.10148560255765915, 
        0.02367405965924263, 
        0.02977374941110611, 
        -0.10332795232534409, 
        -0.154128760099411, 
        0.19988463819026947, 
        0.03528744727373123, 
        -0.15797775983810425, 
        -0.19974780082702637, 
        -0.009739435277879238, 
        0.0635107085108757, 
        0.2897699177265167, 
        -0.14845165610313416, 
        0.13772763311862946, 
        -0.1303451657295227, 
        0.0666179284453392, 
        0.430314302444458, 
        0.03974223881959915, 
        0.15055733919143677, 
        0.09495989233255386, 
        0.2668841779232025, 
        0.15482133626937866, 
        0.24139578640460968, 
        0.08755577355623245, 
        -0.08138706535100937, 
        -0.1362999826669693, 
        0.6022298336029053, 
        -0.0025509416591376066, 
        -0.045605070888996124, 
        -0.09977281838655472, 
        0.03270319104194641, 
        0.0620785728096962, 
        0.11563766002655029, 
        0.8507226705551147, 
        0.022949470207095146, 
        -0.37941884994506836, 
        0.14569687843322754, 
        0.451949805021286, 
        -0.18025526404380798, 
        0.18966609239578247, 
        0.06533146649599075, 
        0.14142709970474243, 
        0.035361453890800476, 
        0.14253808557987213, 
        -0.12758268415927887, 
        -0.0619230717420578, 
        -0.21993476152420044, 
        -0.10294923931360245, 
        -0.20383743941783905, 
        -0.0222675409168005, 
        0.08220269531011581, 
        -0.1369451880455017, 
        0.3406740725040436, 
        -0.016893967986106873, 
        -0.029727952554821968, 
        -0.20750010013580322, 
        0.06760237365961075, 
        0.10883449763059616, 
        -0.04546462371945381, 
        0.21704772114753723, 
        0.06938398629426956, 
        0.06509708613157272, 
        0.04949858784675598, 
        -0.25710463523864746, 
        -0.13197246193885803, 
        0.1018717959523201, 
        -0.1688244491815567, 
        0.18462887406349182, 
        -0.09061907976865768, 
        0.48662176728248596, 
        -0.2644922435283661, 
        -0.23228038847446442, 
        -0.08453254401683807, 
        -0.1321653425693512, 
        0.04580776020884514, 
        -0.020614489912986755, 
        0.6942101716995239, 
        -0.16323353350162506, 
        0.10415524244308472, 
        -0.08164715021848679, 
        0.11902128905057907, 
        0.04152258113026619, 
        0.08019174635410309, 
        -0.20472073554992676, 
        -0.04800062254071236, 
        -0.18878839910030365, 
        -0.10995271056890488, 
        0.012925018556416035, 
        -0.04225078597664833, 
        0.24758762121200562, 
        0.009515807963907719, 
        0.43013250827789307, 
        0.18947751820087433, 
        0.020777422934770584, 
        0.16848747432231903, 
        -0.7662090063095093, 
        0.14079295098781586, 
        0.06788312643766403, 
        0.5857750773429871, 
        -0.0031852766405791044, 
        0.1354718655347824, 
        -0.03920535370707512, 
        -0.022683802992105484, 
        0.019104527309536934, 
        -0.07588820159435272, 
        -0.02885156311094761, 
        -0.288485050201416, 
        -0.26115208864212036, 
        -0.04138089343905449, 
        0.4334090054035187, 
        0.07909990102052689, 
        0.18606911599636078, 
        0.08587822318077087, 
        -0.16006790101528168, 
        0.08209389448165894, 
        0.16254933178424835, 
        -0.03534324839711189, 
        -0.12483785301446915, 
        -0.05631198361515999, 
        -0.06903743743896484, 
        0.0451461598277092, 
        -0.04654090851545334, 
        1.5385470390319824, 
        0.2789866626262665, 
        -0.22620657086372375, 
        0.1076834499835968, 
        0.06163700670003891, 
        -0.20961451530456543, 
        -0.08463683724403381, 
        -0.2595658004283905, 
        0.037977371364831924, 
        -0.03722822666168213, 
        -0.2852913737297058, 
        0.1467852145433426, 
        -0.07002586126327515, 
        -0.31654712557792664, 
        -0.11522554606199265, 
        -0.5051234364509583, 
        0.024991603568196297, 
        0.5032326579093933, 
        0.05567271634936333, 
        0.12337346374988556, 
        -0.14523868262767792, 
        3.532361370162107e-05, 
        0.613349437713623, 
        0.09513947367668152, 
        0.09684804826974869, 
        0.03570592775940895, 
        0.2957741320133209, 
        0.5017525553703308, 
        0.014617664739489555, 
        -0.03504496067762375, 
        -0.10550837963819504, 
        -0.19047819077968597, 
        0.8449164032936096, 
        0.149575874209404, 
        0.10658527910709381, 
        0.4041405916213989, 
        -0.47658106684684753, 
        0.33146345615386963, 
        -0.05806099623441696, 
        1.6571565866470337, 
        0.14594779908657074, 
        -0.1518000215291977, 
        0.2008906453847885, 
        0.39629241824150085, 
        -0.1337430477142334, 
        -0.09467558562755585, 
        0.1472422182559967, 
        -0.12907128036022186, 
        -0.044404082000255585, 
        0.30999913811683655, 
        0.12529240548610687, 
        0.01642066426575184, 
        -0.4618707299232483, 
        0.08410660177469254, 
        -0.16160021722316742, 
        0.5531696081161499, 
        0.23145118355751038, 
        -0.13528472185134888, 
        0.3141609728336334, 
        -0.42803505063056946, 
        0.009672150947153568, 
        0.01066528633236885, 
        -0.05837244540452957, 
        0.03774704784154892, 
        0.042188066989183426, 
        0.6448183655738831, 
        0.13178874552249908, 
        -0.06244255229830742, 
        0.03306077420711517, 
        -0.23917296528816223, 
        -0.3297670781612396, 
        -0.09810594469308853, 
        -0.04703757166862488, 
        0.4246031939983368, 
        -0.05326160416007042, 
        0.27341654896736145, 
        -0.24980273842811584, 
        -0.22654174268245697, 
        -0.2022905796766281, 
        -0.20651449263095856, 
        0.10223989933729172, 
        -0.08324424177408218, 
        0.3198026120662689, 
        0.10942249745130539, 
        -0.024152018129825592, 
        -0.17108239233493805, 
        -0.002212237101048231, 
        0.027935737743973732, 
        -0.15657669305801392, 
        0.05775025114417076, 
        0.016469381749629974, 
        -0.13911789655685425, 
        -0.08267631381750107, 
        0.08103804290294647, 
        -0.10921674221754074, 
        0.09298282861709595, 
        -0.200496107339859, 
        0.19168692827224731, 
        -0.049820784479379654, 
        -0.0018721864325925708, 
        -0.023139027878642082, 
        -0.676601767539978, 
        0.1478118747472763, 
        0.05840792506933212, 
        0.15706738829612732, 
        0.004177479073405266, 
        -0.026693962514400482, 
        -0.18204376101493835, 
        -0.1344558298587799, 
        -0.04742702469229698, 
        -0.0976409837603569, 
        -0.11948908120393753, 
        -0.1327773928642273, 
        -0.2793359160423279, 
        -0.05787132680416107, 
        0.1639072448015213, 
        0.010508949868381023, 
        -0.06927688419818878, 
        -0.03669239953160286, 
        -0.07672356814146042, 
        0.01894446648657322, 
        0.010212752968072891, 
        0.022440040484070778, 
        0.09134054183959961, 
        0.018100405111908913, 
        -0.1281445473432541, 
        -0.035695724189281464, 
        -0.03138928860425949, 
        1.1124199628829956, 
        -0.010682662948966026, 
        -0.36839351058006287, 
        -0.15911917388439178, 
        -0.2175419181585312, 
        -0.10496408492326736, 
        -0.1236775815486908, 
        -0.2152550220489502, 
        0.12850037217140198, 
        -0.17420236766338348, 
        -0.2876182794570923, 
        0.17944687604904175, 
        0.09603027999401093, 
        -0.20759695768356323, 
        0.024179046973586082, 
        -0.438614159822464, 
        0.02420012839138508, 
        0.7371810078620911, 
        -0.14289318025112152, 
        0.005785960238426924, 
        -0.23755784332752228, 
        -0.021451851353049278, 
        0.2851507365703583, 
        0.17760924994945526, 
        -0.044907670468091965, 
        -0.05640074610710144, 
        0.23139135539531708, 
        -0.030349498614668846, 
        -0.04234429448843002, 
        0.05865893512964249, 
        -0.02677750028669834, 
        -0.2669667601585388, 
        0.26140403747558594, 
        0.11990123987197876, 
        -0.10227319598197937, 
        -0.25351616740226746, 
        -0.5107040405273438, 
        0.06469134241342545, 
        0.012374251149594784, 
        1.3026647567749023, 
        0.1499285250902176, 
        -0.3498404622077942, 
        0.04787583276629448, 
        0.21349695324897766, 
        -0.10887358337640762, 
        0.12964476644992828, 
        -0.03036613017320633, 
        0.12457876652479172, 
        -0.06065426766872406, 
        0.07624483108520508, 
        -0.02240644209086895, 
        -0.192509725689888, 
        -0.3321264684200287, 
        -0.153152734041214, 
        -0.16901639103889465, 
        0.3948202431201935, 
        0.2891191840171814, 
        0.016729818657040596, 
        0.3250669240951538, 
        -0.34060272574424744, 
        0.11712216585874557, 
        -0.19976402819156647, 
        0.15832096338272095, 
        0.04970932379364967, 
        -0.016850749030709267, 
        0.11906778812408447, 
        -0.01275569386780262, 
        -0.015524769201874733, 
        -0.014127524569630623, 
        -0.19980403780937195, 
        -0.2483764886856079, 
        -0.023537106812000275, 
        0.13040728867053986, 
        0.9528486132621765, 
        0.0474703311920166, 
        -0.2513558864593506, 
        1.056683897972107, 
        1.995068073272705, 
        -0.09235357493162155, 
        0.053107164800167084, 
        -0.1318032294511795, 
        -0.17652936279773712, 
        -0.8648025989532471, 
        -0.04914410412311554, 
        -0.3577972650527954, 
        -0.05523042380809784, 
        0.5210692286491394, 
        0.0024796375073492527, 
        -0.268974632024765, 
        -0.1396929919719696, 
        0.44278615713119507, 
        -0.24770869314670563, 
        -0.15516574680805206, 
        0.052892543375492096, 
        -0.13418418169021606, 
        0.8129466772079468, 
        0.20454636216163635, 
        1.3619619607925415, 
        -0.2664886713027954, 
        -0.478969931602478, 
        0.9683343172073364, 
        -2.768040418624878, 
        -0.3110644817352295, 
        0.03753553330898285, 
        1.5402942895889282, 
        0.8626012206077576, 
        -0.1550283432006836, 
        -0.15562313795089722, 
        0.04164727032184601, 
        -0.30930912494659424, 
        -0.15802869200706482, 
        1.0302406549453735, 
        1.5360811948776245, 
        0.24390968680381775, 
        -0.01881568878889084, 
        0.004170066677033901, 
        -0.20171070098876953, 
        -0.1119554340839386, 
        -0.34908604621887207, 
        0.03997015208005905, 
        -0.27723750472068787, 
        0.006296796724200249, 
        -0.2795323431491852, 
        0.1892031878232956, 
        -0.3821675181388855, 
        -0.12301760166883469, 
        -0.12649719417095184, 
        0.5351676344871521, 
        0.493218332529068, 
        -0.750975489616394, 
        1.9715790748596191, 
        -0.2603701949119568, 
        0.0420696996152401, 
        0.6620995402336121, 
        1.6908074617385864, 
        -2.416165351867676, 
        0.049983713775873184, 
        -0.15087997913360596, 
        0.8024067878723145, 
        -0.3328315019607544, 
        -0.33576175570487976, 
        -1.4802815914154053, 
        -0.2762742340564728, 
        -2.3685972690582275, 
        -0.16242924332618713, 
        2.3234145641326904, 
        -0.15405860543251038, 
        -0.18819648027420044, 
        -0.11040951311588287, 
        0.11454165726900101, 
        -0.23262040317058563, 
        1.1493356227874756, 
        0.3028150796890259, 
        -0.09924137592315674, 
        -0.7723575830459595, 
        0.7689191699028015, 
        -1.1750223636627197, 
        -0.23496438562870026, 
        -0.04185892641544342, 
        1.257368564605713, 
        -0.43011149764060974, 
        0.0693349689245224, 
        -0.07264392822980881, 
        1.8386516571044922, 
        -2.6805248260498047, 
        1.1044896841049194, 
        0.03270186483860016, 
        0.7669122815132141, 
        1.9595308303833008, 
        2.8122708797454834, 
        1.0278923511505127, 
        0.10498878359794617, 
        -0.15055876970291138, 
        1.0055903196334839, 
        0.011184950359165668, 
        0.06504008919000626, 
        0.03856371343135834, 
        -0.19795407354831696, 
        -0.0013592768227681518, 
        -0.18950162827968597, 
        1.1303110122680664, 
        -0.3596549928188324, 
        -0.3877844512462616, 
        1.7649214267730713, 
        -0.8566197156906128, 
        -0.02668338268995285, 
        -0.10972881317138672, 
        -2.5606095790863037, 
        0.16269312798976898, 
        -0.2260272204875946, 
        -0.33711814880371094, 
        -0.016990795731544495, 
        -0.09301499277353287, 
        1.9597406387329102, 
        0.030541911721229553, 
        0.18600906431674957, 
        -0.10967771708965302, 
        1.7993321418762207, 
        0.6600721478462219, 
        0.08435916155576706, 
        -0.09388467669487, 
        0.5411169528961182, 
        -0.07077433168888092, 
        0.3166451156139374, 
        -0.011208601295948029, 
        -0.2890073359012604, 
        -0.008069698698818684, 
        -0.12289372086524963, 
        0.07653229683637619, 
        0.08318772166967392, 
        0.4866187870502472, 
        0.1031927540898323, 
        0.06657188385725021, 
        -0.19122956693172455, 
        0.11822131276130676, 
        -0.02031572535634041, 
        -0.0054192915558815, 
        -0.1854037046432495, 
        0.04478670284152031, 
        -0.1033170223236084, 
        -0.02935357391834259, 
        0.06221050024032593, 
        0.01431870274245739, 
        0.19357682764530182, 
        -0.007639083545655012, 
        0.6011186838150024, 
        -0.04544448107481003, 
        0.02075461857020855, 
        -0.04124191775918007, 
        -0.9160050749778748, 
        -0.01787705533206463, 
        0.03762098774313927, 
        0.60451740026474, 
        -0.03256494551897049, 
        -0.1987474113702774, 
        -0.15105906128883362, 
        -0.1400436908006668, 
        0.05139300972223282, 
        -0.18996423482894897, 
        0.18488289415836334, 
        -0.027193741872906685, 
        -0.11662150919437408, 
        0.10585636645555496, 
        0.03916848078370094, 
        -0.07545285671949387, 
        0.08613040298223495, 
        0.08210296183824539, 
        -0.15706267952919006, 
        -0.103818878531456, 
        0.0808119922876358, 
        -0.18901380896568298, 
        -0.18220539391040802, 
        0.0638861358165741, 
        0.018061090260744095, 
        0.04404565691947937, 
        -0.051832396537065506, 
        1.411353588104248, 
        -0.019269999116659164, 
        -0.4607134461402893, 
        0.07023094594478607, 
        -0.037911951541900635, 
        0.06299899518489838, 
        -0.11831463873386383, 
        -0.4620741307735443, 
        0.037955448031425476, 
        -0.04967799037694931, 
        -0.3449420630931854, 
        0.08157509565353394, 
        -0.04875050112605095, 
        -0.49823325872421265, 
        -0.06325173377990723, 
        -0.72208172082901, 
        0.08705773949623108, 
        0.8677771687507629, 
        -0.13710848987102509, 
        -0.1766001284122467, 
        -0.31182318925857544, 
        0.058094609528779984, 
        0.5035121440887451, 
        0.34730204939842224, 
        -0.15625981986522675, 
        0.024843180552124977, 
        0.1661117523908615, 
        0.23662561178207397, 
        -0.3897503614425659, 
        -0.16571594774723053, 
        0.020175345242023468, 
        -0.2772473990917206, 
        0.5496742725372314, 
        -0.06967078149318695, 
        -0.1354188174009323, 
        0.06508144736289978, 
        -0.7717546820640564, 
        0.1633688509464264, 
        0.09602455794811249, 
        1.6684898138046265, 
        0.5766931176185608, 
        -0.18300189077854156, 
        0.24304702877998352, 
        0.3891604542732239, 
        0.009583165869116783, 
        -0.06952359527349472, 
        0.03451737388968468, 
        0.0062628029845654964, 
        -0.14295098185539246, 
        -0.06263016164302826, 
        -0.1350768506526947, 
        -0.15867826342582703, 
        -0.4133172333240509, 
        -0.15386560559272766, 
        -0.0783400908112526, 
        0.8782724142074585, 
        0.3305279016494751, 
        -0.1522526890039444, 
        0.22818201780319214, 
        -0.7934978604316711, 
        0.13579857349395752, 
        -0.18000754714012146, 
        0.05609453469514847, 
        -0.02097802609205246, 
        -0.05948648229241371, 
        0.5984020829200745, 
        -0.045554518699645996, 
        -0.04621673375368118, 
        -0.0715148076415062, 
        0.13799476623535156, 
        -0.26699769496917725, 
        0.057180024683475494, 
        -0.060338135808706284, 
        1.4622961282730103, 
        -0.46331706643104553, 
        0.6061833500862122, 
        -0.2824026048183441, 
        0.8565829992294312, 
        -0.13456688821315765, 
        -0.12354109436273575, 
        0.07436105608940125, 
        0.07972903549671173, 
        0.8459876179695129, 
        -0.04378018155694008, 
        0.15936313569545746, 
        0.07045544683933258, 
        -0.11981242150068283, 
        -0.1824120432138443, 
        0.16619187593460083, 
        -0.1536371409893036, 
        0.3472200930118561, 
        -0.12020307779312134, 
        -0.20673200488090515, 
        0.004283997230231762, 
        0.07836979627609253, 
        0.012237796559929848, 
        0.558150589466095, 
        0.9205620288848877, 
        -0.005830165930092335, 
        0.16373182833194733, 
        0.20052215456962585, 
        1.717635154724121, 
        0.24570730328559875, 
        0.16150042414665222, 
        1.4269862174987793, 
        0.2728511393070221, 
        0.07900451868772507, 
        0.13803882896900177, 
        -0.03514504432678223, 
        -0.05555325001478195, 
        0.09750491380691528, 
        -0.272576242685318, 
        0.7766916155815125, 
        -0.12103286385536194, 
        0.24269554018974304, 
        0.43277451395988464, 
        -0.12480629980564117, 
        -1.0146048069000244, 
        0.026826824992895126, 
        -0.12208686023950577, 
        -0.06706541031599045, 
        0.06144676357507706, 
        -0.05112648010253906, 
        0.13608738780021667, 
        0.18653519451618195, 
        -0.09490630775690079, 
        -0.7948964238166809, 
        -0.17395144701004028, 
        0.9956459403038025, 
        0.8162901401519775, 
        0.025589503347873688, 
        -0.13033701479434967, 
        -0.021472401916980743, 
        -0.08780189603567123, 
        0.23640470206737518, 
        1.5262224674224854, 
        0.13806456327438354, 
        -0.10231179744005203, 
        -0.16664628684520721, 
        -0.26195451617240906, 
        0.19820860028266907, 
        1.0048993825912476, 
        -0.16180714964866638, 
        1.612573266029358, 
        -0.4779897630214691, 
        0.5439264178276062, 
        -0.036205537617206573, 
        -0.11999277025461197, 
        -0.25321733951568604, 
        0.14666913449764252, 
        0.35404103994369507, 
        0.13386644423007965, 
        0.619242787361145, 
        0.1299002468585968, 
        0.5279763340950012, 
        0.6960391402244568, 
        0.549804151058197, 
        0.0842694342136383, 
        0.12204912304878235, 
        1.0193604230880737, 
        1.00101637840271, 
        -0.48165586590766907, 
        0.0019212987972423434, 
        0.22275616228580475, 
        1.8326103687286377, 
        0.5829452872276306, 
        0.06761935353279114, 
        0.7644484639167786, 
        1.1330890655517578, 
        0.5440385937690735, 
        0.2767503261566162, 
        0.4023650288581848, 
        0.06778521090745926, 
        0.1526569277048111, 
        0.04135439544916153, 
        -0.05209199711680412, 
        0.009260452352464199, 
        0.3040406405925751, 
        0.12834356725215912, 
        -0.00598373357206583, 
        -0.1620846688747406, 
        -0.20577014982700348, 
        0.17800229787826538, 
        1.0035208463668823, 
        -0.2836141586303711, 
        -0.07545445114374161, 
        0.2555980682373047, 
        1.6138982772827148, 
        -0.9383531212806702, 
        -0.1532735675573349, 
        0.02622944302856922, 
        0.14379902184009552, 
        -0.057157352566719055, 
        1.4693307876586914, 
        0.22315242886543274, 
        -0.0005522025167010725, 
        0.16642294824123383, 
        0.005157620180398226, 
        -0.11937271058559418, 
        -0.01919807679951191, 
        -0.1470242589712143, 
        1.1430774927139282, 
        -0.365260511636734, 
        -1.137344479560852, 
        0.9431739449501038, 
        1.1918898820877075, 
        -0.10768681019544601, 
        0.8855791687965393, 
        -0.19481061398983002, 
        -0.08075865358114243, 
        -0.8546217083930969, 
        0.10190106183290482, 
        -0.43646112084388733, 
        -0.07183472812175751, 
        0.6940498948097229, 
        -0.07716330885887146, 
        -0.13500133156776428, 
        -0.7565494775772095, 
        -0.21507751941680908, 
        -0.35728955268859863, 
        -0.43945175409317017, 
        -0.3487734794616699, 
        -0.33089226484298706, 
        0.8130914568901062, 
        -0.4738374352455139, 
        1.2724205255508423, 
        0.48473283648490906, 
        -0.05932845547795296, 
        0.6894684433937073, 
        -2.9155023097991943, 
        -0.896775484085083, 
        -0.37046557664871216, 
        1.9319826364517212, 
        1.5032148361206055, 
        0.061928313225507736, 
        0.011689750477671623, 
        0.3589862883090973, 
        -0.08337266743183136, 
        -0.0921410471200943, 
        0.8644053936004639, 
        2.150449275970459, 
        0.46329593658447266, 
        0.08059883862733841, 
        1.202784776687622, 
        -0.11356846988201141, 
        -0.02138284221291542, 
        -0.739180326461792, 
        -0.4233303368091583, 
        0.1256444752216339, 
        0.0897638127207756, 
        1.1688354015350342, 
        -0.7812031507492065, 
        -0.18602854013442993, 
        -0.09429924190044403, 
        -0.10329114645719528, 
        1.281390905380249, 
        -0.6976564526557922, 
        -1.3776764869689941, 
        2.086822986602783, 
        -0.04518503323197365, 
        0.07086914032697678, 
        0.421978235244751, 
        2.473992109298706, 
        -2.4568850994110107, 
        -0.09787998348474503, 
        -0.16087555885314941, 
        1.3184552192687988, 
        -1.3614329099655151, 
        -0.3249060809612274, 
        -1.0456970930099487, 
        -0.4021666646003723, 
        -2.4315593242645264, 
        -0.0455261692404747, 
        1.9501311779022217, 
        -0.001656004460528493, 
        -0.16276443004608154, 
        0.9750398397445679, 
        -0.21217605471611023, 
        -1.1110563278198242, 
        0.3728366792201996, 
        -1.125727653503418, 
        -0.08640549331903458, 
        -1.4280335903167725, 
        2.1284515857696533, 
        -1.1126145124435425, 
        -0.006312626879662275, 
        0.19993332028388977, 
        2.2008745670318604, 
        -1.4062881469726562, 
        0.2330474853515625, 
        0.4124247431755066, 
        2.8407108783721924, 
        -2.4677934646606445, 
        0.6853638887405396, 
        -0.660480260848999, 
        -0.3483318090438843, 
        1.5628644227981567, 
        2.1535470485687256, 
        1.7957826852798462, 
        -1.1193451881408691, 
        -0.14645127952098846, 
        -0.4256078898906708, 
        0.016195058822631836, 
        0.06315024942159653, 
        -0.07654065638780594, 
        -0.1635926365852356, 
        0.0624198280274868, 
        0.02099972404539585, 
        1.3094767332077026, 
        -0.1885634958744049, 
        0.43106609582901, 
        1.4841384887695312, 
        -1.3219971656799316, 
        0.07518419623374939, 
        -0.6688480377197266, 
        -2.2878103256225586, 
        -0.09666550904512405, 
        -0.1452881246805191, 
        -0.3685278296470642, 
        0.03412186726927757, 
        -0.05790632963180542, 
        2.2242987155914307, 
        -0.025779783725738525, 
        0.49913647770881653, 
        -0.899806797504425, 
        1.6462153196334839, 
        1.010302186012268, 
        0.37975266575813293, 
        -0.09053138643503189, 
        0.3509199917316437, 
        -0.05111536383628845, 
        0.48695677518844604, 
        -0.17536072432994843, 
        -0.15608952939510345, 
        0.03444839268922806, 
        -0.17961306869983673, 
        0.13509811460971832, 
        -0.023943671956658363, 
        0.5160853266716003, 
        -0.14181850850582123, 
        0.061845388263463974, 
        -0.1458544284105301, 
        -0.16019541025161743, 
        -0.09940721094608307, 
        0.05821804329752922, 
        0.0031234053894877434, 
        0.17941614985466003, 
        -0.051702067255973816, 
        0.07417715340852737, 
        0.00927029736340046, 
        -0.09108608216047287, 
        0.04345611482858658, 
        -0.03788866102695465, 
        0.10095153003931046, 
        0.06439854204654694, 
        0.05199707671999931, 
        0.022702261805534363, 
        -0.5536766648292542, 
        0.22317704558372498, 
        -0.07655990868806839, 
        0.30021190643310547, 
        -0.0813155397772789, 
        0.055110640823841095, 
        -0.10286878794431686, 
        -0.05950698256492615, 
        -0.16590897738933563, 
        -0.001828631036914885, 
        -0.1997746080160141, 
        -0.19756543636322021, 
        -0.29544976353645325, 
        0.01805398240685463, 
        0.30489662289619446, 
        -0.054841283708810806, 
        -0.003130287630483508, 
        -0.02153969556093216, 
        -0.11167807132005692, 
        0.0035931426100432873, 
        -0.08757893741130829, 
        -0.1050494834780693, 
        0.11451025307178497, 
        -0.1481758952140808, 
        -0.03382568806409836, 
        0.0815117284655571, 
        -0.16960012912750244, 
        1.3518446683883667, 
        0.08664534986019135, 
        -0.5196785926818848, 
        0.08357229083776474, 
        -0.10896431654691696, 
        0.057738181203603745, 
        -0.28857481479644775, 
        -0.38685476779937744, 
        0.0497405044734478, 
        0.07178931683301926, 
        -0.34650132060050964, 
        0.21014472842216492, 
        -0.023186882957816124, 
        -0.33791160583496094, 
        -0.07077725976705551, 
        -0.5243871808052063, 
        -0.0022946747485548258, 
        0.5673884749412537, 
        0.08477947860956192, 
        -0.014722989872097969, 
        -0.18113839626312256, 
        0.10669705271720886, 
        0.5468488931655884, 
        0.008699948899447918, 
        0.0199651587754488, 
        0.08026730269193649, 
        0.5621637105941772, 
        0.11399846524000168, 
        0.019731761887669563, 
        0.10271545499563217, 
        0.12402143329381943, 
        -0.3433663249015808, 
        0.7810648679733276, 
        0.055387094616889954, 
        0.14274658262729645, 
        -0.22956208884716034, 
        -0.4300864338874817, 
        0.0883784070611, 
        0.13649529218673706, 
        1.2702281475067139, 
        0.0011370849097147584, 
        -0.4177778363227844, 
        0.018792737275362015, 
        0.44330430030822754, 
        0.11593978852033615, 
        -0.038668498396873474, 
        0.08347997814416885, 
        -0.03545522689819336, 
        -0.1439691185951233, 
        0.1211838647723198, 
        0.013801099732518196, 
        0.05849699676036835, 
        -0.3881516754627228, 
        -0.1293230503797531, 
        -0.10211589932441711, 
        0.033202193677425385, 
        0.466162770986557, 
        -0.15848544239997864, 
        0.39628246426582336, 
        -0.4657011032104492, 
        -0.039240047335624695, 
        -0.05636438727378845, 
        -0.06268864125013351, 
        0.09868164360523224, 
        -0.11769533157348633, 
        0.226318359375, 
        0.06430421769618988, 
        -0.12037621438503265, 
        0.10252620279788971, 
        -0.2236369550228119, 
        -0.3899480104446411, 
        0.09138806909322739, 
        -0.1422567516565323, 
        1.9953020811080933, 
        0.11258728802204132, 
        0.028141915798187256, 
        0.049954626709222794, 
        0.39838460087776184, 
        -0.13404959440231323, 
        0.05081874132156372, 
        0.011448847129940987, 
        -0.17759954929351807, 
        0.03149157017469406, 
        -0.12736526131629944, 
        -0.11981286853551865, 
        -0.2044944018125534, 
        0.010090265423059464, 
        0.10859144479036331, 
        0.1380685567855835, 
        -0.22603410482406616, 
        -0.014805919490754604, 
        -0.025926487520337105, 
        0.0729561373591423, 
        -0.1388119012117386, 
        -0.1875622272491455, 
        0.3051820695400238, 
        0.9245420694351196, 
        1.467241644859314, 
        0.06781308352947235, 
        -0.1356188803911209, 
        0.1368173211812973, 
        -2.460705280303955, 
        0.30580565333366394, 
        -0.024915365502238274, 
        1.686165690422058, 
        0.47632646560668945, 
        -0.22580935060977936, 
        0.10459399968385696, 
        -0.14815214276313782, 
        -0.13680040836334229, 
        0.03051423467695713, 
        0.23592954874038696, 
        0.8994616270065308, 
        -0.12157346308231354, 
        -0.1117563396692276, 
        0.47758638858795166, 
        0.02790113165974617, 
        -0.1382794976234436, 
        -0.2080889344215393, 
        -0.07336718589067459, 
        -0.1573333442211151, 
        -0.0691031739115715, 
        -0.1722278892993927, 
        -0.012880763970315456, 
        -0.09509187191724777, 
        -0.03232955560088158, 
        -0.05791589245200157, 
        0.17070774734020233, 
        1.0916106700897217, 
        -0.43119311332702637, 
        1.2728708982467651, 
        -0.021870430558919907, 
        -0.13489902019500732, 
        -0.14699065685272217, 
        0.7843957543373108, 
        -1.9645779132843018, 
        0.04225220903754234, 
        0.041795507073402405, 
        -0.48402443528175354, 
        0.1028871014714241, 
        -0.09619158506393433, 
        -1.1418019533157349, 
        0.02247021347284317, 
        -2.3121395111083984, 
        -0.04214480146765709, 
        1.6598056554794312, 
        0.1338070183992386, 
        -0.16473738849163055, 
        -0.322170615196228, 
        -0.0919131264090538, 
        0.5506395101547241, 
        0.6491055488586426, 
        0.30097082257270813, 
        0.018546083942055702, 
        0.20994910597801208, 
        0.8711996674537659, 
        -0.8657292723655701, 
        0.05994783714413643, 
        -0.04464157298207283, 
        0.6667503714561462, 
        0.19352546334266663, 
        0.13467001914978027, 
        0.0830124020576477, 
        1.3999453783035278, 
        -2.0723705291748047, 
        0.32523488998413086, 
        -0.02173168770968914, 
        1.0954632759094238, 
        1.8451578617095947, 
        2.179697036743164, 
        1.220617651939392, 
        0.5228731632232666, 
        -0.15655124187469482, 
        0.13390247523784637, 
        -0.06493408232927322, 
        0.06680570542812347, 
        -0.16482996940612793, 
        0.38758349418640137, 
        0.08705966174602509, 
        -0.1360616683959961, 
        -0.4506310820579529, 
        -0.22546838223934174, 
        -0.2977752387523651, 
        1.075142502784729, 
        0.2178022563457489, 
        -0.03661986067891121, 
        0.27658024430274963, 
        -2.757005214691162, 
        -0.04913179203867912, 
        -0.06334822624921799, 
        -0.0651368573307991, 
        0.012203479185700417, 
        -0.08647479861974716, 
        2.247126340866089, 
        0.15987572073936462, 
        -0.037292927503585815, 
        -0.08748503774404526, 
        1.9377225637435913, 
        -0.2369256168603897, 
        -0.07820779830217361, 
        -0.1109229028224945, 
        -0.28887951374053955, 
        0.2914468050003052, 
        1.237628698348999, 
        -0.31790533661842346, 
        -0.2825549840927124, 
        0.14025244116783142, 
        -0.08246485888957977, 
        0.09124117344617844, 
        0.14866027235984802, 
        0.971885621547699, 
        0.12138444185256958, 
        0.05312323942780495, 
        0.07415228337049484, 
        -0.12532156705856323, 
        0.14534075558185577, 
        0.5458709597587585, 
        0.06121668219566345, 
        0.0417957603931427, 
        -0.029138142243027687, 
        -0.015572037547826767, 
        0.13929204642772675, 
        0.006369040347635746, 
        0.03001720830798149, 
        0.2919141352176666, 
        0.05044732615351677, 
        0.019405143335461617, 
        0.20524075627326965, 
        0.12036017328500748, 
        -0.29051217436790466, 
        0.17245936393737793, 
        0.22533349692821503, 
        0.9872432351112366, 
        0.16207677125930786, 
        0.22035449743270874, 
        0.021400343626737595, 
        -0.03353501856327057, 
        0.15923723578453064, 
        -0.10165262967348099, 
        -0.3193236291408539, 
        -0.7468312382698059, 
        -0.12676501274108887, 
        0.06921198219060898, 
        0.7444925904273987, 
        0.10296513140201569, 
        0.19993889331817627, 
        0.2941839098930359, 
        0.009880817495286465, 
        0.016974225640296936, 
        0.1929883360862732, 
        -0.11606068909168243, 
        0.12295881658792496, 
        0.18914173543453217, 
        -0.06581384688615799, 
        0.11479992419481277, 
        -0.33824244141578674, 
        2.071181058883667, 
        0.20098869502544403, 
        0.38724175095558167, 
        -0.03328196704387665, 
        0.04829733073711395, 
        0.004838564898818731, 
        0.6126108765602112, 
        -0.035811491310596466, 
        0.10059366375207901, 
        -0.044807713478803635, 
        -0.5599082708358765, 
        -0.08144069463014603, 
        -0.04621705040335655, 
        -0.11858119070529938, 
        0.02357272431254387, 
        0.0484452024102211, 
        -0.0006543392082676291, 
        -0.014827185310423374, 
        0.1431800276041031, 
        0.04133172705769539, 
        -0.055702775716781616, 
        0.0880763977766037, 
        0.8401179313659668, 
        -0.1327960342168808, 
        0.10635485500097275, 
        0.029337085783481598, 
        0.3846891522407532, 
        1.4685150384902954, 
        0.5604705214500427, 
        -0.06341931223869324, 
        0.12115439772605896, 
        -0.4753158390522003, 
        1.6811087131500244, 
        0.24212375283241272, 
        0.08714085817337036, 
        0.6405303478240967, 
        -0.03897460922598839, 
        0.3558768033981323, 
        0.10726527124643326, 
        1.0653659105300903, 
        -0.17427527904510498, 
        0.9577810168266296, 
        0.7038693428039551, 
        0.7445701956748962, 
        -0.06690964847803116, 
        0.2227053940296173, 
        0.1725964993238449, 
        0.10415731370449066, 
        -0.05410340428352356, 
        0.059606779366731644, 
        0.13237184286117554, 
        -0.021945642307400703, 
        -0.27172696590423584, 
        -0.08234762400388718, 
        0.13529054820537567, 
        0.03067719377577305, 
        0.33788445591926575, 
        -0.0458463653922081, 
        0.10463406890630722, 
        0.1829480528831482, 
        0.15898996591567993, 
        -0.11024387180805206, 
        0.11262143403291702, 
        0.1062701940536499, 
        -0.13423818349838257, 
        1.1383254528045654, 
        0.3819737732410431, 
        0.07510215789079666, 
        0.26009517908096313, 
        -0.4651656448841095, 
        0.07603389024734497, 
        -0.04154038429260254, 
        -0.10856273025274277, 
        1.7377359867095947, 
        0.1695021390914917, 
        0.1153220608830452, 
        0.8676521182060242, 
        1.7593117952346802, 
        -0.2221054583787918, 
        0.3741928040981293, 
        0.025590455159544945, 
        0.10641468316316605, 
        -0.32062047719955444, 
        0.1089852899312973, 
        -0.8822993040084839, 
        -0.10026305168867111, 
        0.5988150835037231, 
        0.1928442418575287, 
        -0.496323823928833, 
        -0.49537697434425354, 
        -0.3168547749519348, 
        -0.23767004907131195, 
        -0.21521708369255066, 
        -0.08249683678150177, 
        -0.25385552644729614, 
        0.8418928384780884, 
        -0.13838346302509308, 
        1.6023309230804443, 
        -0.11064077913761139, 
        -0.09323415905237198, 
        0.734830379486084, 
        -2.3875839710235596, 
        -0.36920955777168274, 
        -0.18009555339813232, 
        1.329018473625183, 
        -0.015161187388002872, 
        -0.3240049481391907, 
        0.06966429948806763, 
        0.13745158910751343, 
        -0.231031596660614, 
        -0.3158774673938751, 
        0.6710358262062073, 
        1.9651018381118774, 
        0.789992094039917, 
        0.13040511310100555, 
        0.3080201745033264, 
        -0.2154897004365921, 
        -0.20278950035572052, 
        -0.6307710409164429, 
        -0.20242084562778473, 
        -0.26650887727737427, 
        -0.05275290086865425, 
        0.3633953928947449, 
        0.17846813797950745, 
        -0.18992111086845398, 
        -0.1517479419708252, 
        0.03551562875509262, 
        1.0923922061920166, 
        0.16017204523086548, 
        -1.0699825286865234, 
        2.076212167739868, 
        -0.1798153966665268, 
        -0.0597878098487854, 
        0.3226015865802765, 
        2.1372532844543457, 
        -2.91459321975708, 
        -0.037688422948122025, 
        0.08032122999429703, 
        1.3674962520599365, 
        -0.9073130488395691, 
        -0.2585456967353821, 
        -1.679012656211853, 
        -0.24653849005699158, 
        -2.449442148208618, 
        -0.15312300622463226, 
        2.208292007446289, 
        -0.017712993547320366, 
        -0.05990445613861084, 
        0.3612830638885498, 
        -0.08932806551456451, 
        -0.4139065444469452, 
        0.9241085648536682, 
        -0.2956879734992981, 
        -0.039562877267599106, 
        -0.9968516230583191, 
        0.6365113854408264, 
        -1.3355168104171753, 
        -0.1898752897977829, 
        0.03821991756558418, 
        1.5621857643127441, 
        -1.4738945960998535, 
        0.15234452486038208, 
        -0.0017655944684520364, 
        2.3494560718536377, 
        -2.6058619022369385, 
        0.8572508692741394, 
        0.16361580789089203, 
        1.0142955780029297, 
        1.891502857208252, 
        2.1752684116363525, 
        1.0818822383880615, 
        -0.08775235712528229, 
        -0.11620105057954788, 
        -0.14336812496185303, 
        -0.05665048584342003, 
        -0.08270823210477829, 
        -0.07090530544519424, 
        -0.5478261113166809, 
        -0.1913403421640396, 
        0.08255838602781296, 
        1.2174228429794312, 
        -0.04570349305868149, 
        -0.6916520595550537, 
        1.507211446762085, 
        -1.2315020561218262, 
        -0.07931632548570633, 
        0.10227393358945847, 
        -2.2332472801208496, 
        0.050591837614774704, 
        -0.33704087138175964, 
        -0.5055166482925415, 
        -0.020664287731051445, 
        0.03931258246302605, 
        2.0047483444213867, 
        0.07862421125173569, 
        0.3092246949672699, 
        0.03593079745769501, 
        1.680143117904663, 
        0.8227346539497375, 
        0.18173575401306152, 
        -0.01869351975619793, 
        0.38786759972572327, 
        -0.009141981601715088, 
        0.40457087755203247, 
        -0.16461171209812164, 
        -0.06828951835632324, 
        -0.018443772569298744, 
        -0.07988438010215759, 
        -0.15604011714458466, 
        -0.0947117805480957, 
        0.3434840142726898, 
        -0.08966090530157089, 
        -0.08271558582782745, 
        -0.14541548490524292, 
        0.1827661693096161, 
        0.10600859671831131, 
        -0.10966336727142334, 
        -0.11765975505113602, 
        -0.037384409457445145, 
        -0.0609516017138958, 
        -0.13622550666332245, 
        0.06093155965209007, 
        0.01703779771924019, 
        0.1610880047082901, 
        -0.03181282430887222, 
        0.5302467346191406, 
        -6.720533178850019e-07, 
        -0.11116299778223038, 
        0.232715904712677, 
        -0.7807714343070984, 
        0.047259509563446045, 
        -0.11330875009298325, 
        0.3863491117954254, 
        0.030581330880522728, 
        0.001764833927154541, 
        -0.13067035377025604, 
        0.15103839337825775, 
        -0.040704336017370224, 
        -0.05607917904853821, 
        0.06679416447877884, 
        0.0487472340464592, 
        -0.20164158940315247, 
        -0.05881175398826599, 
        0.009901678189635277, 
        -0.14226873219013214, 
        -0.0008903857669793069, 
        -0.07780726253986359, 
        -0.04771571233868599, 
        -0.16909505426883698, 
        0.045395996421575546, 
        -0.08616460114717484, 
        -0.1506350338459015, 
        -0.10414214432239532, 
        -0.20578619837760925, 
        -0.13798241317272186, 
        -0.05985228717327118, 
        1.1643396615982056, 
        0.24391037225723267, 
        -0.27412083745002747, 
        -0.04737737029790878, 
        -0.12190904468297958, 
        -0.06595313549041748, 
        -0.1421913355588913, 
        -0.37951773405075073, 
        -0.13376063108444214, 
        0.06088412180542946, 
        -0.13359804451465607, 
        0.09670385718345642, 
        -0.08358754962682724, 
        -0.2798217833042145, 
        -0.053383756428956985, 
        -0.3193691074848175, 
        -0.15627841651439667, 
        0.9585407972335815, 
        -0.015337073244154453, 
        0.030983159318566322, 
        -0.2035171538591385, 
        0.023539898917078972, 
        0.5177698731422424, 
        0.4014676809310913, 
        0.10358618944883347, 
        -0.044231612235307693, 
        0.27904754877090454, 
        0.024341026321053505, 
        -0.0516994334757328, 
        -0.16029706597328186, 
        -0.02931961975991726, 
        -0.2701929211616516, 
        0.35272637009620667, 
        0.07543431222438812, 
        -0.039911478757858276, 
        0.013269726186990738, 
        -0.4306739568710327, 
        0.1110355332493782, 
        -0.0703580379486084, 
        1.253627061843872, 
        0.5346838235855103, 
        -0.030363406985998154, 
        -0.010763872414827347, 
        0.21456608176231384, 
        -0.022689340636134148, 
        -0.16403144598007202, 
        -0.14474229514598846, 
        0.08373638242483139, 
        0.060425881296396255, 
        0.17656154930591583, 
        -0.021945763379335403, 
        -0.09338103234767914, 
        -0.35592523217201233, 
        -0.08598457276821136, 
        -0.3148779273033142, 
        0.7326756715774536, 
        0.17889536917209625, 
        -0.07717449218034744, 
        0.13700054585933685, 
        -0.48213183879852295, 
        -0.09892858564853668, 
        -0.2641465961933136, 
        -0.10588357597589493, 
        0.06860794126987457, 
        0.06937921792268753, 
        0.47341129183769226, 
        0.1493610292673111, 
        -0.0970512181520462, 
        0.03646910563111305, 
        -0.05842813476920128, 
        -0.3178281784057617, 
        -0.05355997383594513, 
        0.06567034870386124, 
        0.7063382267951965, 
        -0.13250938057899475, 
        -1.3546481132507324, 
        1.4289838075637817, 
        1.8228782415390015, 
        -0.058334965258836746, 
        0.5672371983528137, 
        -0.3437005281448364, 
        0.047565411776304245, 
        -0.7293936014175415, 
        0.09866251796483994, 
        -0.7134933471679688, 
        0.12034083902835846, 
        0.6412191987037659, 
        -0.20274904370307922, 
        -0.5540032386779785, 
        -0.7106068134307861, 
        -0.12347051501274109, 
        -0.20875684916973114, 
        -0.6571080088615417, 
        -0.4434930682182312, 
        -0.5470101833343506, 
        0.4747264087200165, 
        -0.2731248736381531, 
        1.0829882621765137, 
        -0.13821318745613098, 
        -0.13622994720935822, 
        0.9461397528648376, 
        -2.0574326515197754, 
        -0.6103487014770508, 
        -0.821074366569519, 
        2.149815320968628, 
        1.4120696783065796, 
        -0.3484455347061157, 
        0.23969046771526337, 
        0.5434072613716125, 
        -0.3074186444282532, 
        -0.2570691406726837, 
        1.105267882347107, 
        1.6107656955718994, 
        0.1866035908460617, 
        0.04522772505879402, 
        0.06218801438808441, 
        -0.10217668116092682, 
        0.06981953978538513, 
        -0.35601311922073364, 
        -0.30224287509918213, 
        -0.573616623878479, 
        0.016838060691952705, 
        0.599014937877655, 
        -0.8161306381225586, 
        -0.42530107498168945, 
        -0.21148113906383514, 
        -0.03440793976187706, 
        1.4534008502960205, 
        -1.306068778038025, 
        -0.7445356249809265, 
        2.756711721420288, 
        0.14830011129379272, 
        0.11218129843473434, 
        0.2760099172592163, 
        2.5763907432556152, 
        -2.881056785583496, 
        0.012777861207723618, 
        -0.006875413469970226, 
        1.2906911373138428, 
        -1.2910010814666748, 
        -0.36031442880630493, 
        -1.8167874813079834, 
        -0.3506822884082794, 
        -2.313833475112915, 
        -0.10166754573583603, 
        1.6738313436508179, 
        -0.34773093461990356, 
        -0.249451145529747, 
        0.4758225679397583, 
        -0.19185201823711395, 
        -0.8492492437362671, 
        0.8667560815811157, 
        -0.39356449246406555, 
        -0.1937667280435562, 
        -1.549146294593811, 
        1.0546565055847168, 
        -1.1631865501403809, 
        -0.1334971934556961, 
        0.1918083280324936, 
        1.5055748224258423, 
        -1.995466947555542, 
        0.25619059801101685, 
        0.04119345545768738, 
        2.4692275524139404, 
        -2.343625068664551, 
        0.394761323928833, 
        -0.6819115877151489, 
        -0.24424666166305542, 
        2.0011379718780518, 
        1.8739969730377197, 
        1.9782183170318604, 
        -0.35485270619392395, 
        -0.09065699577331543, 
        -0.7134838700294495, 
        -0.11562149971723557, 
        -0.156611368060112, 
        -0.12378416955471039, 
        -0.24192719161510468, 
        0.04595931991934776, 
        -0.004622763488441706, 
        1.9194239377975464, 
        -0.19895920157432556, 
        -0.036854226142168045, 
        1.9791127443313599, 
        -0.4178042709827423, 
        0.26974722743034363, 
        -0.31984010338783264, 
        -3.183091163635254, 
        -0.048476580530405045, 
        -0.2061605602502823, 
        -0.19415846467018127, 
        -0.1687004417181015, 
        0.14280660450458527, 
        2.308363676071167, 
        -0.08383440971374512, 
        0.46433642506599426, 
        -0.48100000619888306, 
        1.8636211156845093, 
        1.0625379085540771, 
        -0.5478382706642151, 
        0.054012589156627655, 
        0.922949492931366, 
        0.3120712637901306, 
        1.3282074928283691, 
        -0.25746357440948486, 
        0.09392029047012329, 
        -0.02035674825310707, 
        -0.4339218735694885, 
        0.25960856676101685, 
        0.18765099346637726, 
        1.3231959342956543, 
        0.2468847632408142, 
        0.8211214542388916, 
        0.11272134631872177, 
        -0.1025596559047699, 
        0.239702507853508, 
        0.6812153458595276, 
        0.654371440410614, 
        0.5911550521850586, 
        0.34708234667778015, 
        1.108846664428711, 
        0.3916184604167938, 
        0.36397871375083923, 
        -0.029359301552176476, 
        0.8364230990409851, 
        -0.3538723587989807, 
        -0.02138064242899418, 
        0.3485541045665741, 
        -1.1165705919265747, 
        1.6222882270812988, 
        0.6673093438148499, 
        0.4585598409175873, 
        -1.6501953601837158, 
        0.946557343006134, 
        0.1982736438512802, 
        0.26021090149879456, 
        0.02910861372947693, 
        0.5295317769050598, 
        0.3324318826198578, 
        -0.4477314352989197, 
        -0.16389848291873932, 
        -0.04058091714978218, 
        0.1338934302330017, 
        -0.13925707340240479, 
        0.42063233256340027, 
        0.41321471333503723, 
        0.5563893914222717, 
        0.31127119064331055, 
        0.22920119762420654, 
        0.15380072593688965, 
        1.0352225303649902, 
        1.5121136903762817, 
        0.34026074409484863, 
        0.39039337635040283, 
        -0.09098543971776962, 
        0.16770532727241516, 
        1.1627827882766724, 
        1.4723830223083496, 
        0.6284800171852112, 
        0.4337826371192932, 
        0.08046901226043701, 
        0.530408501625061, 
        0.8732613921165466, 
        1.6841312646865845, 
        0.13356226682662964, 
        0.21979400515556335, 
        0.6750293374061584, 
        1.190873146057129, 
        0.5609574913978577, 
        1.4363222122192383, 
        0.4194631278514862, 
        1.470406413078308, 
        0.36944493651390076, 
        -1.9510616064071655, 
        0.12457629293203354, 
        -0.007628017105162144, 
        -0.21938703954219818, 
        0.2656787037849426, 
        1.3134756088256836, 
        -0.46444541215896606, 
        0.8919869661331177, 
        0.43480977416038513, 
        0.9392208456993103, 
        0.6555141806602478, 
        1.4326703548431396, 
        0.1636407971382141, 
        0.19712582230567932, 
        -0.5502092838287354, 
        1.1752172708511353, 
        0.38614898920059204, 
        0.49745428562164307, 
        0.5562296509742737, 
        1.7071524858474731, 
        -0.09078799933195114, 
        2.3454251289367676, 
        0.5157136917114258, 
        -1.4230173826217651, 
        -1.062975287437439, 
        0.3927142918109894, 
        1.446750521659851, 
        0.40655800700187683, 
        2.113550901412964, 
        0.25578320026397705, 
        0.08143601566553116, 
        0.06929833441972733, 
        0.47855833172798157, 
        0.3943538963794708, 
        0.31740516424179077, 
        1.1136037111282349, 
        0.2800595462322235, 
        0.2698020339012146, 
        -0.49519357085227966, 
        1.174881100654602, 
        0.2961580753326416, 
        0.6578025221824646, 
        1.7123308181762695, 
        0.35459330677986145, 
        0.13046705722808838, 
        0.6267537474632263, 
        0.3352561593055725, 
        -0.03153369948267937, 
        -0.04594028741121292, 
        0.21579396724700928, 
        0.03777620196342468, 
        0.38328155875205994, 
        0.033982615917921066, 
        -0.5345189571380615, 
        -0.3778817653656006, 
        -0.11480585485696793, 
        0.4546813368797302, 
        0.05519404634833336, 
        0.4097663462162018, 
        -0.17376096546649933, 
        -0.17728906869888306, 
        -0.027008123695850372, 
        0.07080479711294174, 
        -0.1699821949005127, 
        -0.12061630934476852, 
        0.44036999344825745, 
        0.07544370740652084, 
        0.07872622460126877, 
        -0.19038856029510498, 
        0.13631895184516907, 
        -0.07585074752569199, 
        -0.16437043249607086, 
        -0.20732741057872772, 
        0.11941778659820557, 
        -0.028649793937802315, 
        0.09810062497854233, 
        0.09564244002103806, 
        0.07762694358825684, 
        0.15946556627750397, 
        -0.21219153702259064, 
        0.14434675872325897, 
        -0.048902492970228195, 
        -0.013423662632703781, 
        0.18588367104530334, 
        -0.6393914222717285, 
        0.204827681183815, 
        -0.051743023097515106, 
        0.5070276856422424, 
        -0.10421860218048096, 
        -0.12178130447864532, 
        -0.007934577763080597, 
        0.0968262329697609, 
        0.03778613358736038, 
        0.041666556149721146, 
        0.013805217109620571, 
        -0.261259526014328, 
        -0.2992376983165741, 
        -0.002408369677141309, 
        0.05884987488389015, 
        -0.08077520877122879, 
        -0.04315066710114479, 
        0.12127532809972763, 
        0.09236359596252441, 
        -0.1536892205476761, 
        -0.13833172619342804, 
        -0.11378100514411926, 
        -0.20728781819343567, 
        -0.023692812770605087, 
        0.09403567016124725, 
        -0.18391598761081696, 
        -0.2695571780204773, 
        1.277051329612732, 
        0.08462157100439072, 
        -0.5817562341690063, 
        0.020302271470427513, 
        -0.05157500132918358, 
        -0.08980263024568558, 
        -0.20296595990657806, 
        -0.3577961325645447, 
        -0.05794612690806389, 
        0.08070504665374756, 
        -0.279580295085907, 
        0.2654973566532135, 
        -0.18465189635753632, 
        -0.3353945314884186, 
        -0.1502504050731659, 
        -0.523927628993988, 
        -0.042791325598955154, 
        0.5072926878929138, 
        0.13441616296768188, 
        0.015043175779283047, 
        -0.3911747634410858, 
        0.005034666042774916, 
        0.5200340747833252, 
        0.3455166220664978, 
        0.148540660738945, 
        0.07079681009054184, 
        0.355935662984848, 
        0.12015550583600998, 
        -0.00649500684812665, 
        -0.014803175814449787, 
        -0.09622449427843094, 
        -0.44916832447052, 
        0.6132045984268188, 
        -0.0880684033036232, 
        -0.17672137916088104, 
        -0.17719648778438568, 
        -0.40058788657188416, 
        0.006500985473394394, 
        0.09611428529024124, 
        1.6254980564117432, 
        0.1230771467089653, 
        -0.11348937451839447, 
        0.057453446090221405, 
        0.17149990797042847, 
        -0.1221446767449379, 
        0.12107644975185394, 
        -0.0034670724999159575, 
        0.07577265053987503, 
        -0.005430800374597311, 
        0.026169518008828163, 
        0.045524962246418, 
        0.04159665107727051, 
        -0.5112345218658447, 
        -0.006016194354742765, 
        -0.21250060200691223, 
        0.21131765842437744, 
        0.2666524052619934, 
        -0.07799956947565079, 
        0.30609649419784546, 
        -0.3310242295265198, 
        0.03792586922645569, 
        -0.012683714739978313, 
        -0.17746701836585999, 
        -0.0025191176682710648, 
        0.05529293417930603, 
        0.5266025066375732, 
        0.22411854565143585, 
        0.04134555906057358, 
        0.02410816214978695, 
        -0.3536050021648407, 
        -0.5034452080726624, 
        0.029019713401794434, 
        0.011042009107768536, 
        0.23256035149097443, 
        -0.6075531840324402, 
        -0.11803306639194489, 
        1.3457497358322144, 
        1.737592339515686, 
        -0.13128621876239777, 
        -0.0822298601269722, 
        -0.007044051308184862, 
        0.03815982863306999, 
        0.7664664387702942, 
        -0.20076869428157806, 
        0.44627171754837036, 
        -0.09005849063396454, 
        -0.14794151484966278, 
        -1.4035327434539795, 
        0.9111727476119995, 
        0.37927377223968506, 
        0.5606611371040344, 
        0.06478185206651688, 
        -0.9938035011291504, 
        0.23139487206935883, 
        0.3104766011238098, 
        0.06905258446931839, 
        0.3402031660079956, 
        1.3989169597625732, 
        0.025566238909959793, 
        0.015563443303108215, 
        0.7569482922554016, 
        1.0766228437423706, 
        0.37034761905670166, 
        0.3127315640449524, 
        1.3582192659378052, 
        1.5365744829177856, 
        -0.06270939856767654, 
        0.047418348491191864, 
        0.04222358763217926, 
        0.2648572623729706, 
        0.16424746811389923, 
        0.5424405932426453, 
        1.7998266220092773, 
        0.23859526216983795, 
        -0.04031161591410637, 
        1.3002830743789673, 
        0.13200199604034424, 
        -0.19345755875110626, 
        0.43532514572143555, 
        -0.014278734102845192, 
        0.18698976933956146, 
        0.014322493225336075, 
        0.2300882488489151, 
        -0.6471753120422363, 
        0.04163816198706627, 
        0.07988054305315018, 
        -1.7973436117172241, 
        0.5969898104667664, 
        0.37214967608451843, 
        -1.2571310997009277, 
        1.905737042427063, 
        0.19267456233501434, 
        0.0005441922112368047, 
        -0.13557171821594238, 
        2.1094465255737305, 
        1.0500975847244263, 
        -0.04195604845881462, 
        0.0960477665066719, 
        1.0448575019836426, 
        -1.0975350141525269, 
        -0.2137320190668106, 
        0.4219505190849304, 
        4.48340542789083e-05, 
        1.2370649576187134, 
        -2.141292095184326, 
        1.8083505630493164, 
        -0.037064146250486374, 
        -2.5757007598876953, 
        0.1607155054807663, 
        0.09729943424463272, 
        0.5243356227874756, 
        0.40718942880630493, 
        0.12144453078508377, 
        0.034332454204559326, 
        -0.38852041959762573, 
        2.126551628112793, 
        0.16508632898330688, 
        -0.21685737371444702, 
        0.06286245584487915, 
        0.9760953187942505, 
        0.9855856895446777, 
        -1.8814650774002075, 
        0.2299434095621109, 
        2.002465009689331, 
        1.0875341892242432, 
        0.927105188369751, 
        -0.44483476877212524, 
        -0.16586333513259888, 
        1.8992352485656738, 
        1.8882460594177246, 
        1.6473915576934814, 
        -0.3949733376502991, 
        0.061645958572626114, 
        -0.2198651134967804, 
        -0.046000052243471146, 
        -2.070213556289673, 
        -0.5725367069244385, 
        0.0715910941362381, 
        0.03191225230693817, 
        0.06506647169589996, 
        1.1947178840637207, 
        -0.8150011897087097, 
        0.02824644185602665, 
        1.3361687660217285, 
        -0.42925623059272766, 
        0.11794836074113846, 
        0.05624871701002121, 
        1.2251391410827637, 
        -1.566494107246399, 
        -0.1067039743065834, 
        0.08955274522304535, 
        0.07858575880527496, 
        -0.060627248138189316, 
        1.5967501401901245, 
        -0.5981629490852356, 
        -0.1381748467683792, 
        -0.9031372666358948, 
        1.4923675060272217, 
        0.31053921580314636, 
        -0.022364627569913864, 
        0.040591344237327576, 
        0.14449647068977356, 
        0.45261961221694946, 
        1.3444817066192627, 
        -0.7352914214134216, 
        0.5094587206840515, 
        -0.0351276621222496, 
        0.4920366406440735, 
        0.14770881831645966, 
        0.12809473276138306, 
        1.2764273881912231, 
        -0.4344252347946167, 
        0.5397366881370544, 
        0.09885440021753311, 
        0.25453731417655945, 
        0.22758054733276367, 
        0.046147022396326065, 
        0.2556939423084259, 
        0.6258833408355713, 
        -0.0558280348777771, 
        0.5482505559921265, 
        0.49359363317489624, 
        0.47485801577568054, 
        0.23857642710208893, 
        0.7968181371688843, 
        -0.18955962359905243, 
        0.11400561779737473, 
        -0.05439172312617302, 
        0.47238919138908386, 
        1.6087497472763062, 
        0.6123602986335754, 
        0.146698459982872, 
        0.2992105185985565, 
        0.6185932755470276, 
        0.2155013382434845, 
        0.03163372352719307, 
        0.07511001825332642, 
        -0.003935142885893583, 
        0.29772692918777466, 
        0.018841328099370003, 
        -0.3131973147392273, 
        0.08123883605003357, 
        0.14941717684268951, 
        0.4634224474430084, 
        -0.024571584537625313, 
        0.27678564190864563, 
        0.4003119468688965, 
        0.0909699872136116, 
        0.21366405487060547, 
        -0.34019535779953003, 
        0.35995399951934814, 
        1.7976793050765991, 
        0.2737080752849579, 
        0.037226591259241104, 
        0.2610749304294586, 
        -0.29170718789100647, 
        1.1095973253250122, 
        1.3177984952926636, 
        0.8018962144851685, 
        0.45680734515190125, 
        0.18644891679286957, 
        -0.0827312245965004, 
        1.1788111925125122, 
        1.5465928316116333, 
        -0.017451396211981773, 
        -0.08653045445680618, 
        0.3088628053665161, 
        1.0157347917556763, 
        0.3866715133190155, 
        1.4603209495544434, 
        0.18165063858032227, 
        1.4200700521469116, 
        0.09080967307090759, 
        -1.4353325366973877, 
        -0.09265675395727158, 
        -0.15496638417243958, 
        0.07136460393667221, 
        -0.3207007646560669, 
        1.1525764465332031, 
        0.00887391995638609, 
        0.9028458595275879, 
        0.1232682317495346, 
        1.143752932548523, 
        0.33580827713012695, 
        1.5606082677841187, 
        -0.25905996561050415, 
        -0.1908714324235916, 
        0.3195935785770416, 
        1.0602234601974487, 
        0.4188542366027832, 
        0.21282072365283966, 
        0.9280553460121155, 
        1.588757038116455, 
        0.4198630154132843, 
        1.635815143585205, 
        0.42692941427230835, 
        -0.07354328781366348, 
        0.2094888687133789, 
        0.7364486455917358, 
        1.5412123203277588, 
        0.24026772379875183, 
        1.9227102994918823, 
        0.30599188804626465, 
        0.11678735166788101, 
        -0.2097160816192627, 
        0.6117277145385742, 
        0.11861348897218704, 
        0.09940020740032196, 
        0.8669993877410889, 
        0.07557431608438492, 
        0.2053215652704239, 
        -0.13017700612545013, 
        1.1384462118148804, 
        0.08671803027391434, 
        0.20416484773159027, 
        1.5754324197769165, 
        0.24047565460205078, 
        0.2048613280057907, 
        0.5439301133155823, 
        -0.03644882142543793, 
        -0.13572971522808075, 
        0.18778881430625916, 
        0.4299675226211548, 
        0.059538938105106354, 
        0.5712541937828064, 
        -0.7509917616844177, 
        -0.27560603618621826, 
        0.3216501474380493, 
        0.07443089038133621, 
        0.38061729073524475, 
        -1.3438252210617065, 
        0.6044229865074158, 
        0.22954754531383514, 
        1.4176806211471558, 
        -0.19426339864730835, 
        0.04989797994494438, 
        0.24143876135349274, 
        -0.07238249480724335, 
        0.7088012099266052, 
        -0.10401088744401932, 
        0.7763183116912842, 
        -0.17623983323574066, 
        -0.14786671102046967, 
        -0.3358301520347595, 
        -1.659671425819397, 
        0.013421472162008286, 
        0.3133440315723419, 
        0.21387141942977905, 
        -0.49440136551856995, 
        0.3561568260192871, 
        0.38578087091445923, 
        0.26857057213783264, 
        0.6887104511260986, 
        0.7596625089645386, 
        0.14104408025741577, 
        0.056466516107320786, 
        0.4290500581264496, 
        1.494205355644226, 
        0.46733617782592773, 
        0.37807828187942505, 
        0.12236732989549637, 
        0.5937728881835938, 
        0.06509441882371902, 
        0.06500968337059021, 
        -0.02814972773194313, 
        0.30265969038009644, 
        -0.003434593789279461, 
        0.14921358227729797, 
        1.0919066667556763, 
        0.4262029528617859, 
        -0.0620468445122242, 
        0.666157603263855, 
        -0.006098922807723284, 
        -2.22843861579895, 
        0.3739890158176422, 
        -0.02288399636745453, 
        0.10133104771375656, 
        0.08798602968454361, 
        0.3514862656593323, 
        0.1596810221672058, 
        0.04832424223423004, 
        0.012972001917660236, 
        -1.6328272819519043, 
        -0.34691983461380005, 
        0.8652310371398926, 
        1.3083239793777466, 
        1.95195472240448, 
        0.1472611427307129, 
        0.007900387980043888, 
        -0.09039417654275894, 
        2.0176994800567627, 
        1.4698854684829712, 
        -0.09312087297439575, 
        0.10501865297555923, 
        1.3229364156723022, 
        0.8160184621810913, 
        0.2205369621515274, 
        1.4392110109329224, 
        0.15342111885547638, 
        1.266701579093933, 
        -1.771702766418457, 
        0.8618610501289368, 
        -0.11248929053544998, 
        -0.1276383399963379, 
        0.22686441242694855, 
        0.015323735773563385, 
        -0.20742765069007874, 
        0.4531010687351227, 
        0.21411491930484772, 
        -0.015546973794698715, 
        -0.5273934602737427, 
        0.9306832551956177, 
        0.9878707528114319, 
        -0.041762471199035645, 
        -0.10781718790531158, 
        0.7582284808158875, 
        0.9848546981811523, 
        -1.2124048471450806, 
        0.16343887150287628, 
        1.8231613636016846, 
        1.6774438619613647, 
        0.383903831243515, 
        0.21340292692184448, 
        0.4812794029712677, 
        1.548829436302185, 
        1.3120083808898926, 
        0.9504518508911133, 
        0.24118489027023315, 
        0.18084636330604553, 
        0.4647330939769745, 
        0.258782297372818, 
        -0.5552635788917542, 
        -0.4810122847557068, 
        -0.039337269961833954, 
        0.0439990870654583, 
        -0.2052696943283081, 
        1.2363442182540894, 
        -0.5529821515083313, 
        0.44375208020210266, 
        1.2691563367843628, 
        0.30332550406455994, 
        0.09372840821743011, 
        0.5228386521339417, 
        1.6613922119140625, 
        -3.507026195526123, 
        -0.0056799654848873615, 
        0.5403661727905273, 
        0.08299334347248077, 
        0.11968116462230682, 
        0.9727200865745544, 
        -0.6778483986854553, 
        -0.05270729586482048, 
        -0.13676542043685913, 
        0.6524506211280823, 
        0.26928597688674927, 
        0.213210329413414, 
        0.07958824932575226, 
        0.22243823111057281, 
        0.10422209650278091, 
        0.3514028489589691, 
        -0.10490361601114273, 
        -0.19313731789588928, 
        -0.18662187457084656, 
        0.06449974328279495, 
        0.12616154551506042, 
        -0.12681278586387634, 
        0.5284984111785889, 
        0.06712239980697632, 
        0.005875985138118267, 
        0.012853187508881092, 
        -0.11657975614070892, 
        -0.008645318448543549, 
        -0.1413239687681198, 
        -0.1590404510498047, 
        -0.03021818771958351, 
        0.038552578538656235, 
        0.005857672542333603, 
        0.08121959120035172, 
        -0.09453702718019485, 
        0.0020702339243143797, 
        -0.03241300582885742, 
        0.4785415828227997, 
        0.0020674357656389475, 
        0.08553850650787354, 
        -0.07940563559532166, 
        -0.6120787262916565, 
        0.20634005963802338, 
        0.05571913346648216, 
        0.2761167585849762, 
        -0.0464920774102211, 
        -0.09553617238998413, 
        0.001843480858951807, 
        -0.08003111183643341, 
        -0.10466139018535614, 
        -0.036271777004003525, 
        0.05099077150225639, 
        -0.10593672841787338, 
        -0.023715784773230553, 
        -0.07560408860445023, 
        0.17776364088058472, 
        0.04946204274892807, 
        -0.12983675301074982, 
        0.058636896312236786, 
        -0.002943019848316908, 
        -0.1357739120721817, 
        -0.08299735933542252, 
        0.06165920943021774, 
        -0.056983742862939835, 
        0.08620208501815796, 
        -0.08814433962106705, 
        0.09300293773412704, 
        -0.21643638610839844, 
        1.1264244318008423, 
        0.1950802057981491, 
        -0.2696869373321533, 
        -0.013494356535375118, 
        0.028978023678064346, 
        0.03723388910293579, 
        -0.062416158616542816, 
        -0.20623064041137695, 
        0.088338203728199, 
        0.07043950259685516, 
        -0.2675408124923706, 
        0.11873747408390045, 
        0.08416702598333359, 
        -0.3316616117954254, 
        -0.014323446899652481, 
        -0.34556877613067627, 
        -0.05135902017354965, 
        0.6311067938804626, 
        -0.11914363503456116, 
        -0.11947181820869446, 
        -0.3095468282699585, 
        -0.16404998302459717, 
        0.4901462197303772, 
        0.10421128571033478, 
        0.06534449756145477, 
        0.07599642872810364, 
        0.3120560944080353, 
        0.12220684438943863, 
        -0.18609298765659332, 
        -0.14117901027202606, 
        0.011348205618560314, 
        -0.3314037621021271, 
        0.6137335896492004, 
        0.1394595056772232, 
        0.10392379015684128, 
        0.10265852510929108, 
        -0.3312779366970062, 
        0.2891668975353241, 
        0.05299224331974983, 
        1.374029278755188, 
        0.15505768358707428, 
        -0.09438928961753845, 
        0.2080545574426651, 
        0.326833039522171, 
        0.021623626351356506, 
        -0.07191424816846848, 
        -0.11626219749450684, 
        0.03171546012163162, 
        0.039368584752082825, 
        0.1460564136505127, 
        -0.10976623743772507, 
        -0.12532038986682892, 
        -0.32071584463119507, 
        -0.013624471612274647, 
        -0.16924650967121124, 
        0.22591754794120789, 
        0.04133348539471626, 
        -0.18399345874786377, 
        0.32187288999557495, 
        -0.4042276442050934, 
        -0.005451433826237917, 
        -0.021408019587397575, 
        -0.12684886157512665, 
        -0.025693101808428764, 
        -0.019168181344866753, 
        0.25488007068634033, 
        0.07832220196723938, 
        -0.06398987770080566, 
        0.03371548280119896, 
        -0.04455281049013138, 
        -0.3888263702392578, 
        -0.17169837653636932, 
        0.03843974694609642, 
        -0.5046617984771729, 
        0.46160241961479187, 
        1.3180185556411743, 
        -0.37164145708084106, 
        -0.6107293963432312, 
        0.006709020119160414, 
        -0.0018198771867901087, 
        0.07299743592739105, 
        0.12011873722076416, 
        1.3130236864089966, 
        0.09727594256401062, 
        -0.23373852670192719, 
        0.021650373935699463, 
        0.015122056007385254, 
        0.27794280648231506, 
        0.7271707653999329, 
        -0.031177105382084846, 
        -0.08930041640996933, 
        -0.1700732260942459, 
        -0.28996726870536804, 
        0.14419345557689667, 
        0.0771637037396431, 
        0.044988881796598434, 
        0.47231578826904297, 
        0.7748905420303345, 
        0.20435331761837006, 
        0.052227675914764404, 
        0.3580354154109955, 
        -2.5725929737091064, 
        0.3889462351799011, 
        -0.1668846607208252, 
        1.2357218265533447, 
        -1.0149108171463013, 
        0.008842774666845798, 
        -0.05549866333603859, 
        -0.02029067650437355, 
        -0.04887385293841362, 
        0.07877697795629501, 
        -0.015599280595779419, 
        -0.7317469120025635, 
        -0.12948350608348846, 
        0.2028169333934784, 
        1.0462194681167603, 
        -0.10649169236421585, 
        0.10968173295259476, 
        0.06389259546995163, 
        -0.035579048097133636, 
        0.014873862266540527, 
        0.17897354066371918, 
        -0.0843779668211937, 
        0.3146801292896271, 
        -0.020074624568223953, 
        -0.06042369082570076, 
        -0.033567700535058975, 
        -0.4099715054035187, 
        2.271959066390991, 
        -0.06754835695028305, 
        1.1382408142089844, 
        -0.07518436014652252, 
        -0.14751237630844116, 
        -0.22369888424873352, 
        1.068113088607788, 
        -1.6477515697479248, 
        0.05040157958865166, 
        -0.1280149221420288, 
        -0.41537606716156006, 
        -0.0950658917427063, 
        -0.0770646184682846, 
        -1.8204283714294434, 
        -0.17061935365200043, 
        -1.8600549697875977, 
        -0.06521206349134445, 
        0.48184362053871155, 
        -0.034729015082120895, 
        0.07107962667942047, 
        -0.08292104303836823, 
        0.16239580512046814, 
        1.0133548974990845, 
        0.13038882613182068, 
        -0.02591046132147312, 
        -0.11445315182209015, 
        0.1346358358860016, 
        0.9967090487480164, 
        -0.35922926664352417, 
        -0.1392807960510254, 
        -0.16730926930904388, 
        -0.7347815036773682, 
        0.4245913624763489, 
        0.14622773230075836, 
        -0.06869154423475266, 
        1.524797797203064, 
        -1.743174433708191, 
        0.5802789926528931, 
        0.5371922850608826, 
        1.9849406480789185, 
        0.6388838887214661, 
        1.7886446714401245, 
        -0.4108027517795563, 
        0.38165003061294556, 
        -0.146378293633461, 
        0.3961656093597412, 
        0.15056391060352325, 
        0.19893240928649902, 
        -0.04195135459303856, 
        0.11741294711828232, 
        0.010343938134610653, 
        -0.18881238996982574, 
        -0.4974639415740967, 
        -0.07839667052030563, 
        0.4009035527706146, 
        0.8884148001670837, 
        0.23560546338558197, 
        -0.16625411808490753, 
        0.09626108407974243, 
        -2.609269857406616, 
        0.1604778915643692, 
        -0.08696766942739487, 
        0.1381036788225174, 
        -0.0066267759539186954, 
        0.10564011335372925, 
        1.5831959247589111, 
        0.3513808250427246, 
        0.1470603346824646, 
        0.37967994809150696, 
        0.3322635293006897, 
        0.05878957733511925, 
        0.10436798632144928, 
        -0.09418598562479019, 
        1.416826605796814, 
        0.02827364392578602, 
        0.03899027407169342, 
        0.4303261637687683, 
        1.3833352327346802, 
        -0.1973343938589096, 
        -0.06504734605550766, 
        0.050815775990486145, 
        0.04130253568291664, 
        0.06199582293629646, 
        -0.15538404881954193, 
        -0.16549234092235565, 
        -0.09863942116498947, 
        0.2803867757320404, 
        -0.14268730580806732, 
        -0.2010166049003601, 
        -0.3027034103870392, 
        0.5010970234870911, 
        -0.07557611167430878, 
        -0.10553737729787827, 
        -0.22485604882240295, 
        -0.18897442519664764, 
        0.18929195404052734, 
        -0.40454140305519104, 
        1.3891602754592896, 
        0.004800319671630859, 
        0.02695300616323948, 
        0.5721352696418762, 
        -2.2998008728027344, 
        -0.2304781973361969, 
        -0.1896364539861679, 
        1.3040412664413452, 
        1.3576852083206177, 
        -0.10178780555725098, 
        -0.015757368877530098, 
        0.12843331694602966, 
        -0.21518398821353912, 
        -0.13131295144557953, 
        0.7347438335418701, 
        1.9034628868103027, 
        0.06331145018339157, 
        -0.029708432033658028, 
        0.9260457754135132, 
        -0.0940324142575264, 
        -0.06358916312456131, 
        -0.10097973793745041, 
        0.10478562861680984, 
        -0.018951093778014183, 
        -0.1406739503145218, 
        -0.19854594767093658, 
        0.01837773434817791, 
        -0.17126651108264923, 
        -0.20475196838378906, 
        0.021541215479373932, 
        0.7396697998046875, 
        1.456141471862793, 
        -0.3982577621936798, 
        2.141075611114502, 
        -0.15045292675495148, 
        0.0296955369412899, 
        0.15203948318958282, 
        1.5503997802734375, 
        -2.057858943939209, 
        0.017220202833414078, 
        0.03406824544072151, 
        0.7229679226875305, 
        -0.20681408047676086, 
        -0.13075880706310272, 
        -1.3321657180786133, 
        -0.05609380826354027, 
        -2.0897328853607178, 
        -0.01791704073548317, 
        1.723577857017517, 
        0.12694163620471954, 
        0.08393838256597519, 
        -0.231376051902771, 
        -0.1030045598745346, 
        0.4944798946380615, 
        0.5055455565452576, 
        -1.1961591243743896, 
        -0.15317881107330322, 
        -0.5398053526878357, 
        1.2655402421951294, 
        -1.3043540716171265, 
        -0.07508189976215363, 
        -0.17421254515647888, 
        1.409124493598938, 
        0.07920224219560623, 
        0.18492905795574188, 
        -0.20021861791610718, 
        2.1309878826141357, 
        -2.078563928604126, 
        0.7550792098045349, 
        0.17690235376358032, 
        1.664620280265808, 
        1.933951497077942, 
        2.1796090602874756, 
        1.547044038772583, 
        0.36320820450782776, 
        -0.1315935254096985, 
        -0.2297639101743698, 
        0.00916007999330759, 
        0.005478725302964449, 
        -0.22062182426452637, 
        -0.030426479876041412, 
        0.06704295426607132, 
        -0.04457524046301842, 
        0.9375196099281311, 
        -0.062960185110569, 
        -0.22269758582115173, 
        1.3722232580184937, 
        -0.3778976500034332, 
        0.0027865644078701735, 
        -0.03774264454841614, 
        -2.769122838973999, 
        0.02165018953382969, 
        -0.21100513637065887, 
        -0.10872875154018402, 
        -0.07834344357252121, 
        -0.012845639139413834, 
        1.9095343351364136, 
        -0.019944464787840843, 
        -0.08156940340995789, 
        0.026081951335072517, 
        1.6734988689422607, 
        0.15133965015411377, 
        -0.1577349752187729, 
        -0.02602117508649826, 
        0.8865679502487183, 
        -0.03233814984560013, 
        0.41510406136512756, 
        -0.07298874109983444, 
        -0.7284778356552124, 
        -0.16610747575759888, 
        -0.017352264374494553, 
        -0.1543203741312027, 
        -0.08520373702049255, 
        0.3594985604286194, 
        -0.049433596432209015, 
        -0.06534089148044586, 
        -0.03893139585852623, 
        0.18516087532043457, 
        -0.03831160068511963, 
        0.3002782166004181, 
        -0.03991463780403137, 
        0.12039028853178024, 
        -0.14296071231365204, 
        0.04988313093781471, 
        0.07692446559667587, 
        -0.044542308896780014, 
        0.2619885802268982, 
        -0.15272077918052673, 
        0.7304999232292175, 
        -0.12378805130720139, 
        -0.23403477668762207, 
        0.4270603358745575, 
        -2.3736891746520996, 
        0.04666203632950783, 
        -0.03923604637384415, 
        2.0183112621307373, 
        0.7456108331680298, 
        0.03082762472331524, 
        -0.0033284130040556192, 
        -0.056351397186517715, 
        -0.2539626657962799, 
        -0.1687493920326233, 
        0.2508027255535126, 
        0.31594526767730713, 
        -0.016585780307650566, 
        -0.12323352694511414, 
        0.9147478342056274, 
        -0.005972510203719139, 
        -0.014935744926333427, 
        -0.011952809058129787, 
        -0.07197459787130356, 
        -0.032458651810884476, 
        0.017202747985720634, 
        -0.02879432961344719, 
        0.044723719358444214, 
        -0.16024918854236603, 
        -0.09848865866661072, 
        0.06228870898485184, 
        -0.12321106344461441, 
        1.5079612731933594, 
        -0.0841623917222023, 
        0.5294812321662903, 
        0.026782119646668434, 
        -0.12452330440282822, 
        0.09978135675191879, 
        0.44535452127456665, 
        -1.552497148513794, 
        0.1325100213289261, 
        -0.0677015632390976, 
        -0.1444762647151947, 
        0.12671229243278503, 
        -0.16174142062664032, 
        -1.5399059057235718, 
        -0.17443591356277466, 
        -1.8126314878463745, 
        -0.19697578251361847, 
        1.332883358001709, 
        0.04211860150098801, 
        0.03886006772518158, 
        -0.3200477063655853, 
        -0.08079016953706741, 
        0.5885881185531616, 
        0.45858630537986755, 
        0.27083495259284973, 
        -0.15622685849666595, 
        -0.31361231207847595, 
        2.109668016433716, 
        -0.6847231388092041, 
        -0.14883273839950562, 
        -0.018626263365149498, 
        -0.8609461784362793, 
        0.3907959461212158, 
        0.13002347946166992, 
        0.08348023146390915, 
        1.0064116716384888, 
        -1.8108320236206055, 
        0.7795569896697998, 
        0.07406619936227798, 
        2.3866467475891113, 
        1.5823417901992798, 
        1.5177743434906006, 
        1.6212193965911865, 
        -0.007075746543705463, 
        -0.0313575305044651, 
        -0.0652480348944664, 
        -0.10714074224233627, 
        0.03747493773698807, 
        -0.020334770902991295, 
        0.20968036353588104, 
        0.07532668858766556, 
        0.08523507416248322, 
        -0.6645023226737976, 
        -0.12038005143404007, 
        -0.2287471443414688, 
        0.5957236289978027, 
        -0.0803665891289711, 
        -0.06696508824825287, 
        0.1252579241991043, 
        -1.7703986167907715, 
        -0.08244659751653671, 
        -0.038002096116542816, 
        -0.04597293213009834, 
        -0.12952102720737457, 
        -0.032962530851364136, 
        2.2024192810058594, 
        0.1502600610256195, 
        -0.08642569184303284, 
        -0.15604695677757263, 
        0.12843205034732819, 
        -0.15581881999969482, 
        0.07117214798927307, 
        -0.022234361618757248, 
        2.0698812007904053, 
        0.030941901728510857, 
        0.3211938142776489, 
        0.6922271847724915, 
        1.1232048273086548, 
        -0.1262492686510086, 
        0.2319423109292984, 
        0.10898783057928085, 
        -0.15796716511249542, 
        -0.17403526604175568, 
        0.0642329752445221, 
        -0.3932705521583557, 
        -0.06374972313642502, 
        0.24680598080158234, 
        0.014706240966916084, 
        -0.09974414855241776, 
        -0.04526543244719505, 
        0.009443485178053379, 
        -0.10589949786663055, 
        0.026556672528386116, 
        -0.09647869318723679, 
        -0.12733417749404907, 
        0.4920487105846405, 
        0.5454753041267395, 
        1.2170692682266235, 
        -0.20274507999420166, 
        -0.1775759756565094, 
        0.5513609647750854, 
        -2.5824131965637207, 
        0.0819314494729042, 
        -0.18548162281513214, 
        0.470990389585495, 
        0.4298032224178314, 
        -0.22855238616466522, 
        -0.08372605592012405, 
        -0.02297358214855194, 
        -0.23940053582191467, 
        -0.13618052005767822, 
        0.5500523447990417, 
        1.2593679428100586, 
        0.048204075545072556, 
        -0.14270451664924622, 
        0.20933538675308228, 
        -0.05364147573709488, 
        0.0001338060974376276, 
        -0.292214572429657, 
        -0.1806212216615677, 
        0.009580656886100769, 
        -0.0028095501475036144, 
        -0.22778747975826263, 
        0.178651824593544, 
        -0.16881443560123444, 
        -0.010680637322366238, 
        -0.0938902497291565, 
        0.55038982629776, 
        1.330823540687561, 
        -0.6873893141746521, 
        1.829430341720581, 
        -0.10515716671943665, 
        -0.0034572796430438757, 
        0.13777782022953033, 
        0.5924271941184998, 
        -2.4517149925231934, 
        -0.09235730767250061, 
        -0.16407611966133118, 
        0.34560492634773254, 
        0.34856846928596497, 
        -0.2867850363254547, 
        -1.0960561037063599, 
        -0.2360507994890213, 
        -2.398411512374878, 
        -0.11815224587917328, 
        1.6494529247283936, 
        0.13380476832389832, 
        -0.05252841114997864, 
        -0.14693161845207214, 
        -0.09924976527690887, 
        0.6749254465103149, 
        0.7774031162261963, 
        0.14084358513355255, 
        -0.21285633742809296, 
        -0.007880117744207382, 
        0.9860935211181641, 
        -1.45656418800354, 
        -0.11313951760530472, 
        -0.021271854639053345, 
        1.080544352531433, 
        0.21571774780750275, 
        0.12864381074905396, 
        -0.03350238502025604, 
        1.2543455362319946, 
        -2.550152540206909, 
        0.47174447774887085, 
        0.018340393900871277, 
        1.6900075674057007, 
        1.5233893394470215, 
        2.444089651107788, 
        0.7672213912010193, 
        0.40527281165122986, 
        -0.23992876708507538, 
        -0.21426965296268463, 
        -0.030326910316944122, 
        -0.0751977190375328, 
        -0.20448176562786102, 
        -0.08845390379428864, 
        0.07132170349359512, 
        0.0061814128421247005, 
        -0.08977582305669785, 
        0.08746667206287384, 
        -0.3805016279220581, 
        1.6713390350341797, 
        -0.1238287016749382, 
        0.012514001689851284, 
        0.047391220927238464, 
        -2.8854618072509766, 
        -0.05640646815299988, 
        -0.10435382276773453, 
        -0.24142727255821228, 
        -0.15435126423835754, 
        0.005199147388339043, 
        1.6684037446975708, 
        0.06913898140192032, 
        0.20561949908733368, 
        -0.03824208676815033, 
        2.4954023361206055, 
        -0.1703381985425949, 
        -0.1028233990073204, 
        0.009561309590935707, 
        2.5784316062927246, 
        -0.1842789202928543, 
        0.13558121025562286, 
        0.16169731318950653, 
        -0.06098130717873573, 
        -0.22717642784118652, 
        0.36096271872520447, 
        -0.08883438259363174, 
        -0.11268983781337738, 
        0.13764072954654694, 
        0.08385247737169266, 
        -0.824278712272644, 
        -0.12212193012237549, 
        0.7668573260307312, 
        0.08396400511264801, 
        -0.2112879455089569, 
        -0.3190878629684448, 
        -0.3169470727443695, 
        -0.00792775209993124, 
        -0.3633418679237366, 
        -0.14155498147010803, 
        -0.3349516987800598, 
        0.694294810295105, 
        0.23068755865097046, 
        0.9706031680107117, 
        -0.3963555693626404, 
        -0.2583531141281128, 
        1.010064721107483, 
        -3.295436143875122, 
        -0.19071467220783234, 
        -0.15046745538711548, 
        0.39791542291641235, 
        -0.45804205536842346, 
        -0.3561694025993347, 
        -0.059292782098054886, 
        0.22627748548984528, 
        -0.12373652309179306, 
        -0.18865887820720673, 
        0.3392128050327301, 
        0.3828484117984772, 
        0.25185248255729675, 
        0.03879895061254501, 
        -0.31798234581947327, 
        -0.06837265938520432, 
        -0.2147531509399414, 
        -0.9155829548835754, 
        -0.10912982374429703, 
        -0.0904003158211708, 
        -0.1417888104915619, 
        -0.5623326897621155, 
        -0.16732437908649445, 
        -0.3215334415435791, 
        -0.25927188992500305, 
        0.09372316300868988, 
        -0.32720068097114563, 
        1.7933422327041626, 
        -1.3182871341705322, 
        -0.2524271607398987, 
        -0.03864038735628128, 
        0.03079947829246521, 
        0.8426332473754883, 
        -0.8951941728591919, 
        -2.441265106201172, 
        -0.08339163661003113, 
        -0.01497692335397005, 
        0.0280012059956789, 
        -0.23810818791389465, 
        -0.3699541389942169, 
        -2.1193878650665283, 
        -0.2833386957645416, 
        -2.231282949447632, 
        0.02379748784005642, 
        0.9085059762001038, 
        0.007905070669949055, 
        -0.08699613809585571, 
        0.08609572798013687, 
        -0.18833281099796295, 
        0.7752819657325745, 
        0.6615841388702393, 
        1.0107136964797974, 
        -0.048818692564964294, 
        0.27765247225761414, 
        -0.0253060981631279, 
        -2.2107443809509277, 
        -0.19296182692050934, 
        -0.16268320381641388, 
        0.10488995909690857, 
        -0.3805385231971741, 
        -0.07604886591434479, 
        -0.10511951893568039, 
        -0.5957022905349731, 
        -3.2650718688964844, 
        0.49220767617225647, 
        -0.16127826273441315, 
        1.9982213973999023, 
        1.2396776676177979, 
        0.9670339226722717, 
        -0.9353706240653992, 
        0.5881249308586121, 
        -0.296532541513443, 
        -0.03864959999918938, 
        -0.0618126355111599, 
        -0.12493474781513214, 
        0.08968666195869446, 
        -0.43707311153411865, 
        -0.0901915431022644, 
        -0.08933195471763611, 
        -0.9733092188835144, 
        -0.10543660074472427, 
        -0.9095802903175354, 
        1.2663495540618896, 
        -0.5960120558738708, 
        -0.16152043640613556, 
        0.06874069571495056, 
        -3.0625722408294678, 
        -0.056852757930755615, 
        -0.40088552236557007, 
        -0.5449386835098267, 
        0.04604777693748474, 
        0.0034246379509568214, 
        1.090866208076477, 
        -0.276607871055603, 
        0.3837382197380066, 
        -0.12702207267284393, 
        2.302018404006958, 
        0.7524852156639099, 
        -0.1261851042509079, 
        -0.019103409722447395, 
        -0.035937804728746414, 
        -0.1579892337322235, 
        0.271463543176651, 
        -0.22829115390777588, 
        0.30966562032699585, 
        0.05233168601989746, 
        -0.12559741735458374, 
        -0.1340198516845703, 
        0.008851216174662113, 
        0.2416551113128662, 
        -0.07539346814155579, 
        -0.00611121254041791, 
        -0.1543949395418167, 
        0.09607816487550735, 
        -0.013440894894301891, 
        -0.04217343404889107, 
        -0.005034713074564934, 
        -0.03561852499842644, 
        -0.1605013906955719, 
        0.020929209887981415, 
        0.18592268228530884, 
        0.04070736840367317, 
        0.07234770804643631, 
        -0.028006374835968018, 
        0.5792768597602844, 
        -0.044636961072683334, 
        0.01002479251474142, 
        0.14449648559093475, 
        0.7029334902763367, 
        0.0150748947635293, 
        0.12475913017988205, 
        0.34813812375068665, 
        -0.15260851383209229, 
        -0.010651231743395329, 
        0.06986694037914276, 
        -0.03516208007931709, 
        -0.061576057225465775, 
        -0.04856836050748825, 
        0.04263234883546829, 
        0.021682756021618843, 
        -0.044321458786726, 
        0.11806127429008484, 
        -0.09658265858888626, 
        -0.12295711040496826, 
        -0.14627224206924438, 
        -0.03530682623386383, 
        0.013722801581025124, 
        -0.19709376990795135, 
        -0.1728154867887497, 
        -0.02678622119128704, 
        -0.023578358814120293, 
        -0.16379095613956451, 
        -0.025997662916779518, 
        -0.06766552478075027, 
        -0.015201649628579617, 
        0.2906995415687561, 
        0.2042798101902008, 
        0.25845271348953247, 
        -0.007200764957815409, 
        -0.15436843037605286, 
        -0.063933365046978, 
        0.1381637454032898, 
        1.0475660562515259, 
        0.04437287151813507, 
        0.021523291245102882, 
        -0.05910223349928856, 
        0.1834307610988617, 
        -0.1684977412223816, 
        0.22828340530395508, 
        -0.21535326540470123, 
        0.9481909871101379, 
        0.11754787713289261, 
        0.2577275335788727, 
        -0.02360299788415432, 
        -0.059725675731897354, 
        -0.36147770285606384, 
        -0.0705338642001152, 
        0.20208455622196198, 
        0.06784723699092865, 
        -0.08634412288665771, 
        -0.15316665172576904, 
        0.13426683843135834, 
        -0.12368695437908173, 
        0.7039074897766113, 
        -0.06652310490608215, 
        0.05133016034960747, 
        -0.053166694939136505, 
        0.29792407155036926, 
        -0.0977788046002388, 
        -0.03035731427371502, 
        0.3296720087528229, 
        0.8070304989814758, 
        0.1258264034986496, 
        -0.17684994637966156, 
        0.5723881721496582, 
        0.29797446727752686, 
        0.10623830556869507, 
        0.3157089948654175, 
        0.22195576131343842, 
        -0.15548266470432281, 
        0.013544728048145771, 
        -0.1299382895231247, 
        -0.11437789350748062, 
        0.010072519071400166, 
        0.15152178704738617, 
        -0.1467663049697876, 
        -0.0949530154466629, 
        -0.008337199687957764, 
        0.14429529011249542, 
        -0.31975236535072327, 
        0.31663912534713745, 
        0.01989617384970188, 
        0.06352587789297104, 
        -0.02451680600643158, 
        1.0962190628051758, 
        0.058790091425180435, 
        -0.2206605076789856, 
        0.09225005656480789, 
        0.057256314903497696, 
        -0.1305607706308365, 
        1.2586675882339478, 
        0.18095463514328003, 
        -0.048953086137771606, 
        0.10229045897722244, 
        -0.30593279004096985, 
        -0.19399133324623108, 
        -0.08575861155986786, 
        -0.1559399515390396, 
        0.2602308690547943, 
        -0.06858625262975693, 
        0.6197158098220825, 
        -0.17340290546417236, 
        0.03419661894440651, 
        -0.07405588775873184, 
        -0.16891637444496155, 
        -0.181285098195076, 
        0.07612737268209457, 
        0.5612366795539856, 
        0.012681440450251102, 
        -0.1065778061747551, 
        0.01665770635008812, 
        -0.11464899033308029, 
        0.052496761083602905, 
        -0.0337684340775013, 
        -0.07765159010887146, 
        0.12065861374139786, 
        -0.1803675889968872, 
        -0.003320719813928008, 
        0.1993441879749298, 
        0.013362296856939793, 
        0.17356501519680023, 
        -0.051022451370954514, 
        0.3496239483356476, 
        -0.17287567257881165, 
        -0.06798556447029114, 
        0.008384045213460922, 
        -0.5471314191818237, 
        0.21274954080581665, 
        0.12201165407896042, 
        0.218446746468544, 
        -0.08017230033874512, 
        -0.15754938125610352, 
        -0.06587044149637222, 
        -0.02558310329914093, 
        -0.10831392556428909, 
        -0.020954586565494537, 
        0.1813279688358307, 
        -0.09132593870162964, 
        -0.0592743344604969, 
        0.03556300699710846, 
        0.27442702651023865, 
        0.035026371479034424, 
        -0.14799246191978455, 
        -0.027452750131487846, 
        -0.054543476551771164, 
        -0.1282028704881668, 
        0.03874725103378296, 
        -0.016494175419211388, 
        -0.01839032769203186, 
        -0.14487075805664062, 
        0.0639149621129036, 
        -0.17875781655311584, 
        -0.05100465565919876, 
        1.0829896926879883, 
        0.3407251536846161, 
        -0.22790515422821045, 
        0.020588908344507217, 
        -0.0904683843255043, 
        0.08021930605173111, 
        0.06012686714529991, 
        -0.09088057279586792, 
        -0.15671943128108978, 
        0.02343725599348545, 
        -0.13807260990142822, 
        0.10874079912900925, 
        -0.06935472041368484, 
        -0.10669364780187607, 
        0.018014492467045784, 
        -0.30829259753227234, 
        -0.09056112915277481, 
        0.7964330315589905, 
        0.11708435416221619, 
        -0.0624050609767437, 
        -0.20414550602436066, 
        0.0040368493646383286, 
        0.38087424635887146, 
        0.18933266401290894, 
        0.13000011444091797, 
        -0.1269150674343109, 
        0.4653818905353546, 
        0.013288520276546478, 
        0.211580291390419, 
        -0.0595589280128479, 
        0.005991867743432522, 
        -0.21990106999874115, 
        0.8134128451347351, 
        -0.0004453317087609321, 
        -0.14468593895435333, 
        0.20773586630821228, 
        -0.35135403275489807, 
        0.2075989693403244, 
        -0.007151469588279724, 
        1.3439117670059204, 
        0.4399619698524475, 
        -0.15535219013690948, 
        0.11976349353790283, 
        0.41629672050476074, 
        -0.07018427550792694, 
        -0.015726696699857712, 
        -0.1684390753507614, 
        0.0735335648059845, 
        0.04999752715229988, 
        0.11095906794071198, 
        -0.17566923797130585, 
        -0.18614521622657776, 
        -0.19083665311336517, 
        0.09527929872274399, 
        -0.2020508050918579, 
        0.29053011536598206, 
        0.12846128642559052, 
        -0.17856380343437195, 
        0.22222210466861725, 
        -0.11800645291805267, 
        -0.017269769683480263, 
        -0.2062724232673645, 
        0.04485200345516205, 
        -0.06880835443735123, 
        -0.13667508959770203, 
        0.33812275528907776, 
        0.0880047008395195, 
        -0.016561131924390793, 
        0.0528598316013813, 
        0.0020996159873902798, 
        -0.39303043484687805, 
        -0.18246807157993317, 
        0.02733767032623291, 
        0.18297196924686432, 
        0.22234101593494415, 
        0.734279453754425, 
        -0.09656106680631638, 
        -0.19631327688694, 
        -0.2142549604177475, 
        -0.026088416576385498, 
        0.18787425756454468, 
        -0.03344675898551941, 
        0.7865930199623108, 
        0.05949348956346512, 
        0.1565975546836853, 
        -0.1825629472732544, 
        -0.12880581617355347, 
        0.017499808222055435, 
        -0.08484362065792084, 
        0.005466877017170191, 
        0.02882009744644165, 
        0.10655970871448517, 
        0.15422895550727844, 
        0.13020944595336914, 
        0.10463567823171616, 
        0.03277721256017685, 
        0.24350644648075104, 
        -0.009617405012249947, 
        0.15172544121742249, 
        -0.015847360715270042, 
        0.18711577355861664, 
        0.43555840849876404, 
        0.3244166076183319, 
        -0.09652791917324066, 
        0.3227783143520355, 
        0.13919249176979065, 
        0.08399186283349991, 
        0.003480317769572139, 
        -0.07453106343746185, 
        0.0015629151603206992, 
        0.020969772711396217, 
        -0.24548384547233582, 
        -0.36087965965270996, 
        -0.2943742573261261, 
        0.13676726818084717, 
        0.4795312285423279, 
        -0.11615011841058731, 
        0.1452336311340332, 
        0.20915590226650238, 
        0.07768023759126663, 
        0.09092715382575989, 
        0.15050256252288818, 
        0.007446638774126768, 
        0.02376202493906021, 
        0.12312211841344833, 
        0.06206004321575165, 
        -0.048953667283058167, 
        -0.36157163977622986, 
        1.391619086265564, 
        0.40600720047950745, 
        -0.40445104241371155, 
        -0.005247971974313259, 
        -0.06029859930276871, 
        -0.0594465397298336, 
        0.09624476730823517, 
        0.6156368851661682, 
        -0.12644197046756744, 
        -0.15346524119377136, 
        -0.28425249457359314, 
        0.2882610857486725, 
        0.08982614427804947, 
        0.22733144462108612, 
        -0.12711596488952637, 
        0.45632490515708923, 
        -0.07420801371335983, 
        0.3169316351413727, 
        0.06406223773956299, 
        -0.030433470383286476, 
        -0.22339394688606262, 
        0.05995701998472214, 
        0.3581277132034302, 
        -0.10520469397306442, 
        0.10607944428920746, 
        -0.09811478853225708, 
        0.6607246994972229, 
        0.31144315004348755, 
        0.6044527888298035, 
        -0.0553814135491848, 
        -0.11378553509712219, 
        -0.2707337439060211, 
        1.068023443222046, 
        0.0591852031648159, 
        -0.10418815910816193, 
        -0.30560681223869324, 
        0.576943039894104, 
        0.3450203537940979, 
        0.09212619066238403, 
        0.8375603556632996, 
        0.0010657713282853365, 
        -0.5267952084541321, 
        0.12146516144275665, 
        0.6426140666007996, 
        0.05612088367342949, 
        0.2808125913143158, 
        -0.029818987473845482, 
        -0.056735552847385406, 
        -0.14740774035453796, 
        0.2064172923564911, 
        -0.13383367657661438, 
        0.0268571600317955, 
        -0.4142914414405823, 
        -0.08363945037126541, 
        0.12488412857055664, 
        -0.07982927560806274, 
        0.29463693499565125, 
        -0.051474153995513916, 
        0.28268468379974365, 
        0.6979939937591553, 
        -0.07215102761983871, 
        -0.089083231985569, 
        -0.07134805619716644, 
        0.016151361167430878, 
        0.008714603260159492, 
        0.4359707236289978, 
        0.2060445100069046, 
        0.04400549829006195, 
        0.02183927781879902, 
        -0.5280417799949646, 
        -0.2980741560459137, 
        0.030514879152178764, 
        0.10045692324638367, 
        0.323167085647583, 
        0.20398153364658356, 
        0.8325324058532715, 
        -0.40210023522377014, 
        -0.3303089439868927, 
        -0.14171485602855682, 
        -0.11546316742897034, 
        0.16830435395240784, 
        -0.0786794126033783, 
        0.5792833566665649, 
        0.10647372156381607, 
        -0.10237957537174225, 
        -0.008004319854080677, 
        0.09543026238679886, 
        0.12359259277582169, 
        0.0382528230547905, 
        -0.067109614610672, 
        0.15466022491455078, 
        0.10861172527074814, 
        0.18781781196594238, 
        0.18712985515594482, 
        0.16189903020858765, 
        0.15357379615306854, 
        -0.04501102864742279, 
        -0.3582896888256073, 
        0.08107969164848328, 
        -0.03785805404186249, 
        -0.04434559494256973, 
        -0.7294312119483948, 
        0.3755784034729004, 
        -0.03866102546453476, 
        0.709475576877594, 
        0.1015390008687973, 
        -0.1357598751783371, 
        -0.03426450118422508, 
        -0.15868273377418518, 
        0.08316199481487274, 
        -0.09352707862854004, 
        -0.3757792115211487, 
        -0.7251713275909424, 
        -0.229612335562706, 
        0.13628561794757843, 
        0.5450200438499451, 
        -0.08303125202655792, 
        0.14432626962661743, 
        -0.007922811433672905, 
        -0.13074611127376556, 
        0.006974236574023962, 
        -0.05051523819565773, 
        -0.12129083275794983, 
        0.1324322670698166, 
        -0.004625300876796246, 
        -0.047436367720365524, 
        0.07829546183347702, 
        -0.531922459602356, 
        1.5569477081298828, 
        0.2334689199924469, 
        -0.8446269631385803, 
        0.13165591657161713, 
        -0.2063305526971817, 
        -0.02209457755088806, 
        -0.17056168615818024, 
        -0.5991458296775818, 
        -0.07065724581480026, 
        -0.09264625608921051, 
        -0.4365898072719574, 
        0.044914040714502335, 
        0.04993218183517456, 
        -0.5793547630310059, 
        0.022541990503668785, 
        -0.8303837180137634, 
        -0.12141067534685135, 
        0.1796952188014984, 
        0.06549762934446335, 
        0.06356832385063171, 
        -0.1680966466665268, 
        -0.07602810114622116, 
        0.4554746150970459, 
        -0.1900491565465927, 
        0.11745893210172653, 
        -0.06304328143596649, 
        0.6023278832435608, 
        0.2952731251716614, 
        -0.21672992408275604, 
        0.04811050742864609, 
        -0.15559929609298706, 
        -0.3423188626766205, 
        0.8662983179092407, 
        0.008821333758533001, 
        -0.02089386247098446, 
        -0.4450613260269165, 
        -0.49637869000434875, 
        -0.0408330075442791, 
        0.009425667114555836, 
        2.130739212036133, 
        -0.31153401732444763, 
        -0.3403126895427704, 
        0.2794520854949951, 
        0.21682997047901154, 
        0.10427556931972504, 
        0.01636865735054016, 
        0.15337146818637848, 
        0.08139351010322571, 
        -0.11557909101247787, 
        0.2566472291946411, 
        0.0638309046626091, 
        -0.14392343163490295, 
        -0.30962109565734863, 
        -0.1695498526096344, 
        0.08252053707838058, 
        -0.20515884459018707, 
        0.40483197569847107, 
        0.06180334463715553, 
        0.09758470207452774, 
        -0.6485996246337891, 
        0.051456987857818604, 
        -0.2286197543144226, 
        0.055485647171735764, 
        0.04452057555317879, 
        -0.12398446351289749, 
        0.6156595945358276, 
        0.15813472867012024, 
        0.046092867851257324, 
        0.18581096827983856, 
        -0.8255612850189209, 
        -0.1944323182106018, 
        -0.004542671609669924, 
        0.12953075766563416, 
        0.38274189829826355, 
        0.2679070234298706, 
        0.8270384073257446, 
        -0.3938198685646057, 
        -0.19796447455883026, 
        0.018727578222751617, 
        0.054741065949201584, 
        0.16048912703990936, 
        -0.10653402656316757, 
        0.7408926486968994, 
        -0.16854499280452728, 
        -0.09774748235940933, 
        -0.12356980890035629, 
        0.11151626706123352, 
        -0.07014518976211548, 
        0.11501022428274155, 
        0.06993890553712845, 
        0.03410298377275467, 
        0.13330964744091034, 
        -0.02106691151857376, 
        0.03663032129406929, 
        0.06913256645202637, 
        0.350749671459198, 
        -0.010282546281814575, 
        0.010203286074101925, 
        -0.05870459973812103, 
        0.13379748165607452, 
        0.09207035601139069, 
        -0.46411827206611633, 
        0.2321188896894455, 
        0.09980747848749161, 
        0.40510401129722595, 
        0.14806711673736572, 
        -0.12347853928804398, 
        -0.15318575501441956, 
        -0.15656153857707977, 
        -0.03685540333390236, 
        -0.1018967404961586, 
        -0.15675678849220276, 
        -0.45464831590652466, 
        -0.31049489974975586, 
        0.022588567808270454, 
        0.3458457887172699, 
        -0.032549820840358734, 
        0.029148230329155922, 
        0.09022633731365204, 
        -0.0807282030582428, 
        0.01237710565328598, 
        0.20286546647548676, 
        -0.16681231558322906, 
        -0.13952241837978363, 
        0.1533215045928955, 
        0.08308777958154678, 
        -0.06472156196832657, 
        -0.2078339010477066, 
        1.6662639379501343, 
        0.3686002194881439, 
        -0.7003097534179688, 
        -0.10931045562028885, 
        -0.045348554849624634, 
        -0.24242272973060608, 
        -0.20364254713058472, 
        -0.15229910612106323, 
        -0.0328487753868103, 
        0.055888958275318146, 
        -0.6474467515945435, 
        0.2708647847175598, 
        0.062394727021455765, 
        -0.389609158039093, 
        0.10868160426616669, 
        -0.5560691356658936, 
        0.05642089992761612, 
        0.5167789459228516, 
        0.020674362778663635, 
        0.09011764824390411, 
        -0.20293547213077545, 
        -0.08142028003931046, 
        0.5847676396369934, 
        0.0842830017209053, 
        0.17308105528354645, 
        -0.09515593200922012, 
        0.6290653347969055, 
        0.3250367045402527, 
        0.11684370785951614, 
        -0.01722320169210434, 
        0.06496058404445648, 
        -0.33416345715522766, 
        0.9484483599662781, 
        0.11211954802274704, 
        0.18177811801433563, 
        -0.022270986810326576, 
        -0.24141202867031097, 
        0.13991348445415497, 
        0.13775372505187988, 
        1.386155128479004, 
        -0.001982142450287938, 
        -0.42248108983039856, 
        0.32301560044288635, 
        0.5172824859619141, 
        -0.0755024403333664, 
        0.06331119686365128, 
        0.040706533938646317, 
        0.10426253825426102, 
        -0.07175362855195999, 
        0.3029838800430298, 
        -0.09351273626089096, 
        0.011135071516036987, 
        -0.5575329661369324, 
        0.08062329888343811, 
        -0.07695849239826202, 
        -0.018335748463869095, 
        0.3144645094871521, 
        -0.09130270034074783, 
        0.38095179200172424, 
        -0.38789698481559753, 
        0.09421567618846893, 
        -0.12079614400863647, 
        0.19930677115917206, 
        0.07531179487705231, 
        0.12177342176437378, 
        0.3490138351917267, 
        0.10033683478832245, 
        0.16204969584941864, 
        0.29395192861557007, 
        -0.35767313838005066, 
        -0.3368808925151825, 
        -0.053687192499637604, 
        0.15147985517978668, 
        -0.0855342373251915, 
        0.3714331388473511, 
        0.9995687007904053, 
        -0.318319171667099, 
        -0.3503793478012085, 
        -0.05967871844768524, 
        -0.1189216673374176, 
        -0.04479379951953888, 
        0.11508242785930634, 
        1.1066467761993408, 
        0.07976112514734268, 
        0.08320139348506927, 
        -0.025564515963196754, 
        -0.20161867141723633, 
        0.2358195185661316, 
        0.08199755102396011, 
        -0.08335820585489273, 
        0.08999495953321457, 
        -0.05829981714487076, 
        0.13382290303707123, 
        0.15103395283222198, 
        -0.049759235233068466, 
        0.13936775922775269, 
        0.13475224375724792, 
        -0.07464772462844849, 
        0.23964060842990875, 
        0.008431310765445232, 
        0.359159380197525, 
        -0.28815174102783203, 
        0.12280696630477905, 
        -0.019596893340349197, 
        0.6107668876647949, 
        -0.1539166271686554, 
        0.32210391759872437, 
        -0.05031678453087807, 
        0.0812697634100914, 
        -0.0757259801030159, 
        0.019752677530050278, 
        -0.2612111568450928, 
        -0.46309521794319153, 
        -0.31923311948776245, 
        0.08062002062797546, 
        0.6728643774986267, 
        -0.05543570592999458, 
        0.18875350058078766, 
        0.34980180859565735, 
        -0.14050671458244324, 
        -0.13008669018745422, 
        0.01069098524749279, 
        -0.20812314748764038, 
        0.29079142212867737, 
        0.06271855533123016, 
        0.14483699202537537, 
        -0.07582177221775055, 
        -0.261091023683548, 
        1.7563002109527588, 
        0.41749659180641174, 
        0.05631617456674576, 
        -0.053643807768821716, 
        -0.14393626153469086, 
        -0.29080742597579956, 
        0.3080742061138153, 
        0.01854543946683407, 
        -0.02437138929963112, 
        -0.12260087579488754, 
        -0.4350973665714264, 
        0.33189624547958374, 
        0.03551490232348442, 
        -0.051278553903102875, 
        -0.14791111648082733, 
        -0.37617501616477966, 
        -0.009829401969909668, 
        0.023802462965250015, 
        0.149492546916008, 
        0.17073382437229156, 
        -0.1071743294596672, 
        0.14324615895748138, 
        0.7071118950843811, 
        -0.2621651291847229, 
        0.26051923632621765, 
        0.047997042536735535, 
        0.6216027736663818, 
        0.38946571946144104, 
        0.36765605211257935, 
        0.07276897132396698, 
        -0.05740824341773987, 
        -0.30522510409355164, 
        1.2367167472839355, 
        0.17764925956726074, 
        0.19708937406539917, 
        0.24640564620494843, 
        -0.3057778477668762, 
        0.4465767741203308, 
        -0.05237970128655434, 
        0.9962020516395569, 
        -0.12811613082885742, 
        -0.11889689415693283, 
        0.42705097794532776, 
        0.740890383720398, 
        0.026868989691138268, 
        0.4016542136669159, 
        0.14086008071899414, 
        0.3008728623390198, 
        -0.01239225547760725, 
        0.05204528570175171, 
        0.06824900954961777, 
        -0.13981971144676208, 
        -0.5548786520957947, 
        -0.07242298126220703, 
        0.32246294617652893, 
        -0.06594397872686386, 
        0.29630887508392334, 
        0.22868023812770844, 
        0.1360681653022766, 
        -0.13433492183685303, 
        0.12534087896347046, 
        -0.14580485224723816, 
        -0.004496748559176922, 
        0.1769181340932846, 
        0.14940419793128967, 
        0.7001725435256958, 
        0.2297385036945343, 
        -0.049934450536966324, 
        0.16093342006206512, 
        -0.4801139235496521, 
        0.10078737139701843, 
        0.08413670212030411, 
        0.06427469849586487, 
        -0.017263317480683327, 
        -0.058590520173311234, 
        0.16157673299312592, 
        -0.1403789520263672, 
        -0.14221152663230896, 
        -0.12285863608121872, 
        -0.012912161648273468, 
        -0.15067704021930695, 
        -0.01064897608011961, 
        0.1550290435552597, 
        -0.05133887752890587, 
        0.06813739985227585, 
        -0.07903256267309189, 
        -0.14297500252723694, 
        0.13459473848342896, 
        0.04788554459810257, 
        -0.017763404175639153, 
        -0.04905502125620842, 
        -0.05047743767499924, 
        0.06366705894470215, 
        -0.02603069506585598, 
        0.09748844057321548, 
        0.0307463426142931, 
        -0.011317430064082146, 
        0.592316210269928, 
        -0.08918639272451401, 
        -0.1751391887664795, 
        -0.11011062562465668, 
        -0.5355883240699768, 
        0.18503722548484802, 
        -0.15594547986984253, 
        0.15522180497646332, 
        0.0697043314576149, 
        -0.11171109974384308, 
        -0.04813748970627785, 
        0.021675581112504005, 
        -0.0754091739654541, 
        -0.08173252642154694, 
        0.2038772702217102, 
        0.18073531985282898, 
        -0.1135357990860939, 
        0.1405787467956543, 
        0.028661023825407028, 
        0.05139673873782158, 
        -0.16279572248458862, 
        0.022055309265851974, 
        0.08294203877449036, 
        -0.0036500380374491215, 
        -0.04631775990128517, 
        0.026165923103690147, 
        0.011023208498954773, 
        -0.08069783449172974, 
        -0.01647876761853695, 
        -0.1531587839126587, 
        0.04640268161892891, 
        0.8015376329421997, 
        0.0681588277220726, 
        0.1652182638645172, 
        0.03996223956346512, 
        -0.09468116611242294, 
        0.047170232981443405, 
        0.3576870262622833, 
        -0.3758276402950287, 
        -0.16179810464382172, 
        -0.15021605789661407, 
        -0.023413080722093582, 
        0.2636394798755646, 
        -0.14375010132789612, 
        -0.21947644650936127, 
        -0.1060343086719513, 
        -0.41066789627075195, 
        -0.04929590970277786, 
        0.8167473077774048, 
        -0.021352577954530716, 
        -0.059897810220718384, 
        -0.15757308900356293, 
        -0.04036717489361763, 
        0.31753236055374146, 
        0.4063103199005127, 
        0.1497349888086319, 
        -0.08622404932975769, 
        0.13459482789039612, 
        -0.06522729247808456, 
        -0.1574609875679016, 
        0.004392519127577543, 
        -0.08690890669822693, 
        -0.2259281575679779, 
        0.18092134594917297, 
        -0.03854404762387276, 
        -0.011613029055297375, 
        0.13157975673675537, 
        -0.33973655104637146, 
        -0.06559614837169647, 
        -0.1418774127960205, 
        1.091036081314087, 
        0.41194137930870056, 
        0.046584077179431915, 
        -0.06873816251754761, 
        0.2634456753730774, 
        -0.0027739452198147774, 
        0.09813468158245087, 
        0.12646500766277313, 
        0.01990446448326111, 
        0.028536969795823097, 
        0.04697606340050697, 
        -0.037276819348335266, 
        0.016610629856586456, 
        -0.2995562255382538, 
        -0.11891429126262665, 
        -0.32544025778770447, 
        0.5789794325828552, 
        0.1084137111902237, 
        -0.0543535016477108, 
        0.3746408522129059, 
        -0.3889058530330658, 
        0.08783017843961716, 
        -0.21065771579742432, 
        -0.0617530383169651, 
        -0.1204415038228035, 
        -0.07766471803188324, 
        0.10159347951412201, 
        -0.0578593909740448, 
        -0.08136127889156342, 
        0.10988844931125641, 
        0.2979367673397064, 
        -0.21245531737804413, 
        0.029232323169708252, 
        -0.08692733943462372, 
        0.11684279888868332, 
        -0.09103971719741821, 
        0.18752703070640564, 
        -0.045998889952898026, 
        -0.10171490162611008, 
        0.019865382462739944, 
        -0.02902473323047161, 
        -0.21394819021224976, 
        -0.17536254227161407, 
        0.11907029151916504, 
        0.001835000584833324, 
        -0.04088295251131058, 
        0.056482817977666855, 
        0.11660372465848923, 
        -0.08469186723232269, 
        0.029982563108205795, 
        -0.024543412029743195, 
        -0.06673048436641693, 
        -0.03493262827396393, 
        -0.11419229209423065, 
        -0.15729664266109467, 
        0.049434371292591095, 
        0.07598582655191422, 
        0.010731009766459465, 
        0.28311362862586975, 
        -0.04622507840394974, 
        0.02152348682284355, 
        0.14547765254974365, 
        -0.44267600774765015, 
        0.0334777906537056, 
        -0.10540694743394852, 
        0.22755631804466248, 
        0.035032253712415695, 
        -0.17789201438426971, 
        -0.10480141639709473, 
        -0.04350662976503372, 
        -0.08583322167396545, 
        -0.14720121026039124, 
        0.14289279282093048, 
        0.12346994131803513, 
        0.047328438609838486, 
        -0.12488716840744019, 
        -0.041934557259082794, 
        -0.21280400454998016, 
        0.024434426799416542, 
        -0.17965076863765717, 
        -0.18223167955875397, 
        -0.19444948434829712, 
        0.0710671991109848, 
        -0.0825052335858345, 
        -0.07653326541185379, 
        -0.22513225674629211, 
        -0.010677297599613667, 
        -0.049635473638772964, 
        -0.1910742223262787, 
        0.5506719946861267, 
        -0.05644611641764641, 
        -0.19682911038398743, 
        -0.16113439202308655, 
        0.019870838150382042, 
        0.03857256844639778, 
        -0.002027864335104823, 
        -0.2742210626602173, 
        -0.1435413658618927, 
        -0.1178537905216217, 
        -0.0785926952958107, 
        0.14821980893611908, 
        -0.06433743983507156, 
        -0.2393132895231247, 
        -0.1213885098695755, 
        -0.4311808943748474, 
        0.040629975497722626, 
        0.6563505530357361, 
        0.05436137318611145, 
        0.08447470515966415, 
        -0.34248480200767517, 
        -0.16916228830814362, 
        0.31156179308891296, 
        0.17506906390190125, 
        -0.12534338235855103, 
        0.06721463054418564, 
        0.09400998055934906, 
        0.10225658118724823, 
        -0.12144749611616135, 
        -0.07940579950809479, 
        0.10253312438726425, 
        -0.2965119183063507, 
        0.10479466617107391, 
        0.12618428468704224, 
        0.09030312299728394, 
        -0.038848597556352615, 
        -0.4745093882083893, 
        0.034799184650182724, 
        -0.09826286882162094, 
        0.8595319390296936, 
        0.4780157804489136, 
        0.02066098526120186, 
        -0.04353638365864754, 
        0.09992185235023499, 
        0.0492287203669548, 
        -0.013574237003922462, 
        -0.04588697850704193, 
        -0.13316179811954498, 
        -0.17829953134059906, 
        0.059436798095703125, 
        -0.03319583460688591, 
        -0.1955610066652298, 
        -0.23806814849376678, 
        0.07456926256418228, 
        -0.18263830244541168, 
        0.5517784357070923, 
        -0.015746505931019783, 
        -0.0011746868258342147, 
        -0.08410114049911499, 
        -0.37221652269363403, 
        -0.03098415583372116, 
        -0.30068883299827576, 
        -0.05293790251016617, 
        0.061244767159223557, 
        0.06791302561759949, 
        0.42425158619880676, 
        0.09821994602680206, 
        -0.06615811586380005, 
        0.01947096548974514, 
        -0.157814621925354, 
        -0.35296615958213806, 
        -0.10961835831403732, 
        0.12952430546283722, 
        2.0157415866851807, 
        0.3620293438434601, 
        1.2995091676712036, 
        -0.7771706581115723, 
        -0.11118166893720627, 
        0.11571282148361206, 
        -0.24884545803070068, 
        0.2967616021633148, 
        0.22655192017555237, 
        1.4564752578735352, 
        0.0973641499876976, 
        0.7186238765716553, 
        0.2369811236858368, 
        0.2195017784833908, 
        0.1863994300365448, 
        0.7396487593650818, 
        0.5285823345184326, 
        0.7905487418174744, 
        0.4360397458076477, 
        1.4091416597366333, 
        0.20528393983840942, 
        0.467084676027298, 
        -0.24384325742721558, 
        0.9811298251152039, 
        -0.30073341727256775, 
        -0.13337430357933044, 
        0.2831004858016968, 
        -0.4939975440502167, 
        1.6420509815216064, 
        0.5734192132949829, 
        0.4770452678203583, 
        -1.2381370067596436, 
        0.3795149028301239, 
        0.13333964347839355, 
        0.2212693691253662, 
        0.02596377395093441, 
        0.40486231446266174, 
        0.39963775873184204, 
        -0.754447340965271, 
        -1.2412534952163696, 
        -0.11813356727361679, 
        0.16974319517612457, 
        -0.06805648654699326, 
        0.22243916988372803, 
        0.38710376620292664, 
        0.6321555376052856, 
        0.3606085479259491, 
        0.23836654424667358, 
        0.15412357449531555, 
        0.6364493370056152, 
        1.7957013845443726, 
        0.008035925216972828, 
        0.4547237753868103, 
        -0.055767763406038284, 
        0.5605100393295288, 
        1.3027575016021729, 
        1.4955201148986816, 
        0.5471866130828857, 
        0.3763178884983063, 
        0.2630271017551422, 
        0.3793259859085083, 
        0.5275505781173706, 
        1.7817624807357788, 
        0.05408627912402153, 
        -0.04806976392865181, 
        0.25947338342666626, 
        1.2079921960830688, 
        0.5696659088134766, 
        1.5385218858718872, 
        0.33294177055358887, 
        1.5662544965744019, 
        0.2685425281524658, 
        -1.2922542095184326, 
        0.32739341259002686, 
        0.24874179065227509, 
        -0.07038496434688568, 
        0.25256064534187317, 
        1.2300689220428467, 
        -0.403257817029953, 
        0.8564580678939819, 
        0.48431429266929626, 
        1.1845927238464355, 
        0.2973451316356659, 
        1.377668023109436, 
        0.3308493494987488, 
        -0.02823571488261223, 
        -0.6541997194290161, 
        1.2850345373153687, 
        0.455351859331131, 
        0.4661845862865448, 
        0.19957171380519867, 
        1.6835473775863647, 
        -0.024503115564584732, 
        1.9060330390930176, 
        0.7182760834693909, 
        -0.9633426070213318, 
        0.0787147581577301, 
        -0.5008056163787842, 
        1.4957669973373413, 
        0.37261566519737244, 
        2.6544361114501953, 
        0.24277126789093018, 
        0.03268328681588173, 
        0.08718009293079376, 
        0.4890255928039551, 
        0.2670912444591522, 
        0.06922417134046555, 
        0.8999051451683044, 
        0.14500439167022705, 
        0.135807067155838, 
        -0.5431244373321533, 
        1.2466493844985962, 
        0.2205800563097, 
        0.7082663774490356, 
        1.6492608785629272, 
        0.3418281078338623, 
        0.2600584328174591, 
        0.6894981265068054, 
        0.30076712369918823, 
        0.00041088362922891974, 
        -0.9141037464141846, 
        0.4467604458332062, 
        0.004339118488132954, 
        0.35064563155174255, 
        1.4610763788223267, 
        -0.25477418303489685, 
        0.18562911450862885, 
        0.09460490942001343, 
        0.20595164597034454, 
        0.019618166610598564, 
        0.4798692464828491, 
        -0.1980903297662735, 
        -0.23921528458595276, 
        -0.15978652238845825, 
        -0.03207172080874443, 
        0.026267461478710175, 
        0.05272981524467468, 
        0.39492037892341614, 
        -0.1430256962776184, 
        -0.11920328438282013, 
        -0.09803711622953415, 
        -0.10885760933160782, 
        0.11714398115873337, 
        0.035811059176921844, 
        0.016551310196518898, 
        0.053488194942474365, 
        -0.20335683226585388, 
        -0.16308200359344482, 
        0.16940847039222717, 
        -0.0026140015106648207, 
        0.10317064821720123, 
        -0.17507711052894592, 
        0.15385769307613373, 
        -0.019456131383776665, 
        -0.1315050721168518, 
        0.07968726754188538, 
        -0.4120752811431885, 
        0.13748855888843536, 
        -0.1429464966058731, 
        0.26232975721359253, 
        -0.1575220674276352, 
        -0.04366564750671387, 
        -0.16661325097084045, 
        0.0687369778752327, 
        -0.08181765675544739, 
        0.0680905357003212, 
        0.09382425248622894, 
        -0.37214016914367676, 
        -0.05692366510629654, 
        0.06866563856601715, 
        0.2761286199092865, 
        -0.18625955283641815, 
        -0.14119838178157806, 
        -0.03095061518251896, 
        -0.06166429817676544, 
        -0.01997675560414791, 
        -0.11252166330814362, 
        -0.22869794070720673, 
        -0.0994449034333229, 
        -0.07190032303333282, 
        0.09925086796283722, 
        0.0011890907771885395, 
        -0.1833648681640625, 
        1.2132359743118286, 
        0.11831098794937134, 
        -0.41230034828186035, 
        0.06534165143966675, 
        0.0716109499335289, 
        -0.16088350117206573, 
        -0.27518364787101746, 
        -0.19595512747764587, 
        0.12052007764577866, 
        -0.04483857378363609, 
        -0.3861618936061859, 
        0.13210952281951904, 
        0.009108846075832844, 
        -0.2949337959289551, 
        -0.07524353265762329, 
        -0.3826168477535248, 
        -0.14017893373966217, 
        0.44797641038894653, 
        -0.1599825918674469, 
        -0.01471236813813448, 
        -0.2616342306137085, 
        0.04684656485915184, 
        0.5676731467247009, 
        0.12629219889640808, 
        0.15729427337646484, 
        -0.06238878145813942, 
        0.4222962260246277, 
        -0.05024604871869087, 
        -0.005076779518276453, 
        -0.16277872025966644, 
        0.11038544028997421, 
        -0.369998037815094, 
        0.7446293830871582, 
        0.13324576616287231, 
        0.14987066388130188, 
        -0.1900365799665451, 
        -0.3031863570213318, 
        0.17481780052185059, 
        0.04481813311576843, 
        1.2923368215560913, 
        -0.03607873246073723, 
        -0.3919689953327179, 
        0.1294224113225937, 
        0.247965469956398, 
        -0.13003526628017426, 
        0.029474806040525436, 
        -0.053709477186203, 
        0.09003560990095139, 
        -0.017017381265759468, 
        0.15911684930324554, 
        0.07948467880487442, 
        -0.005211774259805679, 
        -0.38192257285118103, 
        -0.11689980328083038, 
        -0.2460600584745407, 
        0.2510605752468109, 
        0.46340060234069824, 
        0.04398015886545181, 
        0.2833157479763031, 
        -0.26378098130226135, 
        -0.12858422100543976, 
        -0.19017304480075836, 
        -0.07753673195838928, 
        -0.11751516908407211, 
        0.0610184408724308, 
        0.29792606830596924, 
        0.00966377928853035, 
        0.10003023594617844, 
        0.1713973879814148, 
        -0.24115432798862457, 
        -0.31783366203308105, 
        -0.15885919332504272, 
        -0.03760984539985657, 
        0.4233507215976715, 
        0.19920563697814941, 
        1.6119836568832397, 
        -0.6777114868164062, 
        -0.5205457210540771, 
        0.05616426467895508, 
        0.008140014484524727, 
        -0.11242523044347763, 
        -0.07476227730512619, 
        1.5467369556427002, 
        0.15346220135688782, 
        -0.5808987617492676, 
        -0.17653270065784454, 
        -0.1611340343952179, 
        -0.02367004193365574, 
        -0.44336482882499695, 
        -0.21806900203227997, 
        0.04519770294427872, 
        0.07674841582775116, 
        0.22488385438919067, 
        0.049877576529979706, 
        -0.1952206939458847, 
        0.302774578332901, 
        -0.11608340591192245, 
        -1.2661675214767456, 
        -0.14068526029586792, 
        0.27917972207069397, 
        -0.03079351596534252, 
        -1.5553112030029297, 
        0.14463166892528534, 
        -0.05945923551917076, 
        0.26351916790008545, 
        -0.7390210628509521, 
        -0.0441298745572567, 
        0.045559171587228775, 
        0.19609510898590088, 
        0.04573095217347145, 
        0.02893787994980812, 
        -0.7251038551330566, 
        -1.2263597249984741, 
        -0.5606254935264587, 
        0.330809086561203, 
        -0.3105902671813965, 
        0.011968249455094337, 
        0.045992519706487656, 
        0.02490636520087719, 
        -0.3122919499874115, 
        -0.020095134153962135, 
        0.2175569087266922, 
        -0.28398698568344116, 
        0.15529441833496094, 
        0.36193305253982544, 
        -0.04326039180159569, 
        0.10305669903755188, 
        -0.9527288675308228, 
        2.181173801422119, 
        -0.771791398525238, 
        -0.8365514278411865, 
        -0.026247985661029816, 
        -0.1179409995675087, 
        -0.4618794023990631, 
        -0.26732054352760315, 
        -1.9962289333343506, 
        0.01044626347720623, 
        -0.13974618911743164, 
        -0.9247764945030212, 
        -0.5275382399559021, 
        -0.31473425030708313, 
        -1.3088619709014893, 
        -0.1292521208524704, 
        -1.8140884637832642, 
        0.03001517802476883, 
        -0.3154384195804596, 
        0.10693556815385818, 
        0.16276471316814423, 
        0.0388159416615963, 
        0.0369950495660305, 
        0.8256562948226929, 
        -0.5831644535064697, 
        -0.054530732333660126, 
        0.07206947356462479, 
        0.8121861219406128, 
        -0.7715386152267456, 
        -0.435185045003891, 
        0.1599685251712799, 
        -0.07748948037624359, 
        -0.7252371907234192, 
        0.5365119576454163, 
        0.17812371253967285, 
        0.11944688856601715, 
        -1.2408825159072876, 
        -1.9402132034301758, 
        -0.017389122396707535, 
        -0.006710630841553211, 
        2.8950092792510986, 
        -0.9449597597122192, 
        -0.9296396970748901, 
        -0.6541854739189148, 
        1.2783554792404175, 
        0.12015757709741592, 
        0.08410511910915375, 
        0.10920461267232895, 
        0.14722411334514618, 
        -0.11989787220954895, 
        0.024112677201628685, 
        -0.06671075522899628, 
        -0.16151641309261322, 
        -0.7070351839065552, 
        -0.042633842676877975, 
        0.2467493861913681, 
        -1.4425294399261475, 
        0.1593034714460373, 
        0.16701851785182953, 
        0.28061041235923767, 
        -1.821342945098877, 
        0.08872140944004059, 
        -0.07137395441532135, 
        0.10971499979496002, 
        0.3052663505077362, 
        0.16410952806472778, 
        -0.06492627412080765, 
        0.40054747462272644, 
        0.07760605216026306, 
        0.1439250111579895, 
        -1.9351085424423218, 
        -0.13695324957370758, 
        -0.4301210343837738, 
        0.09915880113840103, 
        0.5029232501983643, 
        -0.06408320367336273, 
        0.5220135450363159, 
        -0.09685761481523514, 
        -0.29590272903442383, 
        0.0368502214550972, 
        -0.0787094309926033, 
        -0.027794286608695984, 
        0.0031389750074595213, 
        0.3817038834095001, 
        0.04234686866402626, 
        0.1541222482919693, 
        -0.06494724005460739, 
        -0.10933287441730499, 
        -0.10101468861103058, 
        -0.20020201802253723, 
        0.0137380575761199, 
        -0.010890475474298, 
        -0.08279713243246078, 
        0.1336316019296646, 
        -0.08813051134347916, 
        -0.11200177669525146, 
        0.17599186301231384, 
        0.03995011746883392, 
        0.29395148158073425, 
        -0.09967822581529617, 
        -0.14782825112342834, 
        -0.1380719095468521, 
        -0.6576254963874817, 
        0.16976994276046753, 
        -0.06865644454956055, 
        0.23188161849975586, 
        0.11909927427768707, 
        -0.05909794569015503, 
        -0.10447081178426743, 
        0.05832730978727341, 
        0.06074037775397301, 
        0.015671133995056152, 
        -0.10012762993574142, 
        -0.08388100564479828, 
        -0.048438213765621185, 
        0.013198920525610447, 
        0.29053372144699097, 
        -0.0661836564540863, 
        -0.06773915886878967, 
        0.10943294316530228, 
        0.0823422521352768, 
        0.007185564376413822, 
        0.10629300773143768, 
        0.012720745988190174, 
        0.09941218793392181, 
        0.04935013875365257, 
        -0.1710633933544159, 
        0.04035862535238266, 
        -0.09822011739015579, 
        1.4290534257888794, 
        0.0024170551914721727, 
        -0.3741518557071686, 
        -0.02711453288793564, 
        -0.0021137879230082035, 
        -0.02474398724734783, 
        0.09739229828119278, 
        -0.3984144628047943, 
        -0.15537557005882263, 
        -0.04730715975165367, 
        -0.26556676626205444, 
        0.25380170345306396, 
        0.013471953570842743, 
        -0.46834635734558105, 
        0.04939740151166916, 
        -0.6258379220962524, 
        0.05768517404794693, 
        0.7617225646972656, 
        0.05216214060783386, 
        -0.1096472293138504, 
        -0.24142663180828094, 
        0.07228140532970428, 
        0.35695162415504456, 
        0.07250034809112549, 
        -0.006128439214080572, 
        -0.11229279637336731, 
        0.6399070024490356, 
        0.10887232422828674, 
        -0.10450423508882523, 
        -0.0997687503695488, 
        0.029568234458565712, 
        -0.34160181879997253, 
        0.7958685755729675, 
        0.045384731143713, 
        -0.07876896858215332, 
        0.06727871298789978, 
        -0.6741750836372375, 
        -0.05369391292333603, 
        0.08354170620441437, 
        1.422359585762024, 
        0.3398313522338867, 
        -0.13146036863327026, 
        -0.05740795657038689, 
        0.4261995255947113, 
        0.008243345655500889, 
        0.08942274749279022, 
        0.11610087007284164, 
        -0.04878486692905426, 
        0.06091703101992607, 
        0.22738176584243774, 
        -0.07195970416069031, 
        -0.06569113582372665, 
        -0.40800073742866516, 
        -0.09733138233423233, 
        -0.16310544312000275, 
        0.5043903589248657, 
        0.19705423712730408, 
        0.0719861388206482, 
        0.13089866936206818, 
        -0.6780079007148743, 
        0.011148384772241116, 
        -0.2101619988679886, 
        0.04021244868636131, 
        -0.05109774321317673, 
        -0.10808248072862625, 
        0.29144105315208435, 
        -0.039756324142217636, 
        -0.1365194171667099, 
        -0.0724329724907875, 
        0.00567933963611722, 
        -0.28805404901504517, 
        -0.16274364292621613, 
        -0.026217078790068626, 
        2.202502727508545, 
        0.11493299901485443, 
        0.7634761333465576, 
        0.3517815172672272, 
        0.33549243211746216, 
        -0.09425204992294312, 
        0.21432088315486908, 
        0.021575044840574265, 
        0.1099097803235054, 
        -0.005587032064795494, 
        -0.06322697550058365, 
        0.06984120607376099, 
        -0.10991082340478897, 
        0.23429566621780396, 
        -0.0754087045788765, 
        0.08678004890680313, 
        -0.21663352847099304, 
        0.021871037781238556, 
        -0.23711836338043213, 
        -0.22757692635059357, 
        0.017337271943688393, 
        -0.03829943388700485, 
        0.27152618765830994, 
        1.198530912399292, 
        1.3586294651031494, 
        -0.00827129278331995, 
        -0.15701532363891602, 
        0.4938412606716156, 
        -2.743168354034424, 
        0.011302635073661804, 
        -0.14617885649204254, 
        1.881874918937683, 
        1.0969120264053345, 
        -0.17795127630233765, 
        -0.008066713809967041, 
        0.00878740381449461, 
        -0.035909466445446014, 
        -0.2604268193244934, 
        0.7678672671318054, 
        1.3257471323013306, 
        -0.007586873136460781, 
        0.0275212824344635, 
        1.2603455781936646, 
        -0.21026943624019623, 
        -0.05201812461018562, 
        -0.015131556428968906, 
        -0.05106007307767868, 
        0.00352258188650012, 
        0.009131875820457935, 
        0.027233144268393517, 
        -0.12264671176671982, 
        -0.2506324350833893, 
        -0.14715461432933807, 
        0.07036131620407104, 
        0.7352116107940674, 
        1.4116935729980469, 
        -0.5822113752365112, 
        0.7484972476959229, 
        -0.13293901085853577, 
        -0.12094950675964355, 
        -0.024488138034939766, 
        0.2951276898384094, 
        -2.868464231491089, 
        -0.007518325001001358, 
        -0.18344086408615112, 
        0.5996742248535156, 
        0.1182069480419159, 
        -0.09740035235881805, 
        -0.8825255036354065, 
        -0.06963519006967545, 
        -2.7817065715789795, 
        0.024994561448693275, 
        1.5102535486221313, 
        0.10418736189603806, 
        -0.15933385491371155, 
        -0.28822845220565796, 
        -0.12307745963335037, 
        0.990759015083313, 
        1.0443583726882935, 
        0.8170636296272278, 
        -0.006865981500595808, 
        0.3441677391529083, 
        1.8468681573867798, 
        -0.9033868908882141, 
        -0.07115097343921661, 
        0.00154253956861794, 
        0.3530401587486267, 
        0.2716418504714966, 
        0.037623632699251175, 
        -0.04869791492819786, 
        1.093993067741394, 
        -2.6320579051971436, 
        0.6049912571907043, 
        -0.013049161061644554, 
        1.6751723289489746, 
        1.5235276222229004, 
        2.0784430503845215, 
        1.5359879732131958, 
        0.6190677881240845, 
        -0.17646850645542145, 
        0.049314770847558975, 
        -0.11989244073629379, 
        0.0362594872713089, 
        -0.16832956671714783, 
        0.11999673396348953, 
        -0.0933123230934143, 
        -0.10275806486606598, 
        -0.23893778026103973, 
        -0.02087382972240448, 
        -0.12694796919822693, 
        1.1758334636688232, 
        -0.041137032210826874, 
        -0.07248711585998535, 
        0.13050173223018646, 
        -2.4623425006866455, 
        0.08179941773414612, 
        -0.290621280670166, 
        0.050656694918870926, 
        0.071390800178051, 
        -0.030314503237605095, 
        2.2018890380859375, 
        0.12218249589204788, 
        -0.10055498778820038, 
        -0.11267238855361938, 
        1.794816017150879, 
        -0.2066885381937027, 
        0.0609268918633461, 
        0.03244870528578758, 
        3.072600841522217, 
        0.28469669818878174, 
        -0.7376419305801392, 
        -1.5963481664657593, 
        -3.5249738693237305, 
        -0.4416021406650543, 
        0.6856182813644409, 
        -0.07240194827318192, 
        -0.11471804976463318, 
        -0.9944291114807129, 
        0.0034730916377156973, 
        -1.0899685621261597, 
        -0.03329136222600937, 
        1.0944033861160278, 
        0.1590528041124344, 
        -0.155678391456604, 
        -0.8023208975791931, 
        -0.2330433577299118, 
        -0.08095597475767136, 
        -0.40743041038513184, 
        -0.5725235342979431, 
        -0.6569350957870483, 
        0.9172905087471008, 
        0.4909249246120453, 
        0.051639605313539505, 
        -0.5968966484069824, 
        -0.2847471237182617, 
        0.9256601333618164, 
        -3.5138120651245117, 
        0.09014536440372467, 
        -0.4364578425884247, 
        0.42133426666259766, 
        -1.690523386001587, 
        -1.0681642293930054, 
        0.08944009244441986, 
        0.42130833864212036, 
        -0.14639808237552643, 
        -0.23618975281715393, 
        0.2017887979745865, 
        -2.437825918197632, 
        0.1432899534702301, 
        0.08852209895849228, 
        -0.3637115955352783, 
        -0.05424247309565544, 
        0.27328500151634216, 
        -1.5348925590515137, 
        -0.2307322472333908, 
        -0.6009310483932495, 
        -0.14337612688541412, 
        -1.374857783317566, 
        -0.40194040536880493, 
        -1.1715961694717407, 
        -0.00527485366910696, 
        -0.18889105319976807, 
        -2.615203857421875, 
        1.5431827306747437, 
        -1.3471438884735107, 
        -2.022014617919922, 
        -0.13804808259010315, 
        0.316767156124115, 
        1.0537362098693848, 
        -2.9682717323303223, 
        -3.224006175994873, 
        -0.03620672971010208, 
        -0.251648485660553, 
        -1.5175912380218506, 
        -1.5101773738861084, 
        -0.13826805353164673, 
        -2.2177793979644775, 
        -0.18697918951511383, 
        -3.4972012042999268, 
        0.08625587075948715, 
        -1.0441339015960693, 
        0.030674083158373833, 
        -0.11990941315889359, 
        0.15241698920726776, 
        -0.13641966879367828, 
        0.756753146648407, 
        1.020312786102295, 
        0.4930785298347473, 
        -0.19957423210144043, 
        -0.34249237179756165, 
        0.5066846609115601, 
        -1.8332364559173584, 
        -0.03809638321399689, 
        0.20877617597579956, 
        -3.007662057876587, 
        -0.5259535312652588, 
        0.16544103622436523, 
        -0.09182927757501602, 
        -3.3110480308532715, 
        -3.6902782917022705, 
        -0.1151140108704567, 
        -0.25082457065582275, 
        3.3321518898010254, 
        -0.02931303158402443, 
        0.7681778073310852, 
        -1.0494567155838013, 
        -1.208269476890564, 
        -0.5612581372261047, 
        -0.0032850985880941153, 
        -0.4014720618724823, 
        -0.2737310230731964, 
        -0.09016197919845581, 
        -0.33015596866607666, 
        -0.21378138661384583, 
        -0.14724357426166534, 
        -2.205930471420288, 
        -0.02329055219888687, 
        -1.554962158203125, 
        0.2861391007900238, 
        -0.7652273774147034, 
        -0.0657729059457779, 
        -0.18974505364894867, 
        -3.4749882221221924, 
        0.010604100301861763, 
        -0.3387243151664734, 
        -0.8640960454940796, 
        -0.18996265530586243, 
        0.100558340549469, 
        0.6487526893615723, 
        0.0008817943744361401, 
        0.4468075633049011, 
        0.16571401059627533, 
        1.9034491777420044, 
        0.7896423935890198, 
        -0.6256893277168274, 
        0.089724101126194, 
        -0.7661758661270142, 
        0.19649292528629303, 
        2.21038556098938, 
        -0.6764708757400513, 
        -0.7400085926055908, 
        -0.13909298181533813, 
        -0.15470582246780396, 
        0.11314412951469421, 
        0.12013781070709229, 
        1.4479448795318604, 
        0.059473175555467606, 
        -0.3906099200248718, 
        -0.06794724613428116, 
        0.21717919409275055, 
        -0.03360574319958687, 
        -0.8892053365707397, 
        -0.10283040255308151, 
        0.21582143008708954, 
        -0.04316173493862152, 
        -0.005215582903474569, 
        0.06231432780623436, 
        -0.11429227143526077, 
        0.42336228489875793, 
        -0.22511409223079681, 
        -1.3501310348510742, 
        0.1137099415063858, 
        0.28022676706314087, 
        0.27077850699424744, 
        -2.0715460777282715, 
        0.08786600828170776, 
        0.08434516936540604, 
        0.8043113946914673, 
        -0.516558051109314, 
        0.17323757708072662, 
        -0.012192580848932266, 
        0.0012107824441045523, 
        -0.10831490904092789, 
        0.04508242383599281, 
        -0.5359403491020203, 
        -1.2336090803146362, 
        -0.39467164874076843, 
        0.26261526346206665, 
        0.4589386582374573, 
        -0.04304938390851021, 
        -0.12494077533483505, 
        0.0178708303719759, 
        -0.2169068157672882, 
        -0.05195046216249466, 
        0.11666208505630493, 
        -0.3750261664390564, 
        -0.27923882007598877, 
        0.10377930104732513, 
        -0.04571710154414177, 
        -0.08959411084651947, 
        -1.1435641050338745, 
        1.2006934881210327, 
        -0.12488283962011337, 
        0.7313465476036072, 
        -0.10725563019514084, 
        -0.20493300259113312, 
        -0.07242351770401001, 
        0.5626245737075806, 
        -1.7866177558898926, 
        0.11316800862550735, 
        -0.151487797498703, 
        -0.8198791146278381, 
        -0.551026463508606, 
        0.05608266592025757, 
        -1.4601361751556396, 
        0.10075939446687698, 
        -2.2899858951568604, 
        0.0006889817886985838, 
        -0.4030655026435852, 
        0.07768666744232178, 
        0.15466871857643127, 
        -0.35977301001548767, 
        0.10201777517795563, 
        1.3211239576339722, 
        -0.4691181778907776, 
        -0.18667849898338318, 
        -0.057961348444223404, 
        1.373332142829895, 
        -0.6768507957458496, 
        -0.16202613711357117, 
        -0.07003095000982285, 
        0.07164549082517624, 
        -0.9341390132904053, 
        0.6080521941184998, 
        0.03979549929499626, 
        0.11940667033195496, 
        1.0692651271820068, 
        -1.8841599225997925, 
        0.0156945139169693, 
        0.07377724349498749, 
        3.132418632507324, 
        -0.7193984389305115, 
        0.4504150450229645, 
        -0.5201811194419861, 
        2.1450562477111816, 
        -0.07300130277872086, 
        0.19551649689674377, 
        0.028706694021821022, 
        0.08954238146543503, 
        -0.03441846743226051, 
        -0.02750302664935589, 
        -0.04790879040956497, 
        -0.1971704363822937, 
        -0.6651402711868286, 
        -0.0029949957970529795, 
        0.12021417170763016, 
        -1.32904052734375, 
        0.539810836315155, 
        0.1307380199432373, 
        0.3651350438594818, 
        -1.8537259101867676, 
        0.007498841732740402, 
        -0.18424230813980103, 
        0.0109897805377841, 
        0.03944231942296028, 
        0.06449773162603378, 
        0.36250776052474976, 
        0.22512158751487732, 
        0.1693943440914154, 
        -0.00030843474087305367, 
        -0.23570281267166138, 
        -0.4175040125846863, 
        0.011249866336584091, 
        0.003885906655341387, 
        0.7190650105476379, 
        -1.0831944942474365, 
        -0.9632639288902283, 
        1.049572229385376, 
        1.6166592836380005, 
        0.3315032124519348, 
        0.6862397789955139, 
        -0.024376200512051582, 
        -0.1600833535194397, 
        -0.8451869487762451, 
        0.1419362723827362, 
        -0.6841747760772705, 
        0.26708346605300903, 
        0.19921879470348358, 
        -0.10462049394845963, 
        0.5008243918418884, 
        -0.25063493847846985, 
        -0.3287350833415985, 
        0.04532494768500328, 
        -0.6642114520072937, 
        -0.18800564110279083, 
        -0.2879592478275299, 
        0.664886474609375, 
        -0.6588695049285889, 
        1.758182406425476, 
        0.47510355710983276, 
        -0.34666913747787476, 
        0.8531401753425598, 
        -1.3239717483520508, 
        -0.8741039037704468, 
        -0.018228134140372276, 
        1.713850498199463, 
        1.708639144897461, 
        0.4037584066390991, 
        -0.03347523882985115, 
        0.3151496648788452, 
        -0.30073076486587524, 
        -0.15726786851882935, 
        1.0085129737854004, 
        2.2587790489196777, 
        0.6598625183105469, 
        0.022782564163208008, 
        0.8543021082878113, 
        0.14638540148735046, 
        -0.47003987431526184, 
        -0.20353490114212036, 
        -0.23072895407676697, 
        -0.03771338611841202, 
        -0.15884152054786682, 
        0.6054030060768127, 
        -1.096073031425476, 
        0.09937045723199844, 
        -0.22002385556697845, 
        -0.019917352125048637, 
        1.73915433883667, 
        -1.7208633422851562, 
        -0.5920438170433044, 
        1.9983559846878052, 
        -0.3539242744445801, 
        0.32553014159202576, 
        0.4097573459148407, 
        2.629469633102417, 
        -1.3788328170776367, 
        0.030275849625468254, 
        0.15826977789402008, 
        0.8311478495597839, 
        -0.9806383848190308, 
        -0.018788417801260948, 
        -1.0291430950164795, 
        0.10607042163610458, 
        -1.9248058795928955, 
        -0.1358732283115387, 
        2.396423101425171, 
        0.39162227511405945, 
        0.07078961282968521, 
        0.784852921962738, 
        0.04211148992180824, 
        -1.5518478155136108, 
        0.9615090489387512, 
        -0.06535600870847702, 
        0.29596850275993347, 
        -1.0699223279953003, 
        2.961679458618164, 
        -0.5268300771713257, 
        -0.045330535620450974, 
        0.055477242916822433, 
        1.4969542026519775, 
        -2.1445231437683105, 
        0.00011825377441709861, 
        0.03596750274300575, 
        2.6415252685546875, 
        -1.647434949874878, 
        1.2324994802474976, 
        -1.4391754865646362, 
        -0.518574059009552, 
        1.912704586982727, 
        2.6478185653686523, 
        2.3092870712280273, 
        -2.1066911220550537, 
        -0.2676893472671509, 
        -0.2927909195423126, 
        0.04538312181830406, 
        -0.24276202917099, 
        0.13244947791099548, 
        -0.16622069478034973, 
        0.33236825466156006, 
        0.07435625791549683, 
        1.942223310470581, 
        -0.0710296630859375, 
        0.8042007684707642, 
        1.8069931268692017, 
        -0.971801221370697, 
        -0.3148975372314453, 
        -1.6728025674819946, 
        -0.7418512105941772, 
        -0.05555155128240585, 
        0.4420621693134308, 
        -0.6041620373725891, 
        -0.16558092832565308, 
        0.15028248727321625, 
        1.4189975261688232, 
        -0.7474961876869202, 
        0.25493642687797546, 
        -0.3857274651527405, 
        2.2491345405578613, 
        1.035269856452942, 
        0.37821102142333984, 
        -0.09346462041139603, 
        1.276175856590271, 
        0.09051575511693954, 
        -0.3613767921924591, 
        0.7842845916748047, 
        1.2465523481369019, 
        0.018911276012659073, 
        0.10095012933015823, 
        0.05352215841412544, 
        -0.04812389984726906, 
        -0.5287878513336182, 
        -0.16955429315567017, 
        -0.3084789514541626, 
        0.025806279852986336, 
        0.16010509431362152, 
        -0.04439495876431465, 
        -0.04807690531015396, 
        -0.06640692055225372, 
        0.2843396067619324, 
        -0.2218083292245865, 
        -0.18839073181152344, 
        0.005752526223659515, 
        -0.11279811710119247, 
        0.46799296140670776, 
        -0.22397570312023163, 
        1.720139741897583, 
        -0.037511251866817474, 
        -0.1965259164571762, 
        0.624944269657135, 
        -2.536635637283325, 
        -0.1344355046749115, 
        -0.20427285134792328, 
        1.7344591617584229, 
        0.6664584279060364, 
        -0.07148008048534393, 
        -0.029702141880989075, 
        -0.04712967202067375, 
        -0.012974638491868973, 
        -0.02576672099530697, 
        0.5049658417701721, 
        2.122530937194824, 
        0.12409192323684692, 
        -0.09578470885753632, 
        0.4336397647857666, 
        0.009212922304868698, 
        -0.18058019876480103, 
        -0.03327028825879097, 
        -0.12019054591655731, 
        -0.09411559998989105, 
        -0.009695910848677158, 
        0.020458821207284927, 
        0.41056692600250244, 
        -0.03748806193470955, 
        -0.09220065921545029, 
        -0.18386118113994598, 
        0.9062106609344482, 
        1.188951849937439, 
        -0.5590497851371765, 
        1.7823926210403442, 
        -0.253532737493515, 
        -0.07279634475708008, 
        0.17973271012306213, 
        1.880339503288269, 
        -2.309875965118408, 
        0.11589722335338593, 
        -0.020672596991062164, 
        0.4331490695476532, 
        0.27480533719062805, 
        -0.19340281188488007, 
        -1.9092934131622314, 
        -0.14169834554195404, 
        -2.333878517150879, 
        0.06221695989370346, 
        2.074885606765747, 
        -0.022731661796569824, 
        0.1543867439031601, 
        -0.04276891425251961, 
        0.059610918164253235, 
        1.034243106842041, 
        0.4359753727912903, 
        -0.6703373789787292, 
        -0.0407051183283329, 
        -0.798844039440155, 
        1.6140897274017334, 
        -1.4441349506378174, 
        0.03449396416544914, 
        0.009373597800731659, 
        1.0118591785430908, 
        -0.09867651015520096, 
        0.1892147660255432, 
        -0.02065936103463173, 
        1.951110601425171, 
        -2.2811334133148193, 
        0.651726484298706, 
        0.5580331683158875, 
        1.7354631423950195, 
        2.030576467514038, 
        2.018841505050659, 
        1.5984972715377808, 
        -0.027824286371469498, 
        0.04174470528960228, 
        0.8713306784629822, 
        -0.15805038809776306, 
        -0.06223481148481369, 
        -0.08017902076244354, 
        -0.13346296548843384, 
        -0.14809957146644592, 
        -0.12692303955554962, 
        0.9438039660453796, 
        0.1229025200009346, 
        -0.13310682773590088, 
        1.5801913738250732, 
        0.09789188206195831, 
        -0.23946240544319153, 
        0.1973172426223755, 
        -2.4792356491088867, 
        -0.06759762763977051, 
        -0.26689255237579346, 
        -0.009378745220601559, 
        -0.1929071694612503, 
        0.09876026213169098, 
        1.649294137954712, 
        0.10805170983076096, 
        0.0915675088763237, 
        0.030442213639616966, 
        1.953413486480713, 
        0.2011651247739792, 
        0.007466192357242107, 
        0.10183781385421753, 
        0.20805418491363525, 
        0.3088727593421936, 
        0.9555040597915649, 
        -0.21782629191875458, 
        -0.2661949396133423, 
        -0.03726669028401375, 
        -0.05802026391029358, 
        0.050280384719371796, 
        0.10197609663009644, 
        0.9596600532531738, 
        0.01676776260137558, 
        -0.01987299509346485, 
        0.041767850518226624, 
        -0.16655530035495758, 
        -0.038739364594221115, 
        0.3615509271621704, 
        -0.20847253501415253, 
        0.15846963226795197, 
        0.0017289799870923162, 
        -0.063390351831913, 
        -0.01435945089906454, 
        -0.1112932413816452, 
        0.09646593779325485, 
        -0.014461825601756573, 
        0.3353067636489868, 
        0.26639577746391296, 
        -0.017543422058224678, 
        0.1949836015701294, 
        -0.8073946237564087, 
        0.21255581080913544, 
        -0.03495648875832558, 
        0.645048201084137, 
        0.01247278694063425, 
        0.006948061753064394, 
        -0.1357780396938324, 
        0.03132685646414757, 
        0.07009647786617279, 
        0.031248707324266434, 
        -0.3268876373767853, 
        -0.682860255241394, 
        -0.36722633242607117, 
        -0.004265570547431707, 
        0.8719415664672852, 
        0.04607744514942169, 
        0.1956448256969452, 
        0.094366654753685, 
        0.04880577698349953, 
        0.07235831022262573, 
        -0.0400361567735672, 
        -0.20248661935329437, 
        0.14849019050598145, 
        0.1397920846939087, 
        0.08640124648809433, 
        -0.0665094330906868, 
        -0.4006996154785156, 
        1.8234891891479492, 
        0.18113312125205994, 
        -0.2570969760417938, 
        0.12433630228042603, 
        -0.0016395719721913338, 
        0.004389215260744095, 
        0.5323188304901123, 
        -0.5568073987960815, 
        -0.07210204005241394, 
        0.013628710061311722, 
        -0.3813497722148895, 
        0.28634902834892273, 
        0.14689603447914124, 
        -0.1876756101846695, 
        -0.04561527818441391, 
        -0.7070097327232361, 
        0.012102729640901089, 
        0.1845250129699707, 
        0.1249459758400917, 
        0.04478999972343445, 
        -0.2806437909603119, 
        0.07841864973306656, 
        0.8848894834518433, 
        -0.13380035758018494, 
        0.1271008849143982, 
        -0.0915326401591301, 
        0.7891885042190552, 
        0.6763867735862732, 
        -0.1910044252872467, 
        0.10548704117536545, 
        0.0439930222928524, 
        -0.32371699810028076, 
        1.1477049589157104, 
        -0.07886841893196106, 
        -0.057720232754945755, 
        0.12302336096763611, 
        -0.5974966287612915, 
        0.3569723665714264, 
        0.11890299618244171, 
        1.1965501308441162, 
        -0.06384953111410141, 
        0.0920705497264862, 
        0.490955650806427, 
        0.8543264865875244, 
        0.016152380034327507, 
        0.183010995388031, 
        0.10123554617166519, 
        -0.046833477914333344, 
        0.025978850200772285, 
        0.1837807297706604, 
        0.07907790690660477, 
        -0.14569316804409027, 
        -0.4052780568599701, 
        -0.04716581106185913, 
        0.17763902246952057, 
        0.16318802535533905, 
        0.3123222589492798, 
        0.07772704213857651, 
        0.3265756070613861, 
        -0.7482728958129883, 
        0.11995052546262741, 
        -0.06218179315328598, 
        0.09339337795972824, 
        0.15035057067871094, 
        0.07199066877365112, 
        0.66627436876297, 
        0.34119826555252075, 
        0.03315191715955734, 
        0.22835581004619598, 
        -0.5056292414665222, 
        -0.15414145588874817, 
        -0.15532302856445312, 
        -0.04408907890319824, 
        0.1889803260564804, 
        0.09362423419952393, 
        0.3245517909526825, 
        -0.2199997901916504, 
        -0.21191926300525665, 
        -0.022022174671292305, 
        0.02559661492705345, 
        0.02340584248304367, 
        -0.06801895797252655, 
        0.46783554553985596, 
        0.034588772803545, 
        0.1695481240749359, 
        -0.09477145969867706, 
        -0.04498119652271271, 
        0.038928717374801636, 
        -0.18346725404262543, 
        -0.04621490091085434, 
        -0.10623297840356827, 
        0.0514238178730011, 
        -0.09981610625982285, 
        0.021732324734330177, 
        -0.15360765159130096, 
        0.15646980702877045, 
        -0.11941967159509659, 
        0.20971396565437317, 
        -0.1870359629392624, 
        -0.10176209360361099, 
        -0.08552367985248566, 
        -0.2911788523197174, 
        0.022047506645321846, 
        0.13320280611515045, 
        0.11120853573083878, 
        -0.038403306156396866, 
        0.015704138204455376, 
        -0.12157569080591202, 
        -0.12007678300142288, 
        0.025991316884756088, 
        0.05735037848353386, 
        -0.10030567646026611, 
        -0.09985112398862839, 
        -0.019002167508006096, 
        0.09881969541311264, 
        0.02358029969036579, 
        -0.09851457178592682, 
        0.034049902111291885, 
        0.1776837557554245, 
        -0.05499429255723953, 
        0.09297184646129608, 
        -0.019494017586112022, 
        -0.04427913948893547, 
        0.09147009253501892, 
        -0.13422627747058868, 
        -0.018781866878271103, 
        -0.037926144897937775, 
        -0.15069526433944702, 
        0.6124056577682495, 
        0.3860248327255249, 
        -0.15839312970638275, 
        0.013717434369027615, 
        0.06128092110157013, 
        0.02233870141208172, 
        0.04466110095381737, 
        -0.06099550053477287, 
        -0.14886339008808136, 
        0.01695958338677883, 
        -0.19413453340530396, 
        0.3013420104980469, 
        0.06527809798717499, 
        -0.08149632811546326, 
        -0.22522008419036865, 
        0.02831420861184597, 
        -0.16496412456035614, 
        0.2729651927947998, 
        -0.12442884594202042, 
        0.0034427414648234844, 
        -0.19135776162147522, 
        -0.09951508790254593, 
        0.3725240230560303, 
        -0.017546437680721283, 
        0.0363282635807991, 
        -0.05386737361550331, 
        0.27662381529808044, 
        0.1945030689239502, 
        -0.016936268657445908, 
        -0.15928658843040466, 
        0.12023473531007767, 
        -0.1629389524459839, 
        0.3572472929954529, 
        0.13560634851455688, 
        0.15983426570892334, 
        -0.08103707432746887, 
        0.06587382405996323, 
        0.06392047554254532, 
        -0.10516616702079773, 
        0.6976524591445923, 
        -0.07820046693086624, 
        -0.174002006649971, 
        0.09728015214204788, 
        0.34612685441970825, 
        -0.18629206717014313, 
        0.17135049402713776, 
        -0.10640910267829895, 
        0.06242654472589493, 
        0.06672599166631699, 
        0.08946492522954941, 
        0.04676572605967522, 
        -0.1326344758272171, 
        -0.22593644261360168, 
        -0.11329640448093414, 
        -0.3497498631477356, 
        0.158296138048172, 
        0.26088187098503113, 
        0.007699484936892986, 
        0.26597410440444946, 
        0.028091581538319588, 
        0.07409573346376419, 
        -0.147636279463768, 
        0.14928311109542847, 
        -0.0714881494641304, 
        0.066097192466259, 
        0.19998106360435486, 
        -0.06849636137485504, 
        -0.022829892113804817, 
        0.06935638189315796, 
        -0.1279343217611313, 
        -0.35693246126174927, 
        0.11422895640134811, 
        0.04835178330540657, 
        1.5739198923110962, 
        -1.1276177167892456, 
        0.6077049374580383, 
        0.7397140860557556, 
        0.8041397333145142, 
        -0.2503383159637451, 
        -0.17648133635520935, 
        -0.09797418862581253, 
        0.04281807690858841, 
        0.6558461785316467, 
        0.15520259737968445, 
        0.27527981996536255, 
        -0.03157198056578636, 
        0.030540112406015396, 
        -0.11483321338891983, 
        -0.05334511399269104, 
        0.20937679708003998, 
        0.6980881690979004, 
        0.031197577714920044, 
        0.2563743591308594, 
        0.10285335034132004, 
        0.1519344002008438, 
        0.11393583565950394, 
        0.6870174407958984, 
        0.821356475353241, 
        -0.15232403576374054, 
        0.08236071467399597, 
        0.08935104310512543, 
        1.342145562171936, 
        0.4021291136741638, 
        0.28880032896995544, 
        0.689556896686554, 
        0.02428354136645794, 
        -0.028828851878643036, 
        0.07479285448789597, 
        -0.07451003789901733, 
        -0.04905400052666664, 
        -0.09179513156414032, 
        0.12605781853199005, 
        0.6607122421264648, 
        -0.12486167997121811, 
        0.1223117932677269, 
        -0.04156430438160896, 
        -0.06060425937175751, 
        -0.5606717467308044, 
        0.3719730079174042, 
        0.3271872103214264, 
        0.0008654497214592993, 
        -0.13179893791675568, 
        0.11502332985401154, 
        0.79075026512146, 
        -0.005102584604173899, 
        -0.10073079913854599, 
        -0.6430202722549438, 
        0.06360762566328049, 
        0.6025187373161316, 
        0.659207820892334, 
        1.7498116493225098, 
        -0.13265129923820496, 
        -0.024742789566516876, 
        -0.020853420719504356, 
        1.0286988019943237, 
        1.3425920009613037, 
        -0.031027715653181076, 
        -0.03130197525024414, 
        0.09631387144327164, 
        -0.7515876889228821, 
        0.056828755885362625, 
        1.0200567245483398, 
        0.08516240119934082, 
        1.4044184684753418, 
        -0.7625756859779358, 
        0.6667672991752625, 
        0.10666108876466751, 
        0.05145721882581711, 
        -0.155085489153862, 
        -0.055918138474226, 
        0.16162040829658508, 
        0.1933092176914215, 
        0.42666250467300415, 
        0.001586957136169076, 
        -0.7066973447799683, 
        -0.12105169147253036, 
        0.5984893441200256, 
        0.0014804033562541008, 
        -0.15079541504383087, 
        0.8996763825416565, 
        0.9749088287353516, 
        -0.7458630204200745, 
        -0.028531935065984726, 
        1.5498007535934448, 
        1.5133163928985596, 
        0.28080955147743225, 
        0.08539339900016785, 
        0.31707826256752014, 
        1.1384947299957275, 
        1.0131986141204834, 
        -0.5154516696929932, 
        0.4267849326133728, 
        -0.03537852689623833, 
        0.6569688320159912, 
        0.05160372704267502, 
        -0.3504871726036072, 
        -0.08542779088020325, 
        0.3223797082901001, 
        0.08231232315301895, 
        -0.15491628646850586, 
        0.07273920625448227, 
        -0.053603075444698334, 
        -0.33087241649627686, 
        1.2405340671539307, 
        -0.48451101779937744, 
        -0.13485319912433624, 
        0.13776952028274536, 
        1.4306871891021729, 
        -1.3801660537719727, 
        -0.20859543979167938, 
        0.6639755964279175, 
        0.0014039742527529597, 
        -0.02578713931143284, 
        1.0919798612594604, 
        0.10756997019052505, 
        -0.16712021827697754, 
        -0.41221657395362854, 
        0.8248613476753235, 
        -0.36997801065444946, 
        -0.09075251966714859, 
        -0.004832375794649124, 
        0.6435372233390808, 
        0.28460216522216797, 
        0.8637925982475281, 
        -0.1689501255750656, 
        -0.5626233816146851, 
        -0.14913760125637054, 
        -0.08274576812982559, 
        0.16743649542331696, 
        0.03218875080347061, 
        0.869780957698822, 
        -0.15215682983398438, 
        0.06153803691267967, 
        -0.07085276395082474, 
        0.07316496968269348, 
        -0.03626661375164986, 
        -0.024485265836119652, 
        -0.11359294503927231, 
        0.05109744146466255, 
        -0.03918999060988426, 
        0.12979818880558014, 
        0.07774314284324646, 
        0.059679482132196426, 
        0.18595489859580994, 
        -0.047178808599710464, 
        0.5203643441200256, 
        0.14861918985843658, 
        -0.06224841997027397, 
        0.16386708617210388, 
        -1.2398649454116821, 
        0.3030873239040375, 
        0.011357932351529598, 
        0.9892156720161438, 
        0.008360105566680431, 
        -0.031056927517056465, 
        0.00945825595408678, 
        -0.042478904128074646, 
        -0.0809645876288414, 
        -0.05526559427380562, 
        -0.006733010057359934, 
        -0.6657199859619141, 
        -0.14327166974544525, 
        -0.11282504349946976, 
        0.8090308904647827, 
        -0.032265521585941315, 
        0.17833693325519562, 
        0.09232636541128159, 
        0.06287050247192383, 
        -0.12058483064174652, 
        0.1958390474319458, 
        -0.27119773626327515, 
        0.07986143231391907, 
        0.1299944967031479, 
        -0.03109142929315567, 
        -0.09692007303237915, 
        -0.4026849567890167, 
        2.3236582279205322, 
        0.1323811262845993, 
        -0.5528684258460999, 
        0.11578555405139923, 
        -0.13985663652420044, 
        -0.1962350308895111, 
        0.1738562285900116, 
        -0.8436755537986755, 
        -0.13902343809604645, 
        0.11406318098306656, 
        -0.5072136521339417, 
        0.16339412331581116, 
        0.0877707302570343, 
        -0.7195701599121094, 
        -0.2285049557685852, 
        -0.9070692658424377, 
        0.11420842260122299, 
        0.3222210705280304, 
        0.07832881063222885, 
        -0.007076276000589132, 
        -0.3540535569190979, 
        -0.07131712883710861, 
        0.4808999300003052, 
        0.11580517888069153, 
        0.04769233241677284, 
        -0.025985443964600563, 
        0.7217549681663513, 
        0.8322153091430664, 
        -0.29146286845207214, 
        0.08130361884832382, 
        0.12931466102600098, 
        -0.6419158577919006, 
        1.2686487436294556, 
        0.0032320625614374876, 
        0.16005299985408783, 
        -0.05787625536322594, 
        -0.9125840067863464, 
        0.17737817764282227, 
        0.14230811595916748, 
        1.624099612236023, 
        -0.059996675699949265, 
        0.27961504459381104, 
        0.5381933450698853, 
        0.5798566341400146, 
        -0.16159522533416748, 
        0.31640568375587463, 
        -0.13042394816875458, 
        0.10668423771858215, 
        -0.13006626069545746, 
        0.3256039321422577, 
        -0.14405211806297302, 
        -0.03239777311682701, 
        -0.568652331829071, 
        0.012914067134261131, 
        0.022491415962576866, 
        0.3906685709953308, 
        0.534696638584137, 
        -0.008874143473803997, 
        0.3119663894176483, 
        -1.1328822374343872, 
        0.11856342107057571, 
        -0.1065356433391571, 
        -0.020595408976078033, 
        -0.012572251260280609, 
        0.07428870350122452, 
        0.8029190301895142, 
        0.007167445030063391, 
        -0.07709453999996185, 
        0.2398986667394638, 
        -0.47211846709251404, 
        -0.31962475180625916, 
        -0.01666390150785446, 
        0.08429569005966187, 
        -1.1820576190948486, 
        0.32852286100387573, 
        1.0875625610351562, 
        -0.24868693947792053, 
        0.8890467286109924, 
        -0.03593716770410538, 
        0.4987853169441223, 
        -0.06662967801094055, 
        0.18825528025627136, 
        1.2010623216629028, 
        -0.5701741576194763, 
        0.45434385538101196, 
        0.10847367346286774, 
        0.30118829011917114, 
        0.46073853969573975, 
        -0.044348329305648804, 
        -0.013112672604620457, 
        0.199848473072052, 
        -0.2514859735965729, 
        0.28009727597236633, 
        0.30844971537590027, 
        0.41284576058387756, 
        0.4858289957046509, 
        0.861238420009613, 
        0.1819503754377365, 
        0.16859035193920135, 
        -0.011171132326126099, 
        0.30562227964401245, 
        1.5417319536209106, 
        0.5467607378959656, 
        0.23336628079414368, 
        -0.2182294726371765, 
        0.8143824338912964, 
        -0.07262665033340454, 
        0.1438799351453781, 
        -0.10399596393108368, 
        0.34715327620506287, 
        0.21966204047203064, 
        0.18829677999019623, 
        -0.20948198437690735, 
        0.3569616973400116, 
        -0.06886996328830719, 
        0.6966631412506104, 
        0.18542054295539856, 
        0.16936950385570526, 
        0.4980638921260834, 
        -0.047436486929655075, 
        -0.03866631165146828, 
        -0.12195366621017456, 
        0.5716253519058228, 
        1.6652956008911133, 
        0.15929102897644043, 
        0.36145153641700745, 
        -0.0062145935371518135, 
        0.04706212505698204, 
        1.4377317428588867, 
        1.2425624132156372, 
        1.098620057106018, 
        0.30678150057792664, 
        0.11623524129390717, 
        0.17056232690811157, 
        1.0532811880111694, 
        1.617102026939392, 
        0.11604046821594238, 
        0.20130179822444916, 
        0.5322868227958679, 
        0.7064747214317322, 
        0.5435243844985962, 
        1.4069198369979858, 
        0.20695815980434418, 
        1.6216709613800049, 
        -0.0006851835642009974, 
        -0.18994539976119995, 
        0.6929965615272522, 
        0.3861020803451538, 
        -0.2015448361635208, 
        0.20411846041679382, 
        0.6502249240875244, 
        0.37716686725616455, 
        0.67286616563797, 
        0.22337976098060608, 
        0.584368109703064, 
        0.42771175503730774, 
        1.3680042028427124, 
        -0.19651548564434052, 
        -0.11260592937469482, 
        0.02496192418038845, 
        1.3066904544830322, 
        -0.20501166582107544, 
        0.05570918321609497, 
        0.9905514121055603, 
        1.5902220010757446, 
        0.5560305714607239, 
        1.294020652770996, 
        1.0038851499557495, 
        0.6192617416381836, 
        0.35473328828811646, 
        0.6986376643180847, 
        0.8606054782867432, 
        0.24212291836738586, 
        1.6307437419891357, 
        0.13800625503063202, 
        0.4423791468143463, 
        -0.692209005355835, 
        0.2027992159128189, 
        0.2859521508216858, 
        -0.08453311771154404, 
        0.9053840041160583, 
        -0.632097601890564, 
        0.14890806376934052, 
        0.16774319112300873, 
        0.6216608881950378, 
        -0.017146043479442596, 
        0.32733479142189026, 
        1.7401530742645264, 
        -0.14997094869613647, 
        0.16348415613174438, 
        0.8471357822418213, 
        -0.5624474287033081, 
        -0.03275471180677414, 
        0.10872402042150497, 
        -0.2896619141101837, 
        -0.0998096764087677, 
        0.6306016445159912, 
        0.4366428554058075, 
        -0.0372515507042408, 
        0.4402032196521759, 
        -0.03780825436115265, 
        0.27959421277046204, 
        -0.5790433287620544, 
        1.1839790344238281, 
        0.02032396011054516, 
        0.6859927177429199, 
        0.06532318890094757, 
        -0.12326233834028244, 
        0.0669199526309967, 
        -0.06515169888734818, 
        1.09640634059906, 
        0.29423725605010986, 
        0.8288546204566956, 
        -0.12266252934932709, 
        -0.03853660076856613, 
        -0.2479979693889618, 
        -0.18225185573101044, 
        -0.08011333644390106, 
        0.017947109416127205, 
        0.05965488776564598, 
        0.31380191445350647, 
        0.257957398891449, 
        0.13400568068027496, 
        0.35295748710632324, 
        0.5046745538711548, 
        0.4338773488998413, 
        -0.030408818274736404, 
        0.48263612389564514, 
        0.14450106024742126, 
        1.5999027490615845, 
        0.5190967321395874, 
        0.19291891157627106, 
        1.1676791906356812, 
        0.6690211892127991, 
        -0.03108142502605915, 
        0.05342024564743042, 
        -0.0262757558375597, 
        0.11999113857746124, 
        0.14514784514904022, 
        -0.2609182894229889, 
        0.5055517554283142, 
        -0.43484392762184143, 
        -0.006583367474377155, 
        0.6144439578056335, 
        -0.04555492848157883, 
        -0.1772681027650833, 
        0.5045634508132935, 
        0.2593623995780945, 
        -0.11462502181529999, 
        0.12090004980564117, 
        0.13980817794799805, 
        1.8963290452957153, 
        -0.027294820174574852, 
        0.005103215575218201, 
        -0.2338486760854721, 
        -0.14357972145080566, 
        1.3199905157089233, 
        1.006253719329834, 
        1.5827875137329102, 
        0.16057530045509338, 
        0.08748690038919449, 
        0.03294876962900162, 
        1.4063539505004883, 
        1.694211721420288, 
        -0.07209227979183197, 
        -0.04896483197808266, 
        0.35524946451187134, 
        0.9471431970596313, 
        0.47808319330215454, 
        1.5090763568878174, 
        0.08712784200906754, 
        1.6433818340301514, 
        -0.10991209000349045, 
        -0.06454800814390182, 
        -0.08180131763219833, 
        -0.3462795317173004, 
        0.05731496587395668, 
        0.14976949989795685, 
        0.3464670777320862, 
        0.10251546651124954, 
        0.7404108643531799, 
        -0.05898788943886757, 
        0.5722492933273315, 
        0.4515192210674286, 
        1.3899215459823608, 
        0.14144480228424072, 
        0.14013196527957916, 
        -0.09904389828443527, 
        1.086691975593567, 
        -1.1842507123947144, 
        0.07498935610055923, 
        1.391350269317627, 
        1.6713212728500366, 
        0.351665735244751, 
        1.300559163093567, 
        1.1599680185317993, 
        1.1477220058441162, 
        1.213478922843933, 
        0.7049872875213623, 
        0.3090428113937378, 
        0.06632529944181442, 
        1.8889284133911133, 
        -0.07403512299060822, 
        -0.29335737228393555, 
        0.05939759686589241, 
        0.22717995941638947, 
        0.027379410341382027, 
        0.07806728035211563, 
        0.7585232853889465, 
        -0.5726532936096191, 
        0.060129594057798386, 
        -0.24832597374916077, 
        0.3240668475627899, 
        -0.08093080669641495, 
        0.3083929121494293, 
        1.5840901136398315, 
        -1.0366040468215942, 
        0.05608901008963585, 
        0.2217138558626175, 
        0.2731105089187622, 
        -0.0432857871055603, 
        1.2377545833587646, 
        0.60394287109375, 
        0.1748981773853302, 
        0.47154563665390015, 
        0.3986496329307556, 
        0.16630756855010986, 
        0.06455738842487335, 
        0.062342844903469086, 
        1.3738267421722412, 
        -0.0021937121637165546, 
        -0.3814302682876587, 
        0.7465175986289978, 
        1.2132707834243774, 
        -0.08193347603082657, 
        0.2941310405731201, 
        -0.08072758466005325, 
        -0.020087163895368576, 
        -0.34817254543304443, 
        -0.1523488461971283, 
        -0.841984748840332, 
        -0.14239779114723206, 
        0.40342479944229126, 
        -0.07518398761749268, 
        -0.30089816451072693, 
        -0.2091938555240631, 
        0.6319352984428406, 
        -0.2584129571914673, 
        -0.08919370174407959, 
        0.054352469742298126, 
        -0.13464023172855377, 
        0.5520693063735962, 
        -0.12780854105949402, 
        1.4347854852676392, 
        -0.24530701339244843, 
        -0.1856076568365097, 
        1.0751519203186035, 
        -2.4569661617279053, 
        -0.322157621383667, 
        0.10681463032960892, 
        1.188334584236145, 
        0.6279249787330627, 
        0.03644188120961189, 
        -0.020526017993688583, 
        0.12028180807828903, 
        -0.026203282177448273, 
        -0.09880176186561584, 
        0.3776550889015198, 
        2.2204067707061768, 
        0.2681640386581421, 
        0.007850153371691704, 
        0.46103373169898987, 
        -0.12579040229320526, 
        -0.21815133094787598, 
        -0.7471551895141602, 
        -0.3362638056278229, 
        -0.15516901016235352, 
        -0.10398295521736145, 
        0.1293560415506363, 
        0.07311982661485672, 
        -0.12312107533216476, 
        -0.13410399854183197, 
        0.04201086238026619, 
        0.7108409404754639, 
        -0.3870718479156494, 
        -1.077692985534668, 
        1.238329291343689, 
        -0.12075280398130417, 
        0.11704733967781067, 
        0.9604644179344177, 
        1.004346489906311, 
        -2.5484323501586914, 
        0.150238037109375, 
        -0.11574279516935349, 
        1.172069787979126, 
        -0.4402758479118347, 
        -0.5521568059921265, 
        -1.9202542304992676, 
        -0.20463159680366516, 
        -2.6144673824310303, 
        -0.20995302498340607, 
        1.551573395729065, 
        0.003648661309853196, 
        -0.0824490636587143, 
        -0.12254553288221359, 
        0.12447065114974976, 
        -0.17728498578071594, 
        0.5513486862182617, 
        -0.2335285097360611, 
        -0.23266318440437317, 
        -0.35351085662841797, 
        0.5466942191123962, 
        -1.121947169303894, 
        0.0123908007517457, 
        -0.03966720774769783, 
        1.4434168338775635, 
        -1.2884413003921509, 
        0.06216567009687424, 
        0.039513181895017624, 
        1.0739684104919434, 
        -2.1850595474243164, 
        0.5467752814292908, 
        0.14348256587982178, 
        0.8137130737304688, 
        2.0228211879730225, 
        2.377307415008545, 
        1.275571584701538, 
        0.15816660225391388, 
        -0.20895469188690186, 
        -0.1848447620868683, 
        0.04566647484898567, 
        -0.17663009464740753, 
        -0.17423346638679504, 
        -0.4449695348739624, 
        -0.14738544821739197, 
        -0.17263691127300262, 
        1.2078568935394287, 
        0.1268903613090515, 
        -0.3241446316242218, 
        1.324367880821228, 
        -0.9909980893135071, 
        -0.12151341140270233, 
        -0.07408389449119568, 
        -2.708775043487549, 
        -0.12594859302043915, 
        -0.23604069650173187, 
        -0.5852534770965576, 
        0.06651555001735687, 
        -0.06714194267988205, 
        1.6228870153427124, 
        -0.149276003241539, 
        0.29660764336586, 
        0.22163453698158264, 
        1.3858919143676758, 
        0.7013888359069824, 
        0.019934823736548424, 
        -0.11311622709035873, 
        0.23726175725460052, 
        0.10367154330015182, 
        0.343054860830307, 
        -0.3080017864704132, 
        -0.18175804615020752, 
        0.010979334823787212, 
        -0.12541913986206055, 
        -0.0035707056522369385, 
        0.002247127005830407, 
        0.42288967967033386, 
        -0.11374252289533615, 
        0.12335088104009628, 
        0.04364389181137085, 
        0.005226790439337492, 
        0.16444538533687592, 
        -0.10794424265623093, 
        -0.03143669292330742, 
        -0.08035778254270554, 
        -0.05835186690092087, 
        0.015287703834474087, 
        0.08754544705152512, 
        0.034790169447660446, 
        0.01404617540538311, 
        0.14508245885372162, 
        0.13003869354724884, 
        -0.1039053276181221, 
        -0.05404379218816757, 
        0.13146467506885529, 
        -0.27151861786842346, 
        0.03918449208140373, 
        0.09056732058525085, 
        0.2536642551422119, 
        0.07828021049499512, 
        0.030228622257709503, 
        -0.062039975076913834, 
        -0.16929857432842255, 
        -0.06532081216573715, 
        -0.07669078558683395, 
        0.08704149723052979, 
        -0.20242981612682343, 
        -0.25634443759918213, 
        -0.004223160911351442, 
        0.24914740025997162, 
        -0.0020997393876314163, 
        -0.1321294903755188, 
        0.053227029740810394, 
        -0.15538501739501953, 
        -0.03888147696852684, 
        0.06961963325738907, 
        0.04998602345585823, 
        0.08761979639530182, 
        -0.09893276542425156, 
        -0.011554236523807049, 
        -0.13259358704090118, 
        -0.004547741264104843, 
        0.8599404096603394, 
        0.14301078021526337, 
        -0.4196758568286896, 
        0.02546422742307186, 
        0.054584432393312454, 
        0.002446784870699048, 
        -0.12339010089635849, 
        0.12790943682193756, 
        -0.13518287241458893, 
        -0.06870897114276886, 
        -0.1676444262266159, 
        0.06673412770032883, 
        0.008510462939739227, 
        -0.07027216255664825, 
        -0.14582781493663788, 
        -0.24103659391403198, 
        0.060970891267061234, 
        0.482604444026947, 
        0.022952647879719734, 
        -0.0673968568444252, 
        -0.347997784614563, 
        0.13311846554279327, 
        0.3773295283317566, 
        0.11925452202558517, 
        0.23961807787418365, 
        0.10957963764667511, 
        0.3618369698524475, 
        0.18622297048568726, 
        0.20941367745399475, 
        -0.08460228890180588, 
        -0.014216425828635693, 
        -0.15822188556194305, 
        0.41600242257118225, 
        0.0229510348290205, 
        -0.13656607270240784, 
        0.06162558123469353, 
        0.023355986922979355, 
        0.04457150399684906, 
        -0.1454755812883377, 
        1.1181944608688354, 
        0.034434255212545395, 
        -0.2281247228384018, 
        0.08328673988580704, 
        0.322998046875, 
        -0.14993739128112793, 
        0.09679796546697617, 
        0.106544129550457, 
        0.07226908206939697, 
        -0.1360495239496231, 
        -0.018909446895122528, 
        -0.032771527767181396, 
        -0.18837258219718933, 
        -0.3090888559818268, 
        -0.009217916056513786, 
        -0.06531867384910583, 
        0.11927098780870438, 
        0.11016801744699478, 
        -0.023806670680642128, 
        0.10730184614658356, 
        -0.07611164450645447, 
        0.15192632377147675, 
        0.001694880542345345, 
        -0.014069076627492905, 
        -0.11622710525989532, 
        -0.07472765445709229, 
        0.2921985983848572, 
        0.10524562746286392, 
        0.03979126363992691, 
        0.015341706573963165, 
        -0.27161070704460144, 
        -0.381743848323822, 
        0.021327707916498184, 
        -0.05323517695069313, 
        1.052008867263794, 
        -0.5835781097412109, 
        -1.6125435829162598, 
        1.2927881479263306, 
        1.9032890796661377, 
        -0.49204838275909424, 
        0.6536765098571777, 
        0.1651397943496704, 
        -0.06764866411685944, 
        -0.17966768145561218, 
        0.05968105420470238, 
        -0.45851004123687744, 
        0.02813861519098282, 
        0.397638201713562, 
        -0.3983418643474579, 
        -0.19805417954921722, 
        -0.18293191492557526, 
        0.14799775183200836, 
        -0.31347623467445374, 
        -0.4490816593170166, 
        -0.2060091346502304, 
        0.08575204759836197, 
        0.37593233585357666, 
        -0.8809425234794617, 
        1.5448018312454224, 
        0.30255213379859924, 
        -0.13345402479171753, 
        0.7351259589195251, 
        -2.3784162998199463, 
        -0.820310652256012, 
        -0.4598667025566101, 
        1.8742048740386963, 
        1.7047228813171387, 
        -0.3527376651763916, 
        0.08252737671136856, 
        0.5884369015693665, 
        -0.49597930908203125, 
        -0.03561479598283768, 
        0.8174453973770142, 
        2.1675639152526855, 
        0.6552876830101013, 
        -0.0318027026951313, 
        0.6547929048538208, 
        -0.16310656070709229, 
        0.2406805008649826, 
        -0.18651776015758514, 
        -0.07361000776290894, 
        -0.14865180850028992, 
        -0.12579187750816345, 
        0.24886095523834229, 
        -1.5855376720428467, 
        -0.2903725802898407, 
        0.11521787196397781, 
        -0.15326115489006042, 
        1.6337984800338745, 
        -1.0222289562225342, 
        -1.016969919204712, 
        2.2126541137695312, 
        -0.1512821763753891, 
        0.32096579670906067, 
        0.3100680708885193, 
        2.3027215003967285, 
        -2.1781439781188965, 
        -0.12090505659580231, 
        -0.1717408299446106, 
        1.4042385816574097, 
        -1.2048457860946655, 
        -0.19653785228729248, 
        -1.26637864112854, 
        -0.36289867758750916, 
        -2.7882790565490723, 
        0.061114683747291565, 
        2.105487823486328, 
        -0.03533167392015457, 
        -0.38493812084198, 
        0.9545081853866577, 
        -0.3345489203929901, 
        -0.6100764274597168, 
        0.4983072280883789, 
        -0.07272906601428986, 
        -0.1080927923321724, 
        -1.7278326749801636, 
        2.365225076675415, 
        -1.564666748046875, 
        -0.07291197031736374, 
        -0.01616388000547886, 
        1.170638918876648, 
        -1.3031855821609497, 
        0.2113599181175232, 
        0.02835823968052864, 
        2.893113613128662, 
        -2.365847110748291, 
        0.7194196581840515, 
        -1.2726854085922241, 
        -0.46773606538772583, 
        2.3832623958587646, 
        2.1416704654693604, 
        1.8192683458328247, 
        -0.882056474685669, 
        -0.3596741557121277, 
        -1.3930728435516357, 
        0.003935612738132477, 
        -0.09119158238172531, 
        -0.0504130981862545, 
        0.045664165169000626, 
        0.16192376613616943, 
        0.030565837398171425, 
        1.49069082736969, 
        -0.03003767505288124, 
        0.392698734998703, 
        1.5957368612289429, 
        -1.0751748085021973, 
        0.2136489748954773, 
        -0.2517884373664856, 
        -2.5505738258361816, 
        -0.1444738805294037, 
        0.39481741189956665, 
        0.143077552318573, 
        0.17596754431724548, 
        0.017541728913784027, 
        1.8739851713180542, 
        -0.19360047578811646, 
        0.5044097900390625, 
        -0.005823291838169098, 
        1.7279504537582397, 
        0.6588510274887085, 
        0.2915063798427582, 
        -0.1003190129995346, 
        0.4666431248188019, 
        -0.009217779152095318, 
        0.6235082149505615, 
        -0.11801523715257645, 
        -0.39788195490837097, 
        -0.13607925176620483, 
        -0.19479888677597046, 
        -0.023420177400112152, 
        0.026302825659513474, 
        0.5784986019134521, 
        -0.16592258214950562, 
        0.025409938767552376, 
        -0.0046637761406600475, 
        0.06282074749469757, 
        -0.11410972476005554, 
        -0.02633741684257984, 
        -0.20462526381015778, 
        0.09411519765853882, 
        0.013303075917065144, 
        0.024929171428084373, 
        0.020833730697631836, 
        -0.011578969657421112, 
        0.31009772419929504, 
        -0.10739965736865997, 
        0.6015451550483704, 
        -0.052771080285310745, 
        0.02977968193590641, 
        0.18868356943130493, 
        -0.9552861452102661, 
        0.22710354626178741, 
        -0.032979633659124374, 
        0.7153183221817017, 
        0.10400889813899994, 
        -0.07413569837808609, 
        0.060399506241083145, 
        0.0022459039464592934, 
        -0.04349517449736595, 
        -0.17408466339111328, 
        -0.11513924598693848, 
        -0.23668025434017181, 
        -0.3224688768386841, 
        -0.03507545590400696, 
        0.46789029240608215, 
        -0.009738529101014137, 
        0.1664961576461792, 
        -0.12492087483406067, 
        -0.011304637417197227, 
        -0.004165660124272108, 
        0.033339451998472214, 
        -0.2159653753042221, 
        0.09931629151105881, 
        0.028582563623785973, 
        0.05094087868928909, 
        -0.1145358458161354, 
        -0.19622358679771423, 
        1.6141018867492676, 
        0.05557004362344742, 
        -0.21405960619449615, 
        0.051193397492170334, 
        -0.03404891490936279, 
        -0.21346606314182281, 
        0.04963779076933861, 
        -0.6151344776153564, 
        -0.07249969989061356, 
        -0.050905466079711914, 
        -0.4349302053451538, 
        0.06141621991991997, 
        -0.13116663694381714, 
        -0.6178642511367798, 
        -0.15928518772125244, 
        -0.6356081366539001, 
        0.0010347343049943447, 
        0.7377078533172607, 
        0.14361296594142914, 
        0.06887137144804001, 
        -0.34480512142181396, 
        0.06740225106477737, 
        0.5595232844352722, 
        0.1768997609615326, 
        0.06562511622905731, 
        -0.029050501063466072, 
        0.44551774859428406, 
        0.4713670313358307, 
        -0.1738908737897873, 
        -0.16865184903144836, 
        0.034151870757341385, 
        -0.2910296618938446, 
        0.9118464589118958, 
        0.1276703178882599, 
        0.03307611122727394, 
        0.351024329662323, 
        -0.6408228278160095, 
        0.2687396705150604, 
        -0.047395020723342896, 
        1.7883702516555786, 
        0.47310975193977356, 
        0.1380927711725235, 
        0.4169507324695587, 
        0.5399375557899475, 
        -0.11175725609064102, 
        -0.08708034455776215, 
        0.07888674736022949, 
        0.02520822361111641, 
        -0.0968438908457756, 
        0.1892297863960266, 
        0.057043854147195816, 
        -0.14714573323726654, 
        -0.30753523111343384, 
        0.03234400227665901, 
        -0.21590310335159302, 
        0.6418024897575378, 
        0.16395215690135956, 
        -0.022648554295301437, 
        0.2686927318572998, 
        -0.6600543260574341, 
        -0.09827485680580139, 
        -0.22082002460956573, 
        0.12149601429700851, 
        0.04956553131341934, 
        0.12887448072433472, 
        1.013071894645691, 
        0.1575017273426056, 
        0.0025595929473638535, 
        -0.04736755043268204, 
        -0.06732572615146637, 
        -0.272989422082901, 
        -0.14694444835186005, 
        -0.03633652999997139, 
        0.361358106136322, 
        -0.12559357285499573, 
        0.45914942026138306, 
        -0.1395602971315384, 
        -0.2891540825366974, 
        -0.0026768811512738466, 
        -0.21304477751255035, 
        -0.0906948372721672, 
        0.09436100721359253, 
        0.30561697483062744, 
        0.09509339928627014, 
        -0.08055391907691956, 
        0.043269019573926926, 
        0.0016064615920186043, 
        -0.12205024063587189, 
        -0.11858571320772171, 
        -0.052924755960702896, 
        0.019559727981686592, 
        -0.0582633838057518, 
        -0.12789714336395264, 
        0.0363457091152668, 
        -0.15508337318897247, 
        0.15795031189918518, 
        0.06431734561920166, 
        0.0720323771238327, 
        0.07410738617181778, 
        -0.21073013544082642, 
        0.00971927773207426, 
        -0.6235349774360657, 
        0.16502395272254944, 
        0.06600305438041687, 
        0.23219773173332214, 
        0.058300454169511795, 
        -0.16679123044013977, 
        -0.016292624175548553, 
        -0.12647055089473724, 
        -0.21076425909996033, 
        -0.1559518575668335, 
        0.043787721544504166, 
        -0.3049258887767792, 
        -0.2049383819103241, 
        0.03144385293126106, 
        0.057365451008081436, 
        -0.057848989963531494, 
        -0.024947376921772957, 
        0.11054588854312897, 
        0.058164093643426895, 
        -0.013659059070050716, 
        0.05692623555660248, 
        0.006739342585206032, 
        0.04565347358584404, 
        0.013910811394453049, 
        0.0771440714597702, 
        -0.14117459952831268, 
        -0.1256805658340454, 
        1.1972298622131348, 
        -0.02150052599608898, 
        -0.6132745742797852, 
        -0.10462260246276855, 
        -0.20280687510967255, 
        0.07426825165748596, 
        -0.11720114201307297, 
        -0.32013896107673645, 
        0.030374957248568535, 
        -0.1659201979637146, 
        -0.2218097448348999, 
        -0.04745211824774742, 
        0.05380157381296158, 
        -0.4697349965572357, 
        -0.09251974523067474, 
        -0.40634486079216003, 
        -0.12588375806808472, 
        0.6250746250152588, 
        -0.1090526431798935, 
        -0.042520325630903244, 
        -0.25530967116355896, 
        -0.08875896781682968, 
        0.3561236262321472, 
        0.2856888771057129, 
        -0.0005192231619730592, 
        -0.04824206605553627, 
        0.40673717856407166, 
        0.21198567748069763, 
        -0.16553135216236115, 
        0.04827781766653061, 
        -0.054716646671295166, 
        -0.2779236137866974, 
        0.2663598656654358, 
        0.07453089952468872, 
        0.059215422719717026, 
        -0.16632315516471863, 
        -0.5171194076538086, 
        0.02275528945028782, 
        0.01962823048233986, 
        1.4392681121826172, 
        0.32777494192123413, 
        -0.19954104721546173, 
        0.24145260453224182, 
        0.12502612173557281, 
        -0.04647400975227356, 
        -0.1511182337999344, 
        -0.15107883512973785, 
        -0.10451047867536545, 
        -0.09316213428974152, 
        -0.10061614960432053, 
        -0.04905733838677406, 
        -0.03096657432615757, 
        -0.26936960220336914, 
        -0.12714368104934692, 
        -0.1768539994955063, 
        0.2986222207546234, 
        0.08140303194522858, 
        -0.05877813324332237, 
        0.16790153086185455, 
        -0.5296856760978699, 
        0.05796003341674805, 
        -0.2753351330757141, 
        -0.041575826704502106, 
        0.009548448957502842, 
        -0.11410880088806152, 
        0.4087355434894562, 
        0.1217007264494896, 
        0.03278609365224838, 
        0.04360208287835121, 
        -0.059016257524490356, 
        -0.22967654466629028, 
        -0.030607106164097786, 
        -0.12635113298892975, 
        1.8020403385162354, 
        0.08243047446012497, 
        -0.5267516374588013, 
        0.6090994477272034, 
        1.7155466079711914, 
        -0.19565576314926147, 
        0.6424316167831421, 
        0.02364213578402996, 
        0.08147704601287842, 
        0.06219986826181412, 
        0.0790572315454483, 
        -0.9748726487159729, 
        0.03348911181092262, 
        1.1229547262191772, 
        -0.04422049596905708, 
        -0.11162087321281433, 
        -0.6314699053764343, 
        0.13790354132652283, 
        -0.14456593990325928, 
        -0.21781113743782043, 
        -0.25080808997154236, 
        -0.5427265763282776, 
        0.7349486947059631, 
        0.2013753354549408, 
        1.2005946636199951, 
        -0.3026077151298523, 
        -0.09880155324935913, 
        0.9365130662918091, 
        -2.4895195960998535, 
        -0.4305259883403778, 
        -0.35457682609558105, 
        1.2884551286697388, 
        0.5792563557624817, 
        -0.2816060185432434, 
        0.01054390799254179, 
        0.33402907848358154, 
        -0.0959964245557785, 
        -0.22383242845535278, 
        0.124903604388237, 
        1.8853830099105835, 
        0.5550424456596375, 
        0.007166065275669098, 
        -0.22869645059108734, 
        -0.21763718128204346, 
        0.16035446524620056, 
        -0.8441924452781677, 
        -0.06874820590019226, 
        -0.3255777657032013, 
        0.0010464139049872756, 
        0.1160588264465332, 
        0.03299439698457718, 
        -0.5572699308395386, 
        -0.20900671184062958, 
        -0.09347297251224518, 
        1.404558539390564, 
        -1.164775013923645, 
        -0.9287537932395935, 
        1.599298119544983, 
        -0.2979254424571991, 
        -0.014190569519996643, 
        0.8784224390983582, 
        0.09183185547590256, 
        -2.7355575561523438, 
        -0.06733399629592896, 
        0.11231797188520432, 
        1.188140630722046, 
        -0.8551037907600403, 
        -0.5083279609680176, 
        -1.0554965734481812, 
        -0.22864480316638947, 
        -2.165092945098877, 
        -0.10606273263692856, 
        1.7163597345352173, 
        -0.08294559270143509, 
        -0.18880285322666168, 
        -0.013780714012682438, 
        -0.020793592557311058, 
        -0.15928231179714203, 
        0.52082359790802, 
        -0.04430394247174263, 
        -0.15181726217269897, 
        -0.07627131789922714, 
        0.2220177948474884, 
        -1.8116878271102905, 
        -0.11372532695531845, 
        0.19424287974834442, 
        1.3209857940673828, 
        -2.0494561195373535, 
        0.29501673579216003, 
        0.17009718716144562, 
        0.012526909820735455, 
        -2.949247360229492, 
        0.7757236361503601, 
        0.031355831772089005, 
        -0.4899138808250427, 
        2.0882678031921387, 
        1.9252649545669556, 
        0.7638444900512695, 
        0.2107231318950653, 
        -0.14698141813278198, 
        -0.1784040331840515, 
        -0.14422200620174408, 
        -0.07786102592945099, 
        0.007184182293713093, 
        -0.4966430962085724, 
        -0.2874302566051483, 
        -0.03354528173804283, 
        1.466365933418274, 
        -0.11381692439317703, 
        -1.1654868125915527, 
        1.4058499336242676, 
        -1.1556215286254883, 
        -0.25418463349342346, 
        -0.04253590852022171, 
        -2.8687939643859863, 
        -0.025099018588662148, 
        -0.528178334236145, 
        -0.6585674285888672, 
        -0.10984719544649124, 
        -0.06910893321037292, 
        1.6579517126083374, 
        0.012054704129695892, 
        0.6601591110229492, 
        -0.111178457736969, 
        1.4940221309661865, 
        0.7806003093719482, 
        -0.1256686896085739, 
        -0.12188398092985153, 
        0.5114490985870361, 
        -0.11365316808223724, 
        0.32957637310028076, 
        -0.10960669815540314, 
        -0.09284382313489914, 
        0.022311532869935036, 
        0.040613990277051926, 
        0.07963944971561432, 
        -0.10546369850635529, 
        0.7227551341056824, 
        -0.02002905309200287, 
        -0.16791529953479767, 
        -0.14443333446979523, 
        0.07078026235103607, 
        0.05711283162236214, 
        0.0014997330727055669, 
        -0.15194126963615417, 
        0.03075955994427204, 
        -0.013075511902570724, 
        -0.052738964557647705, 
        -0.11006147414445877, 
        -0.20312617719173431, 
        0.17978401482105255, 
        0.03730139881372452, 
        0.8382306694984436, 
        -0.07805884629487991, 
        -0.1625436693429947, 
        0.18098899722099304, 
        -0.8114311695098877, 
        -0.09717198461294174, 
        -0.13307759165763855, 
        0.6125987768173218, 
        0.17064356803894043, 
        0.06986697018146515, 
        0.07856082171201706, 
        0.11717034876346588, 
        -0.05648336187005043, 
        -0.15125510096549988, 
        0.1191226989030838, 
        0.2691909372806549, 
        -0.1043357402086258, 
        -0.11963412165641785, 
        0.16511431336402893, 
        -0.04412604123353958, 
        0.0714893713593483, 
        0.06425394862890244, 
        0.12197405099868774, 
        -0.07934298366308212, 
        0.05078790336847305, 
        0.0772591307759285, 
        -0.10251516848802567, 
        0.07038058340549469, 
        -0.06834016740322113, 
        -0.031435441225767136, 
        0.112525574862957, 
        1.6011770963668823, 
        0.01790948212146759, 
        -0.07259317487478256, 
        -0.08909689635038376, 
        -0.19105380773544312, 
        -0.13374675810337067, 
        0.034114155918359756, 
        -0.48775583505630493, 
        -0.05128476768732071, 
        -0.007772909943014383, 
        -0.1577327996492386, 
        0.19848866760730743, 
        -0.015656789764761925, 
        -0.4155189096927643, 
        -0.1905108243227005, 
        -0.7516961693763733, 
        -0.05503085255622864, 
        0.9098934531211853, 
        -0.11664745211601257, 
        -0.14127880334854126, 
        -0.3668723404407501, 
        -0.07578304409980774, 
        0.31997057795524597, 
        0.23695126175880432, 
        0.2017473727464676, 
        -0.023145921528339386, 
        0.2584679126739502, 
        0.08760873973369598, 
        -0.1116383746266365, 
        -0.1670873463153839, 
        -0.16068315505981445, 
        -0.22862787544727325, 
        0.9314814209938049, 
        -0.11588333547115326, 
        -0.03721526265144348, 
        0.3840677738189697, 
        -0.5941977500915527, 
        0.4337187707424164, 
        -0.16508819162845612, 
        1.6101481914520264, 
        0.7608979344367981, 
        0.01140516810119152, 
        0.2059309482574463, 
        0.4780155122280121, 
        -0.11524157226085663, 
        0.01370147243142128, 
        -0.03971788287162781, 
        -0.10328061133623123, 
        0.012978747487068176, 
        0.029131578281521797, 
        -0.16771267354488373, 
        -0.12623511254787445, 
        -0.31519708037376404, 
        -0.03412565961480141, 
        -0.033573031425476074, 
        0.8595452308654785, 
        0.14559683203697205, 
        -0.04629301652312279, 
        0.12804800271987915, 
        -0.7178748250007629, 
        -0.11005036532878876, 
        -0.05763061344623566, 
        0.10649579763412476, 
        -0.04934888705611229, 
        -0.04333474487066269, 
        0.6203935742378235, 
        0.17103296518325806, 
        0.03373987600207329, 
        0.07318449020385742, 
        0.04824833199381828, 
        -0.28350621461868286, 
        0.060730624943971634, 
        0.050547827035188675, 
        1.083878755569458, 
        -0.34356850385665894, 
        0.03607277572154999, 
        0.044177159667015076, 
        0.6427471041679382, 
        -0.19901563227176666, 
        0.11746709048748016, 
        -0.07433392107486725, 
        -0.12352894991636276, 
        0.7529370784759521, 
        -0.032826993614435196, 
        0.2595631182193756, 
        -0.18311163783073425, 
        -0.05580882728099823, 
        0.16560378670692444, 
        0.1554732620716095, 
        -0.18553321063518524, 
        0.4209791421890259, 
        0.10641476511955261, 
        0.25653237104415894, 
        0.059353090822696686, 
        0.09072070568799973, 
        0.134822279214859, 
        0.7447052001953125, 
        0.9408033490180969, 
        0.22745998203754425, 
        0.18051251769065857, 
        0.40290722250938416, 
        1.3324860334396362, 
        0.35471871495246887, 
        0.10159888863563538, 
        1.4704327583312988, 
        0.01671702042222023, 
        0.18242986500263214, 
        0.1067696139216423, 
        -0.1367226392030716, 
        0.05390468239784241, 
        -0.16056732833385468, 
        -0.005886082537472248, 
        0.7229195833206177, 
        -0.2652668356895447, 
        0.020590366795659065, 
        0.5889878273010254, 
        0.051522742956876755, 
        -0.6779109835624695, 
        0.22430254518985748, 
        -0.0022348857019096613, 
        -0.13930188119411469, 
        0.11180203408002853, 
        -0.05567806214094162, 
        0.02242184430360794, 
        0.07557540386915207, 
        -0.03517797961831093, 
        -0.8232342004776001, 
        -0.07170845568180084, 
        0.765086829662323, 
        0.5077570676803589, 
        0.11737576127052307, 
        -0.08777976036071777, 
        -0.10633374750614166, 
        0.0551348514854908, 
        0.10690870136022568, 
        1.397882103919983, 
        -0.0004068445705343038, 
        -0.04365832731127739, 
        -0.06461109220981598, 
        -0.4537995457649231, 
        0.09621945023536682, 
        0.5079295635223389, 
        -0.12577123939990997, 
        1.3688479661941528, 
        -0.4543459713459015, 
        0.8472025990486145, 
        0.012666470371186733, 
        0.12728647887706757, 
        -0.1594623625278473, 
        0.037671446800231934, 
        0.4411311745643616, 
        -0.04577739164233208, 
        0.5162937045097351, 
        -0.16570024192333221, 
        0.09384949505329132, 
        0.2483137845993042, 
        0.7494073510169983, 
        -0.04301642253994942, 
        -0.00869500171393156, 
        0.7169085741043091, 
        0.7833086848258972, 
        0.18242858350276947, 
        0.08369945734739304, 
        0.47986286878585815, 
        1.3727054595947266, 
        0.6284579634666443, 
        0.13030682504177094, 
        1.0209845304489136, 
        1.5465208292007446, 
        0.6450276970863342, 
        0.43751758337020874, 
        0.377424418926239, 
        0.10111429542303085, 
        0.1463630646467209, 
        -0.04061274230480194, 
        0.040492672473192215, 
        0.004915251862257719, 
        0.32680991291999817, 
        -0.12818992137908936, 
        0.08502508699893951, 
        -0.14322081208229065, 
        0.3009409010410309, 
        0.13996896147727966, 
        0.6584534049034119, 
        -0.27284449338912964, 
        0.01635594666004181, 
        0.3560653030872345, 
        1.3944413661956787, 
        -0.7121050953865051, 
        -0.15917174518108368, 
        0.24176523089408875, 
        0.27477994561195374, 
        0.004126534331589937, 
        1.5849777460098267, 
        0.27445194125175476, 
        0.07063929736614227, 
        0.06737315654754639, 
        -0.2380775660276413, 
        -0.08500504493713379, 
        0.07490217685699463, 
        -0.1492142230272293, 
        1.026332139968872, 
        -1.302724003791809, 
        0.3746718466281891, 
        0.07128932327032089, 
        1.1575416326522827, 
        -0.07633175700902939, 
        -0.005900184623897076, 
        -0.16386575996875763, 
        0.12281747162342072, 
        0.8141167759895325, 
        -0.12121142446994781, 
        0.39278629422187805, 
        0.097475565969944, 
        -0.22424985468387604, 
        -0.0026159833651036024, 
        0.018694177269935608, 
        -0.032725390046834946, 
        0.3864733874797821, 
        -0.14267867803573608, 
        0.11815133690834045, 
        -0.0674014613032341, 
        -0.07099752128124237, 
        0.043379079550504684, 
        0.7063140273094177, 
        0.6555670499801636, 
        0.04607566073536873, 
        0.043881773948669434, 
        -0.02837183140218258, 
        1.3221038579940796, 
        0.3328658640384674, 
        0.11259348690509796, 
        0.3762268126010895, 
        0.04736791551113129, 
        0.0943959653377533, 
        0.08741074055433273, 
        0.08394097536802292, 
        0.11909719556570053, 
        -0.11866212636232376, 
        0.07085157185792923, 
        1.3782238960266113, 
        -0.21459843218326569, 
        0.08421946316957474, 
        0.24206215143203735, 
        -0.007353608496487141, 
        -0.8029947876930237, 
        0.20314818620681763, 
        -0.0021973210386931896, 
        0.026031585410237312, 
        -0.10478310286998749, 
        0.2005772590637207, 
        0.40555277466773987, 
        0.004297027364373207, 
        0.12869210541248322, 
        -1.0834494829177856, 
        -0.03954361379146576, 
        0.3908414840698242, 
        0.548035204410553, 
        1.3171285390853882, 
        -0.10417962819337845, 
        0.022552140057086945, 
        -0.20470114052295685, 
        0.5445696711540222, 
        1.5707998275756836, 
        -0.02926727756857872, 
        0.08050853759050369, 
        0.1935156136751175, 
        -0.4484776258468628, 
        0.02573363110423088, 
        0.8587267398834229, 
        -0.08027897030115128, 
        1.5370792150497437, 
        -0.6758939623832703, 
        1.271369218826294, 
        0.15841256082057953, 
        0.19520807266235352, 
        -0.18567325174808502, 
        -0.05468977987766266, 
        0.5150137543678284, 
        -0.16184844076633453, 
        0.008223136886954308, 
        0.03329325094819069, 
        0.050383199006319046, 
        -0.09152093529701233, 
        0.2192806899547577, 
        -0.0004048158589284867, 
        0.13209232687950134, 
        1.3341649770736694, 
        0.5247399806976318, 
        -0.4180988371372223, 
        0.01846887730062008, 
        1.4947432279586792, 
        1.5036990642547607, 
        0.18733875453472137, 
        0.387086421251297, 
        0.5913136601448059, 
        1.5833725929260254, 
        0.4400881230831146, 
        0.06868122518062592, 
        0.35710614919662476, 
        -0.01612173393368721, 
        0.22483845055103302, 
        0.01593284122645855, 
        -0.25205838680267334, 
        0.07165209203958511, 
        0.21836358308792114, 
        -0.10132508724927902, 
        -0.10065915435552597, 
        0.6557949185371399, 
        0.2646763026714325, 
        -0.15843404829502106, 
        0.9756417274475098, 
        -0.5504649877548218, 
        -0.1766902655363083, 
        0.22750988602638245, 
        1.6020770072937012, 
        -1.1535735130310059, 
        -0.08944929391145706, 
        0.49056607484817505, 
        0.16496410965919495, 
        -0.07814798504114151, 
        1.2145322561264038, 
        0.4376441240310669, 
        -0.11605825275182724, 
        0.03601475805044174, 
        0.04105852544307709, 
        -0.19669489562511444, 
        0.14630401134490967, 
        0.005023965612053871, 
        0.49155059456825256, 
        -0.1127772405743599, 
        0.44494709372520447, 
        -0.09578816592693329, 
        -0.18336772918701172, 
        -0.0467720665037632, 
        -0.16607917845249176, 
        0.006049229763448238, 
        -0.0960281491279602, 
        0.41487377882003784, 
        -0.004035713151097298, 
        -0.0504385307431221, 
        -0.12695807218551636, 
        0.14086298644542694, 
        0.032729025930166245, 
        -0.062104251235723495, 
        -0.09743006527423859, 
        -0.11635518074035645, 
        -0.09473234415054321, 
        0.006397286895662546, 
        0.013812179677188396, 
        -0.18387067317962646, 
        0.15503059327602386, 
        -0.2268451750278473, 
        0.5016406774520874, 
        -0.09761612862348557, 
        0.10258176177740097, 
        -0.056055568158626556, 
        -0.8122649788856506, 
        0.22421763837337494, 
        -0.09038963913917542, 
        0.26189154386520386, 
        0.05565881356596947, 
        -0.07043579965829849, 
        0.018587525933980942, 
        0.05027297884225845, 
        -0.019388822838664055, 
        0.036473531275987625, 
        0.12607897818088531, 
        0.1170775517821312, 
        -0.006489853374660015, 
        0.03240314498543739, 
        -0.040534619241952896, 
        -0.14654791355133057, 
        0.0028485252987593412, 
        -0.04023041948676109, 
        -0.14600779116153717, 
        0.002258587395772338, 
        0.07905768603086472, 
        -0.12647145986557007, 
        -0.1255597323179245, 
        0.003992807120084763, 
        -0.15253044664859772, 
        0.09152654558420181, 
        -0.005257742013782263, 
        0.9417535066604614, 
        0.17278847098350525, 
        -0.31527814269065857, 
        0.05190182477235794, 
        -0.12168040126562119, 
        0.1137753278017044, 
        0.14292030036449432, 
        -0.29958629608154297, 
        0.028131814673542976, 
        -0.14580310881137848, 
        -0.27593252062797546, 
        0.298064649105072, 
        -0.09543877094984055, 
        -0.44932740926742554, 
        -0.24374836683273315, 
        -0.4507710039615631, 
        0.03506103903055191, 
        0.7719878554344177, 
        -0.06698013097047806, 
        -0.030827505514025688, 
        -0.43121814727783203, 
        0.055384933948516846, 
        0.5211867094039917, 
        0.4419710338115692, 
        0.057229481637477875, 
        -0.09297049045562744, 
        0.4553711712360382, 
        0.03659825772047043, 
        -0.29340776801109314, 
        -0.11444640159606934, 
        -0.04367661103606224, 
        -0.07677075266838074, 
        0.3357933461666107, 
        -0.07550470530986786, 
        -0.047677550464868546, 
        -0.11227153241634369, 
        -0.4623684585094452, 
        0.04468139261007309, 
        -0.12896698713302612, 
        1.2944090366363525, 
        0.4220510423183441, 
        0.0014716725563630462, 
        0.06285776942968369, 
        0.2912103831768036, 
        -0.1437770575284958, 
        -0.13451585173606873, 
        0.09702826291322708, 
        0.016497109085321426, 
        -0.11136368662118912, 
        0.16080379486083984, 
        -0.062654048204422, 
        -0.13238994777202606, 
        -0.4195965528488159, 
        -0.0008903557318262756, 
        -0.34041833877563477, 
        0.5499493479728699, 
        0.11215710639953613, 
        -0.12208107858896255, 
        0.12974807620048523, 
        -0.537071168422699, 
        0.08185651153326035, 
        -0.023822465911507607, 
        0.12319338321685791, 
        -0.08176209777593613, 
        -0.04021305590867996, 
        0.3908020555973053, 
        0.16294683516025543, 
        0.04078305512666702, 
        0.058498553931713104, 
        0.05716003105044365, 
        -0.19256728887557983, 
        -0.01556128729134798, 
        0.0862669125199318, 
        0.9527809023857117, 
        -0.12926536798477173, 
        0.15143993496894836, 
        -0.06624234467744827, 
        -0.06682004779577255, 
        -0.18782241642475128, 
        -0.07874281704425812, 
        -0.11960690468549728, 
        -0.06919176876544952, 
        0.5715930461883545, 
        -0.011796322651207447, 
        -0.003371811704710126, 
        -0.03037864901125431, 
        -0.022443139925599098, 
        0.06762678921222687, 
        0.006929227616637945, 
        -0.16141150891780853, 
        -0.075934037566185, 
        -0.0658884197473526, 
        -0.024677082896232605, 
        -0.12593604624271393, 
        -0.1960432082414627, 
        0.13587480783462524, 
        0.028770383447408676, 
        0.48043152689933777, 
        0.038012683391571045, 
        0.010510663501918316, 
        0.09135844558477402, 
        -1.3062986135482788, 
        0.10527727752923965, 
        0.048378653824329376, 
        0.6693508625030518, 
        0.22737611830234528, 
        -0.1365220993757248, 
        0.01741771772503853, 
        0.13879437744617462, 
        -0.1408950239419937, 
        -0.008068776689469814, 
        0.1344919055700302, 
        0.06756944209337234, 
        0.024848274886608124, 
        0.023577328771352768, 
        0.5368210673332214, 
        -0.20971417427062988, 
        -0.12501396238803864, 
        0.0539824515581131, 
        0.07053922116756439, 
        -0.17910216748714447, 
        -0.008509160950779915, 
        -0.18454429507255554, 
        0.07128962874412537, 
        0.013546016998589039, 
        -0.17947079241275787, 
        -0.07965757697820663, 
        0.04504764452576637, 
        1.41380774974823, 
        0.03780549019575119, 
        0.22961050271987915, 
        -0.11752065271139145, 
        -0.014568316750228405, 
        0.061555154621601105, 
        0.3414977490901947, 
        -0.7934447526931763, 
        0.013803841546177864, 
        0.1089770495891571, 
        -0.28595098853111267, 
        0.32454270124435425, 
        -0.06465689092874527, 
        -0.6562219262123108, 
        -0.1269543468952179, 
        -1.1531341075897217, 
        -0.0075455280020833015, 
        1.3446470499038696, 
        0.05619658902287483, 
        -0.04776448383927345, 
        -0.23348623514175415, 
        0.015759864822030067, 
        0.6135774254798889, 
        0.5053675174713135, 
        -0.0964004248380661, 
        -0.190536767244339, 
        0.27834728360176086, 
        0.4769603908061981, 
        -0.4384588599205017, 
        -0.13961200416088104, 
        -0.11261361837387085, 
        -0.25084781646728516, 
        0.5066976547241211, 
        -0.10716336220502853, 
        -0.14191122353076935, 
        0.6849837899208069, 
        -1.1275196075439453, 
        0.2058994621038437, 
        0.08494237810373306, 
        1.600601077079773, 
        1.0227367877960205, 
        0.40007781982421875, 
        0.4806126654148102, 
        0.30223149061203003, 
        -0.13310512900352478, 
        0.10420183092355728, 
        0.11723779886960983, 
        -0.04239964857697487, 
        -0.10726624727249146, 
        0.16451580822467804, 
        -0.02856104075908661, 
        0.06248830631375313, 
        -0.2009580433368683, 
        -0.08060202747583389, 
        -0.30282530188560486, 
        0.8750481605529785, 
        0.21532829105854034, 
        -0.03979543596506119, 
        0.04469219222664833, 
        -0.8985608220100403, 
        -0.11260240525007248, 
        -0.18875697255134583, 
        -0.14195147156715393, 
        -0.13933871686458588, 
        -0.024121779948472977, 
        0.8707559108734131, 
        0.202105313539505, 
        0.016871927306056023, 
        -0.10627827793359756, 
        0.36099329590797424, 
        -0.1231677457690239, 
        -0.12752927839756012, 
        0.013287155888974667, 
        0.7431809902191162, 
        -0.03269528970122337, 
        -0.2903771698474884, 
        0.9385824203491211, 
        1.9808323383331299, 
        -0.09765493124723434, 
        0.03670081868767738, 
        -0.08732491731643677, 
        -0.06594805419445038, 
        -0.40222257375717163, 
        0.09472016245126724, 
        -0.38832128047943115, 
        -0.01332266628742218, 
        0.24693234264850616, 
        -0.15392056107521057, 
        -0.10030671954154968, 
        -0.15095974504947662, 
        0.37589162588119507, 
        -0.14961591362953186, 
        -0.03511359170079231, 
        0.029124369844794273, 
        -0.20430155098438263, 
        0.5970873236656189, 
        0.503351092338562, 
        1.6222715377807617, 
        0.06449943035840988, 
        -0.2944103479385376, 
        0.8249687552452087, 
        -2.699092388153076, 
        -0.3195163607597351, 
        -0.053809769451618195, 
        1.6460793018341064, 
        0.919445812702179, 
        -0.008075102232396603, 
        -0.15468314290046692, 
        0.07432550191879272, 
        -0.16106797754764557, 
        -0.23503831028938293, 
        0.6512539386749268, 
        1.9437065124511719, 
        0.11698558926582336, 
        -0.14299187064170837, 
        -0.03984517976641655, 
        0.004008448217064142, 
        -0.08851790428161621, 
        -0.2538212835788727, 
        0.03145236894488335, 
        0.012298081070184708, 
        -0.0049427347257733345, 
        0.34290745854377747, 
        -0.03590499237179756, 
        -0.20360226929187775, 
        -0.2370852530002594, 
        -0.05281548202037811, 
        0.351824551820755, 
        -0.4926419258117676, 
        -1.1912474632263184, 
        2.0528688430786133, 
        -0.1401539146900177, 
        -0.012013524770736694, 
        0.22341288626194, 
        2.4272470474243164, 
        -2.703369617462158, 
        0.055116649717092514, 
        -0.16424915194511414, 
        0.8549391031265259, 
        -0.24769695103168488, 
        -0.06708256155252457, 
        -1.3803067207336426, 
        -0.05127871781587601, 
        -2.690807580947876, 
        -0.10497221350669861, 
        2.1399433612823486, 
        0.14615462720394135, 
        -0.022456137463450432, 
        -0.011762860231101513, 
        0.1512916088104248, 
        0.32576635479927063, 
        0.3142684996128082, 
        0.15115605294704437, 
        -0.09543313086032867, 
        -0.6043989658355713, 
        1.897078037261963, 
        -1.4705312252044678, 
        0.007035716902464628, 
        -0.1745261549949646, 
        1.1998904943466187, 
        -1.0059751272201538, 
        0.07657241821289062, 
        0.027061961591243744, 
        1.8960505723953247, 
        -2.535916566848755, 
        0.6500456929206848, 
        0.250031054019928, 
        0.2251550406217575, 
        2.0432465076446533, 
        2.4929697513580322, 
        1.6093636751174927, 
        0.19452738761901855, 
        0.0006915761041454971, 
        0.3274281620979309, 
        0.10471583902835846, 
        -0.049867477267980576, 
        -0.21916814148426056, 
        -0.09554661810398102, 
        -0.006453147158026695, 
        -0.11912868916988373, 
        1.3091646432876587, 
        -0.0003250601585023105, 
        -0.3703732192516327, 
        0.9541311264038086, 
        -0.9588192105293274, 
        -0.07761982828378677, 
        0.20948173105716705, 
        -2.567521572113037, 
        0.14905819296836853, 
        -0.1187053695321083, 
        -0.19430984556674957, 
        -0.1015259325504303, 
        -0.11962002515792847, 
        2.145314931869507, 
        0.07670692354440689, 
        0.19819311797618866, 
        0.22181196510791779, 
        1.82319974899292, 
        0.5970520973205566, 
        0.14566875994205475, 
        -0.11272458732128143, 
        -0.8738481402397156, 
        0.445925772190094, 
        1.5377607345581055, 
        -0.3784385621547699, 
        -0.6559705138206482, 
        -0.001328309765085578, 
        -0.26077425479888916, 
        0.18779973685741425, 
        -0.08721194416284561, 
        0.6435039043426514, 
        0.057545050978660583, 
        -0.44433555006980896, 
        -0.20780782401561737, 
        -0.01796910911798477, 
        0.21619607508182526, 
        -0.5790267586708069, 
        -0.25385037064552307, 
        0.16252543032169342, 
        -0.10569021105766296, 
        0.30085843801498413, 
        0.1019274890422821, 
        -0.2529558837413788, 
        0.23278973996639252, 
        0.04303136467933655, 
        -0.6426510214805603, 
        0.15491452813148499, 
        0.21657218039035797, 
        0.06738495081663132, 
        -2.537172794342041, 
        0.06232555955648422, 
        0.023038437590003014, 
        0.8002303242683411, 
        -0.9169817566871643, 
        0.07667998224496841, 
        -0.07754930853843689, 
        0.14369267225265503, 
        0.09042179584503174, 
        -0.09002571552991867, 
        -0.18479441106319427, 
        -1.1961828470230103, 
        -0.3875388503074646, 
        0.2736209034919739, 
        0.8401850461959839, 
        -0.14810296893119812, 
        0.1809214949607849, 
        0.03907209634780884, 
        -0.2007671743631363, 
        0.06545353680849075, 
        0.07228971272706985, 
        -0.20038184523582458, 
        -0.18494819104671478, 
        0.24335521459579468, 
        0.031007759273052216, 
        -0.16194649040699005, 
        -1.331317663192749, 
        1.4702602624893188, 
        -0.3957423269748688, 
        1.4414420127868652, 
        0.04069632291793823, 
        -0.10376528650522232, 
        -0.251393586397171, 
        1.5534675121307373, 
        -2.197791337966919, 
        0.08413587510585785, 
        -0.14072443544864655, 
        -0.8440817594528198, 
        -0.5235263109207153, 
        -0.11118358373641968, 
        -1.8178467750549316, 
        -0.0912688747048378, 
        -2.145024061203003, 
        0.01910156011581421, 
        -0.7433006167411804, 
        0.053245432674884796, 
        0.18448267877101898, 
        -0.03515966981649399, 
        -0.05404553934931755, 
        0.8262754082679749, 
        -0.16171559691429138, 
        -0.04957934468984604, 
        0.04350957274436951, 
        0.4985564947128296, 
        0.4152558743953705, 
        -0.6317050457000732, 
        -0.06783857196569443, 
        0.10073501616716385, 
        -0.9106617569923401, 
        0.24392011761665344, 
        0.22311890125274658, 
        0.01671868935227394, 
        1.2680010795593262, 
        -2.3141515254974365, 
        0.27779421210289, 
        0.17565777897834778, 
        3.608677387237549, 
        -0.7406825423240662, 
        1.711734414100647, 
        -0.223872572183609, 
        0.4722319543361664, 
        -0.005751465447247028, 
        0.06416550278663635, 
        -0.11552461981773376, 
        -0.0816672295331955, 
        -0.05475648120045662, 
        -0.11456553637981415, 
        -0.11051706224679947, 
        0.008153878152370453, 
        -0.7404342889785767, 
        0.032051168382167816, 
        0.1605047583580017, 
        -0.6445447206497192, 
        -0.215866819024086, 
        -0.06362057477235794, 
        0.24453918635845184, 
        -2.3807904720306396, 
        -0.03279156982898712, 
        0.028630923479795456, 
        -0.12051425874233246, 
        0.1743611842393875, 
        0.044401153922080994, 
        1.4449818134307861, 
        0.2854687571525574, 
        -0.052930254489183426, 
        0.12961304187774658, 
        0.4040842354297638, 
        -0.04450978711247444, 
        -0.17226411402225494, 
        0.06800525635480881, 
        0.49711817502975464, 
        -0.1152215525507927, 
        0.5622304677963257, 
        -0.08667993545532227, 
        -0.3036922812461853, 
        -0.1998613029718399, 
        0.05560858175158501, 
        -0.12491117417812347, 
        0.03495677933096886, 
        0.5286374092102051, 
        -0.14543479681015015, 
        -0.02306603081524372, 
        -0.020942457020282745, 
        0.035001203417778015, 
        0.04746456444263458, 
        -0.054757848381996155, 
        -0.019006526097655296, 
        0.07083553820848465, 
        0.004543701186776161, 
        -0.028033098205924034, 
        0.12050023674964905, 
        -0.12853103876113892, 
        0.2183057963848114, 
        -0.16454847157001495, 
        0.2007049322128296, 
        -0.005582253914326429, 
        -0.15937532484531403, 
        0.03943478688597679, 
        -0.7648112177848816, 
        0.2692206799983978, 
        -0.01760871894657612, 
        0.3063715994358063, 
        -0.030635325238108635, 
        0.058570243418216705, 
        0.07191143929958344, 
        -0.10557667911052704, 
        -0.158403679728508, 
        -0.07437573373317719, 
        0.011808270588517189, 
        -0.14258019626140594, 
        -0.161895290017128, 
        -0.12425690144300461, 
        0.10251016169786453, 
        -0.21220755577087402, 
        -0.08770682662725449, 
        -0.12787267565727234, 
        0.06014501675963402, 
        -0.00538897467777133, 
        -0.05118590593338013, 
        -0.07691313326358795, 
        0.09386594593524933, 
        -0.11238610744476318, 
        -0.06867682933807373, 
        -0.06818599253892899, 
        -0.324057936668396, 
        1.2708942890167236, 
        -0.030626125633716583, 
        -0.3978056311607361, 
        -0.06443044543266296, 
        -0.032075896859169006, 
        -0.12646126747131348, 
        -0.023577537387609482, 
        -0.4771755039691925, 
        -0.15658272802829742, 
        -0.10543344914913177, 
        -0.3918915390968323, 
        0.11456890404224396, 
        0.0653730034828186, 
        -0.41506537795066833, 
        -0.1300586462020874, 
        -0.5720075368881226, 
        0.06545207649469376, 
        0.7601179480552673, 
        -0.07240571826696396, 
        0.03109470009803772, 
        -0.2556948661804199, 
        -0.08148159831762314, 
        0.5607345104217529, 
        0.29526251554489136, 
        -0.005272418260574341, 
        0.04116733372211456, 
        0.27827271819114685, 
        0.04952886700630188, 
        -0.10215713828802109, 
        -0.04156249761581421, 
        0.0820392370223999, 
        -0.19692306220531464, 
        0.6206888556480408, 
        0.04422697424888611, 
        0.002006457420065999, 
        -0.10777199268341064, 
        -0.552242636680603, 
        0.2037912756204605, 
        0.08569230884313583, 
        1.515648365020752, 
        0.3404560983181, 
        -0.06361634284257889, 
        0.14414627850055695, 
        0.37336382269859314, 
        -0.08065667748451233, 
        -0.10893569886684418, 
        -0.1015847846865654, 
        -0.060718927532434464, 
        -0.08889967203140259, 
        0.2091166228055954, 
        0.036421868950128555, 
        -0.14582891762256622, 
        -0.3706909120082855, 
        -0.14521333575248718, 
        -0.22029735147953033, 
        0.4070589244365692, 
        0.14653749763965607, 
        -0.19068102538585663, 
        0.27823904156684875, 
        -0.4618878662586212, 
        0.007970812730491161, 
        -0.2570938467979431, 
        -0.05072407424449921, 
        -0.1532624363899231, 
        0.11906760185956955, 
        0.3032626211643219, 
        -0.05509663000702858, 
        0.07863521575927734, 
        0.08515710383653641, 
        -0.18448922038078308, 
        -0.42993855476379395, 
        -0.11854453384876251, 
        0.21052668988704681, 
        0.2030671089887619, 
        0.44442299008369446, 
        1.3971161842346191, 
        -0.3459431231021881, 
        0.3330998718738556, 
        0.1215776801109314, 
        0.08038894087076187, 
        0.07339713722467422, 
        0.15707823634147644, 
        1.2785019874572754, 
        0.4115416407585144, 
        0.7633689045906067, 
        0.030423782765865326, 
        0.2891378402709961, 
        0.15240387618541718, 
        0.24196863174438477, 
        0.5825029015541077, 
        0.41849732398986816, 
        0.35951709747314453, 
        0.6680610179901123, 
        0.5024186968803406, 
        0.4424161911010742, 
        0.04824225604534149, 
        1.0676625967025757, 
        -0.22855301201343536, 
        0.18405619263648987, 
        0.24175389111042023, 
        -0.12666106224060059, 
        1.6660205125808716, 
        0.4968099892139435, 
        0.6240929365158081, 
        -0.8191902041435242, 
        0.6229771971702576, 
        0.052142832428216934, 
        0.14511500298976898, 
        -0.001126994495280087, 
        0.2969212532043457, 
        0.3390655219554901, 
        -0.46537142992019653, 
        0.10372608155012131, 
        -0.40061575174331665, 
        0.128902867436409, 
        -0.08579111099243164, 
        0.16570521891117096, 
        0.44828012585639954, 
        0.66611647605896, 
        0.2604241669178009, 
        0.3383595943450928, 
        0.056437328457832336, 
        0.6307663321495056, 
        1.6895496845245361, 
        0.4733033776283264, 
        0.3272411525249481, 
        0.03506255894899368, 
        -0.24226590991020203, 
        0.9524433612823486, 
        1.3346346616744995, 
        0.72928386926651, 
        0.3554057776927948, 
        0.004161643795669079, 
        0.19746258854866028, 
        0.9460213780403137, 
        1.6563804149627686, 
        0.02692839875817299, 
        0.20299021899700165, 
        0.2839915454387665, 
        0.9382299184799194, 
        0.6091786026954651, 
        1.5785276889801025, 
        0.23736223578453064, 
        1.4987634420394897, 
        0.23699985444545746, 
        -0.6682698726654053, 
        0.18818826973438263, 
        0.18857547640800476, 
        0.035942789167165756, 
        0.09220342338085175, 
        1.1458065509796143, 
        0.07044997066259384, 
        0.8208463191986084, 
        0.13188183307647705, 
        1.1221510171890259, 
        0.3453991115093231, 
        1.4037312269210815, 
        0.06963048875331879, 
        -0.006642753724008799, 
        -0.0014554979279637337, 
        1.3596688508987427, 
        0.38918015360832214, 
        0.36255350708961487, 
        0.7024447917938232, 
        1.5067765712738037, 
        0.337691068649292, 
        1.738690733909607, 
        0.7736293077468872, 
        0.30930209159851074, 
        -0.1984671801328659, 
        0.9220352172851562, 
        1.474584937095642, 
        0.27254483103752136, 
        2.25537109375, 
        0.15333087742328644, 
        0.022205879911780357, 
        0.17307348549365997, 
        0.47884994745254517, 
        0.17781956493854523, 
        0.02904382534325123, 
        0.7716323137283325, 
        0.002614493714645505, 
        0.4661354422569275, 
        -0.2955287992954254, 
        0.9689868092536926, 
        -0.2183016836643219, 
        0.4837667942047119, 
        1.615907907485962, 
        0.4338891804218292, 
        0.20211608707904816, 
        0.6281827688217163, 
        0.20522962510585785, 
        -0.16376352310180664, 
        0.36045920848846436, 
        0.5368027687072754, 
        -0.14081420004367828, 
        0.26930204033851624, 
        0.017295630648732185, 
        -0.1888493150472641, 
        0.08078254014253616, 
        0.02978845313191414, 
        1.1443692445755005, 
        -0.05873546749353409, 
        -0.2593114376068115, 
        0.6561574339866638, 
        1.4797993898391724, 
        -0.061158474534749985, 
        0.5357415080070496, 
        0.02832706831395626, 
        -0.019061759114265442, 
        -0.6631778478622437, 
        0.036191072314977646, 
        -0.5165470242500305, 
        -0.16686809062957764, 
        1.1213951110839844, 
        -0.0726519227027893, 
        -0.15843571722507477, 
        -0.33949095010757446, 
        0.04895305633544922, 
        -0.02575499191880226, 
        -0.35225898027420044, 
        -0.24293804168701172, 
        -0.40519076585769653, 
        0.9773769974708557, 
        0.1697373241186142, 
        1.4401811361312866, 
        -0.361390620470047, 
        -0.21031972765922546, 
        1.0989441871643066, 
        -2.672590494155884, 
        0.028629066422581673, 
        -0.44091033935546875, 
        1.812927007675171, 
        0.15317729115486145, 
        -0.3555922210216522, 
        -0.16498365998268127, 
        0.21692292392253876, 
        -0.1625341922044754, 
        -0.2461610585451126, 
        0.944817841053009, 
        1.9726425409317017, 
        0.25905248522758484, 
        0.02605145424604416, 
        -0.4774661958217621, 
        -0.27741193771362305, 
        -0.016775120049715042, 
        -0.6093619465827942, 
        -0.029229173436760902, 
        -0.10666173696517944, 
        -0.15956205129623413, 
        -0.4447254538536072, 
        0.6588647365570068, 
        -0.36933088302612305, 
        -0.07594157010316849, 
        -0.13704104721546173, 
        0.6563371419906616, 
        0.870252788066864, 
        -1.4994359016418457, 
        2.059025287628174, 
        -0.017525870352983475, 
        0.0022990312427282333, 
        1.1342198848724365, 
        2.0732717514038086, 
        -2.187971591949463, 
        -0.047534309327602386, 
        0.07585357129573822, 
        0.8908625245094299, 
        -0.6242277026176453, 
        -0.2665644586086273, 
        -1.1594812870025635, 
        -0.17834441363811493, 
        -2.1482889652252197, 
        -0.05960314720869064, 
        1.9386686086654663, 
        -0.07529653608798981, 
        -0.08667827397584915, 
        0.042668744921684265, 
        -0.04213139787316322, 
        0.8062744736671448, 
        0.5261474251747131, 
        0.08792801946401596, 
        -0.10013747960329056, 
        -0.8579308986663818, 
        0.8555644154548645, 
        -1.7483471632003784, 
        -0.21299879252910614, 
        -0.026037123054265976, 
        1.2953758239746094, 
        -0.33494314551353455, 
        0.04509211331605911, 
        -0.14978662133216858, 
        2.110283374786377, 
        -3.1470186710357666, 
        0.5549618601799011, 
        0.54676753282547, 
        1.51205575466156, 
        1.996982455253601, 
        1.8932842016220093, 
        1.247953176498413, 
        0.45074281096458435, 
        0.0002518042747396976, 
        0.9655925035476685, 
        -0.3230786919593811, 
        -0.19766801595687866, 
        -0.059759512543678284, 
        -0.23435595631599426, 
        0.0003679021028801799, 
        -0.1201440766453743, 
        1.1736814975738525, 
        -0.012420367449522018, 
        -0.8260424733161926, 
        1.213422417640686, 
        -0.7806693911552429, 
        -0.0004372832481749356, 
        0.2942914366722107, 
        -3.220487117767334, 
        0.03553937375545502, 
        -0.2149471789598465, 
        -0.6071730256080627, 
        -0.15432386100292206, 
        -0.08645536005496979, 
        1.4739657640457153, 
        -0.12799261510372162, 
        0.17052891850471497, 
        -0.05501052737236023, 
        1.5976252555847168, 
        0.8395534157752991, 
        0.004352811723947525, 
        -0.16398794949054718, 
        0.3699004352092743, 
        -0.05431767553091049, 
        0.7193275094032288, 
        -0.28689098358154297, 
        -0.26145926117897034, 
        -0.14864321053028107, 
        0.024447809904813766, 
        -0.10854021459817886, 
        -0.06618262827396393, 
        0.6451728343963623, 
        0.07477744668722153, 
        0.14479917287826538, 
        -0.020298408344388008, 
        -0.12629006803035736, 
        -0.07566309720277786, 
        -0.012692001648247242, 
        -0.07921791076660156, 
        0.01901686191558838, 
        -0.07184311747550964, 
        -0.010022133588790894, 
        -0.0739859864115715, 
        0.06777769327163696, 
        0.096417635679245, 
        -0.12992165982723236, 
        0.3302316963672638, 
        0.14935526251792908, 
        0.06043562665581703, 
        0.11336488276720047, 
        -0.5197044610977173, 
        0.2099830061197281, 
        -0.13007181882858276, 
        0.4650927186012268, 
        0.1576894223690033, 
        -0.13396960496902466, 
        -0.17961402237415314, 
        -0.031796086579561234, 
        -0.04913495481014252, 
        -0.056452300399541855, 
        -0.024273518472909927, 
        -0.16079983115196228, 
        -0.046399738639593124, 
        -0.09162294864654541, 
        0.15735819935798645, 
        -0.05207894369959831, 
        -0.062239550054073334, 
        0.058878105133771896, 
        -0.12243308126926422, 
        0.08698561787605286, 
        -0.037321802228689194, 
        -0.0989193469285965, 
        -0.11400602012872696, 
        0.09529079496860504, 
        -0.1537487506866455, 
        0.01416746061295271, 
        -0.34677329659461975, 
        1.4995719194412231, 
        0.07559671252965927, 
        -0.47036212682724, 
        0.09467349201440811, 
        -0.13246411085128784, 
        -0.15958188474178314, 
        -0.02828054688870907, 
        -0.12768754363059998, 
        -0.009129146113991737, 
        0.06776934117078781, 
        -0.4090026319026947, 
        0.1275458186864853, 
        0.03573010116815567, 
        -0.16825035214424133, 
        -0.148550882935524, 
        -0.42782890796661377, 
        -0.15687301754951477, 
        0.42815157771110535, 
        -0.12597087025642395, 
        0.0820530578494072, 
        -0.2772969603538513, 
        0.06794238835573196, 
        0.512557864189148, 
        0.26270660758018494, 
        -0.018213769420981407, 
        0.06331251561641693, 
        0.6086170077323914, 
        0.18683543801307678, 
        0.06616753339767456, 
        -0.10523741692304611, 
        -0.02330815978348255, 
        -0.4152585566043854, 
        0.9563842415809631, 
        -0.008464382961392403, 
        0.11698509752750397, 
        -0.0975775271654129, 
        -0.31988298892974854, 
        0.2318534255027771, 
        -0.03250478580594063, 
        1.400815486907959, 
        0.05234631150960922, 
        -0.1489795446395874, 
        0.19771936535835266, 
        0.3431263566017151, 
        -0.003372673410922289, 
        -0.04408058896660805, 
        0.09440741688013077, 
        -0.004651364404708147, 
        0.034337740391492844, 
        0.06389494240283966, 
        0.04364120587706566, 
        0.06906069815158844, 
        -0.22529350221157074, 
        0.07594317197799683, 
        -0.217948779463768, 
        0.30688270926475525, 
        0.1955413967370987, 
        -0.10033378005027771, 
        0.12665429711341858, 
        -0.17407304048538208, 
        -0.009816829115152359, 
        -0.12027222663164139, 
        0.05938483774662018, 
        0.09505978971719742, 
        -0.12219998240470886, 
        0.6593419313430786, 
        0.2181384414434433, 
        0.14261114597320557, 
        0.16299031674861908, 
        -0.3581937253475189, 
        -0.4932379722595215, 
        -0.02592751570045948, 
        -0.12387102097272873, 
        0.3996431231498718, 
        0.03494548052549362, 
        0.722062885761261, 
        -0.2386874109506607, 
        -0.17392635345458984, 
        -0.19210375845432281, 
        -0.15131203830242157, 
        -0.05036547780036926, 
        0.09021337330341339, 
        0.4401009976863861, 
        -0.1279139518737793, 
        -0.04517674818634987, 
        -0.06488723307847977, 
        -0.11917933821678162, 
        -0.09052819013595581, 
        0.04119396582245827, 
        -0.005519170314073563, 
        0.07223425060510635, 
        0.02828374132514, 
        -0.13837245106697083, 
        0.21742355823516846, 
        0.005769327748566866, 
        0.022385016083717346, 
        -0.13757890462875366, 
        0.30707311630249023, 
        -0.010958421044051647, 
        0.054891187697649, 
        0.08308374136686325, 
        -0.7263246178627014, 
        0.10867781192064285, 
        0.15810886025428772, 
        0.24261942505836487, 
        0.13681279122829437, 
        0.0668429359793663, 
        0.05110976845026016, 
        -0.10766107589006424, 
        -0.12142058461904526, 
        0.10976042598485947, 
        0.0938597023487091, 
        -0.2460220605134964, 
        -0.2937067151069641, 
        -0.08871404826641083, 
        0.38902583718299866, 
        -0.06444734334945679, 
        -0.14865295588970184, 
        0.1551467627286911, 
        -0.15837712585926056, 
        0.09504695981740952, 
        0.0730612501502037, 
        -0.19147376716136932, 
        0.09830337762832642, 
        -0.09556713700294495, 
        -0.04467330873012543, 
        -0.14070142805576324, 
        -0.09255979210138321, 
        1.5029363632202148, 
        0.13607560098171234, 
        -0.36667370796203613, 
        -0.0507950559258461, 
        -0.16959458589553833, 
        -0.040765367448329926, 
        0.07461103051900864, 
        -0.213345006108284, 
        0.1252412647008896, 
        -0.0032950961031019688, 
        -0.22939418256282806, 
        0.2884494960308075, 
        -0.08999553322792053, 
        -0.32414907217025757, 
        0.009536512196063995, 
        -0.5106225609779358, 
        -0.11472300440073013, 
        0.5403269529342651, 
        -0.05290437489748001, 
        -0.019371122121810913, 
        -0.3760424852371216, 
        -0.019918400794267654, 
        0.5289645195007324, 
        0.31688931584358215, 
        0.05614487826824188, 
        0.04410985857248306, 
        0.5465591549873352, 
        0.16113583743572235, 
        -0.19643105566501617, 
        0.08766687661409378, 
        -0.041511211544275284, 
        -0.42620643973350525, 
        0.7680208683013916, 
        -0.1446375995874405, 
        0.035373419523239136, 
        0.17563529312610626, 
        -0.6066179871559143, 
        0.23558224737644196, 
        0.08575456589460373, 
        1.4317032098770142, 
        0.08450163900852203, 
        -0.08390597254037857, 
        0.10674375295639038, 
        0.4799501597881317, 
        -0.09302392601966858, 
        0.010398952290415764, 
        0.004433410707861185, 
        0.052632108330726624, 
        -0.08924597501754761, 
        0.22022601962089539, 
        -0.004084508866071701, 
        -0.09307119250297546, 
        -0.24674342572689056, 
        -0.04367462545633316, 
        -0.19821347296237946, 
        0.32700660824775696, 
        0.3763943910598755, 
        0.09330929070711136, 
        0.27742502093315125, 
        -0.6105776429176331, 
        0.0737699642777443, 
        -0.16704747080802917, 
        0.017326535657048225, 
        0.10766389220952988, 
        0.10075179487466812, 
        0.45815905928611755, 
        0.12781494855880737, 
        -0.060589130967855453, 
        -0.11686976253986359, 
        -0.18350286781787872, 
        -0.2600373923778534, 
        -0.02165420725941658, 
        0.11504760384559631, 
        0.8566065430641174, 
        -0.21560727059841156, 
        -1.6795748472213745, 
        0.9385457038879395, 
        1.6992601156234741, 
        -0.19031205773353577, 
        0.6011257171630859, 
        -0.4190446436405182, 
        -0.07391811907291412, 
        -0.440668523311615, 
        0.039277222007513046, 
        -1.3952034711837769, 
        -0.034439265727996826, 
        0.9208801984786987, 
        -0.00916486606001854, 
        -0.4460581839084625, 
        -0.6832392811775208, 
        0.0019334278767928481, 
        -0.12097324430942535, 
        -0.4411574900150299, 
        -0.3232865035533905, 
        -0.7574499845504761, 
        0.6132847666740417, 
        -0.49160823225975037, 
        1.8455266952514648, 
        0.10488820821046829, 
        -0.16607265174388885, 
        0.66802978515625, 
        -3.219087839126587, 
        -0.7563566565513611, 
        -0.0028535749297589064, 
        1.5138764381408691, 
        0.7800865769386292, 
        -0.46791043877601624, 
        -0.06381893157958984, 
        0.4273158609867096, 
        -0.4470141530036926, 
        -0.10460077226161957, 
        0.7511036396026611, 
        2.261410713195801, 
        0.4697493314743042, 
        0.055961400270462036, 
        1.2022078037261963, 
        -0.18274137377738953, 
        -0.2167026698589325, 
        -0.8842348456382751, 
        -0.047549113631248474, 
        -0.2173558473587036, 
        0.011812098324298859, 
        0.5791716575622559, 
        -0.8837189674377441, 
        -0.5488954782485962, 
        -0.024043569341301918, 
        -0.12173479795455933, 
        1.177259087562561, 
        -1.44535493850708, 
        -1.0925536155700684, 
        2.4623067378997803, 
        -0.18720929324626923, 
        0.2370094507932663, 
        0.5641331672668457, 
        2.142333507537842, 
        -1.6789547204971313, 
        0.06596501171588898, 
        -0.05353475362062454, 
        1.139280915260315, 
        -1.3734122514724731, 
        -0.2957310676574707, 
        -0.5680341720581055, 
        -0.16954368352890015, 
        -2.6436283588409424, 
        -0.024245498701930046, 
        1.838293194770813, 
        -0.008783909492194653, 
        -0.2825240194797516, 
        0.747414231300354, 
        -0.027554262429475784, 
        -0.9114344120025635, 
        0.8446990251541138, 
        -0.7248440384864807, 
        0.07045464962720871, 
        -1.2622907161712646, 
        0.6961351037025452, 
        -2.0516200065612793, 
        -0.08750084042549133, 
        0.027393491938710213, 
        1.2879412174224854, 
        -2.0365867614746094, 
        -0.06593695282936096, 
        -0.27333760261535645, 
        2.340503454208374, 
        -2.619659185409546, 
        1.0864121913909912, 
        -0.007491274271160364, 
        0.2748315930366516, 
        2.090949773788452, 
        2.8864011764526367, 
        1.7171099185943604, 
        -0.8662588596343994, 
        -0.10639391094446182, 
        -0.5987358689308167, 
        -0.2799328863620758, 
        -0.32555100321769714, 
        0.002524335402995348, 
        -1.079973578453064, 
        -0.07451611757278442, 
        0.10490509867668152, 
        1.7537143230438232, 
        -0.20997872948646545, 
        -0.5188646912574768, 
        1.0823806524276733, 
        -1.383170247077942, 
        -0.16062451899051666, 
        -0.5923359990119934, 
        -2.5134053230285645, 
        -0.009359601885080338, 
        -0.2538963854312897, 
        -0.3475421667098999, 
        0.08023606240749359, 
        -0.019025394693017006, 
        1.7223317623138428, 
        -0.10473398119211197, 
        0.2170078456401825, 
        -0.03791246563196182, 
        1.8129236698150635, 
        1.1017296314239502, 
        0.21251076459884644, 
        0.040505196899175644, 
        2.377230167388916, 
        -0.21602988243103027, 
        0.40855488181114197, 
        0.16580793261528015, 
        0.783231794834137, 
        -0.05462639033794403, 
        -0.1316114068031311, 
        -0.11749894171953201, 
        -0.09007100015878677, 
        0.0948445051908493, 
        -0.02345939725637436, 
        -0.04585126042366028, 
        0.013750412501394749, 
        0.1472579389810562, 
        -0.1408776193857193, 
        -0.23663540184497833, 
        -0.005356110632419586, 
        0.06536674499511719, 
        -0.10500746965408325, 
        -0.11040006577968597, 
        -0.162782222032547, 
        -0.11753597855567932, 
        0.2515857517719269, 
        0.2193370908498764, 
        1.0638346672058105, 
        -0.01179412379860878, 
        0.07278474420309067, 
        0.31852981448173523, 
        -2.3689894676208496, 
        -0.023658612743020058, 
        -0.17215490341186523, 
        1.0762563943862915, 
        0.10307025164365768, 
        -0.08308626711368561, 
        -0.046849459409713745, 
        0.13432079553604126, 
        0.0159353818744421, 
        -0.09558143466711044, 
        0.3711339235305786, 
        0.8157026171684265, 
        -0.039647385478019714, 
        -0.1103239580988884, 
        0.1738779991865158, 
        -0.2230936735868454, 
        -0.0785452276468277, 
        -0.0013316906988620758, 
        -0.14094361662864685, 
        -0.09848801046609879, 
        -0.09116851538419724, 
        -0.10121309757232666, 
        0.02944769710302353, 
        -0.0034685316495597363, 
        -0.2416890263557434, 
        -0.08875278383493423, 
        0.5459188222885132, 
        1.679961085319519, 
        0.10572978109121323, 
        0.5432136058807373, 
        -0.1002989187836647, 
        -0.05165490880608559, 
        0.012366746552288532, 
        0.5585556030273438, 
        -1.4083211421966553, 
        0.08520013093948364, 
        0.08241061121225357, 
        0.004952160641551018, 
        0.34075605869293213, 
        -0.20129802823066711, 
        -0.7965816259384155, 
        -0.14775976538658142, 
        -1.8629810810089111, 
        -0.12807920575141907, 
        1.8961162567138672, 
        -0.15299130976200104, 
        -0.13092868030071259, 
        -0.24549177289009094, 
        -0.14719243347644806, 
        0.6179786920547485, 
        0.6229395866394043, 
        0.4723874628543854, 
        -0.16189664602279663, 
        -0.1959286630153656, 
        0.11005004495382309, 
        -1.2893743515014648, 
        0.04816483333706856, 
        -0.07014918327331543, 
        0.9893339276313782, 
        0.28703829646110535, 
        0.17347851395606995, 
        0.006106315180659294, 
        1.6491345167160034, 
        -1.9373416900634766, 
        0.23599477112293243, 
        -0.09206214547157288, 
        2.007627248764038, 
        2.1037356853485107, 
        1.070180892944336, 
        0.5663900971412659, 
        0.608765184879303, 
        0.03194379806518555, 
        0.004565587732940912, 
        -0.14765669405460358, 
        0.08265163749456406, 
        -0.2053470015525818, 
        -0.02543872967362404, 
        -0.05401671305298805, 
        0.07857660204172134, 
        -0.14722204208374023, 
        -0.12407070398330688, 
        -0.3869321644306183, 
        1.4032483100891113, 
        0.09613034874200821, 
        -0.09712167084217072, 
        0.24172712862491608, 
        -2.149888038635254, 
        0.07620923966169357, 
        -0.16262200474739075, 
        0.021562539041042328, 
        -0.1174466535449028, 
        0.004824415314942598, 
        1.342764139175415, 
        0.0423465371131897, 
        0.004879218526184559, 
        -0.04829132556915283, 
        1.6311781406402588, 
        -0.2244594544172287, 
        -0.051012225449085236, 
        -0.029766617342829704, 
        0.6093325018882751, 
        -1.6207246780395508, 
        1.270591139793396, 
        0.0504387766122818, 
        1.1944078207015991, 
        0.00477025518193841, 
        0.08881078660488129, 
        0.08822982758283615, 
        0.116156667470932, 
        0.8918446898460388, 
        0.15459856390953064, 
        0.3181852102279663, 
        -0.14403611421585083, 
        0.08818420767784119, 
        -0.6262299418449402, 
        -0.28867587447166443, 
        -0.04481697827577591, 
        0.2689092457294464, 
        0.12884868681430817, 
        0.28379690647125244, 
        0.177460715174675, 
        0.0593206025660038, 
        0.32835501432418823, 
        0.872021496295929, 
        0.7617458701133728, 
        0.09040763229131699, 
        0.04448562487959862, 
        0.21674954891204834, 
        1.7065553665161133, 
        0.35499319434165955, 
        0.11199121922254562, 
        0.6414293646812439, 
        0.45848506689071655, 
        -0.10098855197429657, 
        0.0939035564661026, 
        -0.07147448509931564, 
        -0.11613719910383224, 
        -0.1114351749420166, 
        -0.09059499949216843, 
        0.41197291016578674, 
        -0.19185090065002441, 
        -0.07916031032800674, 
        0.7774993181228638, 
        -0.16923637688159943, 
        -1.3167526721954346, 
        0.3592364192008972, 
        0.324349045753479, 
        -0.08951641619205475, 
        0.08508988469839096, 
        -0.004256551153957844, 
        1.6585474014282227, 
        0.11623051017522812, 
        -0.02660171501338482, 
        -0.41862764954566956, 
        -0.2304507941007614, 
        0.8943634033203125, 
        1.5789427757263184, 
        1.5359958410263062, 
        0.022684121504426003, 
        -0.1728775054216385, 
        0.043396957218647, 
        1.8958977460861206, 
        1.840549349784851, 
        0.016627229750156403, 
        0.12666545808315277, 
        0.5177386403083801, 
        0.7917993664741516, 
        0.17368686199188232, 
        1.3939321041107178, 
        0.07750608772039413, 
        1.4667836427688599, 
        -1.9562389850616455, 
        0.9392516613006592, 
        0.282956063747406, 
        -0.49432429671287537, 
        -0.009191131219267845, 
        -0.05525731295347214, 
        0.18384449183940887, 
        0.3903733193874359, 
        0.3958657681941986, 
        -0.1514156460762024, 
        0.22555838525295258, 
        0.6892508864402771, 
        1.2973568439483643, 
        -0.15545020997524261, 
        0.0009586389642208815, 
        0.7013635635375977, 
        1.3175934553146362, 
        -1.6413921117782593, 
        0.16029636561870575, 
        1.3577311038970947, 
        1.696653962135315, 
        0.5472434759140015, 
        1.420104742050171, 
        1.1761432886123657, 
        0.8654686212539673, 
        1.1726666688919067, 
        1.1230971813201904, 
        0.5564282536506653, 
        -0.06538253277540207, 
        1.628125548362732, 
        -0.06295929849147797, 
        -0.6132320165634155, 
        0.15062446892261505, 
        0.2407582402229309, 
        0.007626221049576998, 
        -0.07881050556898117, 
        1.2500532865524292, 
        -0.38919323682785034, 
        -0.25818637013435364, 
        -0.033022671937942505, 
        -0.0005619032890535891, 
        0.08633194118738174, 
        0.22079098224639893, 
        1.68283212184906, 
        -1.75332510471344, 
        0.010323241353034973, 
        0.4709039628505707, 
        -0.05074387416243553, 
        -0.025124823674559593, 
        0.8447423577308655, 
        0.0035742917098104954, 
        -0.015769457444548607, 
        -0.21733301877975464, 
        0.9665896892547607, 
        -0.29445210099220276, 
        -0.08113052695989609, 
        0.0494278222322464, 
        2.261864423751831, 
        -0.03705809637904167, 
        0.4827483594417572, 
        0.14426736533641815, 
        0.7415781617164612, 
        0.010682813823223114, 
        0.170690655708313, 
        0.1590537130832672, 
        0.002328230068087578, 
        0.7421601414680481, 
        0.001386386575177312, 
        -0.6449093222618103, 
        -0.1832543909549713, 
        0.24777443706989288, 
        0.16450375318527222, 
        -0.3093705177307129, 
        -0.042612042278051376, 
        0.0800347626209259, 
        -0.11486812680959702, 
        -0.2983578145503998, 
        -0.0714903175830841, 
        -0.12604205310344696, 
        0.6146427989006042, 
        -0.059180211275815964, 
        0.8930948972702026, 
        0.04125579074025154, 
        -0.16439510881900787, 
        0.9888159036636353, 
        -3.1686460971832275, 
        -0.07261698693037033, 
        -0.003088137833401561, 
        0.6934155225753784, 
        0.3689373731613159, 
        0.06876181811094284, 
        -0.06765385717153549, 
        0.18343010544776917, 
        -0.16365914046764374, 
        -0.10786228626966476, 
        0.5291345715522766, 
        0.9481824040412903, 
        -0.08812274783849716, 
        -0.11774928122758865, 
        0.6045940518379211, 
        -0.23460519313812256, 
        0.10493984073400497, 
        -0.41670116782188416, 
        -0.04779348894953728, 
        -0.2625651955604553, 
        0.04806208610534668, 
        -0.17526915669441223, 
        -0.08297748863697052, 
        -0.27333664894104004, 
        -0.1515844315290451, 
        0.02488606423139572, 
        0.3361089527606964, 
        1.3833839893341064, 
        -0.9137588739395142, 
        0.5392510294914246, 
        0.012254561297595501, 
        -0.03942503407597542, 
        0.4237649440765381, 
        -0.5439407825469971, 
        -2.4172394275665283, 
        -0.0757836252450943, 
        -0.057566169649362564, 
        0.25674113631248474, 
        0.10042057931423187, 
        -0.2078094482421875, 
        -2.022735357284546, 
        -0.15414690971374512, 
        -2.5645885467529297, 
        -0.11096395552158356, 
        1.6016080379486084, 
        -0.062338948249816895, 
        -0.08488694578409195, 
        -0.18911294639110565, 
        0.020085137337446213, 
        0.7695996165275574, 
        0.1395309865474701, 
        0.35948535799980164, 
        -0.12283679097890854, 
        0.29012531042099, 
        0.9692754149436951, 
        -2.1311347484588623, 
        -0.08608562499284744, 
        0.02395322173833847, 
        0.8322561979293823, 
        0.09429474174976349, 
        0.15955764055252075, 
        -0.15550510585308075, 
        0.1278337836265564, 
        -2.7265257835388184, 
        0.644187331199646, 
        -0.11038560420274734, 
        1.645890474319458, 
        1.5448278188705444, 
        1.9339970350265503, 
        0.6583349704742432, 
        1.0218441486358643, 
        -0.1977349817752838, 
        -0.23462878167629242, 
        0.044297955930233, 
        0.0830647274851799, 
        -0.21096369624137878, 
        -0.13198694586753845, 
        -0.15500420331954956, 
        -0.13976891338825226, 
        -0.21032944321632385, 
        0.05965517461299896, 
        -0.22777330875396729, 
        1.178722858428955, 
        -0.13315285742282867, 
        -0.0637752115726471, 
        -0.15182548761367798, 
        -3.1163671016693115, 
        0.12055443227291107, 
        -0.1033668965101242, 
        -0.25510373711586, 
        0.11846397072076797, 
        0.05133603885769844, 
        1.5951895713806152, 
        0.17979276180267334, 
        0.20230267941951752, 
        -0.04074840247631073, 
        2.247380018234253, 
        0.8258830904960632, 
        0.11281692981719971, 
        -0.0751885399222374, 
        -0.21358206868171692, 
        0.10650449991226196, 
        1.9877945184707642, 
        -0.5881989002227783, 
        -0.673558235168457, 
        0.07041241973638535, 
        -0.018292909488081932, 
        0.06583376973867416, 
        0.018635600805282593, 
        1.6760132312774658, 
        -0.07664617151021957, 
        -0.13613788783550262, 
        -0.03527582809329033, 
        -0.1392541229724884, 
        0.06477289646863937, 
        -0.554554283618927, 
        -0.1468667834997177, 
        0.15110458433628082, 
        -0.10574564337730408, 
        0.08090579509735107, 
        0.03606882318854332, 
        0.03819164261221886, 
        0.24917533993721008, 
        0.054611045867204666, 
        -0.676683783531189, 
        0.015814313665032387, 
        0.16986797749996185, 
        0.26256799697875977, 
        -2.253181219100952, 
        0.06707045435905457, 
        -0.05829837918281555, 
        0.5075457096099854, 
        -0.7814167737960815, 
        -0.011580074205994606, 
        -0.15271615982055664, 
        -0.08891820162534714, 
        -0.010084638372063637, 
        0.01868431828916073, 
        -0.5278473496437073, 
        -0.9619596004486084, 
        -0.36540886759757996, 
        0.020136404782533646, 
        0.7123237252235413, 
        0.09360557049512863, 
        0.08470483869314194, 
        0.01404596772044897, 
        0.046702854335308075, 
        -0.05347294360399246, 
        0.28845301270484924, 
        -0.06262876838445663, 
        0.07359275221824646, 
        0.1340516060590744, 
        0.17587770521640778, 
        -0.03306591138243675, 
        -1.0947668552398682, 
        2.9364559650421143, 
        -0.06620147824287415, 
        0.34875422716140747, 
        -0.030815334990620613, 
        -0.03343053162097931, 
        -0.061466462910175323, 
        0.849388599395752, 
        -1.7818853855133057, 
        -0.09687922894954681, 
        -0.13184957206249237, 
        -0.7584973573684692, 
        -0.5033509731292725, 
        0.06052922457456589, 
        -1.2343398332595825, 
        0.11252308636903763, 
        -2.445906400680542, 
        0.11537890136241913, 
        -0.4316960573196411, 
        -0.11051524430513382, 
        0.1204400435090065, 
        -0.08784661442041397, 
        0.1487518548965454, 
        1.004695177078247, 
        -0.3290676474571228, 
        0.18489429354667664, 
        0.11788108199834824, 
        1.7563133239746094, 
        -0.4432440400123596, 
        -0.44794902205467224, 
        0.14875870943069458, 
        0.13774672150611877, 
        -0.7131380438804626, 
        0.952791154384613, 
        -0.06633982807397842, 
        0.13646529614925385, 
        1.2386354207992554, 
        -2.30035400390625, 
        0.22730854153633118, 
        -0.003142090979963541, 
        1.6934221982955933, 
        -0.7366542816162109, 
        0.9511435627937317, 
        -0.46872490644454956, 
        1.317498803138733, 
        -0.02927715703845024, 
        0.16187933087348938, 
        0.17993316054344177, 
        0.11236809194087982, 
        0.055173471570014954, 
        0.17685282230377197, 
        0.0860544741153717, 
        -0.06424406915903091, 
        -0.6029332876205444, 
        0.019028978422284126, 
        0.0842469185590744, 
        -0.49778610467910767, 
        0.2492516189813614, 
        -0.010767383500933647, 
        0.03029613383114338, 
        -2.385096788406372, 
        0.08704609423875809, 
        0.015929732471704483, 
        0.025382937863469124, 
        -0.0005794795579276979, 
        0.15106068551540375, 
        0.6972183585166931, 
        0.1558208167552948, 
        0.12547087669372559, 
        0.35226213932037354, 
        0.08897717297077179, 
        0.10330794006586075, 
        -0.18986819684505463, 
        -0.016274506226181984, 
        1.6860700845718384, 
        -0.09500670433044434, 
        0.08928250521421432, 
        0.5446334481239319, 
        1.3853483200073242, 
        -0.10130169987678528, 
        0.24960605800151825, 
        0.15739181637763977, 
        -0.1750287115573883, 
        -0.876984179019928, 
        -0.037040237337350845, 
        -0.12628595530986786, 
        -0.20075654983520508, 
        0.3345829248428345, 
        -0.0923466831445694, 
        -0.3327479958534241, 
        -0.2564827799797058, 
        0.0818181186914444, 
        -0.1284811645746231, 
        0.018546996638178825, 
        -0.0657494068145752, 
        -0.25723305344581604, 
        0.551744818687439, 
        -0.10318085551261902, 
        0.8451124429702759, 
        -0.005777307786047459, 
        -0.09159038215875626, 
        0.93482506275177, 
        -2.5698983669281006, 
        0.004750843159854412, 
        -0.20139221847057343, 
        1.365896463394165, 
        1.0720211267471313, 
        -0.015469105914235115, 
        0.023201216012239456, 
        0.15811903774738312, 
        -0.1414550095796585, 
        -0.09887424856424332, 
        0.6897120475769043, 
        1.8565425872802734, 
        0.39847126603126526, 
        0.06498312205076218, 
        0.6289767622947693, 
        -0.08049537986516953, 
        0.1303398758172989, 
        -0.15850938856601715, 
        -0.18283489346504211, 
        -0.01928502880036831, 
        -0.052719034254550934, 
        0.14464931190013885, 
        0.9790226817131042, 
        -0.3335408568382263, 
        -0.07756809145212173, 
        -0.19670039415359497, 
        0.5447585582733154, 
        0.9998198747634888, 
        -0.6293096542358398, 
        2.1838107109069824, 
        -0.1186956837773323, 
        -0.13409440219402313, 
        0.1484834998846054, 
        2.2654454708099365, 
        -2.347092628479004, 
        -0.11483915150165558, 
        -0.045282766222953796, 
        1.0547107458114624, 
        0.4386199116706848, 
        0.002538455417379737, 
        -0.8336432576179504, 
        -0.041318491101264954, 
        -2.430194139480591, 
        -0.09834874421358109, 
        1.4721685647964478, 
        -0.07180886715650558, 
        -0.07242455333471298, 
        -0.022747380658984184, 
        -0.09020036458969116, 
        0.7185143828392029, 
        0.9031973481178284, 
        -0.5106877684593201, 
        -0.23949284851551056, 
        -0.47354647517204285, 
        1.8162332773208618, 
        -1.565889835357666, 
        -0.1694130003452301, 
        -0.005863361060619354, 
        1.3307749032974243, 
        0.21014945209026337, 
        0.0076027135364711285, 
        0.06423061341047287, 
        2.3402786254882812, 
        -2.664754867553711, 
        0.9089753031730652, 
        0.07729495316743851, 
        1.6645950078964233, 
        2.143117904663086, 
        2.224614381790161, 
        1.4714105129241943, 
        0.01340892817825079, 
        -0.1029081866145134, 
        1.0807727575302124, 
        -0.04168117046356201, 
        0.04684535413980484, 
        -0.1486019790172577, 
        0.10979176312685013, 
        -0.2092304527759552, 
        -0.023030513897538185, 
        0.6266500353813171, 
        -0.022257421165704727, 
        -0.09248319268226624, 
        0.9148809313774109, 
        -0.06138075515627861, 
        -0.2607392370700836, 
        0.007993044331669807, 
        -2.399630546569824, 
        0.12009955942630768, 
        -0.1451096385717392, 
        -0.09732173383235931, 
        0.02171621471643448, 
        -0.125539630651474, 
        1.913759708404541, 
        0.06970834732055664, 
        0.06641067564487457, 
        0.15696506202220917, 
        1.986659049987793, 
        0.32054081559181213, 
        -0.12355045229196548, 
        0.07832317054271698, 
        1.180804967880249, 
        -0.39412522315979004, 
        0.46159934997558594, 
        0.6001108288764954, 
        1.1123509407043457, 
        -0.04796764627099037, 
        -0.048402588814496994, 
        0.0656009316444397, 
        -0.07753954827785492, 
        1.1120789051055908, 
        0.2443571239709854, 
        0.6125181913375854, 
        -0.17922766506671906, 
        -0.15492020547389984, 
        -0.119996078312397, 
        0.15427133440971375, 
        0.005794238764792681, 
        0.6215096116065979, 
        0.1393236517906189, 
        -0.09088687598705292, 
        0.04657604917883873, 
        0.21707434952259064, 
        0.07734566181898117, 
        0.920630931854248, 
        1.0426799058914185, 
        0.030627606436610222, 
        0.3320568799972534, 
        0.15087315440177917, 
        1.169831395149231, 
        0.44726666808128357, 
        0.07626455277204514, 
        1.3987122774124146, 
        0.5404488444328308, 
        -0.1305898278951645, 
        -0.020931752398610115, 
        0.08457008004188538, 
        -0.04067957401275635, 
        0.07813366502523422, 
        0.1263647824525833, 
        1.2479604482650757, 
        -0.12438324093818665, 
        -0.08779346942901611, 
        0.6655964255332947, 
        -0.1456056833267212, 
        -1.2517812252044678, 
        0.39816993474960327, 
        0.2982431650161743, 
        -0.13710564374923706, 
        0.07537735998630524, 
        -0.0484832301735878, 
        0.43040144443511963, 
        -0.04452440142631531, 
        0.0004001928900834173, 
        -1.0518200397491455, 
        0.4672381281852722, 
        1.0173689126968384, 
        0.25588110089302063, 
        1.775429368019104, 
        0.04989421367645264, 
        0.053605690598487854, 
        -0.23635749518871307, 
        1.6128348112106323, 
        1.296480417251587, 
        0.03363880142569542, 
        0.052629563957452774, 
        0.6155089139938354, 
        -0.2958154082298279, 
        0.33935675024986267, 
        1.1266844272613525, 
        -0.1358160674571991, 
        1.3088849782943726, 
        -1.4271965026855469, 
        1.2124289274215698, 
        0.05513010919094086, 
        -0.32570379972457886, 
        0.05890662968158722, 
        -0.09301479160785675, 
        0.14866019785404205, 
        -0.09385090321302414, 
        0.6671955585479736, 
        -0.11710648238658905, 
        0.1003279760479927, 
        1.088089942932129, 
        0.6716448664665222, 
        0.13317184150218964, 
        0.1273747831583023, 
        1.1245700120925903, 
        1.4407304525375366, 
        -1.0452817678451538, 
        0.18664692342281342, 
        1.116287350654602, 
        1.2739893198013306, 
        0.5898405909538269, 
        0.32322120666503906, 
        0.39745470881462097, 
        1.6462820768356323, 
        1.7939776182174683, 
        1.1024309396743774, 
        -0.007122131530195475, 
        0.10936322808265686, 
        0.5601881146430969, 
        -0.024946190416812897, 
        -1.1152400970458984, 
        -0.051017846912145615, 
        0.4949059784412384, 
        -0.12512971460819244, 
        0.0876217782497406, 
        -0.08669738471508026, 
        -0.6095019578933716, 
        -0.05923200026154518, 
        0.8400045037269592, 
        0.306266725063324, 
        -0.012983528897166252, 
        0.39305347204208374, 
        1.2607277631759644, 
        -2.149338722229004, 
        0.03181709349155426, 
        0.3752089738845825, 
        -0.04234850034117699, 
        -0.09063811600208282, 
        1.6506987810134888, 
        -0.11710687726736069, 
        -0.06383395940065384, 
        -0.2291983813047409, 
        0.998052179813385, 
        0.11051664501428604, 
        0.03760094195604324, 
        0.06386778503656387, 
        2.089866876602173, 
        -0.17945045232772827, 
        0.3495362401008606, 
        0.7426525354385376, 
        1.0727285146713257, 
        -0.1873367875814438, 
        0.12922710180282593, 
        0.11731760203838348, 
        -0.0667184591293335, 
        -0.30884259939193726, 
        0.026554232463240623, 
        -0.5186400413513184, 
        -0.12376672029495239, 
        0.2711593210697174, 
        0.057444434612989426, 
        -0.3089693486690521, 
        -0.1370510458946228, 
        0.15470841526985168, 
        -0.08510599285364151, 
        0.0009165951632894576, 
        -0.1459241658449173, 
        -0.054665666073560715, 
        0.6820278763771057, 
        0.4018784761428833, 
        1.0791029930114746, 
        -0.08327114582061768, 
        -0.10721892863512039, 
        0.7662335634231567, 
        -2.835791826248169, 
        0.03038548305630684, 
        -0.12575137615203857, 
        1.9347233772277832, 
        1.357649326324463, 
        -0.09245504438877106, 
        -0.06731441617012024, 
        0.03683321923017502, 
        -0.207426056265831, 
        -0.039117686450481415, 
        0.47178345918655396, 
        1.668044924736023, 
        0.20031143724918365, 
        0.03989023715257645, 
        0.5585188865661621, 
        -0.018353287130594254, 
        -0.26955780386924744, 
        -0.28280237317085266, 
        0.009129466488957405, 
        -0.045645810663700104, 
        -0.13918088376522064, 
        0.043018970638513565, 
        -0.014442095533013344, 
        -0.17628714442253113, 
        -0.01124755572527647, 
        0.0015726467827335, 
        0.3589610755443573, 
        0.7305279970169067, 
        -0.32608821988105774, 
        1.107529878616333, 
        -0.11768428236246109, 
        -0.12545160949230194, 
        0.15077558159828186, 
        0.6053354144096375, 
        -2.177032709121704, 
        -0.12847107648849487, 
        -0.13461171090602875, 
        0.4618694484233856, 
        0.44376540184020996, 
        -0.1642921417951584, 
        -1.1929428577423096, 
        -0.08465719223022461, 
        -2.0736851692199707, 
        -0.07761268317699432, 
        1.7494436502456665, 
        0.007054794114083052, 
        -0.02711847797036171, 
        -0.14820751547813416, 
        -0.07557376474142075, 
        0.22672875225543976, 
        0.8936952352523804, 
        0.6454064846038818, 
        0.0039693741127848625, 
        -0.09051044285297394, 
        1.0983459949493408, 
        -1.6557817459106445, 
        -0.10063803941011429, 
        -0.11060522496700287, 
        1.144720196723938, 
        0.2851679027080536, 
        -0.0569036491215229, 
        0.037074554711580276, 
        1.5290031433105469, 
        -2.539964199066162, 
        0.7363579273223877, 
        0.045616984367370605, 
        1.6105164289474487, 
        1.6088283061981201, 
        2.0479204654693604, 
        1.8347606658935547, 
        0.32524216175079346, 
        -0.0756489709019661, 
        0.03657687082886696, 
        0.0030116490088403225, 
        -0.04544856399297714, 
        -0.19095806777477264, 
        -0.2545034885406494, 
        0.03197894245386124, 
        -0.08023861050605774, 
        -0.05801655352115631, 
        -0.10319430381059647, 
        -0.21491657197475433, 
        1.1338069438934326, 
        0.7709786295890808, 
        -0.13229075074195862, 
        0.2105529010295868, 
        -3.1734108924865723, 
        -0.14949506521224976, 
        -0.22309617698192596, 
        -0.10455141961574554, 
        -0.1704711616039276, 
        -0.04780832305550575, 
        1.767015814781189, 
        0.03373297303915024, 
        0.07027013599872589, 
        0.03212269768118858, 
        2.3516547679901123, 
        0.21979008615016937, 
        0.07872476428747177, 
        -0.07641717046499252, 
        1.2126327753067017, 
        -0.14763768017292023, 
        -1.3423006534576416, 
        0.94305419921875, 
        1.5262303352355957, 
        -0.1336737722158432, 
        0.2804991602897644, 
        -0.1681753247976303, 
        -0.061726804822683334, 
        -0.4306207299232483, 
        -0.02461289055645466, 
        -1.1696348190307617, 
        -0.12758074700832367, 
        0.6461419463157654, 
        -0.04549804702401161, 
        -0.4670240879058838, 
        -0.26047322154045105, 
        -0.5327056050300598, 
        -0.14947368204593658, 
        0.13788489997386932, 
        0.010051503777503967, 
        -0.44677820801734924, 
        0.8846259117126465, 
        -0.06170159578323364, 
        1.4514425992965698, 
        0.19029825925827026, 
        -0.4067128300666809, 
        0.6774058938026428, 
        -2.669487237930298, 
        -0.5137444734573364, 
        -0.28006744384765625, 
        1.7944111824035645, 
        0.6417695879936218, 
        -0.052892085164785385, 
        0.010821976698935032, 
        0.19895946979522705, 
        -0.2923409938812256, 
        -0.0758289098739624, 
        0.7625030279159546, 
        1.8511778116226196, 
        0.6596153974533081, 
        0.16213855147361755, 
        0.6323744058609009, 
        -0.043380316346883774, 
        -0.2363489717245102, 
        -0.7987534403800964, 
        -0.14800649881362915, 
        -0.32119086384773254, 
        -0.059728123247623444, 
        0.17826533317565918, 
        0.03651290386915207, 
        -0.0038537755608558655, 
        -0.3340132534503937, 
        -0.02621166966855526, 
        1.6630141735076904, 
        -0.17460428178310394, 
        -1.1310124397277832, 
        2.293491840362549, 
        0.02371116168797016, 
        0.02945779450237751, 
        0.7527531981468201, 
        2.3674230575561523, 
        -2.3632428646087646, 
        0.1501687467098236, 
        0.06513664871454239, 
        1.4339516162872314, 
        -0.9362401366233826, 
        -0.33822858333587646, 
        -1.4625308513641357, 
        -0.35672229528427124, 
        -2.4238028526306152, 
        -0.1190216913819313, 
        2.1830637454986572, 
        -0.3292732238769531, 
        0.03336251899600029, 
        0.525708019733429, 
        0.132873073220253, 
        -0.5893592834472656, 
        1.0249024629592896, 
        0.5134274959564209, 
        0.012648090720176697, 
        -1.8903322219848633, 
        0.6379911303520203, 
        -0.937800407409668, 
        -0.08648921549320221, 
        0.09403347223997116, 
        1.607426404953003, 
        -0.5513954758644104, 
        0.2640100419521332, 
        0.13783010840415955, 
        1.9495264291763306, 
        -2.330613851547241, 
        0.6174778938293457, 
        -0.3903290927410126, 
        0.5452610850334167, 
        1.8820748329162598, 
        1.4674850702285767, 
        0.8230425715446472, 
        -0.1429949253797531, 
        -0.10386114567518234, 
        0.1856592893600464, 
        -0.2936391532421112, 
        0.04433504864573479, 
        -0.0960601344704628, 
        -0.13308517634868622, 
        -0.04877123609185219, 
        -0.02672847919166088, 
        0.8566648364067078, 
        -0.15618503093719482, 
        0.3755251467227936, 
        1.5672602653503418, 
        -1.377236008644104, 
        -0.20430409908294678, 
        -0.6206240057945251, 
        -2.340618371963501, 
        -0.061891820281744, 
        -0.4698790907859802, 
        -0.30849218368530273, 
        -0.02574056014418602, 
        -0.02367829531431198, 
        1.8612475395202637, 
        -0.00795736350119114, 
        0.22580553591251373, 
        -0.3235296905040741, 
        1.5561795234680176, 
        0.7676202058792114, 
        0.052323758602142334, 
        0.03587779030203819, 
        0.23804180324077606, 
        0.058701880276203156, 
        0.6996771097183228, 
        -0.23917140066623688, 
        -0.055414628237485886, 
        -0.1353813260793686, 
        -0.24269750714302063, 
        0.028518322855234146, 
        0.05950608849525452, 
        0.9388479590415955, 
        -0.07086755335330963, 
        -0.016317417845129967, 
        -0.06168603152036667, 
        0.05039728060364723, 
        -0.06208959221839905, 
        -0.002773779910057783, 
        0.003632951993495226, 
        -0.03250310942530632, 
        -0.06722928583621979, 
        0.06265971064567566, 
        0.1080690547823906, 
        0.11483319103717804, 
        0.22252917289733887, 
        0.19861452281475067, 
        0.2285480946302414, 
        -0.04702276363968849, 
        0.1606084555387497, 
        0.051857221871614456, 
        0.04915498569607735, 
        0.2849732041358948, 
        -0.05226011201739311, 
        0.37862855195999146, 
        -0.03336062654852867, 
        0.04703710600733757, 
        0.006958195939660072, 
        -0.18433010578155518, 
        -0.005893078166991472, 
        0.07105459272861481, 
        -0.057977307587862015, 
        -0.1970541626214981, 
        -0.22747279703617096, 
        -0.0008977809920907021, 
        0.19901029765605927, 
        -0.15241198241710663, 
        -0.024200402200222015, 
        0.1363469362258911, 
        -0.09898992627859116, 
        0.12341344356536865, 
        -0.09863004088401794, 
        -0.08725441992282867, 
        0.11123751848936081, 
        -0.09943467378616333, 
        -0.04157964512705803, 
        -0.12199407815933228, 
        -0.2662569582462311, 
        1.456407070159912, 
        0.42742636799812317, 
        -0.2679566740989685, 
        0.13009192049503326, 
        0.07727339118719101, 
        -0.12306874990463257, 
        -0.25510263442993164, 
        0.3800256550312042, 
        -0.06858118623495102, 
        0.04377232864499092, 
        -0.45453840494155884, 
        0.271462082862854, 
        -0.046989329159259796, 
        0.0014169005444273353, 
        -0.09314141422510147, 
        0.03765815123915672, 
        -0.034287892282009125, 
        0.2680266201496124, 
        0.132266104221344, 
        0.11653279513120651, 
        -0.3737092912197113, 
        -0.03640113025903702, 
        0.5939872860908508, 
        -0.05266859754920006, 
        0.0747024416923523, 
        -0.03983223810791969, 
        0.738378643989563, 
        0.32195135951042175, 
        0.5056129693984985, 
        -0.03219781443476677, 
        -0.04865046218037605, 
        -0.38680171966552734, 
        1.2554694414138794, 
        -0.008332982659339905, 
        -0.0076218550093472, 
        0.04981563612818718, 
        0.10705846548080444, 
        0.18390677869319916, 
        0.15278835594654083, 
        0.966533899307251, 
        0.0546569786965847, 
        -0.3256222903728485, 
        -0.010188777931034565, 
        0.4449576139450073, 
        0.036798425018787384, 
        0.10909826308488846, 
        -0.12930846214294434, 
        0.10642271488904953, 
        0.07537692040205002, 
        0.043677810579538345, 
        -0.015259847976267338, 
        -0.05556221678853035, 
        -0.23308119177818298, 
        -0.014426975511014462, 
        -0.13326001167297363, 
        0.16993612051010132, 
        0.31841903924942017, 
        0.034971997141838074, 
        0.2705599069595337, 
        0.282812237739563, 
        0.10935299098491669, 
        -0.07989354431629181, 
        -0.0714520514011383, 
        0.06265734881162643, 
        -0.03667591139674187, 
        0.415549635887146, 
        0.17047972977161407, 
        -0.09980089217424393, 
        0.261588454246521, 
        -0.3869006037712097, 
        -0.1549028903245926, 
        0.03833678364753723, 
        0.042964693158864975, 
        0.0618794709444046, 
        -0.10955773293972015, 
        0.37369436025619507, 
        -0.29015764594078064, 
        -0.23340877890586853, 
        -0.013674677349627018, 
        -0.14358417689800262, 
        0.10326315462589264, 
        0.05386833846569061, 
        0.2047751545906067, 
        0.061688780784606934, 
        0.1129922866821289, 
        -0.1560249924659729, 
        -0.029863111674785614, 
        0.002427910454571247, 
        -0.025786912068724632, 
        -0.15516208112239838, 
        0.04732374846935272, 
        -0.026005730032920837, 
        -0.1895933300256729, 
        -0.11679685860872269, 
        0.023976236581802368, 
        0.2837323844432831, 
        -0.21803490817546844, 
        0.18286626040935516, 
        -0.0736088901758194, 
        -0.044767554849386215, 
        -0.06931307911872864, 
        -0.5315545201301575, 
        0.04573963209986687, 
        0.053944043815135956, 
        0.2130388766527176, 
        0.002280617132782936, 
        -0.018116764724254608, 
        -0.1534009873867035, 
        0.02616915851831436, 
        -0.10550146549940109, 
        -0.08516925573348999, 
        0.04079703241586685, 
        -0.22877813875675201, 
        -0.031515687704086304, 
        0.09047312289476395, 
        0.2340162992477417, 
        0.039883606135845184, 
        -0.11213453859090805, 
        -0.05276422202587128, 
        0.07881312817335129, 
        0.04118909686803818, 
        -0.02432696335017681, 
        0.03838438168168068, 
        0.024139566347002983, 
        -0.1597728133201599, 
        -0.1756884753704071, 
        0.03203219920396805, 
        -0.16206644475460052, 
        0.78071129322052, 
        0.1999671310186386, 
        -0.2875738739967346, 
        0.0022373225074261427, 
        -0.08577048033475876, 
        0.06353717297315598, 
        0.18454168736934662, 
        -0.21659575402736664, 
        -0.1382204294204712, 
        -0.1056295782327652, 
        -0.16993682086467743, 
        0.2747972309589386, 
        0.07416824996471405, 
        -0.33253175020217896, 
        0.0306459441781044, 
        -0.1920008659362793, 
        -0.15611223876476288, 
        0.4604439437389374, 
        0.03151695802807808, 
        -0.011367910541594028, 
        -0.30031201243400574, 
        -0.039277493953704834, 
        0.3205220103263855, 
        0.05862104520201683, 
        -0.08341533690690994, 
        -0.024043411016464233, 
        0.2966028153896332, 
        -0.013011444360017776, 
        -0.09904617816209793, 
        -0.0981220155954361, 
        0.0370764285326004, 
        -0.2388181835412979, 
        0.4006974697113037, 
        0.03306547924876213, 
        0.017065273597836494, 
        -0.1102379634976387, 
        -0.2098919302225113, 
        0.058450087904930115, 
        -0.08682231605052948, 
        0.9335649013519287, 
        0.1803998053073883, 
        -0.1348019242286682, 
        0.0780448243021965, 
        0.18745554983615875, 
        -0.14693428575992584, 
        0.054073236882686615, 
        -0.056085336953401566, 
        -0.1611255258321762, 
        -0.1696925163269043, 
        -0.06766565144062042, 
        -0.13456785678863525, 
        0.04496623948216438, 
        -0.2969425618648529, 
        -0.004806776065379381, 
        -0.2971543073654175, 
        0.3163614273071289, 
        0.35565856099128723, 
        -0.15332023799419403, 
        0.23537562787532806, 
        -0.1934659332036972, 
        -0.1544601172208786, 
        -0.16295307874679565, 
        0.028310591354966164, 
        0.023931624367833138, 
        0.005559238139539957, 
        0.34861111640930176, 
        0.15160758793354034, 
        0.12330273538827896, 
        0.13766805827617645, 
        -0.04000616446137428, 
        -0.24187469482421875, 
        -0.15260840952396393, 
        0.00044449360575526953, 
        1.5147172212600708, 
        -0.014064800925552845, 
        -1.0764744281768799, 
        1.4108588695526123, 
        1.8112152814865112, 
        0.16034691035747528, 
        0.4986729919910431, 
        0.09360500425100327, 
        0.045359861105680466, 
        -1.159947156906128, 
        -0.12042833864688873, 
        -0.4743293225765228, 
        0.01740879938006401, 
        0.49574777483940125, 
        0.1483520269393921, 
        0.5436642169952393, 
        -0.20725111663341522, 
        -0.2388724684715271, 
        -0.00320182996802032, 
        -0.8827406764030457, 
        -0.1390940546989441, 
        -0.001330545754171908, 
        0.6854020953178406, 
        -1.2361390590667725, 
        1.2193474769592285, 
        0.34017708897590637, 
        0.2182176411151886, 
        0.9268336892127991, 
        -2.074598550796509, 
        -0.7085495591163635, 
        -0.2359495759010315, 
        1.8545019626617432, 
        1.5596431493759155, 
        0.4227758049964905, 
        0.11950550228357315, 
        0.33255720138549805, 
        -0.06267522275447845, 
        0.17875663936138153, 
        0.7261079549789429, 
        2.1321427822113037, 
        0.5642361640930176, 
        0.3278379440307617, 
        1.3856126070022583, 
        -0.19403281807899475, 
        -0.02894006296992302, 
        0.017967592924833298, 
        0.24990563094615936, 
        -0.13145646452903748, 
        0.3725849986076355, 
        0.8471896052360535, 
        -1.9573652744293213, 
        0.24148444831371307, 
        -0.28489843010902405, 
        -0.042313553392887115, 
        1.4108401536941528, 
        -0.9284186363220215, 
        -0.63387531042099, 
        2.5974345207214355, 
        0.043135110288858414, 
        0.1617942750453949, 
        0.12236594408750534, 
        2.4839932918548584, 
        -2.016279458999634, 
        0.12772861123085022, 
        -0.12606406211853027, 
        1.3830835819244385, 
        -0.7910812497138977, 
        0.21194830536842346, 
        -0.7319716811180115, 
        -0.1631084382534027, 
        -2.097180128097534, 
        -0.15220221877098083, 
        1.4979809522628784, 
        -0.11565064638853073, 
        -0.3221443295478821, 
        0.5924327969551086, 
        -0.18096022307872772, 
        -0.9128711223602295, 
        1.110094666481018, 
        0.1416996717453003, 
        0.03305262699723244, 
        -1.7705051898956299, 
        1.8696762323379517, 
        -0.4991775453090668, 
        -0.14062590897083282, 
        0.24463766813278198, 
        1.5136160850524902, 
        -1.6453728675842285, 
        0.2055366486310959, 
        -0.0004924890235997736, 
        2.408412456512451, 
        -2.3157548904418945, 
        0.7816604375839233, 
        -0.9505609273910522, 
        -1.0254297256469727, 
        2.5250236988067627, 
        2.2090811729431152, 
        1.784019947052002, 
        -0.8531884551048279, 
        -0.1955484300851822, 
        -1.1460458040237427, 
        -0.20653903484344482, 
        -0.17397469282150269, 
        -0.1647423654794693, 
        -0.5358614921569824, 
        0.11756452918052673, 
        0.1366642415523529, 
        1.0387341976165771, 
        0.11692915111780167, 
        0.5326681733131409, 
        1.502581238746643, 
        -0.9348775744438171, 
        0.22634589672088623, 
        -0.8628666996955872, 
        -1.7351269721984863, 
        -0.25885313749313354, 
        0.009961739182472229, 
        -0.4073241949081421, 
        0.30847156047821045, 
        0.0009615930030122399, 
        1.6931456327438354, 
        -0.3348056674003601, 
        0.38900265097618103, 
        -0.1393638402223587, 
        2.0900065898895264, 
        0.7468389868736267, 
        0.691831111907959, 
        -0.08443370461463928, 
        0.07059934735298157, 
        0.06883387267589569, 
        0.28215378522872925, 
        -0.3081746995449066, 
        -0.22092577815055847, 
        0.0818384513258934, 
        0.04532407969236374, 
        -0.04508417844772339, 
        -0.07672937959432602, 
        0.28951698541641235, 
        -0.02846473827958107, 
        -0.10539441555738449, 
        -0.11317162215709686, 
        -0.19482675194740295, 
        -0.043434273451566696, 
        -0.018214058130979538, 
        -0.2121105194091797, 
        0.14852525293827057, 
        0.018179643899202347, 
        0.09039824455976486, 
        -0.06218475475907326, 
        -0.016286183148622513, 
        0.028809424489736557, 
        -0.0600125789642334, 
        0.40155383944511414, 
        0.047284964472055435, 
        -0.05183606594800949, 
        -0.03276662155985832, 
        -0.4797080159187317, 
        -0.019131207838654518, 
        -0.02073480561375618, 
        0.1332605481147766, 
        0.11865781992673874, 
        0.0855853334069252, 
        -0.14308394491672516, 
        0.07486516982316971, 
        0.06560709327459335, 
        -0.11163834482431412, 
        0.00039755809120833874, 
        0.017550744116306305, 
        -0.033998385071754456, 
        -0.007582209538668394, 
        0.26572370529174805, 
        0.10201823711395264, 
        -0.1297266185283661, 
        0.0114522073417902, 
        -0.15334047377109528, 
        0.09265585243701935, 
        0.06241406500339508, 
        -0.14514167606830597, 
        -0.02928023412823677, 
        0.06269440799951553, 
        -0.16964158415794373, 
        -0.14138509333133698, 
        -0.08009736984968185, 
        0.9985336661338806, 
        0.11618650704622269, 
        -0.19651368260383606, 
        -0.14379163086414337, 
        0.01724867708981037, 
        -0.07755133509635925, 
        0.17679397761821747, 
        -0.12081867456436157, 
        0.038203656673431396, 
        -0.15244200825691223, 
        -0.36912521719932556, 
        0.05121690779924393, 
        -0.12339002639055252, 
        -0.40771180391311646, 
        0.01107416395097971, 
        -0.4057143032550812, 
        0.08519122749567032, 
        0.569789707660675, 
        0.014458156190812588, 
        0.08660888671875, 
        -0.09690694510936737, 
        -0.08316555619239807, 
        0.35513031482696533, 
        0.29134729504585266, 
        0.1254717856645584, 
        -0.07791519910097122, 
        0.22898635268211365, 
        0.06506762653589249, 
        0.08899106830358505, 
        -0.055021125823259354, 
        -0.06357411295175552, 
        -0.3144029974937439, 
        0.4551364779472351, 
        -0.09301988035440445, 
        0.051386117935180664, 
        -0.018833572044968605, 
        -0.4115832448005676, 
        0.1149514764547348, 
        0.12887580692768097, 
        1.1876609325408936, 
        0.3314493000507355, 
        -0.188894122838974, 
        0.04233516752719879, 
        0.41369614005088806, 
        0.009617132134735584, 
        0.0713401585817337, 
        0.07940246909856796, 
        0.10475486516952515, 
        0.057978443801403046, 
        0.09530846029520035, 
        -0.006969882175326347, 
        -0.06821142137050629, 
        -0.21539972722530365, 
        -0.13336555659770966, 
        -0.0915011316537857, 
        0.3306020200252533, 
        0.3325636088848114, 
        0.08431059122085571, 
        0.176407128572464, 
        -0.283485472202301, 
        0.08327095210552216, 
        -0.14370474219322205, 
        0.04686127230525017, 
        -0.08921748399734497, 
        -0.10438840091228485, 
        0.5241550803184509, 
        0.22969171404838562, 
        0.14436845481395721, 
        -0.021113544702529907, 
        -0.2559073567390442, 
        -0.27598410844802856, 
        -0.0672028660774231, 
        -0.03514767810702324, 
        0.6109554767608643, 
        0.19858995079994202, 
        0.4324757754802704, 
        -0.21165521442890167, 
        -0.16940712928771973, 
        -0.022204745560884476, 
        0.05001575127243996, 
        -0.009157037362456322, 
        -0.12444689869880676, 
        0.6048688292503357, 
        0.0641566589474678, 
        -0.18002040684223175, 
        -0.07504964619874954, 
        -0.17951764166355133, 
        0.13683006167411804, 
        -0.0707460343837738, 
        -0.04574500769376755, 
        0.149837464094162, 
        0.08854439109563828, 
        0.08045144379138947, 
        -0.10098622739315033, 
        -0.03798801079392433, 
        0.19708319008350372, 
        -0.02659185230731964, 
        1.067323088645935, 
        0.08859534561634064, 
        -0.0736856758594513, 
        0.1790928989648819, 
        -1.1930882930755615, 
        0.0228269062936306, 
        -0.1528329700231552, 
        0.5758262872695923, 
        0.2234562337398529, 
        -0.1599256545305252, 
        -0.08096057176589966, 
        0.035259731113910675, 
        -0.11390534043312073, 
        -0.05994323268532753, 
        0.004237066954374313, 
        0.04357526823878288, 
        -0.2415398210287094, 
        0.0010316857369616628, 
        0.3549279272556305, 
        -0.16261063516139984, 
        -0.03234460949897766, 
        0.11282569915056229, 
        -0.1134599968791008, 
        -0.03416050598025322, 
        -0.04165779426693916, 
        -0.14977411925792694, 
        -0.09443303197622299, 
        0.11680755019187927, 
        -0.11227729916572571, 
        -0.045074451714754105, 
        0.31345075368881226, 
        1.371258020401001, 
        -0.07931647449731827, 
        -0.02388136461377144, 
        0.05440521612763405, 
        -0.17744190990924835, 
        -0.10182937979698181, 
        0.024259187281131744, 
        -0.4786646366119385, 
        -0.12914568185806274, 
        0.04607496038079262, 
        -0.33406001329421997, 
        0.34239181876182556, 
        -0.01667727902531624, 
        -0.5296009182929993, 
        -0.10089623928070068, 
        -0.8898665904998779, 
        0.11016210168600082, 
        1.2835789918899536, 
        0.05007427930831909, 
        0.04761042445898056, 
        -0.3077649772167206, 
        -0.13428272306919098, 
        0.5279284119606018, 
        0.1410783976316452, 
        0.08464603126049042, 
        -0.11325529217720032, 
        0.5253617167472839, 
        0.35455581545829773, 
        -0.3619447648525238, 
        0.07045852392911911, 
        0.028638146817684174, 
        -0.3347598910331726, 
        0.7349879741668701, 
        -0.08664024621248245, 
        -0.12147272378206253, 
        0.6223692893981934, 
        -0.906941294670105, 
        0.21593552827835083, 
        0.08230173587799072, 
        1.6005021333694458, 
        1.0282948017120361, 
        -0.1258731186389923, 
        0.37859782576560974, 
        0.7722823023796082, 
        0.09540262818336487, 
        -0.0001862380449892953, 
        -0.07240492105484009, 
        -0.07839677482843399, 
        -0.12329290807247162, 
        -0.04830221086740494, 
        0.03263969346880913, 
        0.045121241360902786, 
        -0.2897655665874481, 
        0.017111867666244507, 
        -0.05509968101978302, 
        1.1834831237792969, 
        0.11869926005601883, 
        -0.0991998240351677, 
        0.1152755469083786, 
        -0.8729281425476074, 
        -0.028183653950691223, 
        -0.08012142032384872, 
        0.06095941364765167, 
        -0.06876962631940842, 
        -0.05658020079135895, 
        0.6028465628623962, 
        0.10225776582956314, 
        -0.10346156358718872, 
        0.0679979920387268, 
        0.25665605068206787, 
        -0.2982739806175232, 
        -0.07970532774925232, 
        0.06087564677000046, 
        0.2810308635234833, 
        0.2153768241405487, 
        0.4824734628200531, 
        -0.33354809880256653, 
        -0.3542267382144928, 
        -0.17496438324451447, 
        0.014241699129343033, 
        0.13493028283119202, 
        -0.06401035934686661, 
        0.6395122408866882, 
        -0.0198289155960083, 
        -0.0760946273803711, 
        -0.00201137806288898, 
        0.1319628655910492, 
        0.11339268088340759, 
        -0.1799921691417694, 
        0.07134074717760086, 
        0.16526927053928375, 
        -0.0012434172676876187, 
        -0.12985505163669586, 
        -0.039688561111688614, 
        0.0545862577855587, 
        0.09269142895936966, 
        -0.080149807035923, 
        0.17814816534519196, 
        0.09089252352714539, 
        -0.06326983869075775, 
        0.026108622550964355, 
        -0.7069591879844666, 
        0.10598769783973694, 
        -0.0649913102388382, 
        0.5216434597969055, 
        -0.13178704679012299, 
        -0.14742277562618256, 
        -0.09069163352251053, 
        -0.040180839598178864, 
        -0.01332759764045477, 
        0.05396757647395134, 
        0.05314777418971062, 
        -0.4931827783584595, 
        -0.09947575628757477, 
        -0.03396568447351456, 
        0.30571994185447693, 
        -0.003299353178590536, 
        0.02198861725628376, 
        -0.03370862454175949, 
        -0.12856103479862213, 
        -0.08328160643577576, 
        -0.0058515798300504684, 
        -0.15565481781959534, 
        -0.13965916633605957, 
        -0.14361780881881714, 
        -0.03537337854504585, 
        -0.0604792945086956, 
        -0.24235840141773224, 
        1.4111566543579102, 
        0.1996210664510727, 
        -0.6158474087715149, 
        0.04259495437145233, 
        -0.16593921184539795, 
        -0.12305721640586853, 
        -0.19788815081119537, 
        -0.2116946429014206, 
        0.0664636418223381, 
        0.012124923057854176, 
        -0.33063191175460815, 
        0.04877907410264015, 
        0.10919632017612457, 
        -0.5682469606399536, 
        0.08689535409212112, 
        -0.5687464475631714, 
        -0.027526866644620895, 
        0.40076619386672974, 
        0.08728794008493423, 
        0.023849280551075935, 
        -0.2896389067173004, 
        -0.012893583625555038, 
        0.5548902750015259, 
        0.038747139275074005, 
        0.00954424124211073, 
        0.07358262687921524, 
        0.6544582843780518, 
        0.1739884465932846, 
        -0.08750683814287186, 
        -0.1792568564414978, 
        -0.13113239407539368, 
        -0.1696535050868988, 
        0.7899208068847656, 
        -0.07599540799856186, 
        0.11299002170562744, 
        -0.00618504686281085, 
        -0.5089221000671387, 
        0.12303908169269562, 
        0.13657653331756592, 
        1.5222086906433105, 
        0.06239588186144829, 
        -0.16407032310962677, 
        0.06329239904880524, 
        0.22286869585514069, 
        -0.1667109578847885, 
        -0.015990251675248146, 
        -0.0818995013833046, 
        -0.14330843091011047, 
        -0.14495667815208435, 
        0.06166979670524597, 
        -0.1450977474451065, 
        -0.1394115537405014, 
        -0.3099660277366638, 
        -0.07318579405546188, 
        -0.02713504247367382, 
        0.25993111729621887, 
        0.18452636897563934, 
        -0.13064363598823547, 
        0.25893616676330566, 
        -0.4983867406845093, 
        -0.0850670114159584, 
        -0.15856827795505524, 
        -0.0164189413189888, 
        -0.05778465047478676, 
        -0.07244352251291275, 
        0.47762924432754517, 
        0.278145432472229, 
        0.10118688642978668, 
        0.08814592659473419, 
        -0.3307575583457947, 
        -0.3466280698776245, 
        -0.07768625020980835, 
        -0.15392662584781647, 
        0.3756466209888458, 
        0.05147172883152962, 
        0.45829400420188904, 
        -0.19858460128307343, 
        -0.22060032188892365, 
        -0.16000516712665558, 
        -0.037833746522665024, 
        -0.0605829581618309, 
        0.09256629645824432, 
        0.6652080416679382, 
        0.04538564383983612, 
        0.06124132126569748, 
        -0.128056600689888, 
        -0.10395783931016922, 
        0.04903583601117134, 
        0.06734461337327957, 
        0.06206421181559563, 
        -0.06837992370128632, 
        0.07861503213644028, 
        0.1353931725025177, 
        0.01605597510933876, 
        0.06584233045578003, 
        0.238152414560318, 
        -0.0705566331744194, 
        -0.015204111114144325, 
        0.1517621874809265, 
        0.15421387553215027, 
        0.1577744334936142, 
        -0.6965745687484741, 
        0.1270810216665268, 
        0.18169739842414856, 
        0.7463723421096802, 
        -0.014354703016579151, 
        -0.045410189777612686, 
        -0.08755995333194733, 
        0.11965670436620712, 
        -0.08540736138820648, 
        -0.0852411612868309, 
        -0.1462455689907074, 
        -0.4810667037963867, 
        -0.2711549699306488, 
        0.167439267039299, 
        0.7501890063285828, 
        -0.18319474160671234, 
        -0.025533095002174377, 
        0.016722753643989563, 
        0.08450715243816376, 
        0.06768941134214401, 
        0.04750814661383629, 
        -0.18984746932983398, 
        -0.07445535808801651, 
        0.04399210959672928, 
        0.10539575666189194, 
        0.02176685445010662, 
        -0.44334009289741516, 
        1.6090433597564697, 
        0.14875568449497223, 
        -0.38568753004074097, 
        0.035040635615587234, 
        -0.12341523170471191, 
        -0.1020452156662941, 
        0.2787957191467285, 
        -0.31235143542289734, 
        -0.021427784115076065, 
        -0.0012891601072624326, 
        -0.5687844157218933, 
        -0.060254063457250595, 
        0.07686419039964676, 
        -0.4692935347557068, 
        0.041469890624284744, 
        -0.5824925899505615, 
        0.03694118186831474, 
        0.35084661841392517, 
        -0.12361975759267807, 
        0.028516598045825958, 
        -0.29786401987075806, 
        -0.08601357787847519, 
        0.4541440010070801, 
        0.20879943668842316, 
        0.16901759803295135, 
        -0.08406777679920197, 
        0.22008004784584045, 
        0.6041601300239563, 
        -0.13067489862442017, 
        -0.12082796543836594, 
        -0.03933603689074516, 
        -0.3249345123767853, 
        0.7550758719444275, 
        -0.0845039039850235, 
        -0.09998384863138199, 
        -0.2288815975189209, 
        -0.49930012226104736, 
        0.432694673538208, 
        -0.03559064865112305, 
        1.8508574962615967, 
        0.10309752821922302, 
        -0.1315516084432602, 
        0.5432405471801758, 
        0.2216780185699463, 
        -0.02866952493786812, 
        0.10706707090139389, 
        -0.06487832963466644, 
        0.07439841330051422, 
        -0.04807891696691513, 
        0.16071462631225586, 
        -0.088228240609169, 
        -0.18172065913677216, 
        -0.32431164383888245, 
        -0.13867492973804474, 
        -0.11956122517585754, 
        0.14803548157215118, 
        0.23394529521465302, 
        -0.035906873643398285, 
        0.3253009617328644, 
        -0.37142935395240784, 
        0.049405988305807114, 
        -0.06173442304134369, 
        0.07559362798929214, 
        0.05366647243499756, 
        0.0005251119728200138, 
        0.7733380794525146, 
        0.022879229858517647, 
        0.08625771105289459, 
        0.23572903871536255, 
        -0.5411149859428406, 
        -0.1774449348449707, 
        0.08015462011098862, 
        -0.0229062270373106, 
        2.743156671524048, 
        -0.12546949088573456, 
        1.3423837423324585, 
        0.2863813042640686, 
        -0.4135773479938507, 
        0.042893506586551666, 
        0.021042678505182266, 
        -0.09961368888616562, 
        -0.1790585070848465, 
        0.950874924659729, 
        0.09948702156543732, 
        0.13006919622421265, 
        -0.18992692232131958, 
        0.002881031483411789, 
        -0.1137167438864708, 
        1.022943377494812, 
        -0.20111161470413208, 
        -0.08310706168413162, 
        0.012988634407520294, 
        -0.043202854692935944, 
        -0.06392243504524231, 
        -0.124651700258255, 
        0.16215309500694275, 
        0.3690601885318756, 
        1.331162691116333, 
        0.09557605534791946, 
        -0.22016428411006927, 
        0.30256375670433044, 
        -2.918717861175537, 
        0.23539181053638458, 
        -0.044548336416482925, 
        1.8332877159118652, 
        0.2918541729450226, 
        0.035600338131189346, 
        -0.036125071346759796, 
        -0.0601821094751358, 
        -0.1810840368270874, 
        -0.014909259043633938, 
        1.102152705192566, 
        0.5035114288330078, 
        0.33099469542503357, 
        -0.12223599851131439, 
        1.6496593952178955, 
        -0.03998234495520592, 
        -0.1474619209766388, 
        -0.028632687404751778, 
        0.11590272188186646, 
        -0.08056419342756271, 
        -0.06173405051231384, 
        0.0462070070207119, 
        0.08153675496578217, 
        -0.18546827137470245, 
        -0.021450277417898178, 
        -0.21266964077949524, 
        0.3322014808654785, 
        1.7903814315795898, 
        -0.8134964108467102, 
        1.466573715209961, 
        -0.09771813452243805, 
        -0.012019917368888855, 
        0.038923636078834534, 
        0.9264940619468689, 
        -1.9266422986984253, 
        -0.01566995494067669, 
        -0.039490312337875366, 
        0.7684612274169922, 
        0.12651562690734863, 
        -0.12177305668592453, 
        -1.6685631275177002, 
        -0.07190107554197311, 
        -2.64559006690979, 
        -0.1254853457212448, 
        0.9166122674942017, 
        0.07127279043197632, 
        0.10990043729543686, 
        -0.1023021712899208, 
        -0.01895429939031601, 
        1.4014390707015991, 
        1.2141951322555542, 
        0.48882022500038147, 
        -0.16326679289340973, 
        -0.08643285930156708, 
        2.1012110710144043, 
        -0.5208225250244141, 
        -0.19638077914714813, 
        0.07558215409517288, 
        0.3178512156009674, 
        0.6851376891136169, 
        0.12531211972236633, 
        -0.0010383116314187646, 
        1.2546721696853638, 
        -2.2315165996551514, 
        0.7559870481491089, 
        0.22773955762386322, 
        1.973145842552185, 
        1.6938682794570923, 
        1.836795687675476, 
        1.3465815782546997, 
        0.3095129430294037, 
        -0.15098431706428528, 
        0.22440610826015472, 
        -0.10006492584943771, 
        0.0747065618634224, 
        -0.14195570349693298, 
        0.12059609591960907, 
        0.09448257088661194, 
        0.031151412054896355, 
        -0.7131497263908386, 
        -0.19072864949703217, 
        -0.05723857507109642, 
        0.9219374060630798, 
        0.1919194906949997, 
        -0.09975165873765945, 
        0.1027284488081932, 
        -3.031886339187622, 
        0.1286679059267044, 
        -0.1193825975060463, 
        -0.06140725687146187, 
        0.06480191648006439, 
        0.04333075135946274, 
        2.0285396575927734, 
        0.1160200908780098, 
        0.16867610812187195, 
        0.18283481895923615, 
        1.6330121755599976, 
        0.2533740699291229, 
        0.11270700395107269, 
        0.06517604738473892, 
        1.0372172594070435, 
        -1.2286571264266968, 
        0.6300395727157593, 
        0.512371838092804, 
        1.2166650295257568, 
        -0.06411132216453552, 
        0.3704393804073334, 
        0.10808221250772476, 
        -0.0821482390165329, 
        0.3481844365596771, 
        -0.31870076060295105, 
        0.640670895576477, 
        -0.11626461893320084, 
        0.05292230471968651, 
        -0.16961970925331116, 
        0.4356353282928467, 
        -0.10613911598920822, 
        0.5613003373146057, 
        0.14254309237003326, 
        -0.09381822496652603, 
        0.3242332637310028, 
        0.20565471053123474, 
        0.5459952354431152, 
        0.5563661456108093, 
        0.6227670311927795, 
        0.19849345088005066, 
        0.019920146092772484, 
        0.5881769061088562, 
        1.4289789199829102, 
        0.2837044894695282, 
        0.3168126344680786, 
        0.8140528798103333, 
        1.2219394445419312, 
        0.1749712973833084, 
        0.14821024239063263, 
        0.10753784328699112, 
        0.1987241804599762, 
        0.177305668592453, 
        0.29708871245384216, 
        1.2725963592529297, 
        0.20577766001224518, 
        0.22050966322422028, 
        0.46624550223350525, 
        -0.0406465046107769, 
        -1.7863608598709106, 
        0.5156503915786743, 
        0.27450767159461975, 
        -0.07015016674995422, 
        -0.2557777762413025, 
        -0.05694626271724701, 
        0.4510197043418884, 
        0.1604391485452652, 
        0.216737300157547, 
        -0.738751232624054, 
        -0.4518730938434601, 
        0.7824884057044983, 
        0.918289840221405, 
        1.564225673675537, 
        0.27555662393569946, 
        -0.0028557744808495045, 
        -0.04130970314145088, 
        1.7985321283340454, 
        1.5013608932495117, 
        -0.08102821558713913, 
        0.20912498235702515, 
        0.9879852533340454, 
        0.7039519548416138, 
        0.44337013363838196, 
        1.3133758306503296, 
        0.08976741880178452, 
        1.516454815864563, 
        -2.107926368713379, 
        0.848429799079895, 
        -0.0961962342262268, 
        -0.39571070671081543, 
        0.07161147147417068, 
        0.05480808764696121, 
        -0.17223605513572693, 
        0.3783058524131775, 
        0.7797836661338806, 
        -0.08920282125473022, 
        0.33686840534210205, 
        1.4380258321762085, 
        0.49192899465560913, 
        -0.06459848582744598, 
        -0.008024287410080433, 
        0.9769351482391357, 
        0.9676986932754517, 
        -1.6178717613220215, 
        0.06977538019418716, 
        1.825937032699585, 
        1.6180167198181152, 
        0.7121879458427429, 
        0.23689261078834534, 
        0.6699030995368958, 
        1.3770488500595093, 
        1.5244108438491821, 
        1.2791368961334229, 
        0.27542153000831604, 
        0.034143462777137756, 
        0.35462212562561035, 
        0.04250150918960571, 
        -0.9177033305168152, 
        -0.3772237002849579, 
        0.4125499725341797, 
        0.08158643543720245, 
        -0.0512300506234169, 
        0.38039514422416687, 
        -0.698377251625061, 
        0.184141606092453, 
        0.8722676634788513, 
        0.5851023197174072, 
        0.1328248381614685, 
        0.694618284702301, 
        1.4015289545059204, 
        -2.5644688606262207, 
        0.021192772313952446, 
        0.4608583152294159, 
        0.06375546008348465, 
        0.11528811603784561, 
        1.1371796131134033, 
        -0.1337684690952301, 
        -0.02495744451880455, 
        -0.14046406745910645, 
        0.46074849367141724, 
        0.10004124790430069, 
        0.12994374334812164, 
        0.040228985249996185, 
        0.09840691089630127, 
        0.33535367250442505, 
        1.3229186534881592, 
        -0.16496588289737701, 
        0.06900758296251297, 
        -0.05123370513319969, 
        0.10089024901390076, 
        0.18838971853256226, 
        0.1795329451560974, 
        1.5006603002548218, 
        0.24885286390781403, 
        0.7454966306686401, 
        0.1594361811876297, 
        -0.17274869978427887, 
        0.3108423054218292, 
        0.8140197396278381, 
        0.41877609491348267, 
        0.622215986251831, 
        0.4540563225746155, 
        0.8632605075836182, 
        0.3526497781276703, 
        0.4497372508049011, 
        -0.10959546267986298, 
        0.6273143887519836, 
        -0.4930292069911957, 
        0.14411050081253052, 
        0.49058082699775696, 
        -0.3857714533805847, 
        1.6586132049560547, 
        0.6982048153877258, 
        0.505134642124176, 
        -1.2119972705841064, 
        0.9245859980583191, 
        0.33503758907318115, 
        0.22103722393512726, 
        -0.08424495905637741, 
        0.4602294862270355, 
        0.16255243122577667, 
        -1.0617402791976929, 
        -0.6651163101196289, 
        -0.45557498931884766, 
        0.1981523334980011, 
        -0.10709128528833389, 
        0.18293353915214539, 
        0.2921706438064575, 
        0.5727882385253906, 
        0.05413650721311569, 
        0.25931811332702637, 
        0.27392762899398804, 
        0.8957933783531189, 
        1.7380321025848389, 
        -0.025001272559165955, 
        0.4518938362598419, 
        0.31898292899131775, 
        0.056144122034311295, 
        1.0205509662628174, 
        1.477038860321045, 
        0.737025797367096, 
        0.3591989576816559, 
        0.2663075923919678, 
        0.24387389421463013, 
        0.7683143019676208, 
        1.6638141870498657, 
        0.17739003896713257, 
        0.23903684318065643, 
        0.2813180088996887, 
        1.1722776889801025, 
        0.6053794622421265, 
        1.5515265464782715, 
        0.40707141160964966, 
        1.491942048072815, 
        0.12860840559005737, 
        -1.692806363105774, 
        0.2673490345478058, 
        0.3619822859764099, 
        -0.3021971583366394, 
        0.07141190767288208, 
        1.4386284351348877, 
        -0.5037321448326111, 
        0.9812296032905579, 
        0.5506209135055542, 
        1.0472092628479004, 
        0.5878289937973022, 
        1.3712207078933716, 
        0.03483979031443596, 
        -0.4482434093952179, 
        -0.4200756251811981, 
        1.3609416484832764, 
        0.3143514394760132, 
        0.48236316442489624, 
        0.3685474395751953, 
        1.7511353492736816, 
        0.39636969566345215, 
        2.100991725921631, 
        0.46811196208000183, 
        -1.0468961000442505, 
        -0.5066561102867126, 
        0.9248928427696228, 
        1.6374682188034058, 
        0.4079444408416748, 
        2.439518690109253, 
        0.5024751424789429, 
        0.17272022366523743, 
        0.12465919554233551, 
        0.4769415259361267, 
        0.41061127185821533, 
        0.2688177525997162, 
        0.753631055355072, 
        0.4019430875778198, 
        0.13641001284122467, 
        -1.619631052017212, 
        0.9392457604408264, 
        0.4557240605354309, 
        0.5480307340621948, 
        1.755508303642273, 
        0.28803950548171997, 
        0.23364777863025665, 
        0.5753787159919739, 
        0.48790279030799866, 
        -0.0030077691189944744, 
        -0.13686317205429077, 
        0.6349453926086426, 
        -0.25735336542129517, 
        0.5116724967956543, 
        -1.0698388814926147, 
        -0.3156426250934601, 
        0.11894651502370834, 
        -0.1378946602344513, 
        0.3235909640789032, 
        -0.14030243456363678, 
        0.478327214717865, 
        -0.08891633152961731, 
        -0.1825501024723053, 
        -0.01941753551363945, 
        -0.01273356657475233, 
        -0.03278009593486786, 
        0.0441436693072319, 
        0.31624680757522583, 
        0.03933956101536751, 
        -0.06906537711620331, 
        0.00383391254581511, 
        0.14654123783111572, 
        -0.09227990359067917, 
        -0.19844885170459747, 
        -0.028284823521971703, 
        -0.11801058053970337, 
        -0.10243819653987885, 
        -0.1110764592885971, 
        -0.05279001221060753, 
        -0.060207169502973557, 
        0.2557903230190277, 
        0.05978773161768913, 
        0.39088234305381775, 
        0.02165728062391281, 
        -0.09113263338804245, 
        0.0785287544131279, 
        -0.8434775471687317, 
        0.04335033893585205, 
        -0.09701463580131531, 
        0.36098426580429077, 
        -0.1058560460805893, 
        -0.2033785730600357, 
        -0.004144908394664526, 
        0.010381748899817467, 
        -0.048737119883298874, 
        -0.09492836892604828, 
        0.2209242284297943, 
        -0.12198428809642792, 
        -0.11391261219978333, 
        0.02884644828736782, 
        0.1708834022283554, 
        -0.060338180512189865, 
        -0.10154036432504654, 
        0.03323392570018768, 
        -0.08815338462591171, 
        0.0034437153954058886, 
        -0.09286773204803467, 
        -0.09329322725534439, 
        -0.19873963296413422, 
        -0.18433529138565063, 
        0.0590108297765255, 
        -0.14983464777469635, 
        -0.18366670608520508, 
        1.3876370191574097, 
        -0.11080750823020935, 
        -0.47350242733955383, 
        -0.07961129397153854, 
        -0.053292132914066315, 
        -0.03877308592200279, 
        -0.15006741881370544, 
        -0.6474006772041321, 
        0.09972015768289566, 
        0.10149957239627838, 
        -0.26137882471084595, 
        0.10046558082103729, 
        -0.07209122180938721, 
        -0.3957988917827606, 
        -0.002250861842185259, 
        -0.5692057013511658, 
        -0.12389662861824036, 
        0.8940220475196838, 
        -0.08495842665433884, 
        0.020560111850500107, 
        -0.4109634459018707, 
        0.0393916554749012, 
        0.522192120552063, 
        0.5388176441192627, 
        -0.032685160636901855, 
        -0.15714457631111145, 
        0.18318375945091248, 
        0.06478948891162872, 
        -0.33652395009994507, 
        -0.1059161126613617, 
        0.0827295109629631, 
        -0.2801055610179901, 
        0.4463520646095276, 
        -0.062396273016929626, 
        -0.119598388671875, 
        0.17092488706111908, 
        -0.7398506999015808, 
        0.12619829177856445, 
        0.035459861159324646, 
        1.6832237243652344, 
        0.5614508390426636, 
        0.00838658306747675, 
        0.007646534591913223, 
        0.266085147857666, 
        -0.13469462096691132, 
        0.05729742720723152, 
        -0.1704864203929901, 
        0.010169359855353832, 
        0.05843620002269745, 
        0.052356984466314316, 
        0.025257805362343788, 
        -0.1652640998363495, 
        -0.27628564834594727, 
        0.06367768347263336, 
        -0.3307281732559204, 
        0.7430253624916077, 
        0.2973490059375763, 
        -0.15705226361751556, 
        0.05718586966395378, 
        -0.6290704607963562, 
        -0.17254871129989624, 
        -0.2586157023906708, 
        -0.10074560344219208, 
        -0.06755305826663971, 
        0.05052142217755318, 
        0.5038825869560242, 
        0.1642732471227646, 
        -0.006074128672480583, 
        0.081431545317173, 
        0.11732565611600876, 
        -0.2874673902988434, 
        0.07224059849977493, 
        0.03649827465415001, 
        0.5825158953666687, 
        -0.11412841081619263, 
        0.23007386922836304, 
        -0.16952097415924072, 
        -0.21514445543289185, 
        -0.046384576708078384, 
        0.037282925099134445, 
        0.11078101396560669, 
        0.06745543330907822, 
        0.18987277150154114, 
        -0.1692056953907013, 
        -0.16486194729804993, 
        -0.038665905594825745, 
        0.09432398527860641, 
        0.07075727730989456, 
        -0.1855861395597458, 
        -0.00258720014244318, 
        -0.1472957879304886, 
        -0.002139899879693985, 
        0.039807308465242386, 
        0.13211394846439362, 
        -0.1524762064218521, 
        0.2873702049255371, 
        0.03780896216630936, 
        0.46124032139778137, 
        0.01623246818780899, 
        0.010454495437443256, 
        -0.05091167241334915, 
        -0.7410096526145935, 
        -0.03234177455306053, 
        -0.11459894478321075, 
        0.41564705967903137, 
        0.09812084585428238, 
        -0.019966425374150276, 
        0.003191308816894889, 
        0.11388245970010757, 
        -0.1489749252796173, 
        -0.08579283207654953, 
        0.0025624989066272974, 
        -0.09783592820167542, 
        0.0627436712384224, 
        -0.008146028034389019, 
        0.21447984874248505, 
        -0.05307689309120178, 
        -0.13113069534301758, 
        -0.09633780270814896, 
        -0.13733644783496857, 
        -0.1983831524848938, 
        -0.04171176627278328, 
        0.010181508027017117, 
        -0.08272454887628555, 
        -0.24782052636146545, 
        -0.06684068590402603, 
        0.009547365829348564, 
        0.004932995419949293, 
        1.150375247001648, 
        -0.09749482572078705, 
        -0.33074116706848145, 
        -0.16004739701747894, 
        -0.026663290336728096, 
        0.04329733923077583, 
        0.015436128713190556, 
        -0.3983149528503418, 
        -0.10665600001811981, 
        -0.1316361278295517, 
        -0.2804800271987915, 
        0.21158339083194733, 
        -0.14182667434215546, 
        -0.47523751854896545, 
        -0.18492788076400757, 
        -0.7416226863861084, 
        -0.04074753075838089, 
        0.8131036758422852, 
        -0.04585294798016548, 
        -0.16593389213085175, 
        -0.4370766282081604, 
        -0.03440026938915253, 
        0.4199334383010864, 
        0.4791918396949768, 
        0.08298756927251816, 
        -0.12762680649757385, 
        0.1917131245136261, 
        -0.018358800560235977, 
        -0.3856377601623535, 
        -0.1011323556303978, 
        -0.15207643806934357, 
        -0.17819175124168396, 
        0.3014381229877472, 
        -0.0577731654047966, 
        -0.03066663257777691, 
        -0.1310691088438034, 
        -0.7343859672546387, 
        0.035232581198215485, 
        -0.04403124749660492, 
        1.5155248641967773, 
        0.5516611337661743, 
        -0.23924532532691956, 
        0.022523503750562668, 
        0.22585949301719666, 
        -0.05797267705202103, 
        0.05713511258363724, 
        0.12649743258953094, 
        -0.06736841797828674, 
        -0.09410904347896576, 
        -0.08549975603818893, 
        -0.16275541484355927, 
        0.007408898323774338, 
        -0.42094886302948, 
        -0.05332460254430771, 
        -0.15961343050003052, 
        0.4758933186531067, 
        0.29461774230003357, 
        -0.15160636603832245, 
        0.09662634879350662, 
        -0.5890942811965942, 
        0.06746021658182144, 
        -0.010896142572164536, 
        -0.017069024965167046, 
        0.05216609686613083, 
        -0.05436726659536362, 
        0.35562390089035034, 
        -0.019709138199687004, 
        -0.039745088666677475, 
        0.09488384425640106, 
        0.15160827338695526, 
        -0.2321711629629135, 
        0.07727786153554916, 
        -0.09831764549016953, 
        0.7973535060882568, 
        0.015120559372007847, 
        0.4173806607723236, 
        -0.3152185082435608, 
        -0.2838783264160156, 
        -0.01999121531844139, 
        0.058326322585344315, 
        -0.08916991949081421, 
        -0.023396359756588936, 
        0.5369850993156433, 
        -0.040016058832407, 
        0.14770032465457916, 
        -0.13191518187522888, 
        -0.052174609154462814, 
        0.09960218518972397, 
        -0.1124308779835701, 
        -0.0004715588584076613, 
        -0.10881543159484863, 
        0.0359499529004097, 
        0.06591358035802841, 
        0.09677065163850784, 
        0.07167781889438629, 
        0.16380158066749573, 
        -0.14584138989448547, 
        0.7823554277420044, 
        -0.05419977381825447, 
        0.05536072328686714, 
        0.20611192286014557, 
        -1.1305094957351685, 
        0.21417441964149475, 
        -0.1427040696144104, 
        0.6043099761009216, 
        0.08896305412054062, 
        -0.13306953012943268, 
        -0.04216001182794571, 
        0.11810392886400223, 
        -0.12654761970043182, 
        -0.2315182238817215, 
        0.41292086243629456, 
        0.08271629363298416, 
        -0.22750557959079742, 
        -0.1008714810013771, 
        0.2178342044353485, 
        -0.011832169257104397, 
        0.030046455562114716, 
        -0.04803939908742905, 
        0.011587537825107574, 
        -0.1640125960111618, 
        0.013007685542106628, 
        -0.2156141847372055, 
        0.012016688473522663, 
        0.08982156217098236, 
        -0.15823443233966827, 
        -0.03470385819673538, 
        -0.010951720178127289, 
        1.4041649103164673, 
        -0.00258119055069983, 
        -0.38692423701286316, 
        0.009211985394358635, 
        -0.13504283130168915, 
        0.0024112032260745764, 
        0.06123751774430275, 
        -0.7450850009918213, 
        -0.10471092164516449, 
        0.07567323744297028, 
        -0.2665836811065674, 
        0.1600503772497177, 
        -0.19504393637180328, 
        -0.4601113498210907, 
        -0.1382991522550583, 
        -0.9069867730140686, 
        -0.007774874567985535, 
        1.079943299293518, 
        -0.1255418062210083, 
        0.01665227860212326, 
        -0.243290975689888, 
        0.13994808495044708, 
        0.5728724598884583, 
        0.5008424520492554, 
        -0.05708911642432213, 
        -0.0767928957939148, 
        0.27567511796951294, 
        0.2088671624660492, 
        -0.3530855178833008, 
        0.05488431081175804, 
        0.03285235911607742, 
        -0.206060528755188, 
        0.7085896134376526, 
        0.11606632173061371, 
        0.04483357071876526, 
        0.4415005147457123, 
        -0.9157615900039673, 
        0.2903299927711487, 
        0.11006595194339752, 
        1.5986253023147583, 
        0.7455065846443176, 
        -0.16480499505996704, 
        0.16834406554698944, 
        0.2800397276878357, 
        0.026487696915864944, 
        0.05757249519228935, 
        -0.03446663171052933, 
        -0.023771539330482483, 
        -0.016266681253910065, 
        -0.015092122368514538, 
        -0.031591109931468964, 
        0.026427414268255234, 
        -0.2755002975463867, 
        -0.1752220094203949, 
        -0.18963000178337097, 
        0.7988348007202148, 
        0.2633528411388397, 
        -0.14180830121040344, 
        0.25198739767074585, 
        -0.938204288482666, 
        -0.12400027364492416, 
        -0.04769380763173103, 
        0.06288088113069534, 
        -0.021344665437936783, 
        0.09933213144540787, 
        0.70197993516922, 
        0.2065744698047638, 
        0.04821008816361427, 
        0.14948098361492157, 
        0.25795578956604004, 
        -0.48826101422309875, 
        -0.013611920177936554, 
        0.0017996984533965588, 
        1.436125636100769, 
        -0.9650573134422302, 
        -1.0462007522583008, 
        0.9092482328414917, 
        2.2249603271484375, 
        -0.08944138139486313, 
        0.6130282282829285, 
        -0.46998104453086853, 
        -0.018556125462055206, 
        -1.325339674949646, 
        -0.011976012960076332, 
        -0.4580915868282318, 
        0.3207838833332062, 
        0.6025314927101135, 
        -0.4777745306491852, 
        0.5627034306526184, 
        -0.2671298384666443, 
        -0.2520425021648407, 
        -0.22371730208396912, 
        -0.6917139887809753, 
        -0.2349691390991211, 
        -0.13885746896266937, 
        0.45206040143966675, 
        -0.3539654016494751, 
        1.610865831375122, 
        0.2646932005882263, 
        -0.3642224371433258, 
        0.9745297431945801, 
        -1.6730403900146484, 
        -1.244706630706787, 
        0.07653509080410004, 
        2.0972506999969482, 
        1.6990094184875488, 
        0.2493583709001541, 
        0.13382931053638458, 
        0.41229984164237976, 
        -0.09778666496276855, 
        -0.034102663397789, 
        0.7103186249732971, 
        2.076770782470703, 
        0.7429460883140564, 
        0.029230453073978424, 
        1.0579789876937866, 
        -0.014972773380577564, 
        -0.27467969059944153, 
        -0.4812406301498413, 
        -0.4642353653907776, 
        0.06494797766208649, 
        0.14141809940338135, 
        0.7034360766410828, 
        -1.4008606672286987, 
        0.24875284731388092, 
        0.06923311948776245, 
        0.07977456599473953, 
        1.3595285415649414, 
        -1.8389711380004883, 
        -0.6233165264129639, 
        2.357328414916992, 
        -0.20633536577224731, 
        0.292825311422348, 
        0.1928945928812027, 
        2.391029119491577, 
        -1.810212254524231, 
        -0.006475736387073994, 
        0.027059080079197884, 
        0.9239541292190552, 
        -0.7264387011528015, 
        0.10543204098939896, 
        -1.1156302690505981, 
        0.20969705283641815, 
        -1.8543702363967896, 
        -0.14640623331069946, 
        1.9985873699188232, 
        0.08360806107521057, 
        0.08537576347589493, 
        0.9462596774101257, 
        -0.2942933440208435, 
        -1.1371443271636963, 
        1.0327658653259277, 
        0.0519535094499588, 
        0.12174919992685318, 
        -0.4404990077018738, 
        2.76735782623291, 
        -1.1155235767364502, 
        -0.09317587316036224, 
        -0.10457507520914078, 
        1.5142152309417725, 
        -2.183138608932495, 
        -0.13225959241390228, 
        -0.13076354563236237, 
        2.7823610305786133, 
        -1.2654755115509033, 
        0.5235984325408936, 
        -0.7170892953872681, 
        -0.3044057786464691, 
        1.61070716381073, 
        2.3947031497955322, 
        1.8722362518310547, 
        -1.1668633222579956, 
        -0.09490885585546494, 
        -0.3381301164627075, 
        -0.10892395675182343, 
        -0.22010685503482819, 
        0.22688601911067963, 
        -0.34874147176742554, 
        0.14481641352176666, 
        0.29811689257621765, 
        1.8136334419250488, 
        0.09464053809642792, 
        0.6177332401275635, 
        1.8865327835083008, 
        -0.5955286622047424, 
        0.1686682105064392, 
        -1.0517128705978394, 
        -1.0692470073699951, 
        -0.30422699451446533, 
        0.4770377576351166, 
        0.16458426415920258, 
        -0.15006056427955627, 
        0.24280783534049988, 
        1.6022125482559204, 
        -0.22740550339221954, 
        0.18867836892604828, 
        -0.7157876491546631, 
        1.729725956916809, 
        0.7164590954780579, 
        0.370484322309494, 
        -0.11107775568962097, 
        0.6673495769500732, 
        0.3724663555622101, 
        0.4199819564819336, 
        -0.4506324827671051, 
        -0.5221417546272278, 
        0.09791900217533112, 
        -0.007681647315621376, 
        -0.11528458446264267, 
        0.02078963816165924, 
        1.1522830724716187, 
        0.07679066061973572, 
        -0.17722071707248688, 
        -0.09636423736810684, 
        -0.24291245639324188, 
        0.17802733182907104, 
        0.04909912869334221, 
        -0.21065618097782135, 
        0.026341551914811134, 
        0.1900498867034912, 
        0.15471114218235016, 
        0.19327881932258606, 
        -0.004614891018718481, 
        0.3584892749786377, 
        -0.1356784701347351, 
        -0.40957188606262207, 
        -0.014931743033230305, 
        0.13355319201946259, 
        0.16100528836250305, 
        -1.6487444639205933, 
        0.19589786231517792, 
        -0.0034657155629247427, 
        0.504085123538971, 
        -0.1749628186225891, 
        0.21624039113521576, 
        0.023109195753932, 
        -0.07521763443946838, 
        0.027361787855625153, 
        -0.03150232508778572, 
        -0.4918673634529114, 
        -1.1874661445617676, 
        -0.45255687832832336, 
        0.06385468691587448, 
        0.6615207195281982, 
        -0.011384737677872181, 
        0.14705513417720795, 
        0.14545080065727234, 
        -0.1516132354736328, 
        -0.11183659732341766, 
        0.24791041016578674, 
        -0.10054279118776321, 
        0.012164728716015816, 
        0.3402484357357025, 
        -0.0681845098733902, 
        -0.15061087906360626, 
        -1.0315570831298828, 
        1.4695792198181152, 
        -0.21854206919670105, 
        -1.5292659997940063, 
        -0.1285271942615509, 
        -0.15738394856452942, 
        -0.13573946058750153, 
        -0.42721447348594666, 
        -1.3421411514282227, 
        -0.04503224417567253, 
        0.11900710314512253, 
        -0.8948805332183838, 
        -0.07164249569177628, 
        -0.06416814774274826, 
        -0.7315634489059448, 
        -0.11143733561038971, 
        -1.5267516374588013, 
        0.04059688001871109, 
        -0.48467180132865906, 
        0.04934670776128769, 
        0.2808920443058014, 
        -0.4152159094810486, 
        0.059090983122587204, 
        0.22982445359230042, 
        0.05031507462263107, 
        -0.036050498485565186, 
        0.04149359092116356, 
        0.7307264804840088, 
        0.4336570203304291, 
        -0.5187371373176575, 
        0.08013316988945007, 
        0.14148929715156555, 
        -0.7674427628517151, 
        0.8316110968589783, 
        0.004448403138667345, 
        0.20392946898937225, 
        -1.6268709897994995, 
        -1.7154953479766846, 
        0.3467937707901001, 
        0.16607297956943512, 
        3.125638246536255, 
        -0.738202691078186, 
        -0.26316481828689575, 
        0.30879706144332886, 
        0.1038031354546547, 
        -0.009036223404109478, 
        0.2880319654941559, 
        0.10319418460130692, 
        0.08284815400838852, 
        -0.04064321517944336, 
        -0.08294621855020523, 
        -0.08406148850917816, 
        -0.0007906553219072521, 
        -0.5408551692962646, 
        0.05358726903796196, 
        0.22959384322166443, 
        -0.5600820183753967, 
        0.2810259759426117, 
        -0.013937643729150295, 
        0.31361204385757446, 
        -1.3781260251998901, 
        0.1467401534318924, 
        -0.0314626544713974, 
        0.00214556441642344, 
        0.37508776783943176, 
        0.07089942693710327, 
        0.5077507495880127, 
        0.3555147349834442, 
        0.12416943907737732, 
        0.2797515392303467, 
        -1.5034047365188599, 
        -0.4633588194847107, 
        0.03307945653796196, 
        0.037520334124565125, 
        2.1492602825164795, 
        0.031827446073293686, 
        0.8602005839347839, 
        -0.026610752567648888, 
        1.1516038179397583, 
        0.009275360032916069, 
        -0.1028558537364006, 
        -0.14481616020202637, 
        0.006889276672154665, 
        0.335377037525177, 
        -0.010679610073566437, 
        -0.21882635354995728, 
        0.009847277775406837, 
        0.21887272596359253, 
        -0.09959262609481812, 
        -0.20252522826194763, 
        -0.0046209474094212055, 
        0.06483527272939682, 
        -0.2205551564693451, 
        0.04641210660338402, 
        0.07741957157850266, 
        -0.08803943544626236, 
        0.3731573522090912, 
        0.16865763068199158, 
        0.7675948739051819, 
        -0.07767349481582642, 
        -0.03505220636725426, 
        0.17535030841827393, 
        -2.4750614166259766, 
        -0.011409320868551731, 
        -0.2025940865278244, 
        0.5853236317634583, 
        0.13845522701740265, 
        0.05840426683425903, 
        -0.1404697448015213, 
        0.14462926983833313, 
        -0.16687270998954773, 
        -0.23701757192611694, 
        0.24870894849300385, 
        1.147096872329712, 
        0.0752725601196289, 
        0.0678679347038269, 
        0.09543030709028244, 
        -0.013124828226864338, 
        -0.1300007849931717, 
        -0.18131676316261292, 
        0.10393906384706497, 
        0.023798057809472084, 
        0.08169368654489517, 
        -0.0831180065870285, 
        0.22339628636837006, 
        -0.11513970792293549, 
        0.03338982164859772, 
        -0.09050292521715164, 
        -0.14673398435115814, 
        1.4157713651657104, 
        0.13363918662071228, 
        1.0721416473388672, 
        -0.08321081846952438, 
        -0.010565850883722305, 
        0.09147334843873978, 
        0.36772477626800537, 
        -1.4016268253326416, 
        0.1294790804386139, 
        0.09175515919923782, 
        0.1590726524591446, 
        0.17890103161334991, 
        -0.20411214232444763, 
        -0.9152495265007019, 
        -0.23830406367778778, 
        -1.8604612350463867, 
        -0.21662305295467377, 
        2.1445844173431396, 
        -0.09939927607774734, 
        -0.12150955200195312, 
        -0.1316518485546112, 
        -0.04752237722277641, 
        0.5045625567436218, 
        0.3587104082107544, 
        0.1760559231042862, 
        -0.19211909174919128, 
        0.3910481333732605, 
        0.010804558172821999, 
        -0.2754748463630676, 
        -0.09686470031738281, 
        -0.13935984671115875, 
        1.0139087438583374, 
        0.30842792987823486, 
        0.15445391833782196, 
        -0.18789201974868774, 
        2.0928525924682617, 
        -1.8834624290466309, 
        0.19115948677062988, 
        -0.03957502916455269, 
        1.8260782957077026, 
        2.0710787773132324, 
        1.7556830644607544, 
        0.05900394544005394, 
        0.7168911099433899, 
        -0.17363062500953674, 
        -0.11101771146059036, 
        -0.05693056434392929, 
        -0.08362028747797012, 
        -0.027225473895668983, 
        -0.05670594796538353, 
        0.03295493498444557, 
        -0.14180012047290802, 
        -0.23732279241085052, 
        -0.1297406703233719, 
        -0.25341367721557617, 
        1.2731379270553589, 
        0.23128117620944977, 
        -0.18310660123825073, 
        0.01519567146897316, 
        -2.1240603923797607, 
        -0.10315782576799393, 
        -0.07870443910360336, 
        0.07551590353250504, 
        -0.07195650041103363, 
        -0.05419290065765381, 
        1.3330762386322021, 
        -0.034450311213731766, 
        0.09535398334264755, 
        0.011596012860536575, 
        2.1356496810913086, 
        -0.32117176055908203, 
        0.020211076363921165, 
        0.029218018054962158, 
        0.5799055099487305, 
        0.01908876933157444, 
        0.49236994981765747, 
        -0.3347179591655731, 
        -0.21553172171115875, 
        0.061647895723581314, 
        -0.05003916472196579, 
        -0.06761865317821503, 
        0.030049454420804977, 
        0.4992391765117645, 
        0.10378693789243698, 
        -0.11299918591976166, 
        0.03320679813623428, 
        -0.0035121391993016005, 
        -0.04684458300471306, 
        -0.025759000331163406, 
        -0.18565146625041962, 
        -0.10007449984550476, 
        -0.13375946879386902, 
        -0.06113000214099884, 
        0.10392719507217407, 
        -0.13849808275699615, 
        0.38083285093307495, 
        -0.1402759999036789, 
        0.3162287771701813, 
        0.06953150033950806, 
        -0.07070856541395187, 
        0.2511592507362366, 
        -0.9300066828727722, 
        0.06876276433467865, 
        -0.051030393689870834, 
        0.5348390936851501, 
        -0.03159485384821892, 
        0.03465443104505539, 
        -0.037557460367679596, 
        0.021964674815535545, 
        -0.16246074438095093, 
        0.0399748869240284, 
        -0.15128403902053833, 
        -0.389803409576416, 
        -0.22648324072360992, 
        0.16054128110408783, 
        0.29962465167045593, 
        -0.066676564514637, 
        0.06647956371307373, 
        0.017742903903126717, 
        -0.14664413034915924, 
        0.0848686695098877, 
        -0.0019800877198576927, 
        -0.02922506257891655, 
        -0.1716996133327484, 
        0.03238748013973236, 
        0.03558661788702011, 
        0.049729034304618835, 
        -0.2784566283226013, 
        1.5882974863052368, 
        0.04537799209356308, 
        -0.7996858358383179, 
        -0.12520593404769897, 
        -0.07995093613862991, 
        0.04757535085082054, 
        -0.04204075410962105, 
        -0.4417317807674408, 
        0.005609703715890646, 
        -0.016169119626283646, 
        -0.34304484724998474, 
        0.02033880352973938, 
        0.06580547243356705, 
        -0.6546314358711243, 
        0.03927687928080559, 
        -0.7288813591003418, 
        -0.0636293888092041, 
        0.7417316436767578, 
        0.052555568516254425, 
        -0.02925487980246544, 
        -0.543154239654541, 
        0.08248384296894073, 
        0.5761064291000366, 
        0.12395326048135757, 
        -0.12599700689315796, 
        -0.18472111225128174, 
        0.3793516755104065, 
        0.28003746271133423, 
        -0.29450827836990356, 
        0.0107649527490139, 
        0.09399180859327316, 
        -0.41755834221839905, 
        0.5279713273048401, 
        0.09311007708311081, 
        -0.039842817932367325, 
        -0.015757879242300987, 
        -0.687879204750061, 
        0.18257023394107819, 
        0.01953580230474472, 
        1.8422678709030151, 
        0.3212471306324005, 
        -0.14456479251384735, 
        0.25466224551200867, 
        0.2435116469860077, 
        -0.09204437583684921, 
        0.10654504597187042, 
        -0.05725783854722977, 
        0.09795541316270828, 
        -0.20007944107055664, 
        -0.012836413457989693, 
        -0.07672743499279022, 
        0.023837514221668243, 
        -0.45789581537246704, 
        -0.19204209744930267, 
        -0.329187273979187, 
        0.4247249364852905, 
        0.3098742961883545, 
        -0.1907825767993927, 
        0.1823209971189499, 
        -0.8281628489494324, 
        0.08761091530323029, 
        -0.2011830359697342, 
        0.021811315789818764, 
        0.014714792370796204, 
        0.10850968211889267, 
        0.6447206735610962, 
        0.13390618562698364, 
        0.20673425495624542, 
        0.14473244547843933, 
        -0.08434703201055527, 
        -0.5098505020141602, 
        -0.03519408777356148, 
        -1.3749865293502808, 
        -1.3671317100524902, 
        -0.37798991799354553, 
        -2.2782554626464844, 
        0.9160210490226746, 
        0.6200396418571472, 
        -0.12904541194438934, 
        0.7494280934333801, 
        0.43817806243896484, 
        0.058068327605724335, 
        -1.3456008434295654, 
        -0.6312717795372009, 
        0.4150192439556122, 
        -0.11708853393793106, 
        0.1818837970495224, 
        -1.7504839897155762, 
        -1.8247148990631104, 
        0.2801225483417511, 
        -0.36260008811950684, 
        -0.522322952747345, 
        -0.6552343964576721, 
        0.1780988872051239, 
        0.31253886222839355, 
        -0.17364118993282318, 
        -0.7452895641326904, 
        0.030446046963334084, 
        0.3779159188270569, 
        -0.25977611541748047, 
        0.5075892210006714, 
        0.8134721517562866, 
        -0.28766873478889465, 
        0.10356815159320831, 
        1.1663154363632202, 
        1.202309012413025, 
        0.26089465618133545, 
        0.20543313026428223, 
        0.23620611429214478, 
        -0.03706560656428337, 
        0.24413494765758514, 
        0.6409846544265747, 
        1.6464073657989502, 
        0.5387380719184875, 
        0.004928587935864925, 
        0.8934870958328247, 
        0.07116599380970001, 
        -0.6854628920555115, 
        0.3913112282752991, 
        -0.6223185658454895, 
        0.35425451397895813, 
        -0.6187594532966614, 
        0.595745325088501, 
        -0.597251296043396, 
        0.44702720642089844, 
        0.03694260120391846, 
        -2.33842396736145, 
        0.40917733311653137, 
        -1.3721411228179932, 
        -1.3872205018997192, 
        2.455105781555176, 
        0.12636473774909973, 
        0.34658539295196533, 
        -0.1236121878027916, 
        2.2847416400909424, 
        1.0472761392593384, 
        0.0424262173473835, 
        -0.7254914045333862, 
        1.329879879951477, 
        -2.038496971130371, 
        -0.12085676193237305, 
        -0.01919698715209961, 
        0.008667532354593277, 
        1.194368839263916, 
        -2.0399670600891113, 
        1.757588505744934, 
        -0.4763462543487549, 
        -3.2486557960510254, 
        0.7990017533302307, 
        -0.7533777952194214, 
        -1.331134557723999, 
        0.38514453172683716, 
        -1.0320924520492554, 
        0.154971644282341, 
        -2.5827696323394775, 
        1.4139069318771362, 
        -0.5723375678062439, 
        -0.4804789423942566, 
        -0.32215937972068787, 
        0.9814298152923584, 
        -1.2019966840744019, 
        -1.2996505498886108, 
        0.38797423243522644, 
        2.2431485652923584, 
        0.8040049076080322, 
        0.7878033518791199, 
        -0.8688950538635254, 
        -1.2874916791915894, 
        1.716302752494812, 
        1.7055277824401855, 
        1.3059405088424683, 
        -1.042661428451538, 
        0.14001086354255676, 
        -1.0501205921173096, 
        -0.6055085062980652, 
        -1.6236133575439453, 
        -1.3966174125671387, 
        0.008482571691274643, 
        0.020575350150465965, 
        0.14879710972309113, 
        1.6909513473510742, 
        -1.9271889925003052, 
        0.4759688377380371, 
        0.7649401426315308, 
        -1.189956545829773, 
        0.2100517749786377, 
        -0.9565763473510742, 
        1.3747667074203491, 
        -1.5719512701034546, 
        0.24194730818271637, 
        -0.6513029932975769, 
        -0.2696237862110138, 
        -0.08295268565416336, 
        1.5004096031188965, 
        -1.3393864631652832, 
        -0.16191640496253967, 
        -1.1889578104019165, 
        1.2263727188110352, 
        0.64577317237854, 
        0.19526265561580658, 
        -0.06697776913642883, 
        -0.7635827660560608, 
        0.11829914897680283, 
        1.5621751546859741, 
        -0.1287129670381546, 
        -0.47726213932037354, 
        -0.17928732931613922, 
        0.04300953820347786, 
        0.0731617659330368, 
        0.020380087196826935, 
        1.0009129047393799, 
        0.07591602206230164, 
        -0.08272332698106766, 
        0.0048096757382154465, 
        -0.1606428027153015, 
        0.20664100348949432, 
        0.13534924387931824, 
        0.04669249430298805, 
        -0.04473922401666641, 
        0.07922042161226273, 
        -0.08282441645860672, 
        -0.05326743423938751, 
        0.037952523678541183, 
        -0.048378363251686096, 
        0.04246581345796585, 
        0.04786355048418045, 
        0.20149748027324677, 
        0.11666081845760345, 
        0.23548106849193573, 
        -1.6530088186264038, 
        0.18751411139965057, 
        -0.004655298311263323, 
        0.9545753002166748, 
        -0.2750185430049896, 
        0.16365356743335724, 
        -0.08162643015384674, 
        -0.018439261242747307, 
        -0.0055498830042779446, 
        -0.05055662989616394, 
        -0.041672367602586746, 
        -0.7166029810905457, 
        -0.24300533533096313, 
        0.03687909618020058, 
        0.9696608781814575, 
        0.006760570220649242, 
        -0.061349254101514816, 
        0.14198467135429382, 
        0.09210711717605591, 
        -0.16794873774051666, 
        0.014821454882621765, 
        -0.13269980251789093, 
        -0.2013504058122635, 
        0.11181389540433884, 
        -0.08823264390230179, 
        0.15837253630161285, 
        -0.8959041833877563, 
        2.0062413215637207, 
        0.029435494914650917, 
        0.6016690731048584, 
        -0.15977995097637177, 
        0.02314908243715763, 
        -0.10074298083782196, 
        0.18900221586227417, 
        -1.8541340827941895, 
        0.09115464240312576, 
        0.08523479849100113, 
        -0.412494033575058, 
        -0.29148590564727783, 
        0.12132374197244644, 
        -1.217650055885315, 
        -0.0865582823753357, 
        -1.3551472425460815, 
        0.0570121631026268, 
        -0.5293886065483093, 
        0.023157956078648567, 
        0.1165463998913765, 
        -0.11159945279359818, 
        0.16875702142715454, 
        0.7465206384658813, 
        0.17727026343345642, 
        0.10041294991970062, 
        -0.14681027829647064, 
        0.2610059976577759, 
        1.0336986780166626, 
        -0.4897872805595398, 
        -0.02990672178566456, 
        -0.12255893647670746, 
        -0.6996420621871948, 
        1.0479803085327148, 
        0.14975103735923767, 
        0.058986272662878036, 
        1.0414782762527466, 
        -1.4313406944274902, 
        0.3265570104122162, 
        -0.02765725366771221, 
        2.35518217086792, 
        -0.5626699924468994, 
        1.276673436164856, 
        0.19910387694835663, 
        -0.11852436512708664, 
        0.010940536856651306, 
        -0.030071085318922997, 
        0.06869707256555557, 
        0.03947463631629944, 
        -0.1738627403974533, 
        0.2849198877811432, 
        0.014400681480765343, 
        0.03097628243267536, 
        -0.3528709411621094, 
        0.0008054393110796809, 
        0.1635541319847107, 
        0.009335003793239594, 
        -0.02054152637720108, 
        0.09306729584932327, 
        0.07741878926753998, 
        -1.3840129375457764, 
        -0.06704208999872208, 
        0.0013634413480758667, 
        0.13273775577545166, 
        0.09874609857797623, 
        0.04876283183693886, 
        1.0535882711410522, 
        0.21946346759796143, 
        0.15334844589233398, 
        0.07401340454816818, 
        0.4388345777988434, 
        -0.10068986564874649, 
        0.012532291933894157, 
        -0.06828705221414566, 
        0.6518357992172241, 
        0.03677602484822273, 
        0.3850516080856323, 
        -0.05099483206868172, 
        -0.1389387995004654, 
        -0.22964732348918915, 
        -0.17264151573181152, 
        0.048799779266119, 
        -0.16349634528160095, 
        0.362461656332016, 
        0.018006296828389168, 
        -0.190804123878479, 
        0.05675305426120758, 
        -0.12328457087278366, 
        -0.14503462612628937, 
        -0.01705469749867916, 
        0.0704147145152092, 
        0.1106422170996666, 
        -0.08104795217514038, 
        -0.017600320279598236, 
        -0.0018271468579769135, 
        -0.07261499017477036, 
        0.22417442500591278, 
        -0.046192485839128494, 
        0.3538375496864319, 
        0.08892957866191864, 
        0.08621516078710556, 
        0.040642403066158295, 
        -0.8429005146026611, 
        0.1418953239917755, 
        -0.11618639528751373, 
        0.49274688959121704, 
        0.13417646288871765, 
        0.032134611159563065, 
        0.0407545268535614, 
        -0.03784598037600517, 
        -0.10253756493330002, 
        -0.20909686386585236, 
        -0.0035613549407571554, 
        -0.04027555510401726, 
        -0.059195198118686676, 
        0.07243622094392776, 
        0.32695871591567993, 
        0.02766583487391472, 
        -0.0006350383628159761, 
        -0.167843759059906, 
        0.011640183627605438, 
        -0.023538028821349144, 
        -0.033022865653038025, 
        -0.24209675192832947, 
        -0.13738974928855896, 
        -0.26332026720046997, 
        -0.1334245800971985, 
        -0.10217253118753433, 
        -0.1869969218969345, 
        1.3979499340057373, 
        0.03309718519449234, 
        -0.017134418711066246, 
        0.07533816248178482, 
        -0.08064329624176025, 
        -0.23418904840946198, 
        0.23090896010398865, 
        -0.5739380717277527, 
        -0.06422249972820282, 
        -0.019121387973427773, 
        -0.23129427433013916, 
        0.25330913066864014, 
        0.010104591958224773, 
        -0.3444451093673706, 
        -0.09463948756456375, 
        -0.6902563571929932, 
        -0.053434573113918304, 
        1.0932154655456543, 
        0.1388830542564392, 
        0.06747837364673615, 
        -0.30001166462898254, 
        -0.09114742279052734, 
        0.5553669929504395, 
        0.47219738364219666, 
        0.12977883219718933, 
        0.03317071497440338, 
        0.3027815818786621, 
        0.23896574974060059, 
        -0.2612580955028534, 
        -0.04005734622478485, 
        -0.03598874434828758, 
        -0.16227987408638, 
        0.6152451634407043, 
        -0.03141402453184128, 
        -0.04553232342004776, 
        0.4364769756793976, 
        -0.8389928936958313, 
        0.07344436645507812, 
        -0.14089936017990112, 
        1.5405056476593018, 
        0.5630369186401367, 
        0.08046074211597443, 
        0.08834555000066757, 
        0.4030602276325226, 
        -0.06241423264145851, 
        0.05991142988204956, 
        -0.022307951003313065, 
        -0.01485924981534481, 
        -0.05266713351011276, 
        -0.038891762495040894, 
        -0.15295054018497467, 
        0.06347546726465225, 
        -0.1926349401473999, 
        0.03553438186645508, 
        -0.05568967014551163, 
        0.4297410845756531, 
        0.05882628262042999, 
        -0.06580690294504166, 
        0.09055668860673904, 
        -0.7884178161621094, 
        -0.13047640025615692, 
        -0.13395513594150543, 
        -0.05978085845708847, 
        -0.15142841637134552, 
        -0.09041398763656616, 
        0.5197405219078064, 
        0.010652133263647556, 
        0.09713931381702423, 
        -0.10513317584991455, 
        0.35385873913764954, 
        -0.1798744797706604, 
        -0.18269239366054535, 
        -0.04404814913868904, 
        1.3024840354919434, 
        -0.1763724833726883, 
        -0.05902595445513725, 
        0.519507646560669, 
        1.2601784467697144, 
        -0.21295803785324097, 
        -0.06993028521537781, 
        -0.09621461480855942, 
        -0.14052313566207886, 
        -0.38146618008613586, 
        0.014704856090247631, 
        -0.6198867559432983, 
        -0.10430729389190674, 
        0.3242040276527405, 
        0.05073683336377144, 
        -0.46638697385787964, 
        -0.12636055052280426, 
        -0.2432747334241867, 
        -0.1596737653017044, 
        0.05694914981722832, 
        0.09221192449331284, 
        -0.017063366249203682, 
        0.8580260276794434, 
        0.5402078628540039, 
        1.5842292308807373, 
        -0.03731755539774895, 
        -0.23871371150016785, 
        0.7462032437324524, 
        -3.127894401550293, 
        -0.2154126912355423, 
        -0.23616018891334534, 
        1.7495307922363281, 
        0.7262495160102844, 
        -0.062348622828722, 
        -0.14433644711971283, 
        0.07851427048444748, 
        -0.22360016405582428, 
        -0.21882833540439606, 
        0.5740724802017212, 
        1.8510329723358154, 
        0.06674165278673172, 
        0.10266559571027756, 
        0.34836992621421814, 
        -0.019581172615289688, 
        0.04108268395066261, 
        -0.23210573196411133, 
        -0.14258648455142975, 
        -0.008547232486307621, 
        -0.006274225190281868, 
        0.04946022480726242, 
        0.5050283670425415, 
        -0.09698433429002762, 
        0.024518197402358055, 
        0.08229043334722519, 
        0.44777268171310425, 
        1.049197793006897, 
        -0.43536022305488586, 
        1.6813695430755615, 
        -0.13035741448402405, 
        3.9840811950853094e-05, 
        0.3545616865158081, 
        1.3528112173080444, 
        -2.6660635471343994, 
        0.09638010710477829, 
        -0.10207473486661911, 
        0.5131106376647949, 
        -0.2397460788488388, 
        -0.1440466344356537, 
        -0.9583144187927246, 
        -0.09455405920743942, 
        -2.4329049587249756, 
        0.01906251721084118, 
        2.0926592350006104, 
        -0.0003247711865697056, 
        -0.1951887309551239, 
        -0.06648563593626022, 
        -0.07144875824451447, 
        0.23145689070224762, 
        0.6874029040336609, 
        0.06577672809362411, 
        -0.05801629275083542, 
        -0.5942985415458679, 
        0.7496144771575928, 
        -1.4445292949676514, 
        -0.004316218663007021, 
        -0.17550235986709595, 
        1.507021188735962, 
        -0.05187458172440529, 
        -0.08637184649705887, 
        0.0769401267170906, 
        1.9100736379623413, 
        -2.813141107559204, 
        0.9280092716217041, 
        0.21070420742034912, 
        1.2080787420272827, 
        2.2564306259155273, 
        1.8160864114761353, 
        1.718292236328125, 
        0.22575688362121582, 
        -0.18891727924346924, 
        0.36215418577194214, 
        0.05467976629734039, 
        -0.02803819067776203, 
        0.004598062019795179, 
        -0.20443004369735718, 
        -0.13685590028762817, 
        -0.046407587826251984, 
        1.2020812034606934, 
        -0.045761749148368835, 
        -0.12069681286811829, 
        1.4552031755447388, 
        0.0017929557943716645, 
        -0.14453665912151337, 
        0.08197665959596634, 
        -2.6498453617095947, 
        -0.10676919668912888, 
        -0.2958919405937195, 
        -0.41793709993362427, 
        0.008487392216920853, 
        0.03918849304318428, 
        1.8577953577041626, 
        0.027799388393759727, 
        0.1629461646080017, 
        -0.03260642662644386, 
        1.2412269115447998, 
        0.4495393931865692, 
        0.14365318417549133, 
        0.09955737739801407, 
        -0.1831088364124298, 
        0.17117321491241455, 
        1.3410228490829468, 
        -0.7156069874763489, 
        -0.4869389533996582, 
        0.013469105586409569, 
        -0.0596298910677433, 
        0.15137137472629547, 
        -0.12320560961961746, 
        1.127868890762329, 
        0.04849501699209213, 
        -0.4159822165966034, 
        -0.06964626163244247, 
        -0.21240553259849548, 
        0.11346118897199631, 
        -0.12073007225990295, 
        0.004269130993634462, 
        0.15893082320690155, 
        -0.13900232315063477, 
        0.048933546990156174, 
        -0.02675219438970089, 
        -0.014856679365038872, 
        0.1922169327735901, 
        -0.05355728790163994, 
        -1.5903058052062988, 
        0.24247419834136963, 
        0.2966879904270172, 
        0.22018295526504517, 
        -1.5761892795562744, 
        -0.04393830522894859, 
        0.008375967852771282, 
        0.7372152805328369, 
        -0.6897308230400085, 
        0.07985087484121323, 
        -0.0791318267583847, 
        0.19693098962306976, 
        0.13138069212436676, 
        0.0032655384857207537, 
        -0.6989580988883972, 
        -1.1048647165298462, 
        -0.5750436186790466, 
        0.32689598202705383, 
        0.515458345413208, 
        0.10534694790840149, 
        -0.039576347917318344, 
        0.04935213923454285, 
        -0.003870750777423382, 
        -0.12577274441719055, 
        0.18990015983581543, 
        -0.21463888883590698, 
        0.0727429911494255, 
        0.3989648222923279, 
        -0.09706500917673111, 
        0.03596625477075577, 
        -0.7620568871498108, 
        1.8818271160125732, 
        -0.2649901211261749, 
        -0.35934701561927795, 
        -0.13434037566184998, 
        0.045461226254701614, 
        -0.0775199681520462, 
        0.5490873456001282, 
        -1.53681218624115, 
        0.05251959711313248, 
        -0.0042919861152768135, 
        -0.9029979109764099, 
        -0.5382363796234131, 
        0.007567684166133404, 
        -1.628713607788086, 
        -0.12258914858102798, 
        -1.7727928161621094, 
        0.06258419156074524, 
        -0.31279343366622925, 
        -0.041309572756290436, 
        0.23899368941783905, 
        -0.211652472615242, 
        0.043695371598005295, 
        1.1123350858688354, 
        -0.7818465828895569, 
        0.0007461386267095804, 
        0.052961066365242004, 
        0.995751142501831, 
        -0.005029704421758652, 
        -0.7220901846885681, 
        -0.011779695749282837, 
        0.043684303760528564, 
        -0.5858626365661621, 
        0.44260087609291077, 
        0.2686026692390442, 
        0.05444710701704025, 
        0.09380221366882324, 
        -1.6614735126495361, 
        0.07066560536623001, 
        -0.09135648608207703, 
        2.494499683380127, 
        -0.5884577035903931, 
        0.6205183863639832, 
        0.20143696665763855, 
        0.6262325644493103, 
        0.14311674237251282, 
        0.3545098304748535, 
        0.03888551518321037, 
        0.0865786150097847, 
        0.0597473569214344, 
        0.21245147287845612, 
        -0.06604427844285965, 
        -0.16165821254253387, 
        -0.621872067451477, 
        -0.03432013839483261, 
        0.014920027926564217, 
        -1.2472753524780273, 
        0.21449363231658936, 
        -0.15129989385604858, 
        0.33565211296081543, 
        -1.6539815664291382, 
        0.15432780981063843, 
        -0.10369960218667984, 
        -0.06354426592588425, 
        0.1556439995765686, 
        -0.10223423689603806, 
        0.8404293656349182, 
        0.39694586396217346, 
        -0.026205899193882942, 
        0.34461092948913574, 
        -1.045835256576538, 
        -0.08054237067699432, 
        -0.07971648126840591, 
        -0.17189964652061462, 
        0.31911033391952515, 
        0.08716394752264023, 
        0.5904391407966614, 
        -0.2623569071292877, 
        -0.37168821692466736, 
        0.0038732546381652355, 
        -0.05605572462081909, 
        -0.07629912346601486, 
        -0.012015546672046185, 
        0.7323751449584961, 
        -0.033384378999471664, 
        0.059769127517938614, 
        -0.08610624819993973, 
        0.09526437520980835, 
        0.20707263052463531, 
        0.0017581251449882984, 
        -0.02120211347937584, 
        0.10677004605531693, 
        0.03143998235464096, 
        0.07762056589126587, 
        0.04521045833826065, 
        -0.037472695112228394, 
        0.24594412744045258, 
        0.0711781457066536, 
        -0.03212210163474083, 
        0.04993199184536934, 
        0.023011893033981323, 
        0.06244540587067604, 
        -0.695927619934082, 
        0.3208121955394745, 
        0.06143137812614441, 
        0.6015978455543518, 
        -0.009522086940705776, 
        -0.027639100328087807, 
        0.10471712052822113, 
        0.002147137885913253, 
        -0.04956979677081108, 
        0.024752549827098846, 
        -0.24381664395332336, 
        -0.44013145565986633, 
        -0.4271118938922882, 
        0.17089471220970154, 
        0.7209067344665527, 
        0.09675359725952148, 
        0.01294118631631136, 
        0.11961319297552109, 
        0.07675811648368835, 
        -0.0713459849357605, 
        -0.026235932484269142, 
        -0.12186282128095627, 
        0.04924803227186203, 
        0.06349398195743561, 
        0.043305110186338425, 
        -0.16158433258533478, 
        -0.30238616466522217, 
        1.4548896551132202, 
        0.13120673596858978, 
        -0.5183556079864502, 
        -0.16320204734802246, 
        -0.021961050108075142, 
        -0.14563727378845215, 
        0.09220997244119644, 
        -0.46556970477104187, 
        0.009020514786243439, 
        -0.14544442296028137, 
        -0.4100259840488434, 
        0.18895509839057922, 
        -0.14426952600479126, 
        -0.5767829418182373, 
        -0.10461509227752686, 
        -0.5550963282585144, 
        -0.08911970257759094, 
        0.39497312903404236, 
        0.03691007196903229, 
        0.05143086612224579, 
        -0.18178482353687286, 
        0.19527728855609894, 
        0.5917172431945801, 
        -0.03407856449484825, 
        -0.06450948864221573, 
        0.07017993181943893, 
        0.3935950696468353, 
        0.4250849485397339, 
        0.1337922364473343, 
        -0.09621459990739822, 
        0.005666576791554689, 
        -0.5403586626052856, 
        0.8740987181663513, 
        0.1188640221953392, 
        -0.1075378805398941, 
        -0.09760921448469162, 
        -0.342161625623703, 
        0.17286619544029236, 
        -0.11894746869802475, 
        1.7898026704788208, 
        0.01365428976714611, 
        -0.020845768973231316, 
        0.5166055560112, 
        0.43649134039878845, 
        -0.15077346563339233, 
        0.15346841514110565, 
        0.04014231264591217, 
        0.028805997222661972, 
        -0.13035976886749268, 
        0.1990688145160675, 
        0.03758174926042557, 
        -0.060925308614969254, 
        -0.43697288632392883, 
        -0.01008905190974474, 
        -0.1267106682062149, 
        0.13086742162704468, 
        0.4057380259037018, 
        -0.027289455756545067, 
        0.20472057163715363, 
        -0.3138604164123535, 
        0.1947600245475769, 
        -0.15226387977600098, 
        -0.1196131706237793, 
        0.047999534755945206, 
        0.02891247346997261, 
        0.7444244623184204, 
        0.3102880120277405, 
        0.02844535931944847, 
        0.1887078583240509, 
        -0.4849585294723511, 
        -0.4278833568096161, 
        -0.05877775326371193, 
        0.04112407937645912, 
        1.1868995428085327, 
        0.44657963514328003, 
        1.6051509380340576, 
        0.8268318772315979, 
        1.4820784330368042, 
        0.15848185122013092, 
        0.5570164322853088, 
        0.6612828969955444, 
        0.009286151267588139, 
        1.7846404314041138, 
        -0.02081150747835636, 
        -0.7870590090751648, 
        0.049904100596904755, 
        0.9617041945457458, 
        -0.03979333117604256, 
        2.241445541381836, 
        -0.4521039128303528, 
        0.4844624400138855, 
        -0.33789244294166565, 
        -0.5573858618736267, 
        -0.09484677761793137, 
        -0.3555101454257965, 
        0.8951980471611023, 
        0.37511539459228516, 
        1.5443745851516724, 
        0.10281319916248322, 
        0.17874573171138763, 
        0.9797723293304443, 
        -0.7699297666549683, 
        0.3501621186733246, 
        -0.21512244641780853, 
        2.158231496810913, 
        1.2789809703826904, 
        -0.0496569499373436, 
        0.07156626135110855, 
        0.31053972244262695, 
        -0.42634934186935425, 
        0.03047684207558632, 
        0.9084424376487732, 
        1.9875783920288086, 
        0.7269569039344788, 
        -0.054054055362939835, 
        1.6158193349838257, 
        -0.1719312220811844, 
        0.7555108666419983, 
        -0.8468946218490601, 
        -0.0694604441523552, 
        -0.2319316864013672, 
        -0.21676146984100342, 
        0.9324936270713806, 
        0.13083010911941528, 
        0.030259231105446815, 
        -0.2144152820110321, 
        0.3015449047088623, 
        0.9028270244598389, 
        1.4277087450027466, 
        -0.40182214975357056, 
        1.5965274572372437, 
        0.051122650504112244, 
        0.19636385142803192, 
        0.4675585925579071, 
        2.1514737606048584, 
        -1.0885306596755981, 
        -0.04405159875750542, 
        0.033833034336566925, 
        1.3577525615692139, 
        0.004122205078601837, 
        0.3164941072463989, 
        -0.46966809034347534, 
        -0.22320491075515747, 
        -0.9108524322509766, 
        0.04639308154582977, 
        2.8761768341064453, 
        0.37924113869667053, 
        0.3021337389945984, 
        0.5007561445236206, 
        -0.21351812779903412, 
        1.4895615577697754, 
        0.6988493800163269, 
        -0.7516725063323975, 
        0.19376058876514435, 
        1.5846987962722778, 
        3.2385590076446533, 
        -0.4852136969566345, 
        -0.1549760401248932, 
        0.1569892168045044, 
        1.8135331869125366, 
        0.37702804803848267, 
        0.025712210685014725, 
        0.028362687677145004, 
        1.8144302368164062, 
        -1.334087610244751, 
        1.047569751739502, 
        0.36706167459487915, 
        1.417162537574768, 
        2.6237494945526123, 
        2.03405499458313, 
        2.661557912826538, 
        1.5535601377487183, 
        -0.1488543301820755, 
        1.065458059310913, 
        -0.252474308013916, 
        0.13675633072853088, 
        -0.23620843887329102, 
        0.09906131774187088, 
        -0.08085271716117859, 
        0.04078242555260658, 
        0.9804452657699585, 
        -0.028355497866868973, 
        0.5940045714378357, 
        1.8688327074050903, 
        0.13151338696479797, 
        -0.04298552870750427, 
        -0.16762669384479523, 
        -1.7719329595565796, 
        0.004627153743058443, 
        0.02162635140120983, 
        -0.31353166699409485, 
        0.17355753481388092, 
        -0.04112471640110016, 
        1.8563013076782227, 
        0.3518269956111908, 
        0.4846142530441284, 
        0.24290625751018524, 
        1.6574734449386597, 
        0.303781121969223, 
        -0.25415748357772827, 
        -0.14723646640777588, 
        1.3906434774398804, 
        -0.015824835747480392, 
        -0.743725597858429, 
        1.4201345443725586, 
        1.543213963508606, 
        -0.04372720047831535, 
        0.28308555483818054, 
        -0.1457231044769287, 
        0.10360284149646759, 
        -0.5151618719100952, 
        -0.10275450348854065, 
        -0.3162623345851898, 
        -0.1186334490776062, 
        0.5112453103065491, 
        -0.16686342656612396, 
        -0.14259456098079681, 
        -0.19233348965644836, 
        -0.12336075305938721, 
        -0.03045198693871498, 
        -0.2311837375164032, 
        -0.024177832528948784, 
        -0.26560407876968384, 
        0.5376441478729248, 
        -0.051837775856256485, 
        1.7471038103103638, 
        -0.1275763362646103, 
        -0.32226184010505676, 
        1.088289499282837, 
        -3.1125435829162598, 
        -0.056420519948005676, 
        -0.2591393291950226, 
        1.9085538387298584, 
        0.535435676574707, 
        -0.1695263832807541, 
        0.08502372354269028, 
        0.19108659029006958, 
        -0.127886101603508, 
        -0.2776269018650055, 
        0.6747199892997742, 
        1.8143410682678223, 
        0.34601789712905884, 
        -0.010460455901920795, 
        -0.22863361239433289, 
        -0.23716843128204346, 
        -0.02715020254254341, 
        -0.696212112903595, 
        -0.35347020626068115, 
        -0.13050755858421326, 
        -0.12615717947483063, 
        0.9895097017288208, 
        0.4746575355529785, 
        -0.23195001482963562, 
        -0.2849489748477936, 
        -0.027054518461227417, 
        0.9385054111480713, 
        -0.09225144982337952, 
        -0.8602487444877625, 
        2.2448384761810303, 
        -0.34768351912498474, 
        -0.07188533246517181, 
        0.27723217010498047, 
        2.2650082111358643, 
        -2.4660706520080566, 
        0.03137145936489105, 
        -0.18161308765411377, 
        1.2241194248199463, 
        -0.941092848777771, 
        -0.11968113481998444, 
        -1.372285008430481, 
        -0.14978942275047302, 
        -2.807835817337036, 
        -0.010333847254514694, 
        2.0406179428100586, 
        -0.11139234900474548, 
        -0.12018518149852753, 
        0.20411384105682373, 
        -0.05596643686294556, 
        0.026214851066470146, 
        0.7301766872406006, 
        -0.01932843029499054, 
        -0.19937731325626373, 
        -1.061722993850708, 
        0.963421106338501, 
        -1.677968144416809, 
        -0.03847730904817581, 
        0.12121198326349258, 
        1.4995580911636353, 
        -0.9893362522125244, 
        -0.023694679141044617, 
        -0.24576115608215332, 
        2.1274852752685547, 
        -2.4438934326171875, 
        1.1721769571304321, 
        -0.06482323259115219, 
        0.7704120874404907, 
        1.9675589799880981, 
        2.1624748706817627, 
        1.3257269859313965, 
        0.2526968717575073, 
        -0.18563582003116608, 
        0.5278202295303345, 
        -0.10274291038513184, 
        0.05520111694931984, 
        -0.04042821750044823, 
        -0.3575054109096527, 
        -0.10828500986099243, 
        0.03332242742180824, 
        1.437822699546814, 
        -0.2587878108024597, 
        -0.1877291053533554, 
        1.7227851152420044, 
        -0.8616654276847839, 
        -0.14127875864505768, 
        -0.14906834065914154, 
        -3.3364717960357666, 
        0.04565517604351044, 
        -0.33365198969841003, 
        -0.5118501782417297, 
        -0.07509355247020721, 
        0.0667499527335167, 
        1.6281728744506836, 
        -0.05230075120925903, 
        0.08783943206071854, 
        0.0007220864063128829, 
        1.592272400856018, 
        0.8844538331031799, 
        -0.03269956633448601, 
        0.04479052126407623, 
        0.411722332239151, 
        0.04099537432193756, 
        1.713545799255371, 
        -0.7807275056838989, 
        -0.9163528084754944, 
        -0.1645490527153015, 
        -0.03919807821512222, 
        0.10127612948417664, 
        0.009647607803344727, 
        2.2105255126953125, 
        0.15233080089092255, 
        -0.6973450183868408, 
        -0.13800036907196045, 
        -0.0065178582444787025, 
        -0.09156970679759979, 
        -0.7122530937194824, 
        -0.1826014369726181, 
        0.07272879034280777, 
        -0.04372810944914818, 
        0.31286582350730896, 
        0.10731595754623413, 
        0.018330974504351616, 
        0.573640763759613, 
        -0.4211772084236145, 
        -1.7789812088012695, 
        0.08639238029718399, 
        0.21703627705574036, 
        0.25733551383018494, 
        -2.2596921920776367, 
        0.007342151366174221, 
        0.1337628811597824, 
        0.2494477927684784, 
        -1.0116077661514282, 
        0.046152595430612564, 
        -0.0531756654381752, 
        -0.08775488287210464, 
        0.061824068427085876, 
        -0.17005634307861328, 
        -0.6072065830230713, 
        -1.5019428730010986, 
        -0.49874886870384216, 
        0.01864800974726677, 
        0.09635508805513382, 
        0.06981737166643143, 
        0.13881565630435944, 
        -0.06925138831138611, 
        -0.19825059175491333, 
        0.13071729242801666, 
        0.1411016583442688, 
        -0.33368274569511414, 
        0.21888691186904907, 
        0.11611078679561615, 
        0.04892309010028839, 
        0.11715903878211975, 
        -0.91688472032547, 
        2.8698341846466064, 
        -0.3724927008152008, 
        0.26780301332473755, 
        0.09699920564889908, 
        -0.12373396754264832, 
        -0.3434546887874603, 
        0.3389028012752533, 
        -2.299274444580078, 
        0.10455785691738129, 
        -0.0340828113257885, 
        -0.9836207628250122, 
        -0.03537515178322792, 
        -0.15801136195659637, 
        -1.941912293434143, 
        0.03045222908258438, 
        -1.9442676305770874, 
        0.1268003135919571, 
        -0.18951228260993958, 
        0.010680707171559334, 
        0.17015816271305084, 
        0.025603575631976128, 
        0.0688779205083847, 
        1.8132084608078003, 
        -0.43529096245765686, 
        -0.022935593500733376, 
        0.22095642983913422, 
        1.9204825162887573, 
        -0.4677131474018097, 
        -1.0237568616867065, 
        -0.013607111759483814, 
        0.14780008792877197, 
        -0.8482710719108582, 
        -0.008064702153205872, 
        0.2937852144241333, 
        0.06766703724861145, 
        0.33346089720726013, 
        -2.4627461433410645, 
        0.1830962598323822, 
        -0.13328252732753754, 
        2.270423412322998, 
        -1.0241831541061401, 
        -1.353724479675293, 
        -0.6087657809257507, 
        2.2634925842285156, 
        0.11489271372556686, 
        0.3820592164993286, 
        0.009582217782735825, 
        0.21415413916110992, 
        -0.021569106727838516, 
        0.11409606784582138, 
        -0.07900221645832062, 
        -0.11358841508626938, 
        -0.6813920140266418, 
        -0.08434125036001205, 
        0.19001948833465576, 
        -1.7268604040145874, 
        0.7257190346717834, 
        0.12633690237998962, 
        0.05945845693349838, 
        -2.0549235343933105, 
        0.07223325222730637, 
        -0.1634346842765808, 
        0.10170326381921768, 
        0.20367610454559326, 
        -0.03683747723698616, 
        -0.6841256618499756, 
        0.30413734912872314, 
        0.1611950844526291, 
        0.0014051850885152817, 
        -1.5708978176116943, 
        -0.1032964363694191, 
        -0.485821396112442
      ]
    }, 
    {
      "activation": "sigmoid", 
      "architecture": "dense", 
      "bias": [
        0.4378948211669922
      ], 
      "weights": [
        -1.6262449026107788, 
        -1.371780514717102, 
        -0.532293438911438, 
        -2.8358535766601562, 
        -1.4369078874588013, 
        -0.8443337678909302, 
        -1.9954169988632202, 
        -0.6271697282791138, 
        9.313868522644043, 
        2.305595874786377, 
        -0.5564525127410889, 
        -0.2697019875049591, 
        -1.570042371749878, 
        -3.832554817199707, 
        1.8361973762512207, 
        -2.5850982666015625, 
        2.2419538497924805, 
        -1.8722518682479858, 
        -2.0930075645446777, 
        -0.3330604135990143, 
        -0.9773244857788086, 
        -0.8410736322402954, 
        4.738110542297363, 
        -3.6436684131622314, 
        -0.6146018505096436, 
        -2.61902117729187, 
        -0.7764463424682617, 
        -2.261605978012085, 
        -0.46799400448799133, 
        -0.703769862651825, 
        -0.6676657199859619, 
        -2.576037883758545, 
        -0.7550578117370605, 
        2.0274722576141357, 
        -3.6810054779052734, 
        -0.5420817732810974, 
        -1.6090164184570312, 
        0.33017465472221375, 
        -2.3996918201446533, 
        -0.8416333198547363, 
        -3.482653856277466, 
        6.637410640716553, 
        -0.6411784291267395, 
        -0.06981870532035828, 
        4.61141300201416, 
        1.4810738563537598, 
        -1.000908374786377, 
        0.09117045253515244, 
        -2.0613155364990234, 
        -0.8332698941230774, 
        -1.6085885763168335, 
        -0.9308493733406067, 
        -0.2336852252483368, 
        -1.019500732421875, 
        0.4119643270969391, 
        0.16675633192062378, 
        -0.3439852297306061, 
        -0.22150936722755432, 
        -1.170734167098999, 
        -0.7608028054237366, 
        8.224510192871094, 
        -0.6091657876968384, 
        1.1660230159759521, 
        -0.7445510029792786, 
        -1.3477364778518677, 
        -0.06539405137300491, 
        1.9594557285308838, 
        -4.804111480712891, 
        -2.257127285003662, 
        -0.36892491579055786, 
        -0.5024033784866333, 
        0.9354242086410522, 
        0.03750297799706459, 
        3.3365063667297363, 
        2.694643259048462, 
        -2.2509636878967285, 
        -0.5855969190597534, 
        -3.6163787841796875, 
        -0.8544247150421143, 
        -0.6997964382171631, 
        -2.013202428817749, 
        -0.9192401170730591, 
        0.8895063996315002, 
        1.1001243591308594, 
        -1.0121004581451416, 
        -1.0947964191436768, 
        -2.9549431800842285, 
        0.6704677939414978, 
        -0.7410634756088257, 
        4.987252235412598, 
        -1.8932085037231445, 
        -0.5044080018997192, 
        -0.662716269493103, 
        -3.34140944480896, 
        -1.284973382949829, 
        2.32407283782959, 
        -0.9622675180435181, 
        1.305739402770996, 
        -1.908331274986267, 
        0.3716306984424591, 
        -1.4176946878433228, 
        -2.423370122909546, 
        -0.12285221368074417, 
        -0.7621156573295593, 
        -3.3913462162017822, 
        -0.9251145124435425, 
        -1.1020843982696533, 
        -0.4832550883293152, 
        -0.5545039176940918, 
        -0.618654727935791, 
        0.9987217783927917, 
        6.1769795417785645, 
        -0.7899038195610046, 
        -0.8130192756652832, 
        -0.8023582696914673, 
        -3.9213387966156006, 
        0.46962669491767883, 
        -1.6070621013641357, 
        -0.6732637286186218, 
        -0.7008883953094482, 
        0.5758711099624634, 
        -1.0347256660461426, 
        -2.0980570316314697, 
        0.6456351280212402, 
        -0.4198095202445984, 
        -2.8372273445129395, 
        -2.428903818130493, 
        1.5999383926391602
      ]
    }
  ], 
  "outputs": [
    "BJetiness"
  ]
}